e n 2769801
e s</w> 2651467
o n 2388717
t i 2030874
d e</w> 1796099
q u 1780030
o u 1737804
a n 1453855
a i 1262906
e s 1229415
l e</w> 1097743
o n</w> 1090125
l a</w> 1082343
e m 1067815
t r 1029516
e r 971876
e u 962215
p r 943070
en t</w> 925940
s i 913928
e t</w> 858442
p a 855637
o r 828634
i s 815158
l es</w> 804479
i n 779037
o m 753325
qu e</w> 734947
n e</w> 732665
a ti 696395
l ' 653900
l i 643077
e r</w> 618898
d es</w> 618191
r e</w> 596408
a u 593508
c on 579161
e n</w> 553161
on s</w> 552583
en t 548204
e l 503707
em ent</w> 491927
o p 490712
ou s</w> 488916
c e</w> 481325
o i 475612
r é 466167
d ' 463216
s u 459776
e ,</w> 444924
d é 440969
om m 435382
c i 429228
a v 427983
eu r 415026
t e</w> 412451
a r 399273
d i 378639
p ou 368078
a l 365697
t é</w> 364856
es t</w> 355713
c h 353485
tr e</w> 351345
u ne</w> 351190
e .</w> 351172
an s</w> 346536
r i 327326
d u</w> 322019
u n</w> 320973
p l 315775
ati on</w> 311229
pr o 310281
a t 309177
e t 299483
ti on</w> 294761
p o 287109
d ans</w> 282379
n ous</w> 280092
r a 276794
n i 271867
a c 270475
pou r</w> 269171
t é 267692
qu i</w> 264788
on t</w> 263548
pa r 260954
an t</w> 252707
m e</w> 246060
v i 244630
r e 243277
p or 236605
i l</w> 236150
a u</w> 232707
f i 231794
e x 229115
op é 227957
t u 223393
eu r</w> 217695
c omm 216709
s e</w> 215489
s ,</w> 211458
a b 210848
su r</w> 205694
pa s</w> 201751
ai t</w> 200088
eur opé 194129
c u 193858
si on</w> 192492
r es</w> 192167
a g 189044
a m 188530
pr é 186656
é g 185181
em ent 183778
ai s</w> 181412
i m 179544
on n 172282
e c 170613
t s</w> 167862
au x</w> 167794
pl u 166651
r es 166431
ou v 159884
qu ' 159242
d u 159082
t er 158940
pa r</w> 158595
s .</w> 155821
ai n 155214
europé en 154725
ou r 153618
o l 153326
s s 153325
i l 149286
t en 149053
a p 142573
c es</w> 141399
t ou 141386
e v 141300
g r 140326
j e</w> 138741
C omm 138066
plu s</w> 137784
n o 136256
f or 136016
d r 135861
el le</w> 135450
ai re</w> 135048
l ement</w> 134892
em b 132975
ra p 131898
m o 131846
n é 130822
por t 128711
et te</w> 128676
si d 128443
c om 127360
es ,</w> 126524
c a 125897
es .</w> 121778
è re</w> 118717
Comm is 118613
l ’ 117431
s ou 115255
s t 115237
ati on 115221
ti ons</w> 114449
c er 114426
u r 112971
d ev 110845
c l 110528
i s</w> 109445
s er 109430
en d 109362
p er 107674
ê tre</w> 107628
av e 107480
c ette</w> 107455
eur s</w> 106439
J e</w> 106341
' est</w> 106173
f f 106072
s e 105046
s é 104954
l' U 103797
è s</w> 103450
p u 103323
oi t</w> 102922
ac c 100475
s ont</w> 100135
ati ons</w> 99035
eu x</w> 98083
po li 97859
b i 97072
a d 96832
m es</w> 96551
qu es</w> 95695
poli ti 93996
é t 93945
an t 92950
é r 92039
par ti 91593
ave c</w> 91416
c r 91135
É t 90813
é té</w> 90770
ent ,</w> 89907
g i 88718
ré sid 87923
M on 87284
P résid 86340
ni on</w> 86177
s tr 85678
Mon si 85128
Monsi eur</w> 84836
d ’ 84210
o b 84033
t es</w> 81354
N ous</w> 81099
en ce</w> 80808
Commis sion</w> 80796
I l</w> 80413
m ais</w> 80342
pa y 80299
d is 80093
c o 79366
oi r</w> 79116
al ement</w> 78867
v o 77794
é e</w> 77515
qu es 77062
té s</w> 76696
pr op 75826
at s</w> 75580
C on 75179
P ar 74445
t er</w> 73954
o ci 73117
ai r 73106
s ti 72932
f in 72839
L a</w> 72777
prop o 72648
m ent</w> 72572
v e</w> 72528
p é 72318
s si 72158
m on 71939
s i</w> 71027
a li 70719
b l 70447
is s 70417
b u 70367
m emb 70220
g u 69636
an ce</w> 69166
é l 68634
oi s</w> 68136
j u 68020
européen ne</w> 67927
s ' 67450
L e</w> 67403
en s</w> 67396
por t</w> 66913
or i 66477
im port 66347
en c 66200
ég alement</w> 66124
r ai 65687
p eu 65595
E ur 65538
v ous</w> 65178
é s</w> 64956
m in 64909
n ' 64893
e l</w> 64748
v ou 64557
f ait</w> 64501
s es</w> 64431
tou t</w> 64003
el les</w> 63800
ti on 63772
c es 63470
con tr 63048
an d 62977
in ter 62653
v en 62497
j our 62330
tr av 62163
Présid ent,</w> 62106
comm e</w> 61875
f on 61801
pay s</w> 61677
av ons</w> 61377
p en 61334
s on</w> 61083
i r</w> 60862
a t</w> 60824
qu' il</w> 60677
ement ,</w> 60588
re c 60217
pou r 59872
pré s 59472
politi que</w> 59145
d re</w> 59139
m ê 59044
l'U nion</w> 58610
Eur op 58486
Con se 58479
ai res</w> 57997
m an 57652
d' une</w> 57638
au t 57592
a i</w> 57573
en tr 57291
tr an 57097
Ét ats</w> 56950
m i 56429
a le</w> 56428
Par lement</w> 56260
rap port</w> 55966
d em 55953
m ent 55527
p li 55320
u n 55101
m et 55085
el l 55083
o u</w> 55065
con cer 54910
m ar 54614
t ,</w> 54567
acc or 53699
is e</w> 53437
for m 53409
g n 53367
n ouv 53352
è me</w> 53156
en ti 53064
t e 53000
qu i 52668
p on 52545
trav ai 52483
si tion</w> 52458
o y 52412
a l</w> 52363
v er 52337
om i 52278
au tr 52277
in té 51747
h u 51624
an c 51490
o c 51477
m es 51058
ement s</w> 50883
é con 50477
é es</w> 50366
n ation 50223
pr i 50149
c e 50138
f fi 49747
l u 49650
al is 49562
européen n 49439
M .</w> 49368
E n</w> 49240
en tre</w> 49177
écon omi 49074
c ri 49058
ec ti 49012
cer t 48873
2 0 48788
s omm 48587
tr ès</w> 48342
sti tu 48306
s oci 48166
no tre</w> 48160
u ni 48092
ol u 48053
qu e,</w> 47896
d' un</w> 47226
v ent</w> 47107
a s 46971
d oit</w> 46863
du i 46781
l eur</w> 46434
p e</w> 46388
v e 46355
em p 46148
ouv er 46120
L es</w> 45822
prés ent 45208
f aire</w> 44968
mê me</w> 44869
Conse il</w> 44799
si on 44177
é ri 43894
r em 43761
n om 43387
li b 43322
dé v 43194
ss i</w> 43135
è r 43125
ques tion</w> 43103
r el 42904
vou dr 42878
t ous</w> 42776
memb res</w> 42744
d on 42645
el op 42601
per s 42579
ag e</w> 42487
di rec 42133
g é 42107
dév elop 42047
l ég 42007
tran s 41979
dev ons</w> 41837
dr oi 41660
mes u 41657
u l 41493
ch e</w> 41462
voudr ais</w> 41344
e u</w> 41261
man i 41081
t ant</w> 41043
parti cu 40901
au ssi</w> 40889
l l 40789
cu l 40390
particu li 40383
r ait</w> 40123
é li 39972
s olu 39950
autr es</w> 39869
an de</w> 39761
ab le</w> 39698
su i 39586
av oir</w> 39566
b li 39530
l' in 39530
dévelop p 39245
europé en</w> 39219
fi n</w> 39192
é n 39054
au c 38779
è g 38698
m ati 38668
tr ai 38450
il s</w> 38187
nom b 38139
L ' 38097
d er 38090
ob j 37971
es ti 37867
li té</w> 37853
pro bl 37802
er ci 37790
Europ e</w> 37613
po in 37605
mar ch 37482
o i</w> 37475
ci t 37417
u ti 37338
d am 37300
l or 37066
d onn 37006
str u 36986
an g 36818
droi ts</w> 36752
u e</w> 36686
an ts</w> 36657
con tre</w> 36640
r en 36632
né ces 36603
f ai 36525
c ation</w> 36477
no s</w> 36301
gr ou 36285
ar g 36013
t - 35943
cert ain 35625
s eu 35607
ré gi 35589
su r 35555
ou r</w> 35519
bi en</w> 35452
l is 35370
20 0 35224
em pl 35036
don c</w> 35036
dé ci 34878
comm un 34847
rap port 34818
b le</w> 34813
il l 34787
er s</w> 34691
c ol 34637
j ' 34600
p ec 34570
s y 34386
in ci 34338
et ,</w> 34109
pré sid 34046
c ré 33977
ab or 33919
an ti 33653
end re</w> 33633
c tion</w> 33627
pou v 33617
s - 33536
d s</w> 33437
r èg 33296
f r 33184
pu bli 33076
pr is 33075
g ar 32936
pro g 32637
è res</w> 32599
air e,</w> 32477
qu el 32465
m é 32462
C 'est</w> 32444
c é 32244
n u 32217
i e</w> 32204
po ssi 32050
dé b 32002
m ain 31777
v es</w> 31714
si tu 31454
accor d</w> 31426
ab i 31425
c our 31360
ement .</w> 31309
cit oy 31190
c 'est</w> 31158
pr inci 31063
di re</w> 30940
obj ecti 30859
peu t</w> 30808
d om 30636
sé cu 30497
d ont</w> 30482
pers onn 30455
i t</w> 30432
i r 30424
ti onn 30342
n 'est</w> 30316
in s</w> 30273
is sion</w> 30120
v is 30094
su is</w> 30040
eu x 30039
ai ne</w> 29860
ac tu 29763
s oit</w> 29714
d eux</w> 29684
an né 29608
f s</w> 29551
u v 29410
s ans</w> 29351
opé r 29349
an is 29314
ce la</w> 29269
s emb 29256
au jour 29256
am end 29200
er ,</w> 29189
M es 29187
t emp 29112
n on</w> 29058
sécu ri 29047
ouver n 29008
té ,</w> 28998
propo sition</w> 28956
ab l 28794
ad op 28716
concer ne</w> 28648
pen se</w> 28605
J ' 28561
g ouvern 28527
em i 28447
es s 28416
é v 28392
l' h 28304
ra m 28285
ai ent</w> 28246
res .</w> 28152
d oi 28113
po s 28082
a les</w> 28038
i ti 28022
com p 28005
dé mo 28004
si ons</w> 27917
e ff 27820
vi r 27783
uti lis 27648
f av 27638
t .</w> 27636
qu e.</w> 27540
an ci 27525
con n 27432
d' hu 27431
ec t 27382
tr i 27167
enc or 27103
ar i 27041
qu ’ 27017
ap pro 27000
der ni 26804
res ,</w> 26723
pr emi 26639
en n 26635
cl u 26629
eur s,</w> 26581
f a 26562
com pr 26530
el lement</w> 26519
a n</w> 26432
d g 26334
con si 26329
al l 26286
di ff 26246
met tre</w> 26233
prog ram 26160
démo cr 26117
té .</w> 26106
entr e 26052
ali té</w> 26049
ent s</w> 25994
doi vent</w> 25981
i n</w> 25897
d e 25882
sy st 25749
bu dg 25727
en vir 25710
c i</w> 25657
mesu res</w> 25523
nouv e 25415
développ ement</w> 25410
direc ti 25391
sou ti 25317
par l 25193
s a</w> 25158
grou pe</w> 25142
b a 25110
ô le</w> 25103
col l 25102
f ois</w> 24943
comm ission</w> 24921
mani ère</w> 24816
is ,</w> 24797
v oi 24735
ap pli 24684
l eurs</w> 24622
res pon 24617
p end 24599
gé né 24581
es p 24539
s' ag 24486
C e</w> 24481
au x 24429
or g 24390
ation .</w> 24277
somm es</w> 24247
t ement</w> 24237
sécuri té</w> 24197
ca dre</w> 24186
ni ve 24149
res s 24090
r o 24086
is l 24057
situ ation</w> 24041
au t</w> 24003
tu re</w> 23999
encor e</w> 23999
d er</w> 23994
j ou 23986
m il 23933
at ten 23899
pro t 23870
ation ,</w> 23812
ser a</w> 23716
c et</w> 23672
ten ir</w> 23652
d' in 23610
a fin</w> 23535
néces s 23497
o ù</w> 23473
diff ér 23465
tr o 23452
travai l</w> 23452
ch ang 23414
march é</w> 23354
n ég 23334
r ê 23331
aujour d'hu 23330
ain si</w> 23283
o t 23259
f ér 23142
inter nation 23081
an te</w> 23043
su l 22951
m on</w> 22950
én er 22935
poin t</w> 22893
s oi 22854
dé j 22816
h é 22799
l'U E</w> 22722
ser vi 22668
on ne</w> 22499
m a 22487
envir onn 22482
ca r</w> 22477
ré pon 22439
tion .</w> 22391
démocr ati 22358
respon s 22255
pr ès</w> 22254
lég isl 22238
j et</w> 22235
pro dui 22222
po si 22203
pr es 22184
li g 22182
fin anci 22023
m e 22000
ch er 21987
co opér 21974
consi dé 21967
ch o 21935
ai ss 21931
et s</w> 21914
dem and 21900
C e 21895
è mes</w> 21866
is t 21844
M ad 21798
déj à</w> 21751
Commis sion 21743
res pec 21641
e z</w> 21632
el s</w> 21549
a me</w> 21535
po sition</w> 21473
s ect 21451
solu tion</w> 21424
m en 21395
pé ri 21374
D ans</w> 21321
en g 21300
par ce</w> 21294
mati ère</w> 21288
a ff 21247
l' ex 21193
ati ve</w> 21154
citoy ens</w> 21129
con ti 21117
b es 21104
import ant</w> 21097
e ffi 21088
U nion</w> 21040
e p 21037
qu oi</w> 21019
au tre</w> 20938
d' autres</w> 20938
at ég 20924
s o 20898
européenn e.</w> 20895
er a</w> 20859
pa ss 20769
dr oit</w> 20721
mil li 20708
f u 20706
in stitu 20706
Mad ame</w> 20656
é vi 20572
ques tions</w> 20561
re présent 20396
semb le</w> 20376
r a</w> 20338
ex i 20309
éli or 20290
pro cé 20247
pris es</w> 20244
ec tion</w> 20241
am élior 20239
ai n</w> 20155
travai ll 20129
tion ,</w> 20088
politi ques</w> 20074
air e.</w> 20058
l on 20036
acc ep 20027
ant ,</w> 20007
ra g 19998
con stitu 19928
tu r 19922
concer n 19917
t e,</w> 19894
mo ins</w> 19839
ag ri 19836
dev rait</w> 19818
er .</w> 19772
g l 19758
nive au</w> 19751
en ces</w> 19743
su s</w> 19659
o gi 19560
a qu 19497
in e</w> 19489
nomb r 19478
i bu 19443
contr ibu 19426
org anis 19424
s'ag it</w> 19416
l' A 19411
tou tes</w> 19355
cour s</w> 19334
gar anti 19316
se in</w> 19288
sui v 19200
stru c 19061
b e 19049
ét ait</w> 18932
di t</w> 18889
li gn 18872
propo si 18869
rem erci 18862
t ex 18820
sou h 18768
ca s</w> 18756
d o 18700
oi n</w> 18669
m ise</w> 18661
mé di 18647
eu s 18631
ac ti 18590
min is 18586
è m 18434
f aut</w> 18358
pr im 18342
personn es</w> 18332
an d</w> 18281
ou p</w> 18253
nomb re</w> 18226
abi lité</w> 18224
tou te</w> 18205
a ss 18197
’ est</w> 18178
cl ar 18177
certain s</w> 18162
qu' elle</w> 18154
Ce la</w> 18120
seu lement</w> 18119
j' ai</w> 18107
tr ouv 18074
œ uv 18036
or is 18013
syst ème</w> 17911
coopér ation</w> 17897
h eur 17872
f er 17845
directi ve</w> 17843
str atég 17823
souh ai 17821
ab les</w> 17820
temp s</w> 17814
d ,</w> 17751
s pé 17749
f l 17746
1 9 17726
si m 17670
é qui 17663
sul t 17657
jour s</w> 17635
be auc 17631
eu re</w> 17597
économi que</w> 17486
pro ces 17470
pen s 17451
l' av 17446
mo y 17435
emb l 17418
ap p 17403
lor s 17359
g ni 17355
ent e</w> 17353
prot ection</w> 17316
s an 17297
particuli er</w> 17276
inté rê 17271
p i 17264
con di 17248
sé qu 17224
par t</w> 17220
no m</w> 17206
pr endre</w> 17171
nég oci 17148
déb at</w> 17146
or s</w> 17128
am ment</w> 17115
fr on 17071
du ction</w> 17044
con séqu 17043
c entr 17033
pu is</w> 16990
at eurs</w> 16951
gr ande</w> 16950
p e 16935
mon di 16928
bi lité</w> 16854
gu e</w> 16848
èr ement</w> 16847
rai ent</w> 16825
dis cu 16811
t ent</w> 16798
dé pu 16762
ren for 16755
h i 16729
procé du 16729
ju s 16708
r u 16702
per met 16668
qu el</w> 16641
spé ci 16593
lor s</w> 16561
oc cu 16503
e f 16478
M me</w> 16468
l' Europe</w> 16418
m is</w> 16379
m al 16372
concern ant</w> 16357
coll è 16354
v ue</w> 16327
lu t 16290
eng ag 16276
Ét at</w> 16228
s or 16225
con somm 16194
comm iss 16159
ai de</w> 16152
T ou 16145
ati ves</w> 16143
ment s</w> 16124
a y 16110
commun aut 16110
f em 16104
fav eur</w> 16089
beauc oup</w> 16088
av ant 16082
p es</w> 16081
b les</w> 16026
Commis s 16014
l aqu 16011
ci té</w> 15948
ri di 15930
ac tion</w> 15904
r is 15900
c ar 15899
al e.</w> 15890
pour quoi</w> 15885
c or 15882
cr o 15880
av ant</w> 15861
i ,</w> 15851
ess enti 15845
qu' ils</w> 15828
t able</w> 15811
du str 15810
C h 15803
ré alis 15773
su b 15771
cl air 15754
ba se</w> 15710
ain es</w> 15704
ss embl 15704
v ement</w> 15698
ter r 15697
ori té</w> 15677
su p 15672
te ch 15631
proces sus</w> 15611
a î 15610
e - 15589
con s 15583
dé f 15573
ser v 15551
b onne</w> 15542
probl ème</w> 15523
d ou 15512
dam ent 15512
ori tés</w> 15502
at t 15480
laqu elle</w> 15475
ent e,</w> 15466
pr om 15425
for me</w> 15409
fon dament 15358
com pl 15352
ef for 15331
rai son</w> 15309
éner gi 15294
ju ridi 15289
dam es</w> 15278
tou jours</w> 15274
dé clar 15218
s avoir</w> 15211
ar ti 15211
soi ent</w> 15209
a ce</w> 15197
pro ch 15193
i d 15191
qu ement</w> 15161
eux i 15161
ver s</w> 15120
européenn e,</w> 15115
té e</w> 15111
l'h omm 15085
é .</w> 15053
vou l 15047
Ét at 15040
P our</w> 15021
di ffi 15017
i t 15007
par t 14993
l '</w> 14953
c eux</w> 14883
r er</w> 14859
sou lign 14843
bes oin</w> 14796
c el 14789
al e,</w> 14726
qu es,</w> 14702
parti e</w> 14687
at u 14681
pu is 14681
Mes si 14675
é ,</w> 14644
u s</w> 14593
présid ent</w> 14571
œuv re</w> 14545
probl èmes</w> 14540
comp te</w> 14538
m is 14536
in form 14514
al u 14504
si té</w> 14468
dem ande</w> 14453
l e 14443
qu er</w> 14420
S i</w> 14405
re cher 14351
aujourd'hu i</w> 14349
ol ogi 14334
l le</w> 14333
el on</w> 14288
r e,</w> 14281
vo tre</w> 14277
v al 14270
sect eur</w> 14249
n' a</w> 14222
ri ons</w> 14204
on ,</w> 14196
c ou 14183
ég ar 14180
Mes dames</w> 14176
mesu re</w> 14151
i ci</w> 14118
pouv ons</w> 14085
peu vent</w> 14062
r ôle</w> 14038
dom aine</w> 13985
main ten 13955
qu es.</w> 13952
z - 13944
l' é 13920
C ette</w> 13910
com pé 13818
au g 13793
t eurs</w> 13778
li eu</w> 13757
c le</w> 13741
en dr 13720
n or 13670
tr e,</w> 13644
l'U E 13630
program me</w> 13606
proposi tions</w> 13602
eur o 13600
gouvern ement</w> 13596
ré solution</w> 13595
ré sult 13589
souti en</w> 13578
t e.</w> 13540
ser ait</w> 13519
objecti f</w> 13503
ju sti 13474
Conse il 13462
al ,</w> 13450
in di 13448
pro pr 13443
an ces</w> 13438
re conn 13434
inté ri 13434
aug ment 13422
é ment</w> 13420
nouv elle</w> 13399
a près</w> 13394
servi ces</w> 13387
v éri 13386
a ,</w> 13383
op ul 13346
ave z</w> 13326
du c 13318
p h 13315
is te</w> 13306
p opul 13301
al .</w> 13283
renfor c 13229
rai s 13190
amend ements</w> 13162
tr a 13143
r ,</w> 13113
ven tion</w> 13112
m e,</w> 13111
fin anc 13107
Présid ente,</w> 13098
l' en 13081
in iti 13074
si gni 13048
signi fi 13033
pr ati 13023
import ant 13021
oi re</w> 13020
p ai 12972
en ne</w> 12965
Par l 12965
eu ses</w> 12948
objecti fs</w> 12948
fon c 12941
import ance</w> 12932
l' O 12891
en ir</w> 12887
ma j 12884
entre prises</w> 12882
a que</w> 12868
parti ci 12860
collè gu 12857
princi pa 12835
ten u</w> 12801
lib er 12790
19 9 12789
d' ex 12770
vi ent</w> 12767
u ssi 12760
n i</w> 12754
Commiss aire,</w> 12717
r e.</w> 12645
fér ence</w> 12641
ce p 12620
ven ir</w> 12609
i dé 12597
J' ai</w> 12575
vo te</w> 12559
trai té</w> 12554
p ê 12552
mon de</w> 12539
nouve au</w> 12537
esp ère</w> 12535
effi ca 12507
dé fin 12493
déci sion</w> 12485
ent es</w> 12470
P a 12445
as sur 12429
Messi eurs,</w> 12366
ent .</w> 12363
par ten 12355
di fi 12340
f our 12333
minis tr 12329
possi ble</w> 12328
f éli 12327
s ’ 12324
ve ill 12315
con clu 12294
cro iss 12265
c ell 12256
li mi 12252
géné r 12229
ri t 12209
de puis</w> 12190
con st 12153
l s</w> 12149
M ais</w> 12143
v ol 12141
no t 12136
U ni 12114
commiss aire</w> 12108
régi on 12089
d' abor 12075
té ri 12061
règ lement</w> 12041
cu r 12002
hé sion</w> 11983
premi ère</w> 11973
exi g 11931
p eu</w> 11867
Q u 11857
présid ence</w> 11854
ré gl 11825
Commission ,</w> 11825
mo i</w> 11823
f o 11805
eur ,</w> 11786
é cri 11783
r et 11770
al ors</w> 11770
é e.</w> 11711
s 'est</w> 11675
stratég ie</w> 11674
v esti 11668
con fi 11662
d ent</w> 11660
po sé 11644
our ces</w> 11622
pr is</w> 11588
vi ol 11585
qui ,</w> 11569
produi ts</w> 11561
inté gr 11554
amend ement</w> 11549
budg et</w> 11544
règ les</w> 11539
tex te</w> 11523
A ssembl 11515
mo difi 11457
vi e</w> 11454
nouve aux</w> 11453
État s- 11445
européen s</w> 11433
remerci er</w> 11407
milli ons</w> 11404
v oir</w> 11371
él ec 11360
quel ques</w> 11344
s û 11341
ca pa 11325
j our</w> 11320
condi tions</w> 11309
ô t</w> 11307
san té</w> 11307
l o 11304
dé pend 11291
pl ace</w> 11284
gr and</w> 11274
so li 11272
ai ll 11262
tr ois</w> 11210
im pli 11209
pouv oir</w> 11173
b é 11171
clair ement</w> 11164
pré c 11154
dui re</w> 11140
spéci fi 11133
iss ement</w> 11121
ser ont</w> 11078
auc un</w> 11078
pe ti 11072
sui te</w> 11048
conti nu 11043
r ou 11019
vo té</w> 10984
év alu 10981
ex am 10979
m oi 10968
si gn 10943
l à</w> 10939
m ement</w> 10938
contr ôle</w> 10928
cri min 10914
ti que</w> 10900
si onn 10896
posi ti 10895
at te 10891
ob lig 10887
dépu tés</w> 10873
E n 10867
a ch 10861
cur r 10858
comm une</w> 10854
nouv elles</w> 10849
pr ouv 10844
s elon</w> 10816
ex prim 10804
agri cul 10791
b on</w> 10783
r ons</w> 10780
lut te</w> 10777
s se</w> 10775
nécess aire</w> 10774
form ation</w> 10765
pro jet</w> 10762
pré occu 10733
nombr eux</w> 10731
acti vi 10715
particuli èrement</w> 10710
législ ation</w> 10701
pres sion</w> 10683
oc ca 10667
av i 10647
an di 10646
h omm 10644
f es 10614
o de</w> 10611
enc e,</w> 10603
fon ds</w> 10598
mainten ant</w> 10596
con curr 10576
fem mes</w> 10535
fi ci 10524
s ous</w> 10499
l’ Union</w> 10487
sé ri 10479
t ot 10476
n ’ 10438
ex empl 10431
régi ons</w> 10431
U ne</w> 10430
pour rait</w> 10419
o ff 10416
oi si 10416
m om 10409
s en 10397
l' environn 10384
arti cle</w> 10371
pl an</w> 10348
t ation</w> 10342
0 0</w> 10342
m ' 10338
mon tr 10294
d '</w> 10293
bé né 10290
ch aque</w> 10284
atte in 10277
anné e</w> 10257
en f 10223
donn er</w> 10211
princi pe</w> 10200
z on 10193
m éri 10189
comm uni 10178
é ch 10177
rap p 10176
féli ci 10174
tran g 10162
eur .</w> 10155
donn é</w> 10153
co û 10142
fin ,</w> 10133
Comm e</w> 10113
pr ise</w> 10106
d euxi 10104
or d 10087
Europ e.</w> 10082
d’ une</w> 10078
m or 10073
D e</w> 10069
on .</w> 10058
S u 10054
j et 10046
not amment</w> 10046
néces sité</w> 10021
régl ement 10007
ai res.</w> 10001
qu' une</w> 9995
institu tions</w> 9980
vo y 9978
fonc tionn 9954
rapport eur</w> 9951
A u 9946
ter min 9942
ex iste</w> 9940
é tu 9920
l' im 9920
por ts</w> 9910
ré e</w> 9906
èr e,</w> 9895
g es 9893
lors que</w> 9886
qu’ il</w> 9879
m e.</w> 9865
vis ant</w> 9864
èm ement,</w> 9744
diffi ci 9731
garanti r</w> 9722
pa c 9721
si n 9708
l and 9689
si eurs</w> 9681
peu t- 9677
is .</w> 9675
à - 9674
ali ment 9670
aut orités</w> 9663
ex tr 9631
a ssi 9629
mi gr 9626
certain es</w> 9621
cr ise</w> 9605
négoci ations</w> 9602
dev raient</w> 9593
or dre</w> 9591
é e,</w> 9585
qu' un</w> 9585
aux .</w> 9579
appro che</w> 9571
su jet</w> 9570
recher che</w> 9563
cho se</w> 9560
su ff 9555
voul ons</w> 9546
por te</w> 9530
soulign er</w> 9528
é trang 9509
él arg 9504
arg e</w> 9503
atten tion</w> 9481
an im 9477
t h 9469
avant age</w> 9462
pos er</w> 9458
c li 9454
m a</w> 9439
c au 9430
enn ent</w> 9424
sion ,</w> 9417
pl é 9415
me ill 9412
in f 9402
auc une</w> 9402
Pa r</w> 9396
j eu 9388
qu' à</w> 9386
r ont</w> 9384
fai s 9378
tro p</w> 9369
m er</w> 9363
c ap 9355
comm erci 9350
au té</w> 9342
g er</w> 9341
premi er</w> 9336
po se</w> 9329
gr av 9329
ai res,</w> 9319
as pec 9319
E lle</w> 9300
budg ét 9300
rel ations</w> 9278
es t- 9277
alis ation</w> 9275
l'homm e</w> 9263
cert ain</w> 9261
e in 9254
Commission .</w> 9253
effor ts</w> 9240
ell e,</w> 9236
utilis ation</w> 9229
memb res.</w> 9216
vesti ss 9190
d' accord</w> 9186
géné ra 9182
C es</w> 9169
ag es</w> 9166
respec t</w> 9166
lib re</w> 9147
suff is 9132
sim pl 9121
européen ,</w> 9119
é s.</w> 9072
publi que</w> 9068
procédu re</w> 9065
T ur 9063
fi cation</w> 9053
ex emp 9036
économi e</w> 9036
aff aires</w> 9034
appli cation</w> 9016
s ouv 9015
quel que</w> 9014
fa ç 8987
aux ,</w> 8986
ress ources</w> 8977
l' I 8967
( E 8965
énergi e</w> 8949
v a</w> 8943
  -</w> 8924
au ra</w> 8924
av ait</w> 8915
struc tu 8913
lib ér 8907
intérê t</w> 8898
pa g 8894
eur s.</w> 8891
plu sieurs</w> 8885
sou tenir</w> 8885
ti ens</w> 8883
n ologi 8877
pro gr 8870
d é</w> 8868
pl ac 8866
d’ un</w> 8865
dé c 8850
cré ation</w> 8824
dev rions</w> 8823
pa uv 8816
él ev 8813
s er</w> 8812
deuxi ème</w> 8809
tech nologi 8807
n on 8786
comm er 8777
amélior er</w> 8761
ou tre,</w> 8759
s em 8753
ati f</w> 8743
acc ès</w> 8738
vol on 8724
semb l 8712
respons abilité</w> 8709
v rai 8707
in dustr 8697
l es 8696
n' y</w> 8687
s é</w> 8681
pend ant</w> 8680
enc ou 8676
a s</w> 8634
al o 8631
m enti 8625
t ons</w> 8621
m er 8618
européen .</w> 8601
t our 8597
l' on</w> 8587
no v 8587
l ev 8581
an i 8575
ab li 8573
ci vi 8568
port er</w> 8568
v eu 8567
extr ê 8561
c ac 8549
at ur 8547
actu ellement</w> 8546
quel s</w> 8537
at ti 8536
in stru 8529
t ôt</w> 8518
trans par 8514
menti onn 8513
n es</w> 8507
ati s 8500
ci r 8500
t ent 8486
t abl 8478
du ra 8471
prés ent</w> 8450
fi er</w> 8432
ur g 8424
té es</w> 8423
fo is,</w> 8406
encou rag 8401
Tou t</w> 8396
considé r 8393
pré v 8390
lu i</w> 8390
li t 8383
te z- 8367
on s,</w> 8359
qu alité</w> 8346
occa sion</w> 8336
d avantage</w> 8324
soli d 8323
effi cac 8299
j ets</w> 8289
cel u 8278
compr is</w> 8276
memb re</w> 8275
ab lement</w> 8270
in st 8268
qu é</w> 8255
U n</w> 8241
tion s.</w> 8233
ré c 8230
par t,</w> 8228
répon se</w> 8227
res te</w> 8224
poin ts</w> 8219
an des</w> 8215
empl oi</w> 8213
p ecti 8212
terr oris 8212
c in 8205
contr ô 8200
m ul 8197
A u</w> 8197
ét ant</w> 8193
is ation</w> 8191
té s,</w> 8189
déb at 8187
c am 8185
Europ e,</w> 8185
fa ci 8179
ch er</w> 8175
four ni 8166
c ti 8163
ar ri 8163
soci été</w> 8150
nombr euses</w> 8131
exempl e,</w> 8122
ad ministr 8113
travai l 8103
qu elles</w> 8076
Conseil ,</w> 8053
peut- être</w> 8053
qu a 8051
progr ès</w> 8038
di ver 8036
con f 8030
posi tions</w> 8027
ori ent 8026
lon g</w> 8002
le quel</w> 7999
v e.</w> 7992
pa tion</w> 7992
pri x</w> 7991
qu ant</w> 7989
t y 7972
cr ois</w> 7970
exam in 7970
Tur qui 7970
croiss ance</w> 7968
al es.</w> 7963
compr om 7960
di alo 7936
L is 7935
iss ent</w> 7931
assur er</w> 7870
Assembl ée</w> 7870
temp s,</w> 7855
l' a</w> 7846
ain s</w> 7825
com pa 7825
ges tion</w> 7821
do cu 7818
enc e.</w> 7812
o in 7807
ent en 7803
tion s,</w> 7801
p le</w> 7799
b onn 7798
re comm 7795
ap prouv 7793
c ations</w> 7770
ord in 7764
ri r</w> 7763
d ès</w> 7758
pr eu 7756
import ante</w> 7750
en ,</w> 7747
tez- moi</w> 7746
rap id 7745
su s 7733
memb res,</w> 7723
eff et</w> 7720
bu t</w> 7712
péri ode</w> 7706
fron ti 7682
ré solu 7665
R ussi 7658
simpl ement</w> 7646
ai s,</w> 7640
al es,</w> 7640
différ ents</w> 7639
cré er</w> 7636
extrê mement</w> 7636
juridi que</w> 7623
eus ement</w> 7619
té s.</w> 7615
sion .</w> 7610
éner gé 7610
- 0 7609
jus te</w> 7602
liber té</w> 7600
environn ement 7590
règ l 7585
abi li 7585
ter mes</w> 7583
a jou 7578
publi c 7575
m u 7572
èr e.</w> 7548
ac tions</w> 7545
d e.</w> 7541
a di 7536
d .</w> 7533
co le</w> 7532
pr ê 7531
En fin,</w> 7527
demand er</w> 7523
accor ds</w> 7521
bi li 7514
parl ement 7506
économi ques</w> 7504
v e,</w> 7496
soci ale</w> 7494
écri t.</w> 7490
eu se</w> 7488
pro té 7475
pay s,</w> 7471
ant es</w> 7455
é es.</w> 7453
fi x 7450
d' é 7442
ad hésion</w> 7437
h ér 7428
rem ar 7427
for mes</w> 7423
préc is 7418
program mes</w> 7416
bl e.</w> 7411
con stru 7408
N )</w> 7396
él abor 7388
s al 7382
s atis 7381
su c 7380
d e,</w> 7369
n' ont</w> 7368
ir .</w> 7365
fav or 7361
ét abli 7360
at eur</w> 7359
anc e,</w> 7351
anné es</w> 7350
pro duc 7347
financ ement</w> 7333
l'UE .</w> 7325
(E N)</w> 7318
o s 7307
ai r</w> 7305
ch i 7300
faç on</w> 7287
déf en 7284
Présid ent</w> 7282
t ali 7280
dom aines</w> 7276
t elle</w> 7275
é s,</w> 7259
n ou 7257
i gn 7251
béné fici 7241
pro duction</w> 7228
mom ent</w> 7220
souv ent</w> 7212
vi sion</w> 7211
européenn es</w> 7203
Uni s</w> 7193
ell e.</w> 7190
t s,</w> 7189
possi bilité</w> 7185
sor te</w> 7180
ra i</w> 7167
tri bu 7164
ori g 7142
plu tôt</w> 7135
fa ce</w> 7131
t s.</w> 7122
pro fi 7103
L ’ 7102
appro pri 7101
propr e</w> 7101
l' article</w> 7093
compé ti 7084
erci ce</w> 7072
donn ées</w> 7056
communaut aire</w> 7052
m es,</w> 7050
f ri 7020
i .</w> 7017
dé pen 7006
U E</w> 7001
intérê ts</w> 6998
a ffi 6993
renforc er</w> 6993
nor mes</w> 6991
qu ali 6987
t els</w> 6983
vrai ment</w> 6983
trouv er</w> 6980
enn es</w> 6954
f am 6952
déci sions</w> 6952
oi r 6951
au rait</w> 6950
pré ci 6948
États- Unis</w> 6946
d' être</w> 6941
signifi e</w> 6935
20 1 6932
in i 6928
l'in dustr 6927
citoy en 6925
pr en 6924
b il 6921
ex ist 6921
commer ce</w> 6915
ri en</w> 6914
c ô 6896
exemp le</w> 6895
Parl ement,</w> 6885
mo d 6884
Comm un 6883
certain ement</w> 6864
pers pecti 6862
dom ain 6859
voi e</w> 6853
h ar 6847
l' accord</w> 6846
travaill eurs</w> 6841
a str 6828
pê che</w> 6816
dialo gue</w> 6802
compéti ti 6788
dé t 6787
ti ques</w> 6784
pré cé 6777
sup plé 6756
ég alité</w> 6741
concurr ence</w> 6740
compé ten 6734
c è 6730
pay s.</w> 6724
égar d</w> 6717
ti n 6715
in si 6710
ac t 6703
ten tion</w> 6699
p eux</w> 6698
pl oi 6687
ab s 6681
P er 6674
seu le</w> 6667
tech ni 6661
F on 6658
essenti el</w> 6657
conn aiss 6656
ex pli 6653
rapport .</w> 6653
er ait</w> 6649
t elles</w> 6644
dé termin 6641
h e</w> 6638
in tro 6629
grou pes</w> 6628
c at 6623
ari té</w> 6620
supplé ment 6613
trans port</w> 6611
an ni 6599
ac cu 6587
ré forme</w> 6585
constitu e</w> 6576
résult ats</w> 6564
veill er</w> 6561
intégr ation</w> 6558
régi on</w> 6547
j am 6540
in s 6537
mi eux</w> 6536
consomm ateurs</w> 6535
C our</w> 6530
permet tr 6529
cri t 6528
pré par 6526
E t</w> 6524
u nion</w> 6516
maj orité</w> 6515
am bi 6512
cl é 6511
r endre</w> 6503
pri v 6500
ass oci 6496
considé ra 6495
collègu es</w> 6488
hu main 6479
g e</w> 6477
pos é</w> 6472
t es,</w> 6471
I ls</w> 6461
ter me</w> 6455
com b 6455
al y 6450
comm enc 6450
idé e</w> 6443
i en</w> 6442
app elle</w> 6440
per mettre</w> 6437
t- il</w> 6436
n atur 6433
av anc 6422
rapport ,</w> 6421
suiv re</w> 6418
av is</w> 6401
ation s,</w> 6399
syst èmes</w> 6398
cons ci 6395
V ous</w> 6390
conti n 6389
derni ères</w> 6388
F r 6387
L i 6386
v ain 6376
qu' elles</w> 6366
recomm and 6362
N o 6361
dé ch 6357
el er</w> 6347
él é 6347
nu clé 6338
c e,</w> 6334
enti fi 6329
f ont</w> 6319
gr é</w> 6316
activi tés</w> 6311
a .</w> 6307
es pri 6306
gr and 6303
probl èm 6303
el ,</w> 6288
ex téri 6288
on s- 6285
è te</w> 6282
véri table</w> 6279
o g 6275
augment ation</w> 6272
d ois</w> 6267
l'U ni 6263
qu' en</w> 6256
pro jets</w> 6253
l' inter 6248
industr i 6246
ju di 6245
empl oi 6241
march és</w> 6238
i - 6237
in vi 6237
démocrati e</w> 6234
d' euro 6233
ré duire</w> 6231
l' aide</w> 6224
mi lit 6212
M al 6205
ét aient</w> 6201
d'abor d</w> 6201
N ations</w> 6198
prom ouv 6191
l'en semble</w> 6178
v re</w> 6172
t aire</w> 6170
er ont</w> 6170
d ang 6169
" .</w> 6168
cré di 6166
sou ten 6159
dis positions</w> 6153
fr an 6151
stratég i 6149
intéri eur</w> 6136
in dépend 6128
atu re</w> 6127
au v 6123
d' A 6123
ca s,</w> 6121
ré s</w> 6113
derni ère</w> 6107
reconn aiss 6098
gu er 6096
chang ement</w> 6092
d esti 6086
cap it 6079
moy ens</w> 6075
ation s.</w> 6073
cl air</w> 6072
h o 6069
affi r 6065
J' espère</w> 6063
mo in 6060
celu i</w> 6052
fl exi 6050
ter a</w> 6049
mê mes</w> 6049
con t 6041
moy en</w> 6041
b an 6037
é ra 6037
dé s 6027
in vestiss 6026
souhai te</w> 6024
fai t,</w> 6023
m et</w> 6022
tu de</w> 6013
partici p 6013
st abilité</w> 6006
évalu ation</w> 6004
in g 5987
pl ein 5986
u s 5984
m ét 5983
popul ation</w> 5979
en semble</w> 5974
c elle</w> 5963
o le</w> 5963
in clu 5960
princi pes</w> 5954
déclar ation</w> 5939
re v 5936
ati fs</w> 5931
cr u 5926
m ois</w> 5923
d es 5922
rais ons</w> 5917
dé l 5913
conf li 5913
sé e</w> 5907
justi ce</w> 5905
M . 5904
év olu 5901
me - 5901
preu ve</w> 5899
a x 5895
pac t</w> 5894
ré se 5887
internation ale</w> 5882
re ç 5881
ai se</w> 5880
engag ement</w> 5880
inform ations</w> 5872
ab solu 5871
obj et</w> 5871
l e,</w> 5864
cho ses</w> 5864
entre pris 5860
ter rit 5859
te fois,</w> 5853
sur tout</w> 5842
ch e,</w> 5837
emb re</w> 5833
ri g 5832
ter n 5826
p u</w> 5823
vi cti 5820
part i</w> 5820
c ' 5818
l' utilisation</w> 5818
j ’ 5817
effica ce</w> 5817
ant s.</w> 5814
t aux</w> 5812
pai x</w> 5812
s ci 5804
aut ant</w> 5799
conséqu ent,</w> 5796
rem i 5795
d' avoir</w> 5792
ai s 5783
el .</w> 5768
s ens</w> 5766
élarg issement</w> 5763
op ini 5762
parti es</w> 5762
c andi 5760
P remi 5760
candi d 5759
in qui 5753
effica cité</w> 5745
puis se</w> 5744
con vain 5735
bl e,</w> 5726
t el</w> 5723
D E 5722
gl ob 5718
l e.</w> 5710
sub st 5708
pa rag 5706
félici ter</w> 5705
parag rap 5699
Fon ds</w> 5696
dé e</w> 5694
tr u 5690
ssi ons</w> 5690
dis crimin 5686
mul ti 5684
u es</w> 5683
enf ants</w> 5682
adop ter</w> 5678
C ’est</w> 5673
répon dre</w> 5670
ré duction</w> 5666
ci d 5660
promouv oir</w> 5648
f is 5646
an aly 5645
M.   5644
parl er</w> 5643
jam ais</w> 5643
D ' 5637
is me</w> 5636
ob serv 5636
en .</w> 5635
ec tu 5633
s' il</w> 5629
ex cell 5626
di t,</w> 5617
ré es</w> 5610
nécess aires</w> 5610
meill eure</w> 5610
comm ent</w> 5609
c er</w> 5607
l' amendement</w> 5600
lig ne</w> 5598
anc e.</w> 5594
on i 5593
â ce</w> 5592
ir ,</w> 5589
con centr 5581
pro fes 5573
l' E 5567
aut oris 5563
ér er</w> 5549
ét abl 5548
l' importance</w> 5547
se p 5544
organis ations</w> 5543
t es.</w> 5538
plein ement</w> 5534
v é 5533
O r,</w> 5531
emp ê 5531
adop tion</w> 5525
eur es</w> 5522
form ul 5521
é chang 5520
rel atives</w> 5512
l'industr ie</w> 5493
er r 5485
B ar 5480
seu l</w> 5466
esti me</w> 5464
ag n 5462
l aiss 5460
diffici le</w> 5453
é di 5449
I n 5449
m ent,</w> 5447
ti tre</w> 5441
comprom is</w> 5439
G r 5435
ant .</w> 5429
utilis er</w> 5424
s avons</w> 5422
appli qu 5416
D é 5415
volon té</w> 5412
institu tionn 5411
con cr 5410
é es,</w> 5407
tou t,</w> 5403
parten ari 5396
l anc 5394
capa cité</w> 5393
lon g 5391
somm et</w> 5387
Parl ement.</w> 5387
B ien</w> 5385
en vis 5385
évi ter</w> 5381
ai der</w> 5378
ris que</w> 5366
z ,</w> 5361
aspec ts</w> 5361
endr a</w> 5356
l'av en 5349
communi cation</w> 5336
ré ellement</w> 5333
représent e</w> 5327
Tou tefois,</w> 5326
por tu 5324
ré férence</w> 5320
f au 5319
né e</w> 5318
est- à- 5317
rapid ement</w> 5317
con sid 5316
con fron 5311
ex ercice</w> 5309
re gr 5308
O n</w> 5307
conséqu ences</w> 5296
espri t</w> 5288
diffi cul 5286
con vient</w> 5278
è le</w> 5277
différ entes</w> 5276
ré jou 5273
procédu res</w> 5273
0 00</w> 5271
qu ê 5268
dou te</w> 5268
gouvern ements</w> 5267
i té</w> 5263
l arge</w> 5259
S ch 5258
i ons</w> 5254
judi ci 5249
ant s,</w> 5244
es - 5241
gr andes</w> 5236
milli ar 5229
m es.</w> 5220
c ’est</w> 5214
h ist 5209
eus ement,</w> 5209
l' un</w> 5203
l'av enir</w> 5203
arg ent</w> 5199
peti tes</w> 5194
é cu 5190
entr aî 5184
es pa 5183
Turqui e</w> 5183
l'environn ement</w> 5182
aujourd'hu i,</w> 5170
gouvern ement 5169
mon ét 5168
di c 5162
mé c 5162
ti ers</w> 5158
co hér 5145
cor rec 5145
ty pe</w> 5143
accep ter</w> 5137
ad ap 5134
i c 5133
tr es</w> 5133
d a 5131
g ens</w> 5129
cli mati 5123
amélior ation</w> 5118
vi gu 5114
eux .</w> 5112
propr es</w> 5112
n ’est</w> 5110
con form 5110
as su 5107
derni er</w> 5102
sen si 5100
rap ports</w> 5099
uni que</w> 5097
adop té</w> 5094
dev ant</w> 5091
est-à- dire</w> 5089
l an 5088
U E 5077
ar rê 5074
D euxi 5057
2 0</w> 5056
pers onne</w> 5056
ons- nous</w> 5056
sé s</w> 5055
élec tions</w> 5055
h abi 5051
h on 5048
eux ,</w> 5048
eff ecti 5048
t â 5044
crit ères</w> 5040
rit anni 5039
t ar 5037
con ven 5034
l'UE ,</w> 5034
c ès</w> 5033
respons abili 5028
l' année</w> 5022
at es</w> 5019
a dé 5017
h au 5016
sou lev 5012
pa ra 5010
particuli er,</w> 5007
méc anis 5005
ch es</w> 5003
j oin 5000
d' im 4991
il le</w> 4987
con dui 4986
ap porter</w> 4985
co ordin 4973
ag ir</w> 4971
v u</w> 4959
publi c</w> 4958
résult at</w> 4950
s te</w> 4949
m ission</w> 4943
ré sou 4941
éri c 4941
Conseil .</w> 4938
a si 4931
am éric 4930
soci é 4927
ré gu 4917
par venir</w> 4908
partici pation</w> 4908
généra l</w> 4902
régi me</w> 4900
f .</w> 4899
R é 4892
fon d 4885
em ment</w> 4882
par ven 4880
rel ative</w> 4874
ob tenir</w> 4872
d'abor d,</w> 4870
iss ant</w> 4867
J ’ 4865
ô m 4864
ét at</w> 4862
d’ hu 4857
st atu 4853
con dam 4851
minis tre</w> 4840
attein dre</w> 4839
concer né 4836
D es</w> 4835
mani fes 4835
abl e.</w> 4834
ch e 4832
pens ons</w> 4811
min u 4809
èr ement,</w> 4808
m i</w> 4803
contribu tion</w> 4799
nation aux</w> 4793
ell es,</w> 4791
nation ales</w> 4785
b ritanni 4777
confi ance</w> 4771
hu mani 4769
solid arité</w> 4769
l' objectif</w> 4766
vi té</w> 4764
comm is 4758
l ent</w> 4756
val eurs</w> 4751
ou ti 4750
Con stitu 4747
man que</w> 4745
ch ôm 4742
l' agricul 4738
g ence</w> 4735
re fu 4729
gr âce</w> 4710
é mis 4706
ques tion.</w> 4705
en - 4700
ou bli 4698
consomm at 4697
f ,</w> 4695
demand é</w> 4695
fronti ères</w> 4694
ess ay 4689
a éri 4688
proté ger</w> 4686
tr oisi 4680
Russi e</w> 4677
c al 4676
sci entifi 4672
coû ts</w> 4669
- ,</w> 4668
é tr 4666
ten ti 4665
im médi 4659
soci al</w> 4653
actu elle</w> 4653
migr ation</w> 4648
r é</w> 4646
r ati 4643
es se</w> 4642
cir cul 4638
profes sionn 4636
ap por 4628
sû r</w> 4628
l' emploi</w> 4622
in ten 4618
év én 4618
on s.</w> 4616
envis ag 4615
démocrati que</w> 4613
is er</w> 4611
an nu 4609
in t 4608
plu s,</w> 4601
constru ction</w> 4600
paragrap he</w> 4578
én or 4576
ell es.</w> 4572
s ol 4567
vi si 4566
rapport eur,</w> 4566
par ole</w> 4564
mal adi 4564
reconn aî 4559
com pli 4557
const at 4547
trouv e</w> 4546
zon e</w> 4546
possi bili 4539
Deuxi èmement,</w> 4539
absolu ment</w> 4537
è ve</w> 4536
travaill er</w> 4533
eff et,</w> 4531
financi ère</w> 4527
initi ative</w> 4527
co hésion</w> 4523
assi st 4521
g a 4519
te fois</w> 4519
g en 4518
s e,</w> 4514
empl ois</w> 4513
er s.</w> 4512
C E 4508
Per met 4504
L' Union</w> 4497
po tenti 4494
om b 4493
heur eusement,</w> 4492
Au jour 4492
l' objet</w> 4487
sou s- 4484
mondi ale</w> 4477
qua tre</w> 4472
l les</w> 4469
m at 4469
comm ent 4469
défin i 4468
U n 4466
cin q</w> 4465
nou s,</w> 4458
tou tefois</w> 4457
m and 4453
a - 4448
d' action</w> 4445
cul tur 4445
2 ,</w> 4444
rapp eler</w> 4443
veu t</w> 4440
pour raient</w> 4437
mon tre</w> 4428
min im 4421
ré fér 4420
cul tu 4420
pend ant,</w> 4420
astr op 4414
an s,</w> 4407
cat astrop 4400
exig ences</w> 4399
è res,</w> 4397
remerci e</w> 4397
id enti 4397
po l 4393
pri orité</w> 4393
import ants</w> 4392
o ins</w> 4390
jus qu'à</w> 4388
grand s</w> 4384
ar m 4377
peu ple</w> 4376
vi t 4371
0 ,</w> 4368
tot alement</w> 4367
ré union</w> 4366
jeu nes</w> 4366
servi ce</w> 4365
c' est-à-dire</w> 4364
n er</w> 4360
ju st 4360
du cation</w> 4359
consid ère</w> 4357
Commun auté</w> 4356
uni quement</w> 4355
ré uni 4354
d' entre</w> 4353
pa s,</w> 4348
har mon 4347
zon es</w> 4345
propo s</w> 4340
voi sin 4337
esp ér 4324
produi t</w> 4321
eux - 4320
préoccu pa 4319
travail .</w> 4317
e au</w> 4315
présent er</w> 4315
re ven 4314
centr ale</w> 4309
égar d,</w> 4308
s anc 4307
I s 4305
er ons</w> 4301
grou p 4295
su g 4278
vo s</w> 4278
re ti 4277
exprim er</w> 4277
l' occasion</w> 4275
ell ement,</w> 4272
No tre</w> 4263
confi r 4260
transpar ence</w> 4258
l ec 4256
dé fi 4256
l'h eure</w> 4254
agri cole</w> 4253
l' économie</w> 4252
inter ven 4252
commun auté</w> 4252
ci ,</w> 4251
dépen ses</w> 4251
Permet tez-moi</w> 4250
pa ti 4246
T r 4243
con texte</w> 4242
aujour d’hu 4235
lut ter</w> 4235
l' Europe.</w> 4234
acc ro 4232
présent é</w> 4230
" ,</w> 4226
té l 4225
gu es</w> 4225
oir s</w> 4224
moi ,</w> 4221
c en 4220
ver s 4220
conform ément</w> 4219
propo se</w> 4218
États- Un 4218
er t 4213
qu and</w> 4201
propo sé</w> 4201
sé es</w> 4199
internation al</w> 4199
dé lég 4192
élé ments</w> 4192
coll abor 4187
guer re</w> 4186
val eur</w> 4184
s sion</w> 4183
di rig 4183
all er</w> 4178
part ag 4176
continu er</w> 4174
vo ter</w> 4173
pu issent</w> 4170
er s,</w> 4169
c e.</w> 4161
c elles</w> 4161
K o 4154
u m</w> 4153
cru ci 4152
bu re 4149
A C 4147
d û</w> 4147
en quê 4146
cul ture</w> 4143
m auv 4141
milliar ds</w> 4141
ac teurs</w> 4138
collègu es,</w> 4136
partenari at</w> 4136
équi lib 4135
ag it</w> 4134
pé n 4132
d ons</w> 4128
R oy 4128
anné es,</w> 4128
important es</w> 4127
fondament aux</w> 4126
commenc er</w> 4121
d i</w> 4120
dé but</w> 4120
ex clu 4120
esti ni 4119
d'euro s</w> 4118
dem ment</w> 4116
o li 4114
trai tement</w> 4113
an n 4107
développ er</w> 4105
de vi 4104
î tre</w> 4098
ré si 4095
budgét aire</w> 4093
présent e</w> 4092
établi r</w> 4092
es t,</w> 4090
heur eux</w> 4090
étr oi 4085
tra di 4083
vi du 4082
p les</w> 4072
précis ément</w> 4070
victi mes</w> 4070
mod èle</w> 4069
end s</w> 4065
prog res 4065
prom o 4063
l' ordre</w> 4060
énergé tique</w> 4060
les quels</w> 4045
financi ères</w> 4043
3 ,</w> 4040
inté g 4039
terr an 4038
av is,</w> 4034
respec ter</w> 4031
ré formes</w> 4017
con cep 4015
eff ets</w> 4015
ex péri 4014
L )</w> 4012
souti ens</w> 4011
statu t</w> 4009
Roy au 4008
plu part</w> 4007
ch arg 4000
organis ation</w> 3998
cau se</w> 3993
str ic 3987
mê me,</w> 3986
prati ques</w> 3985
du is 3984
ren ouv 3984
pri orités</w> 3978
di men 3974
Lis bonn 3973
con férence</w> 3972
év ent 3971
troisi ème</w> 3970
autr es,</w> 3964
g is 3962
résou dre</w> 3961
l oc 3954
chang ements</w> 3954
les quelles</w> 3952
an ,</w> 3949
précé d 3942
1 ,</w> 3941
t ax 3935
bi ais</w> 3933
o ,</w> 3931
parten aires</w> 3931
instru ments</w> 3931
ex er 3927
coordin ation</w> 3926
eff ectu 3924
oi res</w> 3919
pag ne</w> 3914
convain c 3913
contrô l 3912
fran ç 3912
ress er</w> 3906
discu ssion</w> 3906
évi d 3905
ouver ture</w> 3904
ét ap 3903
aill eurs</w> 3903
con sult 3897
initi atives</w> 3896
l' une</w> 3894
5 ,</w> 3893
re li 3893
posé s</w> 3890
politi que.</w> 3888
v rai</w> 3886
indi vidu 3885
dura ble</w> 3882
ll em 3881
moin s,</w> 3881
suc cès</w> 3880
homm es</w> 3877
in accep 3876
re té</w> 3876
ré dui 3873
quali fi 3873
Is ra 3873
I r 3872
vi s</w> 3872
j' espère</w> 3871
faci li 3871
l' application</w> 3869
ret ar 3868
è ne</w> 3866
ai si 3865
A l 3862
mes s 3860
par mi</w> 3858
fourni r</w> 3858
orig ine</w> 3857
Aujour d'hu 3856
rap i 3853
représent ants</w> 3853
m é</w> 3852
ch oi 3851
ass ez</w> 3851
pass er</w> 3849
structu res</w> 3847
Royau me- 3844
appli quer</w> 3843
opini on</w> 3841
européen s.</w> 3840
promo tion</w> 3838
Lis bonne</w> 3837
structu rel 3831
con struc 3829
Ré publique</w> 3829
r ant</w> 3828
è res.</w> 3828
pro b 3828
équi libre</w> 3828
er ai</w> 3827
accu e 3827
5 0</w> 3825
ch e.</w> 3825
bes oins</w> 3820
pa l 3818
pa sse</w> 3809
P E 3808
for ce</w> 3807
contribu er</w> 3804
enten du</w> 3801
re jet 3799
perspecti ves</w> 3799
ré p 3798
n' avons</w> 3798
inf ra 3797
possibili tés</w> 3795
économi que,</w> 3794
sou ff 3791
déclar é</w> 3791
él ect 3788
aut om 3780
instru ment</w> 3780
v ise</w> 3779
d’ autres</w> 3778
félici te</w> 3775
pon i 3773
eur o</w> 3771
dis poni 3769
séri e</w> 3766
e té</w> 3761
r ais</w> 3760
con serv 3760
fron tali 3760
discu ssions</w> 3760
pa qu 3756
il lég 3756
n é</w> 3755
B an 3753
politi que,</w> 3747
t- elle</w> 3747
justi fi 3746
ré vision</w> 3744
sect eurs</w> 3743
l arg 3741
org an 3741
iti ative</w> 3738
renforc ement</w> 3736
dis pos 3732
ai gn 3730
n avi 3727
vigu eur</w> 3727
réglement ation</w> 3725
é cou 3722
espa ce</w> 3720
soci alis 3718
ci li 3715
jou er</w> 3713
cert aine</w> 3709
qu elle</w> 3708
pour suivre</w> 3706
cr is 3704
pe ine</w> 3703
part age</w> 3702
comm un</w> 3699
l' adoption</w> 3694
l’ Europe</w> 3692
ex ploi 3689
s ais</w> 3688
évolu tion</w> 3686
aujourd'hu i.</w> 3684
spécifi ques</w> 3683
cons ac 3682
é vo 3681
défen se</w> 3677
P our 3675
sub si 3675
ti qu 3673
s ec 3669
qu '</w> 3665
citoyen s.</w> 3664
s e.</w> 3659
ai mer 3657
rap hi 3656
et .</w> 3654
ré fu 3647
trai te</w> 3642
e :</w> 3641
ré ussi 3637
lis te</w> 3637
T )</w> 3635
éli min 3633
o ffi 3630
l oi</w> 3628
d el 3627
encourag er</w> 3627
con cili 3626
et tre</w> 3626
ré v 3625
docu ment</w> 3623
mon de.</w> 3616
ro g 3613
chi ff 3612
abs ence</w> 3612
B al 3611
suiv i</w> 3606
ju g 3604
l'Uni on.</w> 3597
ant e.</w> 3596
au - 3595
Eur opé 3591
ell e- 3590
pol lu 3590
t ations</w> 3575
ouv rir</w> 3573
fis ca 3573
né s</w> 3570
pass é</w> 3568
l' accès</w> 3562
dé pl 3558
c y 3553
mis es</w> 3553
l' énergie</w> 3552
impli qu 3552
app el 3550
viol ence</w> 3550
or s 3548
Aujourd'hu i,</w> 3547
ré ser 3546
permettr a</w> 3544
mo der 3540
du e</w> 3536
européen s,</w> 3532
parti r</w> 3530
ay ant</w> 3529
é ten 3528
z- vous</w> 3528
ch ac 3527
fav oris 3526
pri ori 3523
as se</w> 3519
développ ement.</w> 3518
men ac 3518
l at 3511
ai des</w> 3509
di x</w> 3507
parlement aire</w> 3507
sim pli 3506
T rai 3505
constitu ent</w> 3504
s ex 3503
( P 3501
se con 3499
él ément</w> 3499
ap pu 3497
collè gue</w> 3497
lég iti 3496
circul ation</w> 3493
l oin</w> 3490
permet tez-moi</w> 3490
respons ables</w> 3488
tou ch 3487
dr a</w> 3487
Isra ë 3487
fonctionn ement</w> 3482
l ande</w> 3476
n ature</w> 3476
Ban que</w> 3476
t or 3475
arri v 3474
b ri 3471
si ve</w> 3470
dang er 3469
en voy 3465
b lement</w> 3464
ali té,</w> 3462
l'in tention</w> 3462
trav aux</w> 3461
suffis amment</w> 3460
re gis 3459
accor der</w> 3458
don ne</w> 3457
financi er</w> 3457
ob st 3456
Con vention</w> 3453
s enti 3451
préoccupa tions</w> 3451
ministr es</w> 3450
difficul tés</w> 3450
R ou 3448
adé qu 3448
av enir</w> 3447
u x</w> 3443
sem aine</w> 3439
s au 3437
N é 3437
sup prim 3437
- à- 3436
excell ent</w> 3435
réfu gi 3433
per mis</w> 3427
en s,</w> 3426
j an 3424
for ces</w> 3424
inté ress 3424
prati que</w> 3422
av aient</w> 3420
signifi c 3420
1 0</w> 3414
trans port 3414
f é 3411
co les</w> 3406
déci dé</w> 3406
dé sor 3405
r ent</w> 3403
oc k 3401
Ce pendant,</w> 3401
am i 3399
g ne</w> 3398
air ement</w> 3393
ag e,</w> 3391
direc tement</w> 3391
ter ,</w> 3390
évi demment</w> 3387
app el</w> 3387
favor able</w> 3386
obst ac 3385
main tenir</w> 3384
compétiti vité</w> 3383
constitu tionn 3382
se ign 3379
per met</w> 3373
cel a,</w> 3372
sur veill 3371
ter .</w> 3370
pa s.</w> 3369
l' État</w> 3366
at oire</w> 3366
p ir 3364
en fin</w> 3364
lign es</w> 3364
ex ac 3363
1 5</w> 3361
7 ,</w> 3360
l' emploi 3360
t ablement</w> 3359
si x</w> 3356
l’ homm 3355
an non 3354
f lu 3352
vi sionn 3351
C O 3350
abl e,</w> 3350
ar mes</w> 3349
compéten ces</w> 3349
m al</w> 3348
A n 3347
h ors</w> 3346
jet .</w> 3346
main ti 3345
-à- vis</w> 3345
défi s</w> 3342
dimen sion</w> 3342
ap par 3341
vis -à-vis</w> 3339
compr endre</w> 3333
uni es</w> 3331
élarg iss 3331
dét ai 3331
terroris me</w> 3328
b o 3327
ag e.</w> 3327
f s.</w> 3324
trans ports</w> 3321
étu de</w> 3320
con ten 3315
Constitu tion</w> 3315
mand at</w> 3314
al ement,</w> 3311
offi ci 3311
a ï 3308
solu tions</w> 3307
l'agricul ture</w> 3307
derni ers</w> 3304
permet tant</w> 3304
au ssi 3302
montr é</w> 3302
d' autre</w> 3301
f aire.</w> 3297
en suite</w> 3294
l' Europe,</w> 3291
0 .</w> 3290
l'A ssembl 3290
in e,</w> 3289
con cl 3288
vi v 3287
ement s,</w> 3286
ent s.</w> 3277
ré g 3277
ch ers</w> 3276
travail ,</w> 3275
entre prise</w> 3274
l' idée</w> 3271
dev en 3271
e aux</w> 3270
èr ent</w> 3267
ap préci 3266
Ch ine</w> 3265
Ko so 3265
reli gi 3264
condi tion</w> 3259
conclu sions</w> 3259
ques tion,</w> 3258
l' efficacité</w> 3255
per man 3255
b our 3254
pro cè 3254
dev enir</w> 3249
ré alité</w> 3247
choi x</w> 3247
rel ev 3246
bl es.</w> 3245
considér ation</w> 3245
an .</w> 3241
proch aine</w> 3241
rais onn 3241
1 4 3239
ris ques</w> 3237
activi té</w> 3237
ins cri 3237
x ,</w> 3235
B el 3233
émis sions</w> 3233
s on 3232
ru x 3232
im porte</w> 3230
possi ble.</w> 3229
veu lent</w> 3228
vi ens</w> 3227
li és</w> 3222
aill eurs,</w> 3220
l' intégration</w> 3218
b as 3217
ch am 3216
dé si 3215
uti le</w> 3215
l' ai</w> 3214
évén ements</w> 3212
bonn es</w> 3208
ra di 3204
paqu et</w> 3204
l in 3203
l' intérêt</w> 3203
d'in form 3202
l'O M 3202
évent u 3200
x .</w> 3197
pens er</w> 3197
ambi ti 3197
soulign é</w> 3196
effecti vement</w> 3193
con se 3192
respons able</w> 3189
puis que</w> 3183
qu' au</w> 3179
M ar 3178
l’ UE</w> 3178
mar iti 3176
anim aux</w> 3173
ain ,</w> 3172
adop tée</w> 3168
discrimin ation</w> 3168
immédi at 3167
t ables</w> 3166
f s,</w> 3166
del à</w> 3166
financi ers</w> 3165
1 2</w> 3163
tur e,</w> 3163
6 ,</w> 3162
s av 3160
r ation</w> 3154
s’ agit</w> 3152
généra le</w> 3152
ement s.</w> 3151
nive aux</w> 3151
fu tu 3151
renouv el 3151
l' attention</w> 3150
rec ev 3149
posé e</w> 3148
agricul teurs</w> 3148
nation al</w> 3147
ré form 3146
él ar 3145
off re</w> 3145
investiss ements</w> 3141
ai e</w> 3140
pro fon 3139
soci aux</w> 3138
reç u</w> 3138
s ter 3136
B rux 3136
prév oit</w> 3135
analy se</w> 3132
b ou 3130
avant ages</w> 3130
v eux</w> 3128
L ors 3127
struc ture</w> 3126
mal gré</w> 3125
c tions</w> 3121
di re,</w> 3121
abl es.</w> 3121
intro dui 3119
x im 3118
déclar ations</w> 3112
ex cep 3111
re fl 3109
reconnaiss ance</w> 3108
l' adhésion</w> 3107
développ ement,</w> 3107
urg ence</w> 3107
pré h 3104
principa lement</w> 3104
appro visionn 3099
il leur</w> 3097
désor mais</w> 3097
dem ain</w> 3095
an s.</w> 3094
tabl e.</w> 3093
on c 3092
di ction</w> 3091
ten d 3090
me illeur</w> 3090
en sembl 3089
moy ennes</w> 3089
v es.</w> 3088
an moins,</w> 3088
trai n</w> 3086
néces si 3085
aspec t</w> 3083
. . 3082
libér alisation</w> 3077
montr er</w> 3075
res tri 3072
mét ho 3072
d' ici</w> 3071
hist ori 3071
o s</w> 3069
t eur</w> 3067
actu el</w> 3066
soci ales</w> 3064
pu iss 3060
v ont</w> 3059
k ,</w> 3059
réc emment</w> 3056
envir on</w> 3055
réjou is</w> 3055
Mal heureusement,</w> 3054
tex te,</w> 3052
3 0</w> 3051
pal estini 3049
public s</w> 3048
qu’ elle</w> 3047
al tern 3046
dirig e 3045
grav e</w> 3043
l' égard</w> 3042
op portu 3041
mess age</w> 3041
aff aire</w> 3036
9 ,</w> 3033
ac qu 3033
contin ue</w> 3032
ress or 3031
domain e.</w> 3029
ent s,</w> 3028
sal ue</w> 3028
ré di 3027
aff ec 3024
ver b 3023
fr u 3021
examin er</w> 3017
pl e 3016
ren contr 3014
inter vention</w> 3012
res ter</w> 3011
cr ati 3011
liber tés</w> 3009
in er</w> 3008
communaut aires</w> 3008
is se</w> 3006
ac té 3004
juridi ques</w> 3004
préh en 3002
tra fi 3001
oc tr 3000
principa ux</w> 2999
mu tu 2994
ag ne</w> 2992
jan vi 2992
ec i</w> 2991
DE )</w> 2991
pu l 2990
all em 2986
s c 2985
im pact</w> 2982
( A 2981
ain e,</w> 2981
conn aî 2981
car acté 2981
non - 2980
l' ont</w> 2975
personn el</w> 2974
ai sse</w> 2971
esti m 2971
8 ,</w> 2967
men ace</w> 2967
lors qu'il</w> 2967
l' esprit</w> 2965
5 -0 2964
ri er</w> 2962
pauv reté</w> 2962
S elon</w> 2960
c atég 2959
concr è 2959
men er</w> 2958
fr au 2954
ain .</w> 2951
pouv oirs</w> 2951
ex is 2949
pour ra</w> 2948
ir land 2947
produc teurs</w> 2947
ign or 2947
y n 2946
mal heur 2944
Su r</w> 2943
Né anmoins,</w> 2938
C ert 2937
A près</w> 2936
i re</w> 2935
N or 2935
l' égalité</w> 2935
engag ements</w> 2932
4 -0 2930
sub ven 2930
/ 200 2929
actu elle,</w> 2928
catég ori 2927
au quel</w> 2922
dev oir</w> 2920
j’ ai</w> 2919
l'environn ement,</w> 2915
entr ée</w> 2911
accro ître</w> 2910
défini tion</w> 2909
el s.</w> 2906
étu di 2906
d' améliorer</w> 2905
sim ple</w> 2904
s es 2903
for te</w> 2901
économi es</w> 2901
b r 2900
t i</w> 2899
l'in itiative</w> 2899
l'homm e.</w> 2899
h aut</w> 2897
is tes</w> 2897
ur e,</w> 2895
technologi es</w> 2895
atti rer</w> 2894
Rou mani 2894
empl oy 2893
l'aven ir.</w> 2893
délég ation</w> 2893
h y 2891
par fai 2890
empê cher</w> 2888
4 ,</w> 2886
pré serv 2882
P M 2881
M on</w> 2880
z e</w> 2879
acc ent</w> 2877
confli t</w> 2877
nouv el</w> 2876
p tion</w> 2873
ce pendant</w> 2872
cer ti 2871
par fois</w> 2867
fri que</w> 2866
tâ che</w> 2866
2 5</w> 2864
sû r,</w> 2863
st ati 2862
do ssi 2862
cl aire</w> 2861
cid ent 2861
citoyen s,</w> 2860
candid ats</w> 2859
su jet.</w> 2857
méri que</w> 2856
D e 2855
grav es</w> 2853
ent e.</w> 2852
gar der</w> 2851
parl ons</w> 2851
h or 2850
emb our 2847
lu mi 2846
il li 2845
trans frontali 2844
étrang ère</w> 2843
dé p 2842
tél é 2842
insi st 2840
supplément aires</w> 2839
invi te</w> 2839
atti tude</w> 2837
E s 2835
ar gu 2835
regr et 2834
m onn 2833
aimer ais</w> 2833
l' aut 2832
souhai ter 2830
pr è 2824
a r</w> 2823
pr on 2823
cons en 2820
préoccu p 2815
Premi èrement,</w> 2815
in dis 2814
dev ra</w> 2814
rése aux</w> 2814
l'Assembl ée</w> 2814
qu ent</w> 2812
el s,</w> 2812
vé hi 2812
t ants</w> 2811
administr ation</w> 2809
particuli ère</w> 2807
inf lu 2807
per tin 2804
monét aire</w> 2803
y ,</w> 2802
cl ari 2801
li eu 2797
rapi de</w> 2797
dé li 2794
ré ti 2793
pro ven 2791
f aire,</w> 2790
anné es.</w> 2790
b at 2787
parti s</w> 2786
comp tes</w> 2786
d ant</w> 2785
étu des</w> 2785
pré vention</w> 2784
sé ance</w> 2784
dis tribu 2784
ab il 2780
for t</w> 2778
sanc tions</w> 2778
in e.</w> 2776
dr o 2775
lu i- 2775
g h 2773
réalis ation</w> 2773
cou rag 2773
Con férence</w> 2769
v es,</w> 2768
sou ligne</w> 2766
s alu 2763
v a 2760
O ri 2760
reconnaî tre</w> 2758
a z 2756
ad res 2756
trai ter</w> 2756
l'homm e,</w> 2756
qu ot 2755
n' ai</w> 2755
B er 2754
nation ale</w> 2753
f ra 2751
dis position</w> 2749
com préhen 2747
po st 2743
dis tin 2743
anné e,</w> 2743
lo ca 2741
bure au 2740
I ra 2738
économi que.</w> 2738
enten du 2738
è n 2734
oblig ation</w> 2733
rem plac 2731
end a</w> 2729
l' élargissement</w> 2727
appli c 2725
ajou ter</w> 2725
o ti 2723
sou tenu</w> 2722
dé g 2720
fl éch 2719
au- delà</w> 2719
P ol 2717
ét er</w> 2715
construc ti 2715
l ogi 2714
V oi 2714
spécifi que</w> 2713
ain e.</w> 2710
a s,</w> 2708
tran si 2706
ati onn 2704
pac te</w> 2702
avi ons</w> 2699
déch ets</w> 2699
au di 2696
s- verb 2696
lumi ère</w> 2696
P ro 2695
tr im 2695
su per 2695
re j 2694
espér ons</w> 2693
en du 2692
caracté ris 2692
hu m 2690
déf i</w> 2688
att aqu 2686
prés ence</w> 2685
sy n 2684
r end 2683
t hé 2682
positi f</w> 2682
dépend ance</w> 2681
C or 2680
pres que</w> 2680
c ent 2678
direc tion</w> 2677
procè s-verb 2677
N i 2676
rec our 2676
aliment aire</w> 2675
dé cl 2672
élec tri 2672
r .</w> 2671
qu' on</w> 2671
chac un</w> 2671
élabor ation</w> 2666
ga z</w> 2665
in ,</w> 2663
mo ti 2663
environn ement</w> 2662
conclu sion</w> 2662
chôm age</w> 2662
r g 2661
un anim 2661
médi cam 2661
concentr er</w> 2660
ê me</w> 2659
inter gouvernement 2658
all ons</w> 2656
qu’ ils</w> 2653
para î 2653
Gr è 2651
qu anti 2650
particip er</w> 2650
étap e</w> 2650
collabor ation</w> 2649
aussi ,</w> 2647
con tenu</w> 2644
fi c 2644
compl è 2639
l ,</w> 2638
s ources</w> 2635
rel atif</w> 2635
car act 2633
compl ex 2633
discu ter</w> 2632
nov ation</w> 2629
or tu 2628
par le</w> 2628
ali té.</w> 2628
popul aire</w> 2627
st ock 2625
ré fléch 2624
conti ent</w> 2624
ab ri 2623
responsabili tés</w> 2621
compa gni 2620
prop or 2618
garanti e</w> 2617
diver sité</w> 2617
m ais,</w> 2616
à ,</w> 2614
l'in formation</w> 2613
indis pens 2613
œ u 2612
con vi 2612
ti ent</w> 2611
appro fon 2611
déc embre</w> 2610
politi ques,</w> 2609
échang e</w> 2609
cont ac 2606
assist ance</w> 2605
civi le</w> 2603
O u 2600
) .</w> 2600
tr ag 2600
possi ble,</w> 2598
ti rer</w> 2597
ant e,</w> 2597
R om 2595
co or 2595
voi x</w> 2595
mon de,</w> 2594
l'in st 2594
stati sti 2594
ti ss 2593
con nu 2593
perspecti ve</w> 2593
et c 2592
B u 2590
mondi al</w> 2588
com ité</w> 2587
oc cident 2587
jour n 2586
op position</w> 2584
régu li 2582
import ant,</w> 2580
pour sui 2578
gar de</w> 2578
souti ent</w> 2578
e ?</w> 2577
européenn es.</w> 2577
aux quels</w> 2577
M édi 2574
temp s.</w> 2572
pa gn 2570
aujourd’hu i</w> 2570
èg e</w> 2569
Tr oisi 2569
fai ts</w> 2567
Premi er</w> 2567
ali tés</w> 2565
cir const 2564
peu ples</w> 2563
V er 2562
dépu té</w> 2561
déf endre</w> 2561
sep t 2559
d omm 2558
pl ans</w> 2557
parl é</w> 2555
m ouv 2553
ac compli 2553
c es,</w> 2551
tou r</w> 2551
ti que.</w> 2550
évi dent</w> 2549
a de</w> 2548
tur e.</w> 2548
confron tés</w> 2545
t aires</w> 2544
mécanis me</w> 2544
tro duction</w> 2543
b ru 2542
ser aient</w> 2542
trav ers</w> 2541
directi ves</w> 2541
compéten ce</w> 2541
caract ère</w> 2538
s our 2537
pour rons</w> 2537
s :</w> 2536
convainc u</w> 2536
si vement</w> 2533
Bar ro 2533
consomm ation</w> 2531
oc t 2530
prob ablement</w> 2530
territ oire</w> 2529
O N 2527
d' Europe</w> 2527
demand ons</w> 2527
représent ent</w> 2525
ê tes</w> 2524
oblig ations</w> 2522
k rai 2521
V i 2517
prê ts</w> 2517
constat er</w> 2517
four n 2516
è vement</w> 2515
consi ste</w> 2515
agri col 2515
problèm e.</w> 2514
C E</w> 2513
trai tés</w> 2512
it ali 2512
alis er</w> 2511
docu ments</w> 2510
réalis er</w> 2509
) ,</w> 2508
ent endre</w> 2508
ex écu 2508
fon ction</w> 2503
da te</w> 2502
surveill ance</w> 2502
moder n 2501
a tri 2500
cô té</w> 2497
larg ement</w> 2497
ma xim 2495
plé ni 2494
rése au</w> 2494
démocr ates</w> 2493
subsi di 2492
o - 2491
cl au 2491
é do 2490
l' amélioration</w> 2490
impli que</w> 2490
regis tr 2489
e ons</w> 2487
pro pri 2487
an moins</w> 2481
iss ons</w> 2479
l our 2478
cell e- 2478
c es.</w> 2477
moi - 2477
t ab 2474
sou mis</w> 2474
socié tés</w> 2474
ac tes</w> 2473
potenti el</w> 2473
l' absence</w> 2472
sy m 2472
c entre</w> 2471
T A 2470
pro s 2470
oy ons</w> 2470
vi ennent</w> 2469
cour s,</w> 2466
enn e,</w> 2465
n ,</w> 2464
comp ét 2464
posé es</w> 2463
si e</w> 2460
asi le</w> 2460
1 0 2459
principa l</w> 2459
Commun au 2459
t u</w> 2458
né anmoins</w> 2457
contrô les</w> 2457
né es</w> 2455
con ver 2454
ch arge</w> 2453
important .</w> 2453
ar te</w> 2452
bureau crati 2452
anis ation</w> 2451
industr ie</w> 2450
P al 2449
l' argent</w> 2447
fais ant</w> 2446
techni ques</w> 2446
mainti en</w> 2446
li ées</w> 2444
ol l 2443
l'in troduction</w> 2443
milli ers</w> 2442
prés ent,</w> 2437
Lors que</w> 2437
ç ons</w> 2436
bl es,</w> 2436
modifi cation</w> 2436
en s.</w> 2435
ex port 2435
élar gi 2435
bes oin 2434
con vention</w> 2433
mét h 2433
h andi 2432
G u 2432
dis pose</w> 2432
encor e,</w> 2432
a- t-il</w> 2432
ch oisi 2431
dem andes</w> 2431
référ endu 2431
di minu 2430
déb ats</w> 2430
pr u 2429
con texte,</w> 2429
entrepris es,</w> 2429
x i 2428
P lu 2427
pren d</w> 2427
/ 9 2426
au ,</w> 2426
chang e</w> 2423
élev é</w> 2421
aisi r</w> 2420
d'in formation</w> 2418
représent ant</w> 2418
béné fi 2418
di pl 2416
recommand ations</w> 2416
ten ce</w> 2415
législ ati 2415
re z</w> 2412
Ch y 2412
l'en contre</w> 2412
ti que,</w> 2410
pro vo 2409
ap parti 2409
oct ob 2409
l'Uni on,</w> 2408
h aut 2407
b er 2406
ch im 2406
s ouver 2405
pos ent</w> 2405
M er 2404
augment er</w> 2404
malheur eusement</w> 2403
jeu n 2402
ro vi 2401
méri te</w> 2401
a k 2400
atten dre</w> 2400
publi ques</w> 2399
at .</w> 2397
soci ale.</w> 2395
fer rovi 2395
o cole</w> 2394
tr ait</w> 2393
pi li 2393
mor t</w> 2392
é col 2391
cep ti 2391
élect or 2391
trafi c</w> 2391
sug g 2390
enti èrement</w> 2389
États-Un is,</w> 2386
g ur 2382
l'aven ir,</w> 2382
nuclé aire</w> 2381
( DE)</w> 2380
ent am 2380
ci fi 2380
bi o 2380
act eur</w> 2380
e ant</w> 2378
proch aines</w> 2378
so ins</w> 2377
l anti 2375
g agn 2375
or able</w> 2374
in .</w> 2373
méth ode</w> 2372
ch ez</w> 2371
ac compl 2369
coll ecti 2369
a te</w> 2368
re - 2368
ab and 2364
subst ances</w> 2364
en vers</w> 2363
compr en 2363
ser ons</w> 2359
ad hé 2358
catastrop h 2358
tion ne</w> 2357
cor respon 2357
il les</w> 2356
E lles</w> 2355
clu sion</w> 2355
tiqu et 2355
b al 2352
con join 2352
struc tur 2352
h onn 2349
monn aie</w> 2348
oi ,</w> 2346
ju in</w> 2345
ouver t</w> 2345
métho des</w> 2345
politi ques.</w> 2341
rg anisation</w> 2341
fai te</w> 2340
l'I n 2337
au rons</w> 2336
élec tr 2336
u e,</w> 2335
C et</w> 2334
ant es.</w> 2331
mentionn é</w> 2331
dis ant</w> 2330
n' en</w> 2327
occu p 2327
terran é 2326
A ve 2323
ph a 2323
a ér 2322
fondament al</w> 2320
P ortu 2316
d' énergie</w> 2316
effor t</w> 2316
abor der</w> 2314
conclu re</w> 2314
modifi er</w> 2314
pass ag 2311
o .</w> 2309
Portu g 2308
M oy 2305
compl é 2305
ce - 2302
sécuri té.</w> 2301
sign al 2301
d - 2299
véhi cu 2299
mo t</w> 2297
R e 2295
Fr ance</w> 2295
l'av is</w> 2293
sin c 2290
mon tant</w> 2289
opportu ni 2288
ver tu</w> 2286
f abri 2284
approvisionn ement</w> 2284
De puis</w> 2283
r ur 2282
B ul 2282
car b 2282
expéri ence</w> 2282
régu l 2280
l' action</w> 2279
at ,</w> 2279
crimin alité</w> 2277
n eu 2272
fri c 2272
pré al 2271
r om 2270
fais ons</w> 2270
au ront</w> 2268
su ffi 2268
t ch 2266
défin iti 2266
entrepris es.</w> 2266
crédi ts</w> 2265
mécanis mes</w> 2265
Troisi èmement,</w> 2265
si mil 2264
1 1</w> 2263
contr aign 2263
Israë l</w> 2262
d'in vestiss 2260
ru ra 2260
dirige ants</w> 2260
an dis 2259
ri ch 2259
alis me</w> 2259
si è 2258
o h 2257
bil at 2257
laiss er</w> 2257
trans fer 2253
fer mement</w> 2253
M ême</w> 2251
com port 2251
dev ront</w> 2251
long temps</w> 2248
dé rou 2246
du s</w> 2245
communaut aire.</w> 2245
o v 2242
pé tro 2242
dr ait</w> 2241
consen sus</w> 2241
s ait</w> 2240
v ais</w> 2239
mati que</w> 2238
débat .</w> 2238
s té 2237
f era</w> 2237
appro b 2236
p an 2235
puis sions</w> 2234
t ant,</w> 2233
comment aires</w> 2233
parfai tement</w> 2233
empl o 2232
séri eux</w> 2232
budgét aires</w> 2231
L' ordre</w> 2229
d' État</w> 2228
uni té</w> 2227
défin ir</w> 2227
viol ations</w> 2226
janvi er</w> 2226
inter pré 2225
Bal k 2225
d' aide</w> 2223
exprim é</w> 2223
cham p</w> 2221
i ci,</w> 2219
propo ser</w> 2219
ten us</w> 2218
cher ch 2217
concep t</w> 2217
no te</w> 2216
r av 2213
agri coles</w> 2212
pi e 2212
Ét ant</w> 2211
positi ve</w> 2209
em por 2208
di s</w> 2208
parl ements</w> 2208
proch ain</w> 2207
è de</w> 2205
énergi e,</w> 2204
celu i- 2203
structurel s</w> 2203
ex ces 2202
H on 2200
l'environn ement.</w> 2200
britanni que</w> 2197
b rev 2196
commun e.</w> 2196
réfugi és</w> 2196
re l</w> 2194
procès-verb al</w> 2193
Moy en- 2193
m ster 2192
mo ts</w> 2192
lec ture</w> 2192
t ol 2191
ai s.</w> 2191
Ave c</w> 2191
Voi là</w> 2188
g é</w> 2187
abl es,</w> 2187
ap pr 2186
lon gue</w> 2186
Bul gar 2186
fai tes</w> 2183
souten ons</w> 2183
s ent</w> 2182
pa ri 2182
limi tes</w> 2182
S E 2181
dr e.</w> 2181
S tr 2180
ré flexi 2179
on d 2178
in es</w> 2177
sécuri té,</w> 2176
p ér 2175
P ay 2175
sui te,</w> 2174
électr oni 2174
in g</w> 2173
débat ,</w> 2173
internation ales</w> 2171
lor s,</w> 2170
prot ocole</w> 2170
ou tre</w> 2167
ter me,</w> 2166
dé fici 2165
égar d.</w> 2164
évalu er</w> 2164
Moyen- Ori 2164
u e.</w> 2163
L u 2163
bl o 2163
l' autre</w> 2162
coû t</w> 2162
dét aill 2162
A llem 2160
jour ,</w> 2160
Messi eurs</w> 2160
endr ons</w> 2160
cl é</w> 2156
gen re</w> 2156
p oi 2154
handi cap 2154
recour s</w> 2153
procé der</w> 2151
ra c 2150
essay er</w> 2150
mo is,</w> 2148
d en 2147
f gh 2147
l'E s 2147
p hé 2145
milit aire</w> 2145
d yn 2144
pré ten 2143
commun es</w> 2143
ph éri 2143
stratégi que</w> 2143
supplément aire</w> 2142
considé rer</w> 2141
cam pagne</w> 2141
S er 2137
exig e</w> 2136
approfon di 2135
in ation</w> 2134
che fs</w> 2133
l' or 2132
soci ale,</w> 2132
confli ts</w> 2131
t ari 2130
capa ble</w> 2130
tru c 2130
l ac 2129
tr ou 2129
en registr 2128
L' Europe</w> 2127
appli que</w> 2126
fé dé 2126
ai son</w> 2125
ter mes,</w> 2125
ain tes</w> 2125
og raphi 2123
natur ellement</w> 2122
ati vement</w> 2121
ss ent</w> 2120
commun au 2120
pé s</w> 2117
médi as</w> 2116
enquê te</w> 2116
R ap 2114
contr aire,</w> 2113
pl an 2112
poin t,</w> 2111
off rir</w> 2111
annu el</w> 2111
Eur o 2110
l .</w> 2109
déci der</w> 2109
médi terrané 2109
l'im migration</w> 2109
règl ements</w> 2109
l' accent</w> 2108
bi en 2108
exac tement</w> 2108
dé es</w> 2107
produi re</w> 2107
l' augmentation</w> 2106
démocrati ques</w> 2105
efficac ement</w> 2105
avanc er</w> 2104
Cert ains</w> 2104
fi gur 2103
ci .</w> 2102
pour ront</w> 2102
cal end 2102
P PE 2101
uni ver 2101
orient ations</w> 2099
l' approche</w> 2098
al li 2098
peti ts</w> 2098
i e,</w> 2097
s ave 2097
maladi es</w> 2097
qu oti 2095
atten ti 2095
attein t</w> 2095
t es 2094
enn e.</w> 2094
senti ment</w> 2094
dis cours</w> 2093
Sch eng 2093
acc él 2091
tradi tionn 2091
pru d 2090
tr e.</w> 2088
établ issement</w> 2088
considéra blement</w> 2087
j et,</w> 2086
esp oir</w> 2086
énor me</w> 2086
immédiat ement</w> 2086
ent - 2085
entraî n 2085
d' application</w> 2083
po ss 2082
rev ê 2082
n ation</w> 2081
utilis é</w> 2081
C om 2080
st abil 2078
entr er</w> 2078
idé es</w> 2075
ter ont</w> 2072
alis tes</w> 2072
n '</w> 2071
dé cou 2071
opér ationn 2071
n’ a</w> 2071
group e,</w> 2071
œu r</w> 2071
hau te</w> 2070
tribu n 2069
E st 2067
ai lle</w> 2067
ch al 2066
quot as</w> 2066
i ch 2061
engag er</w> 2061
i li 2059
s '</w> 2058
u m 2057
l'I r 2056
moi- même</w> 2056
l' euro</w> 2054
pê ch 2054
tent er</w> 2054
quoti di 2053
Chy pr 2052
au .</w> 2051
de hors</w> 2051
l'é ducation</w> 2051
facili ter</w> 2049
s ’est</w> 2048
eur e,</w> 2047
ac te</w> 2047
bénéfici er</w> 2046
situ ations</w> 2045
technologi e</w> 2045
M a 2043
dé posé</w> 2043
ri ère</w> 2042
ju ill 2042
comm en 2041
limi ter</w> 2041
rel ation</w> 2040
élabor er</w> 2040
glob ale</w> 2040
té e.</w> 2039
fon dée</w> 2039
1 er</w> 2038
pa cifi 2037
utilis és</w> 2037
prév u</w> 2037
U ni</w> 2036
dr e,</w> 2036
vou s,</w> 2036
ter ons</w> 2035
fin s</w> 2035
essenti ellement</w> 2034
S ' 2033
at tribu 2033
sex u 2033
inform ation</w> 2030
inst all 2030
oubli er</w> 2030
Royaume- Uni</w> 2030
essenti elle</w> 2029
a fric 2027
iss ait</w> 2027
direc tri 2027
tot al</w> 2026
réalis és</w> 2025
recommand ation</w> 2025
l'h ist 2024
atten dons</w> 2024
F in 2022
Comm ent</w> 2022
e z-vous</w> 2020
européenn es,</w> 2020
c tu 2019
hi er</w> 2019
ay ons</w> 2018
climati que</w> 2018
subven tions</w> 2018
consommat eurs.</w> 2017
subst anti 2016
l'im pact</w> 2015
sour ce</w> 2015
march andis 2014
princi p 2012
c œur</w> 2010
ê tres</w> 2010
anné e.</w> 2010
sur tout,</w> 2009
l’homm e</w> 2006
ci tés</w> 2005
save z,</w> 2003
l "</w> 2001
l' avons</w> 2001
sor ti 2001
dé s</w> 2000
l'I ra 1999
contr e 1997
véhicu les</w> 1996
aliment aires</w> 1995
pré fér 1994
pha se</w> 1994
acc r 1993
remar ques</w> 1993
techni que</w> 1993
voi re</w> 1992
pauv res</w> 1991
â ti 1988
et h 1987
rapport eurs</w> 1987
euro s</w> 1987
approuv é</w> 1987
sy sté 1986
3 .</w> 1985
peu pl 1985
obstac les</w> 1985
ré serv 1983
connaiss ance</w> 1983
tou s,</w> 1980
gouvern ance</w> 1980
chang er</w> 1980
meill eures</w> 1980
c é</w> 1978
r on 1978
mo bil 1977
contr adi 1976
bi en- 1975
pé ti 1975
budg ets</w> 1975
souhaiter ais</w> 1975
compagni es</w> 1975
cl am 1974
Assembl ée,</w> 1974
compa ti 1974
re venir</w> 1973
garanti es</w> 1972
oi r,</w> 1971
march é.</w> 1971
phé nom 1971
on e</w> 1970
principa les</w> 1970
mentionn er</w> 1970
prépar ation</w> 1970
2 .</w> 1968
just ement</w> 1968
L e 1967
féli cit 1967
rou ti 1967
préoccu pation</w> 1967
c ouv 1965
am en 1965
ai t,</w> 1964
re prises</w> 1963
uv re</w> 1963
tour isme</w> 1963
o is 1962
cri tique</w> 1962
l’ in 1961
ali ments</w> 1961
ren du</w> 1959
nécess aire.</w> 1959
associ ation</w> 1959
p s</w> 1958
dev ait</w> 1958
limi te</w> 1958
efficac es</w> 1958
lieu ,</w> 1958
u ,</w> 1957
réalis é</w> 1957
derni ère,</w> 1956
5 .</w> 1955
l'é ch 1955
J’ ai</w> 1955
dé cri 1953
s- B 1953
au raient</w> 1952
situ ation.</w> 1950
g ,</w> 1947
mê me.</w> 1945
g ri 1944
su péri 1943
9 .</w> 1941
région .</w> 1941
lég i 1940
approb ation</w> 1940
Commiss aire</w> 1937
t on</w> 1936
envisag er</w> 1936
flexi bilité</w> 1935
di .</w> 1932
comp te,</w> 1931
dél ai</w> 1931
médicam ents</w> 1931
fon d</w> 1929
sion s.</w> 1928
u s.</w> 1927
Lisbonn e.</w> 1927
ch ance</w> 1926
ex per 1926
fam ili 1925
consult ation</w> 1925
cour t</w> 1922
mat éri 1922
dipl om 1922
vi e 1919
fem mes,</w> 1919
oi re.</w> 1918
communi c 1917
au près</w> 1916
ch ances</w> 1916
L' UE</w> 1916
directi ve.</w> 1916
ses sion</w> 1915
im possible</w> 1914
dev rons</w> 1909
all è 1909
proposi tion.</w> 1909
n ations</w> 1908
regr ette</w> 1907
sion s,</w> 1906
paraî t</w> 1906
v aut</w> 1905
l' opinion</w> 1905
ab outi 1904
viol ation</w> 1902
montr ent</w> 1901
pauv ret 1901
ni e</w> 1900
ê te</w> 1899
qu ée</w> 1899
considéra ble</w> 1898
e ;</w> 1896
pri me</w> 1896
l es,</w> 1895
ent es.</w> 1895
d' adopter</w> 1895
ch réti 1895
ma ssi 1895
o w 1894
ouver te</w> 1894
jour .</w> 1893
accep té</w> 1893
dé plac 1891
ment .</w> 1891
d'inform ations</w> 1891
d ra 1890
rais on,</w> 1890
r ement</w> 1889
a prè 1889
cu s</w> 1889
organis mes</w> 1889
organ es</w> 1889
jour s,</w> 1888
fis c 1888
réser ve</w> 1888
s auv 1887
mo bilité</w> 1886
ét hi 1885
démocrati e,</w> 1883
Roumani e</w> 1883
d' en</w> 1882
pour rions</w> 1882
humani taire</w> 1882
Q ue</w> 1881
autr es.</w> 1881
résolu tion,</w> 1881
dépl oy 1881
etc .</w> 1880
habi tu 1879
déb att 1878
att a 1877
condui te</w> 1875
rel atifs</w> 1873
trans form 1872
sus pen 1872
cont es 1869
T ous</w> 1868
d' utiliser</w> 1868
Lisbonn e,</w> 1868
inaccep table</w> 1866
et tes</w> 1865
ter me.</w> 1865
véri tablement</w> 1865
s ?</w> 1862
x embour 1862
ter ai</w> 1862
fondament ales</w> 1862
ag ences</w> 1861
nécess aire,</w> 1860
andi s</w> 1859
commerci ales</w> 1858
qui t 1857
trouv ent</w> 1857
l ois</w> 1856
consommat eurs,</w> 1855
r y 1854
av ri 1854
Li vre</w> 1854
b ar 1853
» .</w> 1853
dé m 1853
fai ble</w> 1853
n e,</w> 1852
I I 1852
donn ée</w> 1852
fu ture</w> 1852
chim i 1852
v ul 1851
consci ence</w> 1851
s pec 1850
exam en</w> 1850
4 0</w> 1849
accor d.</w> 1849
accor d,</w> 1848
m' a</w> 1847
contr aire</w> 1846
différ ences</w> 1846
d' intérêt</w> 1843
t an 1840
il lu 1838
.. .</w> 1838
d' ailleurs</w> 1837
pré ven 1837
l’ UE 1837
chiff res</w> 1837
ci te</w> 1836
n' existe</w> 1836
o l</w> 1835
u .</w> 1834
conséqu ent</w> 1834
satis fais 1834
eth ni 1834
ré elle</w> 1833
intégr er</w> 1833
tabl e,</w> 1833
mauv aise</w> 1833
contrôl er</w> 1833
oi re,</w> 1832
ré alité,</w> 1832
ca s.</w> 1832
négoci ation</w> 1832
lan gues</w> 1832
servi r</w> 1829
judici aire</w> 1829
m ’ 1828
Présid ence</w> 1825
cy cle</w> 1824
bl an 1823
Dé clar 1823
s' ils</w> 1822
commun e,</w> 1822
qu’ à</w> 1822
en seign 1821
eur e.</w> 1821
diff u 1821
peti t</w> 1819
entendu ,</w> 1819
si ,</w> 1818
at s.</w> 1818
on ni 1817
cri tiques</w> 1817
et t 1815
7 .</w> 1814
d' inter 1814
cep tion</w> 1814
C ar 1813
l'O rganisation</w> 1813
relev er</w> 1813
proces su 1812
derni er,</w> 1811
Royaume- Uni 1811
l' état</w> 1810
pl ani 1810
heur es</w> 1810
m at</w> 1809
d an 1809
péri o 1809
l' ag 1808
d' ac 1808
( F 1807
pour suite</w> 1807
autr e.</w> 1807
0 0 1806
q u</w> 1806
all ou 1806
consci ents</w> 1806
l’ O 1805
200 0</w> 1805
ten sion</w> 1804
f asse</w> 1803
as bour 1803
modifi cations</w> 1803
Europé ens</w> 1803
mi té</w> 1801
concl u</w> 1801
in comb 1800
bi e</w> 1800
in vesti 1798
rem pli 1798
financ er</w> 1798
da m</w> 1798
inten si 1798
écol ogi 1796
Str asbour 1796
C ro 1795
pro duis 1795
capa bles</w> 1795
cor ru 1793
rég im 1792
Pay s-B 1792
y eux</w> 1791
er t</w> 1788
ve z</w> 1787
ra s 1786
sus cepti 1786
t empor 1785
internation ale.</w> 1785
produc ti 1785
l'A u 1784
dispos ons</w> 1784
h e 1783
cli mat</w> 1783
est- il</w> 1783
K y 1782
p te</w> 1781
pour suiv 1779
législ atif</w> 1779
b y 1777
por tée</w> 1775
diver ses</w> 1775
complé ment 1775
inté res 1774
esp è 1774
l à,</w> 1773
tot ale</w> 1771
I tali 1770
en h 1770
étrang ères</w> 1770
étroi te</w> 1770
v o</w> 1767
fin alement</w> 1767
scientifi ques</w> 1767
si ble</w> 1766
krai ne</w> 1766
opér ations</w> 1765
attaqu er</w> 1765
suffi t</w> 1765
poli ce</w> 1764
profi t</w> 1764
con sul 1762
li en</w> 1761
t andis</w> 1760
l’ A 1760
dé tru 1757
s k 1756
D i 1756
d' autant</w> 1756
av en 1756
s' en</w> 1756
moi ti 1756
correc tement</w> 1755
d' urgence</w> 1754
ant es,</w> 1754
fondament ale</w> 1754
rapp el 1754
rap proch 1753
san té,</w> 1753
tu res</w> 1750
navi res</w> 1750
propor tionn 1750
er land 1748
décl a 1748
chal eur 1748
ti tu 1747
déch arge</w> 1747
ci ter</w> 1746
seu ls</w> 1746
enh ag 1746
aband onn 1745
indi qué</w> 1744
A L 1743
assur ance</w> 1743
b re 1739
ér é</w> 1738
min orités</w> 1738
arrê t</w> 1738
pie d</w> 1738
cho s 1737
lanc er</w> 1737
celle- ci</w> 1737
ap i 1736
h eure</w> 1735
bi ens</w> 1735
li v 1732
am b 1732
directi ve,</w> 1732
Ch arte</w> 1732
is ra 1731
ss es</w> 1731
po que</w> 1730
profi ter</w> 1730
sti mul 1729
compr ends</w> 1729
at oires</w> 1728
équi p 1728
gu re</w> 1727
États-Un is.</w> 1726
C op 1725
ç ant</w> 1725
accompl i</w> 1725
ré sul 1724
res truc 1724
remar que</w> 1722
bien ven 1722
1 8</w> 1721
dis poser</w> 1721
rév él 1721
sc and 1721
d' obtenir</w> 1720
l'O N 1719
statisti ques</w> 1719
k ist 1718
n' était</w> 1718
Trai té</w> 1718
or gi 1717
aér op 1717
tou s.</w> 1715
domain e,</w> 1715
tend ance</w> 1715
poin t.</w> 1713
sign é</w> 1713
collègu e,</w> 1712
m ai</w> 1711
diplom ati 1710
lan gue</w> 1709
énergi e.</w> 1708
vi ll 1707
mondi alisation</w> 1707
popul ations</w> 1707
logi que</w> 1707
té moi 1706
pollu tion</w> 1706
remar qu 1705
Médi terran 1704
6 .</w> 1702
P I 1702
l' évolution</w> 1702
aux quelles</w> 1702
ti s 1701
ou p 1701
L' objectif</w> 1699
soi t,</w> 1699
Pour quoi</w> 1699
en s 1698
premi ères</w> 1698
orient ation</w> 1698
qu’ un</w> 1697
d'A mster 1697
u ssi</w> 1696
in suffis 1696
ré ussi</w> 1696
conn u</w> 1696
e "</w> 1695
t o 1694
pl a 1694
constru ire</w> 1694
eus e.</w> 1693
M a</w> 1692
d' assurer</w> 1692
ex tra 1692
l' élaboration</w> 1691
harmon isation</w> 1691
souver ain 1690
C I 1689
l' engagement</w> 1689
l' ouverture</w> 1689
au rions</w> 1689
contribu é</w> 1688
sen s,</w> 1686
Cop enhag 1686
institu tion</w> 1684
land e,</w> 1684
tch è 1684
répon ses</w> 1683
tour is 1683
v ois</w> 1682
in nov 1682
l’ on</w> 1682
au che</w> 1681
dou ble</w> 1681
principa le</w> 1681
ob tenu</w> 1680
pri vi 1680
nor m 1680
concili ation</w> 1679
ques tions.</w> 1678
internation aux</w> 1678
pres se</w> 1678
inst au 1678
directri ces</w> 1678
d' éviter</w> 1677
souhai tons</w> 1677
rel ève</w> 1676
Plu s</w> 1676
fgh anis 1675
il o 1674
d' asile</w> 1673
humain s</w> 1673
en trav 1671
l'ex ercice</w> 1671
l es.</w> 1669
conséqu ence,</w> 1669
b âti 1668
res tent</w> 1668
Koso vo</w> 1668
pré venir</w> 1667
mar s</w> 1667
internation al.</w> 1667
agn e,</w> 1667
restruc tur 1666
parven us</w> 1665
l' espace</w> 1664
migr ants</w> 1664
détermin er</w> 1664
ensembl e.</w> 1664
Rap port</w> 1663
qu oi,</w> 1660
ou g 1660
emb re,</w> 1660
fem mes.</w> 1660
hon or 1660
ple in</w> 1660
multi lat 1659
h om 1658
région ale</w> 1658
faci le</w> 1658
1 3</w> 1657
at lanti 1656
am pl 1656
l’ im 1656
vi ce- 1655
inter institutionn 1655
l' organisation</w> 1654
d' origine</w> 1654
un es</w> 1654
acqu is</w> 1654
rapp elle</w> 1653
Nor d</w> 1653
t ement,</w> 1652
com pens 1652
c ent</w> 1651
1 .</w> 1651
op ti 1651
ba s</w> 1651
écu tion</w> 1651
vi ande</w> 1650
important e.</w> 1649
orig in 1649
s té</w> 1648
gé ographi 1648
sau ve 1648
f acteur</w> 1647
tent ative</w> 1647
diver si 1647
l'emploi .</w> 1646
is ol 1645
l' unanim 1644
et s,</w> 1644
program me- 1644
ch in 1643
proposi tion,</w> 1643
endr ont</w> 1643
assu mer</w> 1643
di vers</w> 1642
fu tur 1642
su jet,</w> 1641
accor dée</w> 1641
as te</w> 1641
territ ori 1640
elle- même</w> 1640
bien- être</w> 1640
c les</w> 1639
té e,</w> 1639
prépar er</w> 1639
fran ch 1639
con que</w> 1638
cultu rel 1638
l'emploi ,</w> 1638
sign al</w> 1637
clau se</w> 1637
8 0</w> 1636
condui t</w> 1636
n e.</w> 1635
ress our 1635
sup pression</w> 1635
di ,</w> 1634
compl ète</w> 1634
id entifi 1634
sembl ent</w> 1634
favor ables</w> 1634
ph y 1633
fghanis t 1633
es ses</w> 1632
bi ent 1632
transfer t</w> 1632
moiti é</w> 1632
ati ve.</w> 1631
prog resser</w> 1631
pag no 1631
si f</w> 1630
su jets</w> 1629
cruci al</w> 1629
communau tés</w> 1629
me   1628
err eur</w> 1628
du l 1627
démocrati e.</w> 1626
ploi tation</w> 1626
catastrop he</w> 1626
ur b 1625
mondi ale.</w> 1625
qu’ une</w> 1623
d'ex am 1623
parlement aires</w> 1622
appropri é</w> 1622
o les</w> 1621
écri tes</w> 1621
crédi bilité</w> 1621
é duc 1620
er s 1620
équi table</w> 1620
indispens able</w> 1620
enti ss 1619
sep t</w> 1619
réuni ons</w> 1619
port ant</w> 1618
organis er</w> 1618
n omm 1617
lib re- 1617
concern ent</w> 1616
ad resser</w> 1615
j eu</w> 1613
né ra 1613
détermin ation</w> 1613
c t 1612
- B 1612
er aient</w> 1612
l'A l 1612
u s,</w> 1610
l' élargiss 1610
au par 1609
es pagno 1608
échang es</w> 1608
excep tionn 1608
reti re</w> 1607
lin gu 1607
s' av 1606
scientifi que</w> 1606
hum aine</w> 1606
ré ,</w> 1605
re qu 1605
l ob 1604
l ettre</w> 1604
vi vent</w> 1603
Brux elles</w> 1603
communaut aire,</w> 1602
règl ement.</w> 1602
portu g 1602
d' emplois</w> 1601
appu y 1601
M me  1600
ent es,</w> 1600
com par 1600
envoy er</w> 1599
rel ativement</w> 1598
réglement ations</w> 1597
2 7</w> 1594
ou ,</w> 1594
ren d</w> 1594
ret our</w> 1594
complè tement</w> 1594
dyn ami 1594
l'O TA 1593
C eci</w> 1592
com bien</w> 1591
for ê 1590
ad hér 1590
séri eusement</w> 1590
affir m 1590
dic t 1590
PM E</w> 1589
propo sé 1588
futu r</w> 1588
et s.</w> 1587
os l 1587
l'hist oire</w> 1587
recher che,</w> 1586
compa gn 1586
s cri 1585
dem ment,</w> 1585
l ati 1584
l' ab 1583
desti nés</w> 1583
a s.</w> 1582
recev oir</w> 1582
ai der 1581
préserv er</w> 1581
Mer ci</w> 1581
ap porte</w> 1580
mati ères</w> 1580
m eur 1579
sou l 1579
co de</w> 1579
calend rier</w> 1579
f acteurs</w> 1578
g e 1577
march é,</w> 1577
mariti me</w> 1577
sept embre</w> 1577
nuclé aires</w> 1576
passag ers</w> 1576
génér al,</w> 1574
inclu re</w> 1574
économi ques,</w> 1573
M M.</w> 1572
cré é</w> 1572
insist er</w> 1571
oug osl 1571
ég alement,</w> 1570
du rée</w> 1570
adop tées</w> 1569
v ari 1568
intéri eur 1567
intro duire</w> 1567
S lo 1566
propo sée</w> 1566
l'ex am 1566
c ,</w> 1565
circonst ances</w> 1565
suc cè 1564
frau de</w> 1564
autr e,</w> 1562
c eux- 1561
établ i</w> 1561
v ant</w> 1560
im poser</w> 1560
solid ari 1559
efficac e.</w> 1558
estim ons</w> 1558
vul néra 1558
adap ter</w> 1557
approuv er</w> 1556
commenc é</w> 1556
é ducation</w> 1555
réfléch ir</w> 1555
Assembl ée.</w> 1554
fi é</w> 1553
infra structures</w> 1553
lui- même</w> 1552
ré ment</w> 1551
nég lig 1551
tax e</w> 1551
loca les</w> 1551
souhai tent</w> 1550
Mal gré</w> 1550
1 2 1549
isra éli 1549
ré action</w> 1548
énergi es</w> 1548
fix er</w> 1548
dé part</w> 1547
fer me</w> 1547
environnement ales</w> 1547
D an 1546
né erland 1546
â g 1544
beauc oup 1543
el lig 1542
présent ée</w> 1542
bi en,</w> 1541
secon d</w> 1541
poi ds</w> 1541
port ent</w> 1540
fonc tionne</w> 1540
apparti ent</w> 1540
octob re</w> 1540
8 .</w> 1539
appor té</w> 1539
v ing 1537
l' intérieur</w> 1537
s' applique</w> 1537
différ ence</w> 1537
fonctionn aires</w> 1537
considér é</w> 1537
s'ag issait</w> 1536
1 7</w> 1535
di gni 1535
pou vez</w> 1535
problèm e,</w> 1535
ch au 1534
ter ait</w> 1534
acti ve</w> 1534
règ le</w> 1533
ai ses</w> 1532
sur mon 1532
si st 1531
actu elle.</w> 1530
M ac 1529
D u 1529
e  -</w> 1528
b .</w> 1528
lanc é</w> 1528
fau dra</w> 1528
mauv ais</w> 1528
nov embre</w> 1527
or ateurs</w> 1523
con forme</w> 1522
génér alement</w> 1522
restri ctions</w> 1522
L ors</w> 1521
n' ait</w> 1521
ir a</w> 1520
terroris tes</w> 1520
fl ot 1519
milit aires</w> 1519
re prise</w> 1518
pê che.</w> 1518
rou te</w> 1518
4 .</w> 1517
ré per 1517
fam ille</w> 1516
travaill é</w> 1515
reven us</w> 1515
g raphi 1514
S t 1514
déc en 1513
réser ves</w> 1513
ré .</w> 1512
% .</w> 1511
proté g 1511
maladi e</w> 1511
voi ent</w> 1510
socialis te</w> 1510
l' euro 1509
mo tion</w> 1509
amélior ations</w> 1508
trouv é</w> 1507
P eu 1505
f ré 1504
ti ers.</w> 1504
vi e.</w> 1504
st ad 1504
th ème</w> 1504
Bulgar ie</w> 1504
c oup</w> 1503
expli quer</w> 1503
aprè s- 1503
l'A llem 1500
catastroph es</w> 1500
f év 1499
dang er</w> 1499
Koso vo 1499
ch é</w> 1498
cri mes</w> 1498
6 0</w> 1497
gr o 1497
C .</w> 1496
P o 1496
pay er</w> 1496
pros péri 1496
aérop or 1496
anc es,</w> 1495
positi fs</w> 1495
pr ennent</w> 1494
acc es 1494
actu elles</w> 1493
comb at 1493
t omb 1492
ch api 1492
1 3 1491
1 4</w> 1491
al ement.</w> 1491
vis ent</w> 1491
règl ement,</w> 1491
proven ance</w> 1491
S ans</w> 1489
œuv re.</w> 1488
Per s 1487
l' évaluation</w> 1486
cohér ence</w> 1486
d' adhésion</w> 1485
approuv e</w> 1485
rési st 1485
anci en</w> 1484
rapport eur.</w> 1483
den rées</w> 1483
propo s 1482
ty pes</w> 1481
M c 1480
fin al</w> 1479
s' y</w> 1479
dépen d</w> 1479
(P T)</w> 1479
por té</w> 1478
sem aines</w> 1476
st ade</w> 1475
inter diction</w> 1475
résolu tions</w> 1475
par lement</w> 1474
contribu e</w> 1474
ré su 1473
mondi alis 1473
l er</w> 1472
sen s.</w> 1472
Russi e,</w> 1472
n ant</w> 1471
dépu tés,</w> 1470
er re</w> 1469
constitu tion</w> 1469
fam illes</w> 1469
Cro ati 1469
l' obligation</w> 1468
affir mer</w> 1468
l' entrée</w> 1467
at s,</w> 1467
environnement ale</w> 1467
l'A gence</w> 1465
énor mes</w> 1465
travaill ent</w> 1463
d s,</w> 1462
reconn u</w> 1462
car ,</w> 1461
ten ant</w> 1460
p ur 1459
d’ être</w> 1459
sem ain 1459
Ir lande</w> 1459
ann ex 1458
n our 1457
adop te</w> 1457
join dre</w> 1457
d’ abor 1456
insi ,</w> 1456
1 00</w> 1455
A insi,</w> 1455
par vi 1455
min ori 1455
vi vre</w> 1454
res t 1454
re gar 1453
tar d</w> 1453
ch aî 1452
for tement</w> 1452
concrè tes</w> 1452
tiquet age</w> 1452
im ag 1451
san té.</w> 1451
PPE - 1451
octr oi</w> 1450
pron on 1450
anci ens</w> 1449
pê che,</w> 1449
voisin s</w> 1449
f all 1448
( S 1448
ch emi 1448
ten ue</w> 1448
intéri eur.</w> 1447
cl és</w> 1446
der rière</w> 1446
l'OM C</w> 1446
o bi 1445
Grè ce</w> 1445
influ ence</w> 1444
i ra 1443
é car 1443
prê te</w> 1443
supprim er</w> 1443
pi re</w> 1442
att ach 1442
G é 1441
ati ve,</w> 1441
inci d 1441
- cadre</w> 1440
I T)</w> 1440
peti te</w> 1440
rav i</w> 1440
l ement,</w> 1438
bl er</w> 1438
considé rons</w> 1437
résolu tion.</w> 1437
g rec 1436
enf ants.</w> 1436
enf ants,</w> 1436
tâ ches</w> 1436
e d 1435
mom ent,</w> 1435
dé bu 1434
main - 1434
Su d</w> 1434
es- ci</w> 1434
jou é</w> 1433
aff ai 1433
nation aux.</w> 1432
élimin er</w> 1432
f ac 1430
du rant</w> 1430
l'ex péri 1430
che f</w> 1429
chemi n</w> 1429
cr oy 1428
anc er</w> 1428
continu ent</w> 1428
disponi bles</w> 1428
direc tion.</w> 1427
interven tions</w> 1427
ex cu 1426
de vient</w> 1426
dé pass 1425
centr ales</w> 1424
refl ète</w> 1424
celui- ci</w> 1423
inf éri 1422
commerci aux</w> 1422
ensembl e,</w> 1422
ver t</w> 1421
Balk ans</w> 1421
hu it</w> 1420
pres sions</w> 1419
marchandis es</w> 1419
B os 1418
c an 1417
s oyons</w> 1417
ré parti 1417
utilis ées</w> 1417
us age</w> 1417
(P L)</w> 1416
( Le</w> 1415
d' établir</w> 1415
ell ement.</w> 1415
appropri ée</w> 1415
k .</w> 1414
met tr 1413
nou s.</w> 1413
Fr ance,</w> 1413
propri été</w> 1413
ar b 1412
at eurs,</w> 1412
at eur 1411
d' atteindre</w> 1408
étroi tement</w> 1408
introdui t</w> 1406
réper cu 1406
C an 1405
capa cités</w> 1404
fisca le</w> 1404
Ky ot 1404
au tour</w> 1403
indi que</w> 1403
communi cations</w> 1403
Turqui e,</w> 1403
comp ter</w> 1402
C omi 1400
l'in novation</w> 1400
ban ques</w> 1400
1 6</w> 1399
tr ap 1399
sec ré 1399
D ès</w> 1398
su édo 1398
Peu t- 1398
a h 1397
possi bles</w> 1397
extéri eure</w> 1397
stock s</w> 1397
Déclar ations</w> 1396
qu in 1395
té es.</w> 1395
ecti onn 1395
c eci</w> 1394
C o 1394
li ée</w> 1394
import ations</w> 1393
nécess aires.</w> 1393
cel a.</w> 1393
dura ble.</w> 1393
pré f 1392
propo sés</w> 1391
considé rée</w> 1391
C ,</w> 1390
pai ements</w> 1390
l'in form 1389
permettr ait</w> 1389
bient ôt</w> 1389
ang l 1388
heur es.</w> 1388
Dé pu 1388
hist oire</w> 1388
h ou 1387
pré vue</w> 1386
Ch amb 1386
L A 1385
citoy en</w> 1385
prati quement</w> 1385
ressor tiss 1385
d "</w> 1384
H er 1384
Gr and 1384
S )</w> 1383
op h 1383
at es- 1382
ba ses</w> 1381
Bel ar 1381
courag e</w> 1381
commiss aires</w> 1380
Russi e.</w> 1380
suiv ante</w> 1379
juill et</w> 1378
accr ue</w> 1378
rati fication</w> 1377
ell ectu 1376
cri ti 1376
dossi er</w> 1376
m ai 1375
E ,</w> 1375
sensi bil 1375
régim es</w> 1375
E .</w> 1374
ré vis 1374
re pose</w> 1374
plu s.</w> 1374
eux- mêmes</w> 1374
o eu 1373
dis pari 1373
ver sion</w> 1373
chaleur eusement</w> 1373
aut orité</w> 1372
cohér ente</w> 1372
j' aimerais</w> 1371
maj eure</w> 1371
sal ari 1371
T ch 1370
R )</w> 1370
cent aines</w> 1370
li ens</w> 1369
nation ales.</w> 1368
région ales</w> 1368
prê t</w> 1368
législ atives</w> 1367
fau drait</w> 1367
i chi 1366
m uni 1366
d' argent</w> 1366
dé mar 1366
urg ent</w> 1366
qu és</w> 1365
tex ti 1365
conclu sion,</w> 1365
Gé orgi 1365
P A 1364
no c 1364
ambiti eux</w> 1364
commen cer 1364
préal able</w> 1363
ter ri 1362
fem me</w> 1362
s avez</w> 1361
personn es,</w> 1361
syst èm 1361
exist ent</w> 1361
retar d</w> 1361
réflexi on</w> 1361
1 5 1360
l'h on 1359
respec te</w> 1359
moin dre</w> 1359
autr ichi 1358
l'inter diction</w> 1358
adres se</w> 1358
domm ages</w> 1358
jou e</w> 1357
dou ani 1357
voy ag 1357
glob al</w> 1357
er ais</w> 1356
contribu era</w> 1356
idé ologi 1356
extéri eures</w> 1356
des tru 1356
D' autre</w> 1355
profon dé 1355
av ais</w> 1354
mo is.</w> 1354
permet tent</w> 1354
fré qu 1354
ré clam 1353
ess e,</w> 1353
pai x,</w> 1353
con soli 1352
int ellectu 1352
extra ordin 1352
l’ Uni 1351
cr ain 1351
contr ain 1351
soulev é</w> 1351
Pour tant,</w> 1351
incomb e</w> 1351
co hé 1350
b el 1349
l' eau</w> 1349
essenti els</w> 1349
cau ses</w> 1349
médi aire</w> 1348
commiss aire,</w> 1348
lev ée</w> 1348
précé dent</w> 1348
l'hon orable</w> 1348
O b 1347
ai re 1347
acti vement</w> 1347
conséqu ence</w> 1346
él oi 1345
l' administration</w> 1344
r ang 1343
v an</w> 1343
19 8 1343
démocrati que.</w> 1342
univer si 1342
i ts</w> 1341
b ons</w> 1341
f ou 1340
dé rog 1340
ven u</w> 1339
tran sition</w> 1339
trans atlanti 1339
pouv ait</w> 1339
a- t-elle</w> 1339
ré mu 1338
vi g 1338
bi ologi 1338
pêch eurs</w> 1338
z .</w> 1337
actu els</w> 1337
histori que</w> 1337
emplo is.</w> 1337
tol ér 1337
Comi té</w> 1337
ach ev 1336
ex prime</w> 1335
revê t</w> 1335
lingu is 1335
région al</w> 1334
ar mon 1333
men ée</w> 1333
capit al</w> 1333
uni vers 1332
rému né 1332
liber té,</w> 1331
A lors</w> 1330
is su 1329
réc ente</w> 1329
connaî tre</w> 1329
a ci 1328
m ag 1328
discu tons</w> 1328
m ette</w> 1327
problèm es.</w> 1327
d'in tro 1326
n .</w> 1325
commis sions</w> 1325
franç ais</w> 1325
è vent</w> 1324
is tence</w> 1324
st es</w> 1324
situ ation,</w> 1324
S ou 1323
l'im pression</w> 1323
commis sion,</w> 1323
ent end 1322
e- B 1322
pron onc 1321
N e</w> 1320
internation ale,</w> 1320
identi té</w> 1320
sinc èrement</w> 1320
hau sse</w> 1319
dép it</w> 1319
pass é,</w> 1318
b or 1317
ré e.</w> 1317
diver g 1317
pour quoi,</w> 1316
organ e</w> 1316
mes ure,</w> 1315
raisonn able</w> 1315
pl aisir</w> 1314
l'h armon 1313
législ ative</w> 1313
bri èvement</w> 1313
sé par 1312
internation al,</w> 1311
au rais</w> 1310
di té</w> 1310
génér ale,</w> 1310
No s</w> 1310
éra l</w> 1310
visi te</w> 1309
cultur elle</w> 1309
du es</w> 1308
pai ement</w> 1308
d' y</w> 1307
propo sées</w> 1307
mon op 1307
pour tant</w> 1307
alis te</w> 1307
parten aire</w> 1307
conven u</w> 1307
détai ls</w> 1307
endr ait</w> 1306
ampl eur</w> 1306
pris onni 1305
a c</w> 1303
ré el</w> 1303
l'ex cell 1303
Turqui e.</w> 1303
l'éch elle</w> 1303
ra ss 1302
professionn elle</w> 1302
pléni ère</w> 1302
d oll 1301
atten ds</w> 1301
1 7 1300
ét ais</w> 1300
dis ent</w> 1300
de gré</w> 1300
m ac 1299
UE - 1299
em pr 1298
dévelop pé 1298
inst amment</w> 1298
bilat ér 1298
d'exam iner</w> 1298
1 , 1297
int ellig 1296
tél évi 1296
référendu m</w> 1296
t onn 1295
par t.</w> 1295
premi ers</w> 1293
mis sions</w> 1293
allem and 1293
spéci al</w> 1292
stratégi es</w> 1292
autoris ation</w> 1292
Peut- être</w> 1292
C u 1291
pai x.</w> 1291
terroris me.</w> 1291
public .</w> 1291
décen ni 1291
ci dent</w> 1290
per te</w> 1290
oir .</w> 1290
subsidi ari 1290
défici t</w> 1290
souverain eté</w> 1290
l' ar 1289
élev és</w> 1289
siè cl 1289
pens e,</w> 1288
ajou tée</w> 1288
trag i 1288
export ations</w> 1287
constitu er</w> 1286
s lo 1285
met tent</w> 1285
fai t.</w> 1285
discu té</w> 1285
d' avis</w> 1284
utilis ée</w> 1284
digni té</w> 1283
dé posés</w> 1282
re vi 1282
commerci ale</w> 1282
est- ce</w> 1282
eus e,</w> 1281
comb in 1281
outi l</w> 1281
élimin ation</w> 1281
pétro le</w> 1281
destru ction</w> 1281
profondé ment</w> 1281
l' avez</w> 1280
sym b 1279
re trai 1278
direc te</w> 1278
J' aimerais</w> 1278
coll ec 1277
l'I tali 1277
t ement.</w> 1276
fi gure</w> 1276
L am 1275
fi l 1275
per du</w> 1275
discu ssi 1275
reç oi 1275
simpli fication</w> 1275
sé v 1274
dépl or 1274
uni que,</w> 1273
ç u</w> 1272
al lég 1272
argu ments</w> 1272
fér er</w> 1271
évid ence</w> 1271
hy po 1271
is i</w> 1270
5 00</w> 1269
commerci al</w> 1269
considéra bles</w> 1269
Com pte</w> 1269
ai l</w> 1268
re construction</w> 1268
mi di.</w> 1268
uni que.</w> 1268
vit al</w> 1268
rép éter</w> 1268
A vant</w> 1267
en fin,</w> 1267
in uti 1267
signific ative</w> 1267
cho isi</w> 1266
ac cid 1265
pré pa 1265
vo tes</w> 1265
tex tes</w> 1265
regret table</w> 1265
o r</w> 1264
pro che</w> 1264
exig er</w> 1264
trag édi 1264
r ar 1263
t eurs,</w> 1263
vo te.</w> 1263
présid ents</w> 1263
Barro so 1263
ti ennent</w> 1262
maj eur</w> 1262
ais e,</w> 1262
phy si 1262
inform er</w> 1261
maj ori 1261
favoris er</w> 1261
éra le</w> 1260
tou che</w> 1259
meill eurs</w> 1258
débat tre</w> 1258
â ge</w> 1256
main s</w> 1256
important e,</w> 1256
T V 1255
20 20 1255
men ées</w> 1255
entam er</w> 1255
g .</w> 1254
200 4</w> 1254
terroris me,</w> 1254
démo graphi 1253
Lu xembour 1253
l'ex istence</w> 1252
diffici les</w> 1252
humani t 1252
beaucoup ,</w> 1252
g éri 1251
f ais</w> 1251
k r 1251
tr om 1251
uni lat 1251
spécifi quement</w> 1251
contin ent</w> 1251
reconnaî t</w> 1251
inter ne</w> 1250
re connu 1249
G en 1248
li é</w> 1248
par ol 1248
agricul ture</w> 1248
affir me</w> 1248
O G 1247
fr ais</w> 1247
premi èrement,</w> 1247
ar d</w> 1246
droi t,</w> 1246
dél ais</w> 1246
nécessi te</w> 1246
pa trim 1245
g érer</w> 1243
ac compagn 1243
eus es.</w> 1243
rédui t</w> 1243
conse il</w> 1243
d'intro duire</w> 1243
ass assi 1242
sou lig 1241
renouvel ables</w> 1241
b aisse</w> 1240
à .</w> 1240
is es</w> 1240
l'in dépendance</w> 1240
In tern 1240
l' origine</w> 1239
compren d</w> 1239
posi tion.</w> 1238
voul oir</w> 1238
concl ure,</w> 1238
mutu elle</w> 1238
certi tude</w> 1238
fourn iss 1238
réparti tion</w> 1238
s cè 1237
d' emploi</w> 1237
accue illi 1237
ét ch 1235
fam ill 1235
te z</w> 1234
anci enne</w> 1234
DE .</w> 1234
comport ement</w> 1234
accél érer</w> 1234
ces se</w> 1233
mani ère,</w> 1233
harmon is 1233
ferrovi aire</w> 1233
rura l</w> 1233
e   1232
exempl e.</w> 1232
qua te</w> 1232
og ne</w> 1232
adé quate</w> 1232
S' il</w> 1232
ti tre,</w> 1231
vi lles</w> 1231
desti nées</w> 1231
l'or ateur 1231
ch em 1230
" Le</w> 1229
v aste</w> 1229
s h 1229
caractéris tiques</w> 1229
con citoyens</w> 1228
aut on 1228
gn ol 1228
accep table</w> 1228
habi tants</w> 1228
puiss ance</w> 1227
re vient</w> 1226
l'exam en</w> 1226
per dre</w> 1225
ter rai 1224
dis t 1224
mal heureusement,</w> 1224
ci té,</w> 1223
ques tions,</w> 1223
particip é</w> 1223
minim um</w> 1223
li ance</w> 1222
pré con 1222
dem ain,</w> 1222
d'investiss ement</w> 1222
cultu res</w> 1221
pati ents</w> 1221
consi st 1220
coopér er</w> 1220
socialis tes</w> 1220
d ette</w> 1219
cris e.</w> 1219
in évi 1218
pou ss 1218
adhé sion.</w> 1218
connaî t</w> 1217
phénom ène</w> 1217
ti ers,</w> 1216
th er 1215
l ai 1214
es :</w> 1214
prot es 1214
excell ente</w> 1214
clari fier</w> 1214
s ation</w> 1212
C ol 1211
gu e,</w> 1211
Tou tes</w> 1211
civi lis 1211
lac unes</w> 1211
régi on,</w> 1209
déci sion.</w> 1209
publi que.</w> 1209
éch elle</w> 1209
si l 1208
con duire</w> 1208
sui t</w> 1208
inscri t</w> 1208
intergouvernement ale</w> 1208
appr entiss 1208
l'expéri ence</w> 1208
200 0,</w> 1207
concurr ence.</w> 1207
conven tions</w> 1207
lib res</w> 1204
» ,</w> 1203
ré t 1203
dé non 1203
enc es.</w> 1203
mes si 1203
consomm ateur</w> 1203
n' importe</w> 1202
mar ge</w> 1202
dom in 1202
opportuni té</w> 1202
è nes</w> 1201
conver gence</w> 1201
Scheng en</w> 1200
200 6</w> 1199
deven u</w> 1199
cl aires</w> 1198
signal er</w> 1198
intéri eur,</w> 1197
exer cer</w> 1197
avri l</w> 1197
a st 1196
étrang ères,</w> 1196
ON G</w> 1196
i e.</w> 1195
qu ement,</w> 1195
l’ a</w> 1195
éra les</w> 1195
rejet er</w> 1195
l' op 1194
con for 1194
cr ains</w> 1194
sou scri 1193
environnement aux</w> 1193
mouv ement</w> 1193
1 9</w> 1192
insi ste</w> 1192
ple ine</w> 1191
Grand e-B 1191
Grande-B ret 1191
d’ accord</w> 1190
nation aux,</w> 1190
continu era</w> 1190
proven ant</w> 1190
exper ts</w> 1190
v ement,</w> 1189
l'ex ploitation</w> 1189
emploi ,</w> 1189
autom obi 1189
rét abli 1189
d' apporter</w> 1188
probl é 1188
R u 1187
En suite,</w> 1187
éch ou 1187
fix é</w> 1187
f rapp 1186
fin ances</w> 1186
homm e</w> 1186
impli quer</w> 1185
B ro 1184
pé tr 1184
précis er</w> 1184
l' établissement</w> 1183
l’ ensemble</w> 1183
sou mettre</w> 1183
pr endra</w> 1182
opér ateurs</w> 1182
espa gnol 1182
ressortiss ants</w> 1182
mondi ale,</w> 1181
l'aut orité</w> 1181
citoy enn 1180
soulev er</w> 1180
199 9</w> 1179
coû t 1179
compréhen sion</w> 1179
terrai n</w> 1179
" )</w> 1178
vi lle</w> 1178
ob ten 1178
opini ons</w> 1178
% ,</w> 1177
Au c 1177
s ac 1176
j' estime</w> 1176
aéri en</w> 1176
distribu tion</w> 1176
s'ag isse</w> 1175
condi tionn 1175
Qu ' 1175
Bar cel 1175
pur ement</w> 1175
re prendre</w> 1174
erci ,</w> 1174
suiv ant 1174
arm ée</w> 1174
programme- cadre</w> 1174
v ue,</w> 1173
contr o 1173
accor de</w> 1173
Ch ine,</w> 1173
ressor t</w> 1173
c s</w> 1172
vi a</w> 1172
ca d 1172
oblig atoire</w> 1172
no ci 1171
inclu s</w> 1171
sorti r</w> 1171
J us 1170
po lon 1170
cr oire</w> 1170
carb ur 1169
m ain</w> 1168
k a</w> 1168
li vre</w> 1168
vou d 1168
u re</w> 1167
per su 1167
s' op 1167
esp ère,</w> 1167
avant ag 1167
2 1</w> 1166
res tr 1166
ser t</w> 1166
met tant</w> 1166
économi ques.</w> 1166
personn ellement</w> 1166
ci té.</w> 1165
const ate</w> 1165
concerné s</w> 1165
catégori e</w> 1165
é co 1163
amend ements,</w> 1163
b anc 1162
l’ aide</w> 1162
un s</w> 1162
abor dé</w> 1162
voul ais</w> 1162
n’ ont</w> 1161
cen di 1161
débatt ons</w> 1161
l' union</w> 1160
d' agir</w> 1160
Qu oi</w> 1160
Bel gi 1160
atten dent</w> 1159
chiff re</w> 1159
s' appliqu 1158
mondi al.</w> 1158
sec r 1158
flu x</w> 1158
messi eurs,</w> 1158
R i 1157
ré duc 1157
l’ accord</w> 1157
sé pa 1157
nation ales,</w> 1157
ach et 1157
corru ption</w> 1157
st abili 1156
pour rai 1156
ul téri 1156
d'in fra 1156
l'ex écution</w> 1156
d'euro s.</w> 1156
g auche</w> 1155
génér al.</w> 1155
tab ac</w> 1155
l' an</w> 1154
adéqu at 1154
posi tion,</w> 1153
spé cul 1153
qua tri 1153
vi vement</w> 1152
ba sée</w> 1152
rag e</w> 1152
éten dre</w> 1152
- 201 1151
cl and 1151
arti cles</w> 1151
véri tables</w> 1151
p ill 1150
s port</w> 1150
fi cti 1150
ég alement.</w> 1150
juridi que.</w> 1150
N e 1149
cour s.</w> 1149
att aque</w> 1149
radi o 1149
tour n 1148
J ap 1147
al co 1146
const amment</w> 1146
contac ts</w> 1146
ceux- ci</w> 1146
J' en</w> 1145
exemp les</w> 1145
formul er</w> 1145
formul ation</w> 1145
intég rée</w> 1145
qu' aux</w> 1144
voy ons</w> 1143
budgét aire,</w> 1143
o ine</w> 1142
A méri 1142
tr ouver 1142
dis po 1142
détai l</w> 1142
f action</w> 1141
res pecti 1141
pass é.</w> 1141
t orité</w> 1140
fer met 1140
son t,</w> 1140
install ations</w> 1140
d' accès</w> 1139
blan c</w> 1139
développ ements</w> 1138
Royaume-Uni ,</w> 1138
l aisse</w> 1137
S e 1137
0   1136
v ag 1136
géné ti 1136
justi ce.</w> 1136
ti endra</w> 1135
servi ces,</w> 1134
préc ise</w> 1134
identi fier</w> 1134
référendu m 1134
d' intégration</w> 1133
cri me</w> 1133
l'A frique</w> 1133
déf end 1133
méri tent</w> 1133
p er</w> 1132
si gne</w> 1131
2 4</w> 1130
man qu 1130
tar d,</w> 1130
c ev 1129
arri ve</w> 1129
fronti ère</w> 1129
industri es</w> 1128
Bu re 1128
A frique</w> 1127
em ment,</w> 1127
indi c 1127
im pati 1126
contribu tions</w> 1126
négoci ations.</w> 1126
patrim oine</w> 1126
V an</w> 1125
qu' avec</w> 1125
s  -</w> 1124
dé trim 1124
reconnaiss ant</w> 1124
cultu rel</w> 1124
c ée</w> 1123
dé pens 1123
cland esti 1123
port ation</w> 1122
deuxi èmement,</w> 1122
adap tation</w> 1122
atta ques</w> 1122
c ouver 1121
" être</w> 1121
dé mi 1121
processu s.</w> 1121
t ait</w> 1120
is - 1120
rev an 1120
to xi 1120
é mer 1119
con cré 1118
én ag 1118
pag e</w> 1118
consci ent</w> 1118
dém ant 1118
répercu ssions</w> 1118
détrim ent</w> 1118
rem ettre</w> 1117
administr atives</w> 1117
attenti vement</w> 1117
F or 1116
anc es.</w> 1116
prim er</w> 1116
san it 1116
l'harmon isation</w> 1116
n et</w> 1115
compétiti vi 1115
ins pec 1115
dynami que</w> 1115
A fin</w> 1114
lib é 1114
tra dui 1114
prév ues</w> 1114
prati que,</w> 1113
efficac e,</w> 1113
scè ne</w> 1113
par oles</w> 1112
gu e.</w> 1112
e ".</w> 1111
centr alis 1111
contac t</w> 1111
dem ain.</w> 1110
l' équilibre</w> 1109
re pris 1109
ab us</w> 1109
trav er 1109
personn es.</w> 1109
l'ex emp 1109
H u 1108
di vis 1108
esp érer</w> 1108
octr oy 1108
Chypr e</w> 1108
mainten ant,</w> 1107
systé mati 1107
f il</w> 1105
en ci 1105
ri v 1105
ri té</w> 1105
pl ain 1105
futu res</w> 1105
in cit 1104
ch ar 1104
respec tent</w> 1104
err eurs</w> 1104
charg é</w> 1104
F E 1103
con fu 1103
emb re.</w> 1103
fu t</w> 1103
complex e</w> 1103
in ég 1102
d' association</w> 1102
uni es,</w> 1102
200 4,</w> 1102
1 6 1101
su d</w> 1101
irland ais</w> 1101
t ête</w> 1100
d' aujourd'hui</w> 1100
don c,</w> 1100
reven u</w> 1100
princip e,</w> 1100
ser .</w> 1099
présent ation</w> 1099
publi cité</w> 1099
organis ée</w> 1099
impli quant</w> 1099
libér aux</w> 1099
public ,</w> 1099
libre- échange</w> 1099
e z,</w> 1098
centr es</w> 1098
juridi que,</w> 1098
électri cité</w> 1098
B e 1097
té r 1097
cl ass 1097
sé l 1097
j' en</w> 1097
moy enne</w> 1097
Qu ant</w> 1097
bénéfici ent</w> 1097
confir mer</w> 1097
autom ati 1097
l ou 1096
aliment ation</w> 1096
choisi r</w> 1096
re jet</w> 1095
sû r 1095
Su ède</w> 1094
s ;</w> 1093
V o 1093
an e</w> 1093
particuli er.</w> 1093
sect eur.</w> 1093
fonctionn er</w> 1093
concerné es</w> 1093
duis ant</w> 1093
salu er</w> 1093
S y 1092
ci bl 1092
preu ves</w> 1092
socié té.</w> 1092
w e 1091
rév olu 1091
transi t 1091
N atur 1090
par allè 1090
mo s 1090
è tent</w> 1089
P E</w> 1089
an ie</w> 1089
eu g 1089
vi e,</w> 1089
mes dames</w> 1089
J' estime</w> 1089
utilis ant</w> 1089
off er 1089
satis faction</w> 1089
o gn 1088
l'in clusion</w> 1088
déploy és</w> 1088
rési de</w> 1086
post es</w> 1086
S ol 1085
pr in 1085
ot h 1085
représent ation</w> 1085
emploi .</w> 1084
énergé tique.</w> 1083
pren ant</w> 1083
entraî ne</w> 1083
J’ espère</w> 1083
l' activité</w> 1082
cré e</w> 1082
respec tu 1082
satis fait</w> 1082
on ie</w> 1081
plu ri 1081
ven ir.</w> 1081
trai té.</w> 1081
accep te</w> 1081
reti rer</w> 1081
v ente</w> 1080
cam pagn 1080
tax es</w> 1080
réussi te</w> 1080
s aisir</w> 1079
li er</w> 1079
démocrati que,</w> 1079
terr or 1079
besoin ,</w> 1079
ch u 1078
britanni ques</w> 1078
(F R)</w> 1078
g es</w> 1077
voi tures</w> 1077
intéri eures</w> 1077
connaiss ances</w> 1077
industri elle</w> 1077
doll ar 1077
apprentiss age</w> 1077
généti quement</w> 1077
voul u</w> 1076
manifes tement</w> 1076
investi r</w> 1076
constitutionn el</w> 1075
E t 1074
enc es,</w> 1074
7 0</w> 1073
D ’ 1073
droi t.</w> 1073
l'ex téri 1073
o û 1072
g enda</w> 1072
at el 1072
té es,</w> 1072
C am 1071
s oir</w> 1071
ent hou 1071
aéri ennes</w> 1071
enthou si 1071
in tention</w> 1070
l' opposition</w> 1070
op pos 1070
ss ant</w> 1070
natur elles</w> 1070
exis tence</w> 1070
a d</w> 1069
s o</w> 1069
nom in 1069
obstac le</w> 1069
distin ction</w> 1069
Bos ni 1069
2 3</w> 1068
im pos 1068
amend ements.</w> 1068
cho se.</w> 1068
pass age</w> 1068
n’ y</w> 1068
connaiss ons</w> 1068
l'unanim ité</w> 1068
é tions</w> 1067
qu ées</w> 1067
d' accroître</w> 1067
ag issant</w> 1067
recomm ande</w> 1067
terror ist 1067
M in 1066
Dépu tés,</w> 1066
ra dic 1065
rec ti 1065
cré dit</w> 1065
travaill eurs,</w> 1065
organis é</w> 1065
extéri eur 1065
stric tes</w> 1065
mê mes.</w> 1064
cris es</w> 1064
soci al,</w> 1063
att entes</w> 1063
con fér 1062
com pos 1062
essenti elles</w> 1062
conserv er</w> 1062
voisin age</w> 1061
dispos ent</w> 1061
mo de</w> 1060
poli ci 1060
croiss ante</w> 1060
dev rai 1059
mati ère.</w> 1059
trouv ons</w> 1059
ar ab 1058
embl ée</w> 1058
tour ner</w> 1058
bili té,</w> 1058
astr ich 1058
prospéri té</w> 1058
é dé 1057
re cu 1057
euro - 1057
bili té.</w> 1057
subsidi arité</w> 1057
l' affaire</w> 1056
rédi gé</w> 1056
Ma astrich 1056
d' accorder</w> 1055
ap prendre</w> 1055
b e</w> 1054
( IT)</w> 1054
gn er</w> 1054
r ent 1053
cen ci 1053
contro ver 1053
voud rions</w> 1053
commun s</w> 1052
éch é 1052
s ach 1051
sim ul 1051
c' était</w> 1051
futur s</w> 1051
- t-il</w> 1050
f aut 1050
N ' 1050
atten d</w> 1050
Pa kist 1050
avanc ée</w> 1050
annon cé</w> 1050
Hon gri 1050
im b 1049
Ch aque</w> 1049
gagn er</w> 1049
Mac édo 1049
k i 1048
li cenci 1048
présid ence,</w> 1048
qu’ en</w> 1048
institu tions.</w> 1048
appel é</w> 1048
dis ci 1047
faci lement</w> 1047
R E 1046
du quel</w> 1046
200 3</w> 1046
clu re</w> 1046
t eurs.</w> 1045
s oi</w> 1045
di tes</w> 1045
d es,</w> 1044
s' effor 1044
docu ment 1044
trap éri 1044
issu e</w> 1044
A ,</w> 1043
l' approvisionnement</w> 1043
ul trapéri 1043
mati n</w> 1043
mod è 1043
appu i</w> 1043
Pal estini 1042
ultrapéri phéri 1042
" à</w> 1041
ré e,</w> 1040
av ant,</w> 1040
milli on</w> 1040
sembl e,</w> 1040
observ ation</w> 1040
Portug al</w> 1040
t ente</w> 1039
ou rir</w> 1038
pr enne</w> 1038
d' aut 1037
( La</w> 1036
( CE 1036
adop tés</w> 1036
avant .</w> 1036
cro is,</w> 1036
génér ation</w> 1036
ret our 1036
généra les</w> 1036
remplac er</w> 1036
Communau té.</w> 1036
o x 1035
uti l 1035
publi é</w> 1035
haut eur</w> 1035
combat tre</w> 1035
as pir 1034
l'é duc 1034
oubli ons</w> 1034
M erci,</w> 1033
f ar 1032
B 5-0 1032
téri or 1032
d' appliquer</w> 1031
stru ment</w> 1031
disci pl 1031
e z- 1030
compl et</w> 1030
permettr ont</w> 1030
évo qué</w> 1030
dé térior 1029
différ ente</w> 1029
arriv er</w> 1029
dis s 1028
servi ces.</w> 1028
pi è 1028
Est - 1028
É co 1027
ab u 1027
am is</w> 1027
soci al.</w> 1027
AC P 1027
fabri c 1027
G az 1026
poin ts.</w> 1026
sensi ble</w> 1026
légiti mité</w> 1026
rej eté</w> 1026
quanti té</w> 1026
ry th 1026
surmon ter</w> 1026
l' approbation</w> 1025
t- ils</w> 1025
fondament aux.</w> 1025
AC P</w> 1025
né ,</w> 1024
ét onn 1024
inter venir</w> 1024
200 5</w> 1024
app eler</w> 1024
concurr ence,</w> 1024
domain es,</w> 1024
1 )</w> 1023
è se</w> 1023
com i 1023
fon dé</w> 1023
télé ph 1023
( C 1022
com porte</w> 1022
ill én 1022
cell es-ci</w> 1022
l'Ir lande</w> 1022
acces si 1022
imb ab 1022
pro pag 1021
po iss 1021
nation al,</w> 1021
considér ations</w> 1021
reçoi vent</w> 1021
ag i</w> 1020
aujour d</w> 1020
prisonni ers</w> 1020
on t,</w> 1019
in noc 1019
l' énergie,</w> 1019
cour ant</w> 1019
lors qu'ils</w> 1019
B i 1018
em ar 1018
fai bl 1018
clair s</w> 1018
diffu sion</w> 1018
imbab w 1018
l’ importance</w> 1017
initi ale</w> 1016
progres sivement</w> 1016
p es 1015
D E</w> 1015
vi sions</w> 1015
quel qu'un</w> 1015
cho se,</w> 1015
impli cation</w> 1015
examin é</w> 1015
altern ative</w> 1015
N ord 1014
contr airement</w> 1014
mé d 1014
l'av i 1014
l'industr ie,</w> 1014
rig our 1014
stabil isation</w> 1014
ougosl av 1014
ur ther 1013
s' attaquer</w> 1013
publi que,</w> 1013
attein te</w> 1013
entraî né</w> 1013
danger eux</w> 1013
quin ze</w> 1013
urther mor 1013
ce pendant,</w> 1012
s’ il</w> 1012
ré agir</w> 1011
ais e.</w> 1011
im p 1010
sou mise</w> 1010
eus es,</w> 1010
État ,</w> 1010
appropri ées</w> 1010
ri e</w> 1009
contr ats</w> 1009
déci sionn 1009
ol d 1008
présent s</w> 1008
déb ou 1008
souti en.</w> 1008
cô té,</w> 1008
des sus</w> 1008
mi lieu</w> 1007
renfor cer 1007
oeu vre</w> 1007
m ation</w> 1006
s aisi 1006
Con ven 1006
budg et.</w> 1006
éra ble</w> 1006
a té</w> 1005
hu i</w> 1005
ann ul 1005
pacifi que</w> 1005
pour cent 1004
suscepti bles</w> 1004
Dan emar 1004
2 2</w> 1003
N G 1003
renfor cé 1003
l'inter vention</w> 1003
élect eurs</w> 1003
t ellement</w> 1002
ap paraît</w> 1002
orient ale</w> 1002
exclu sivement</w> 1002
es t 1001
im pose</w> 1001
avanc ées</w> 1001
commis sion.</w> 1001
ca le</w> 1000
répon du</w> 1000
énergé tiques</w> 1000
inaccep table.</w> 1000
chau ff 1000
s ap 999
ra l</w> 999
pré voir</w> 999
engag ée</w> 999
fix és</w> 999
satis faire</w> 999
inqui études</w> 999
bo v 999
fédé r 999
dé montré</w> 998
200 6,</w> 998
qu’ elles</w> 998
justi ce,</w> 998
important s.</w> 998
dég ag 998
dis par 997
nation al.</w> 997
acti f</w> 997
le çons</w> 997
li ons</w> 996
pu ni 996
quatri ème</w> 996
l’ Europe.</w> 995
coopér ation.</w> 995
communaut aires.</w> 995
att ent 995
S omm 994
Au tri 994
technologi que</w> 994
chapi tre</w> 994
a m</w> 993
0 , 993
é poque</w> 993
re voir</w> 993
com bu 993
déci sion,</w> 993
écri t</w> 993
moti v 993
ré ci 992
menac es</w> 992
Pol ogne</w> 992
200 7</w> 991
lo g 991
transpar ence,</w> 991
d s.</w> 990
T i 990
travaill eurs.</w> 990
l'E st 990
vi é 989
équi val 989
intro duction</w> 989
plani fication</w> 989
l'ON U</w> 988
S on</w> 987
accor dé</w> 987
anti ci 987
pren ons</w> 987
devi enne</w> 987
navi g 987
t ô 986
m p 986
6 -0 986
di rais</w> 986
men é</w> 986
fourni ture</w> 986
enten d</w> 986
Cor ée</w> 986
ag ence</w> 985
soci ales,</w> 985
syn dic 985
Améri c 985
nor d</w> 984
diffici le.</w> 984
ais ons</w> 984
b omb 983
g ra 983
P u 982
ch ent</w> 982
ex erci 982
outi ls</w> 982
sug ges 982
modern isation</w> 982
l’UE .</w> 982
ag grav 981
l'U kraine</w> 981
urthermor e,</w> 981
d es.</w> 980
cor por 980
tradi tion</w> 980
D' une</w> 979
l ab 978
d ation</w> 978
f eu 978
ma î 978
nou s- 978
Dé mo 978
vice- président</w> 978
intéress ant</w> 977
aven ir.</w> 977
Tch étch 977
A ff 976
200 5,</w> 976
sup pose</w> 976
titu l 976
è tres</w> 975
ra le</w> 975
memb re.</w> 975
uni es.</w> 975
l' occu 974
ser ,</w> 973
per tes</w> 973
présid ente</w> 973
œuv re,</w> 973
pén ale</w> 973
re trait</w> 972
comm ence</w> 972
lec ture,</w> 972
vi te</w> 971
succè s.</w> 971
deven ue</w> 970
in cendi 969
cris e,</w> 969
Ou i,</w> 969
nour ri 969
v acc 968
l’ avenir</w> 968
end rai</w> 968
rem édi 968
200 0.</w> 968
remerci ements</w> 968
véri fier</w> 968
G ali 967
nécess airement</w> 967
S i 966
dem an 966
d’abor d</w> 966
l'excell ent</w> 966
commun .</w> 965
politi quement</w> 964
tex te.</w> 964
justi fier</w> 964
sign ature</w> 964
dura ble,</w> 964
desti né</w> 964
stimul er</w> 964
1 8 963
min orité</w> 963
Croati e</w> 963
revan che,</w> 963
t aille</w> 962
so vié 962
pens ent</w> 962
endr e.</w> 962
climati que.</w> 962
i j 961
f er</w> 961
d' a 961
proch ains</w> 961
distin c 961
exces si 961
r embour 960
pa ssi 960
in dem 960
dé sé 960
co décision</w> 960
mes ur 960
humain es</w> 960
Aff aires</w> 960
v olu 959
préven ti 959
souti ennent</w> 958
rest au 958
désé qui 958
stitu tion</w> 957
as h 957
d' aider</w> 956
loc aux</w> 956
argu ment</w> 956
espè ces</w> 956
d û 955
I I</w> 955
comm is</w> 955
fai bles</w> 955
demand e,</w> 955
199 9,</w> 955
régl er</w> 955
ret en 955
chimi ques</w> 955
f rag 954
dev ri 954
200 2</w> 954
200 3,</w> 954
climati que,</w> 954
PI B</w> 954
fév rier</w> 954
. -</w> 953
S eu 953
anni vers 953
associ ations</w> 953
9 0</w> 952
pro long 952
priv é</w> 952
inqui ét 952
appréci e</w> 952
adhé sion,</w> 952
ter re</w> 951
cor ri 951
encourag e</w> 951
produis ent</w> 951
chaî ne</w> 951
trai té,</w> 950
voi es</w> 950
le ad 950
libér alis 950
sav ent</w> 950
coor donner</w> 950
pauvret é.</w> 950
l' octroi</w> 949
cin qui 949
N on</w> 948
réguli èrement</w> 948
opti mis 948
o d 947
souh ait</w> 947
Qu i</w> 947
exist antes</w> 947
ati ves,</w> 946
contribu ent</w> 946
État .</w> 946
devi ennent</w> 946
e c</w> 945
g y 945
d' autres,</w> 945
répon d</w> 945
constructi ve</w> 945
l'OTA N</w> 945
n av 944
direc t</w> 944
cir cons 944
n ul 943
( N 943
S I 943
y cl 942
con solid 942
dis tor 942
institu tions,</w> 942
négoci er</w> 942
recher che.</w> 942
augment é</w> 942
télévi sion</w> 942
donn ent</w> 941
prot ectionn 941
arrê ter</w> 941
améric ain</w> 941
consac ré</w> 941
besoin .</w> 941
" économie</w> 940
d' encourager</w> 940
procédu re.</w> 940
domain es.</w> 940
milliar d</w> 940
(A 4-0 940
Barroso ,</w> 940
v end 939
d' ar 939
trans actions</w> 939
capit ale</w> 939
ati ves.</w> 938
d'ex per 938
rempli r</w> 938
priv ée</w> 937
semain es,</w> 937
op tions</w> 936
suiv ant</w> 936
soli de</w> 936
enquê tes</w> 936
u les</w> 935
R O 935
L’ Union</w> 935
ress é</w> 934
cruci ale</w> 934
M i 933
pro fond 933
budgét aire.</w> 933
élabor é</w> 933
fi ée</w> 932
aff ect 932
exprim ées</w> 932
du mp 931
ap parten 931
ser ai</w> 931
présent ées</w> 931
200 0 931
Slo va 931
l oy 930
ces s 930
fer ont</w> 930
honn ê 930
Can ad 930
dé ,</w> 929
par tout</w> 929
enc er</w> 929
l'in strument</w> 929
minim ales</w> 929
vi ons</w> 928
croiss ance,</w> 928
lec ture.</w> 928
seign ement</w> 928
d' amendements</w> 927
jus qu' 927
préc au 927
problèm es,</w> 927
H el 926
qu ar 926
L' un</w> 926
garanti t</w> 926
d'abor der</w> 926
essay é</w> 926
Barro so</w> 926
rétabli r</w> 926
réduc tions</w> 926
r ô 925
at eurs.</w> 925
vis as</w> 925
franç aise</w> 925
d' orig 924
ren on 924
app els</w> 924
tent é</w> 924
approfondi e</w> 924
k o 923
im pér 923
cultur e,</w> 923
bénéfi ces</w> 923
pili er</w> 923
l'exemp le</w> 923
u le</w> 922
20 0</w> 922
connaiss ent</w> 922
envoy é</w> 922
ré alité.</w> 921
ser ve</w> 921
budg et,</w> 921
engag és</w> 921
accid ents</w> 921
E D 920
X X 920
utilis ent</w> 920
CO 2</w> 920
bureaucrati e</w> 920
objecti f.</w> 919
l'ex clusion</w> 919
s por 918
bl es 918
nom ination</w> 918
l'in di 918
effectu er</w> 918
altern atives</w> 918
pul sion</w> 918
Bure au</w> 918
at mos 917
ens )</w> 917
renforc ée</w> 916
Li tu 916
stratégi ques</w> 916
établ issant</w> 916
pro jet 915
pos te</w> 915
demand ent</w> 915
préci s</w> 915
B ir 914
er i 914
pré voy 914
gu ère</w> 914
fonc tions</w> 914
l'E S 914
e k 913
iss ements</w> 913
dés astr 913
chos es,</w> 913
s / 912
an es</w> 912
su bi 912
directi ve 912
sign er</w> 912
souff r 912
C er 911
or di 911
ambi tion</w> 911
confir mé</w> 911
c k 910
tr ac 910
ra y 910
mar que</w> 910
four ni</w> 910
dél oc 910
P r 909
ra bles</w> 909
abor de</w> 909
pouv ons-nous</w> 909
opér ation</w> 909
nég atif</w> 909
Ch ine.</w> 909
fourni t</w> 909
l'inter médiaire</w> 909
2 6</w> 908
jou ent</w> 908
cher che</w> 908
prati que.</w> 908
fru its</w> 908
couv re</w> 908
b arri 907
contribu ables</w> 907
partag eons</w> 907
accue ill 907
pagn e,</w> 907
pério des</w> 906
o ù 905
ti ques.</w> 905
énergé tique,</w> 905
perman ent</w> 905
citoyenn eté</w> 905
O r 904
li n</w> 904
per sécu 904
sal aires</w> 904
Pol ogn 904
d or 903
popul ation.</w> 903
in v 902
capit aux</w> 902
e )</w> 901
f eu</w> 901
li c 901
financi ères.</w> 901
prom is</w> 901
crit ère</w> 901
diminu tion</w> 901
ar d 900
il ,</w> 900
200 1</w> 900
cher cher</w> 900
véri té</w> 900
F is 899
po que,</w> 899
ra ssembl 899
isl ami 899
garanti ssant</w> 899
formul ées</w> 899
privi légi 899
main- d' 899
2 )</w> 898
ex pl 898
restr ein 898
d' augmenter</w> 897
mi g 897
200 7 897
comp te.</w> 897
centr al</w> 897
refu ser</w> 897
accue il</w> 897
n' avait</w> 896
prim ordi 896
illég ale</w> 896
tes ts</w> 896
mac ro 896
tonn es</w> 896
Tchétch é 896
spor ti 896
P SE 895
li re</w> 895
territ oires</w> 895
équilib rée</w> 895
dérou l 895
Her z 895
arti cl 894
observ ations</w> 894
éventu elle</w> 894
lors qu'elle</w> 893
et tement</w> 892
mati n,</w> 892
fa ssent</w> 892
médi ateur</w> 892
Qu and</w> 892
améric aine</w> 892
rej ette</w> 892
z i 891
B us 891
mar qu 891
aliment aire,</w> 891
c ab 890
m an</w> 890
ve ille</w> 890
ren voy 890
important es.</w> 890
éch ec</w> 890
conserv ation</w> 890
simpli fier</w> 890
restructur ation</w> 890
i t,</w> 889
ab sur 889
anti - 889
remar quer</w> 889
Europé ens,</w> 889
catégori es</w> 889
Pays-B as</w> 889
(N L)</w> 889
Slova qui 889
dé montre</w> 888
ess e.</w> 888
circons cri 888
V )</w> 887
ru bri 887
fau te</w> 886
automobi le</w> 886
c ouvrir</w> 885
vi es</w> 885
vo te,</w> 885
fin .</w> 885
vis u 885
convain cu 885
pauvret é,</w> 885
i ci.</w> 884
A R 884
is me,</w> 884
fin ale</w> 884
gr os</w> 883
l’ objet</w> 883
objecti fs.</w> 883
bil an</w> 883
mat er 883
équip ements</w> 883
affai bli 883
s' assurer</w> 882
l'in vestiss 882
Gr âce</w> 882
té nu 881
mon t 881
pen cher</w> 881
affir mé</w> 881
décou l 881
no tion</w> 880
app ell 880
rapid ement.</w> 880
quali té.</w> 880
collec te</w> 880
con duc 879
renfor ce</w> 879
région aux</w> 879
multilat ér 879
acc ru 878
investiss ement</w> 878
pro li 877
tchè que</w> 877
T h 876
fin land 876
croiss ant</w> 876
volon taire</w> 876
entraî ner</w> 876
para ître</w> 876
adhér er</w> 876
b ét 875
ré pé 875
por tés</w> 875
ap pris</w> 875
sé ment</w> 875
rend ent</w> 875
débat tu 874
ing ,</w> 874
devi ons</w> 874
Z imbabw 873
bl oc 873
aujourd’hu i,</w> 873
re di</w> 872
mi - 872
maî tr 872
si ège</w> 871
op posés</w> 871
ré par 871
sti pu 871
de z</w> 871
cor ps</w> 871
(A 5-0 871
m ér 870
é der</w> 870
( CO 870
d' égalité</w> 870
der ,</w> 870
législ ations</w> 870
diffici le,</w> 870
secon de</w> 870
mouv ements</w> 870
ru sse</w> 869
d'im pact</w> 869
convainc re</w> 869
Allem agne</w> 869
ent- ils</w> 869
TV A</w> 869
h ori 868
ten dre</w> 868
ad di 868
Qu elles</w> 868
maxim um</w> 868
b es</w> 867
V ert 867
op port 867
qu' a</w> 867
per sist 867
inter nes</w> 867
bénéfici e</w> 867
empê che</w> 867
c '</w> 866
H am 866
l' attitude</w> 866
at oi 866
rel ance</w> 866
const até</w> 866
institutionn el</w> 866
refu s</w> 866
e au,</w> 865
répon se.</w> 865
inform é</w> 865
impliqu és</w> 865
thé ori 865
xi ème</w> 865
T elle</w> 864
ré d 864
l'in nov 864
environn ement,</w> 864
tent atives</w> 864
d'Amster dam 864
d' urg 863
d’ avoir</w> 863
d’ action</w> 863
nation ale.</w> 863
trai t 863
internation ales.</w> 863
coopér ation,</w> 863
clar té</w> 863
génér alis 863
impli cations</w> 863
200 8</w> 862
entre pren 862
acti fs</w> 862
négoci ations,</w> 862
quali té,</w> 862
combu sti 862
ques - 861
Par mi</w> 861
Ou tre</w> 861
concré ti 861
é prouv 860
si g 860
ré s.</w> 860
200 2,</w> 860
l'A genda</w> 860
err on 860
sugg ère</w> 860
b aiss 859
si te</w> 859
soci aux,</w> 859
civi ls</w> 859
où ,</w> 859
re qui 858
emb arg 858
mati ques</w> 858
conse ils</w> 858
dro gues</w> 858
méd ec 858
l' est</w> 857
mi li 857
L' amendement</w> 857
lev er</w> 857
réc entes</w> 857
cont am 857
inten tions</w> 857
A fghanist 856
si ne</w> 856
considér ant</w> 856
PA C</w> 856
( article</w> 855
entr et 855
ph ère</w> 855
rapproch er</w> 855
forê ts</w> 855
t :</w> 854
2 5 854
pré texte</w> 854
cl assi 854
donn era</w> 854
financi ère,</w> 854
demand eurs</w> 854
commerci alisation</w> 854
at ténu 853
no ter</w> 853
Con cer 853
l'é change</w> 853
d'é cus</w> 853
d' États</w> 852
l’ État</w> 852
dev aient</w> 852
rec ourir</w> 852
rel èvent</w> 852
difficul té</w> 852
occup er</w> 852
considé rés</w> 851
dou tes</w> 851
fru ctu 851
200 6.</w> 850
public s,</w> 850
économi e.</w> 849
200 4.</w> 849
all oc 849
financi ère.</w> 849
d'euro s,</w> 849
interpré tation</w> 849
I N 848
ex pres 848
l’ égard</w> 848
él u</w> 848
libér ation</w> 848
paragrap h 848
pri o 847
200 7.</w> 847
exist ants</w> 847
partag er</w> 847
progres sive</w> 847
scand al 847
tragédi e</w> 847
annivers aire</w> 847
y .</w> 846
di z 846
se z</w> 846
spéci alis 846
inqui étude</w> 846
Ver ts</w> 846
vie ill 846
Méditerran ée</w> 846
" Monsieur</w> 845
l’ en 845
aut or 845
all ant</w> 845
Min is 845
cinqui ème</w> 845
L '</w> 844
T uni 844
Tou te</w> 844
Fr an 844
déch arg 844
soci o- 843
plac e.</w> 843
desti née</w> 843
clari fi 843
stad e,</w> 843
B l 842
dev ez</w> 842
comprom is.</w> 842
candid at</w> 842
judici aires</w> 842
campagn es</w> 842
L a 841
Par ti</w> 841
o ise</w> 840
3 1</w> 840
j eux</w> 840
d' accepter</w> 840
d'ex primer</w> 840
In ter 840
appliqu ées</w> 840
honor ables</w> 840
h ol 839
M ais,</w> 839
er gi 839
in con 839
l’ un</w> 839
d'in itiative</w> 839
harmon iser</w> 839
écou té</w> 839
compati ble</w> 839
propos ons</w> 839
él ection</w> 838
financi ères,</w> 838
proch aine.</w> 838
souff rent</w> 838
Pal esti 838
oi .</w> 837
ouv re</w> 837
législ ation.</w> 837
car te</w> 837
mu sul 837
proli fér 837
s "</w> 836
d' entendre</w> 836
direc teur</w> 836
l'A mérique</w> 836
ê tre,</w> 835
pré judi 835
fondament alement</w> 835
commer ce,</w> 835
Concer nant</w> 835
aux - 834
quê te</w> 834
d’ euros</w> 833
expli cit 833
d'Amster dam</w> 833
for esti 832
progr è 832
emplo is,</w> 832
annex e</w> 832
réci pro 832
S ar 831
indépend ance</w> 831
écou l 831
l'Allem agne</w> 831
fermet ure</w> 831
av er 830
trans formation</w> 830
compr ennent</w> 830
program me.</w> 829
volon t 829
profon de</w> 829
tempor aire</w> 829
l'Au tri 829
n atu 828
l' espoir</w> 828
ex pression</w> 828
quel conque</w> 828
ologi e</w> 828
évid ence,</w> 828
neu f</w> 828
Démo cr 828
m ou 827
min ist 827
dési r</w> 827
correspon d 827
r i</w> 826
n aiss 826
rec ycl 826
somm e</w> 826
puis qu'il</w> 826
limi té</w> 826
Rom s</w> 826
appuy er</w> 826
consolid ation</w> 826
mo teur</w> 825
enti ère</w> 825
J' invite</w> 825
Qu elle</w> 825
déli v 825
hum ain</w> 825
Moyen-Ori ent</w> 825
vo terons</w> 824
aff ron 824
médi c 824
sû reté</w> 824
D' autres</w> 824
appliqu ée</w> 824
concep tion</w> 824
ignor er</w> 824
prud ence</w> 824
T im 823
dé favoris 823
ca t</w> 823
priv és</w> 823
enthousi as 823
C ' 822
ch an 822
ten ons</w> 822
seu il</w> 822
201 0</w> 822
structur elles</w> 822
dû ment</w> 822
Vert s/ 822
ob il 821
environn ement.</w> 821
Commiss aire.</w> 821
aliment aire.</w> 821
bure au</w> 821
fisca les</w> 821
poss ède</w> 821
ré els</w> 820
d' évaluation</w> 820
travaill ons</w> 820
land e.</w> 820
applic ables</w> 820
o se</w> 819
ar ch 819
équi pe</w> 819
concurr enti 819
condam ner</w> 819
pétro li 819
ag enda</w> 818
im posées</w> 818
él us</w> 818
jour s.</w> 818
nu mér 818
off rent</w> 818
réc ents</w> 818
l'ag enda</w> 818
at eur,</w> 817
ab oli 817
ser ai 817
s' engager</w> 817
indi quer</w> 817
intégr é</w> 817
dura bilité</w> 817
quel ques- 816
soi - 816
renforc é</w> 816
ac com 815
L' une</w> 815
esti mé</w> 815
derni er.</w> 815
observ ateurs</w> 815
é coles</w> 814
trai tées</w> 814
souv ent,</w> 814
simil aires</w> 814
l'élargiss ement.</w> 814
V I 813
F urthermore,</w> 813
ph arm 813
transpar ence.</w> 813
NG L 813
pharm ac 813
dis ons</w> 812
Europ ol</w> 812
professionn els</w> 812
équilib ré</w> 812
trou pes</w> 812
Strasbour g</w> 812
x én 811
mo dé 811
présent ent</w> 811
cé ré 811
plac e,</w> 811
ambi gu 811
bas é</w> 811
impati ence</w> 811
200 9</w> 810
d'in iti 810
conse ill 810
tribun aux</w> 810
Copenhag ue</w> 810
pro vis 809
ad mettre</w> 809
cô ti 809
qualifi cations</w> 809
rec ettes</w> 808
aut ori 808
présent .</w> 808
eff on 808
endr e,</w> 808
effectu é</w> 808
rura les</w> 808
2 8</w> 807
ri ches</w> 807
l’ adhésion</w> 807
200 9.</w> 807
conjoin tement</w> 807
persu ad 807
modè les</w> 807
in ond 806
pro cès</w> 806
tabl es.</w> 806
indépend ante</w> 806
figur ent</w> 806
M or 805
rais ons,</w> 805
chos es.</w> 805
l' humani 804
ac ul 804
ér ation</w> 804
l'av ant 804
vé ni 804
ag ré 803
for um</w> 803
économi e,</w> 803
assi sté</w> 803
d'im migration</w> 803
élargi r</w> 803
per ç 802
d’ entre</w> 802
19 7 802
mondi al,</w> 802
évén ement</w> 802
allem and</w> 802
Ver h 802
em pris 801
èg es</w> 801
engag é</w> 801
réalis te</w> 801
Sol an 801
ser ais</w> 800
demand ant</w> 800
Su è 800
contradi ction</w> 800
dump ing</w> 800
l à- 799
présent és</w> 799
200 1,</w> 799
200 7,</w> 799
représent er</w> 799
déclar er</w> 799
indépend ants</w> 799
convi ction</w> 799
après- mi 799
C eux</w> 798
D eux</w> 798
l' élimination</w> 798
l'en seignement</w> 798
m' ont</w> 798
administr ative</w> 798
habi t 798
exploi tations</w> 798
viv ant</w> 798
g as 797
en ver 797
exprim ée</w> 797
réc ent</w> 797
c ’ 796
è te,</w> 796
j ur 796
es ?</w> 796
pa pi 796
l’ occasion</w> 796
cer tes</w> 796
end ant</w> 796
travai lle</w> 796
l' ach 795
ég ov 795
gu er</w> 795
enti er</w> 795
ru ss 795
fondament aux,</w> 795
Herz égov 795
E C 794
B E 794
l' effet</w> 794
con ç 794
con ces 794
ba ss 794
homm age</w> 794
public s.</w> 794
fri que,</w> 794
transport s,</w> 794
déci sion 793
ph il 793
partici per 793
consid èrent</w> 793
bou t</w> 793
électroni que</w> 793
ré pression</w> 792
sur veiller</w> 792
main tes</w> 792
responsabili té.</w> 792
Portug al,</w> 792
pa th 791
proposi tions.</w> 791
é té,</w> 790
l' am 790
l' ampleur</w> 790
limi tée</w> 790
nuclé aire.</w> 790
flot te</w> 790
i te</w> 789
J u 789
ré i 789
Présid ent.</w> 789
sol d 789
instau rer</w> 789
interinstitutionn el</w> 789
accueilli r</w> 789
C '</w> 788
n is 788
Par allè 788
inter rom 788
trans mettre</w> 788
prot ec 788
région s,</w> 788
fronti ères.</w> 788
long temps.</w> 788
confron tée</w> 788
vigu eur.</w> 788
expéri ences</w> 788
spec t 788
témoi gn 788
résist ance</w> 788
l’ environnement</w> 787
sou ci</w> 787
cour onn 787
juridi quement</w> 787
dél oy 787
l'agricul ture,</w> 787
v oit</w> 786
ti ques,</w> 786
U kraine</w> 785
d' armes</w> 785
derni ère.</w> 785
soi r,</w> 785
évalu ations</w> 785
long temps,</w> 785
étudi er</w> 785
empris onn 785
d'ex pression</w> 784
occa sion,</w> 784
réglement aire</w> 784
transform er</w> 784
m ,</w> 783
s atel 783
d' aller</w> 783
at aires</w> 783
memb re,</w> 783
omi e</w> 783
écon om 783
l’ industrie</w> 782
trans position</w> 782
comprom is,</w> 782
consac rer</w> 782
f re 781
sus p 781
établi t</w> 781
expli que</w> 781
élé ment 781
simpli fi 781
dég ra 781
sauve garde</w> 781
p eur</w> 780
é c 780
op ho 780
nécess aires,</w> 780
convain cus</w> 780
lanc ement</w> 780
recu e 780
pourcent age</w> 780
e b 779
ani e,</w> 779
dro gue</w> 779
ati que</w> 778
appel ons</w> 778
f actu 777
N .</w> 777
K ar 777
assassi n 777
ni er</w> 776
re traite</w> 776
sou mises</w> 776
rencontr é</w> 776
é man 775
ou i,</w> 775
bi om 775
appli qué</w> 775
région s.</w> 775
Ser bie</w> 775
phil os 775
anim aux.</w> 774
th èmes</w> 774
légiti me</w> 774
l'élargiss ement,</w> 774
Bosni e- 774
r r 773
î les</w> 773
démocr ates- 773
ma ss 773
élev ées</w> 773
201 0.</w> 773
conten ues</w> 773
aut o 772
proch aine,</w> 772
siè cle</w> 772
Pers onn 772
natu rel</w> 772
nor di 771
T ant</w> 770
rem pl 770
col oni 770
envis age</w> 770
cal cul 770
secré taire</w> 770
Géorgi e</w> 770
ser vent</w> 769
der a</w> 769
l'ex tension</w> 769
laiss é</w> 769
intég rité</w> 769
T el</w> 768
im mig 768
l’ objectif</w> 768
arg ent.</w> 768
exam ine</w> 768
regis tre</w> 768
Grè ce,</w> 768
e ",</w> 767
A .</w> 767
ain s,</w> 767
jus qu’à</w> 767
Sch ul 767
évent ail</w> 767
gas pill 767
E x 766
pr ends</w> 766
in sul 766
ces ser</w> 766
j' avais</w> 766
simil aire</w> 766
ct oire</w> 766
plu r 765
Bir mani 765
g in 764
D oh 764
, 5</w> 764
er ie</w> 764
in contes 764
l' énergie.</w> 764
ré sol 764
L' accord</w> 764
commun ,</w> 764
entre prendre</w> 764
occu pe</w> 764
illu str 764
on e,</w> 763
ell es- 763
défin i</w> 763
favor ablement</w> 763
Ira k</w> 763
pronon cer</w> 763
sac ri 763
soi- disant</w> 763
Verh eug 763
É gy 762
parti e,</w> 762
200 8,</w> 762
cou pa 762
Kosovo ,</w> 762
l ang 761
" énergie</w> 761
3 5</w> 761
ss é</w> 761
cri tiqu 761
présid ent,</w> 761
ir régul 761
Qu atri 761
retar ds</w> 761
l à.</w> 760
tou t.</w> 760
l’ économie</w> 760
import ation</w> 760
solu tion.</w> 760
ris qu 760
est- elle</w> 760
institutionn elle</w> 760
positi ves</w> 759
Cert aines</w> 759
péti tions</w> 759
bienven ue</w> 759
B ol 758
di t.</w> 758
pl aintes</w> 758
pen sions</w> 758
enti er.</w> 758
lib rement</w> 758
mesu res,</w> 758
gouvern ement,</w> 758
modifi é</w> 758
d'im poser</w> 758
l'Es t</w> 758
enseign ement</w> 758
2007 -201 758
A r 757
P endant</w> 757
ag res 757
multi pli 757
Intern et</w> 757
ré s,</w> 756
contr e,</w> 755
mê mes,</w> 755
vis a</w> 755
enn es,</w> 755
atu res</w> 755
exig ent</w> 755
immédi ate</w> 755
rati onn 755
étudi ants</w> 755
krai ni 755
suscepti ble</w> 755
auton om 755
effon dr 755
ai de.</w> 754
él or 754
particip ent</w> 754
abandonn er</w> 754
l' ac 753
im migrants</w> 753
n' aurait</w> 753
seu les</w> 753
enn es.</w> 753
lon gu 753
Qu el</w> 753
util ise</w> 753
l' ancienne</w> 752
oc arb 752
migr ation.</w> 752
concentr ation</w> 752
l u</w> 751
ter res</w> 751
duis ent</w> 751
compens ation</w> 751
? uvre</w> 750
fer mer</w> 750
fl ag 750
confir me</w> 750
Pro di</w> 750
journ alistes</w> 750
l’Uni on.</w> 750
réi té 750
mesu res.</w> 749
financi ers.</w> 749
dépu tés.</w> 749
intéri m 749
mom ent.</w> 749
bénéfici aires</w> 749
cô tés</w> 749
palestini en</w> 749
décri t</w> 749
abouti r</w> 749
quit ter</w> 749
décla re</w> 749
Natur ellement,</w> 749
is me.</w> 748
ag ents</w> 748
ca dre,</w> 748
subst ance</w> 748
restri cti 748
" égalité</w> 747
d en</w> 747
di vision</w> 747
res tera</w> 747
mon tants</w> 747
soci aux- 747
LA F</w> 747
stipu le</w> 747
t on,</w> 746
ap pl 746
Par ce</w> 746
mi cro 746
évo qu 746
haut ement</w> 746
or ale</w> 745
l’ année</w> 745
objecti fs,</w> 745
souhai té</w> 745
mer ci</w> 745
souten ue</w> 745
o visu 744
M ain 744
dr ont</w> 744
civi le.</w> 744
essay ons</w> 744
structurel s,</w> 744
PE S 744
no ti 743
déb ar 743
sect ori 743
lon gues</w> 743
fais ant,</w> 743
Itali e</w> 743
et ter 742
d'in clure</w> 742
indépend amment</w> 742
fourniss eurs</w> 742
Cer tes,</w> 742
Li by 741
allem ande</w> 741
moti fs</w> 741
soul ève</w> 741
ocarb ur 741
e au.</w> 740
ti ème</w> 740
si tes</w> 740
pri x.</w> 740
hi er,</w> 740
minu tes</w> 740
audi ovisu 740
Moyen-Ori ent.</w> 740
l'Au torité</w> 740
chem ins</w> 740
C ar</w> 739
ti mi 739
augment e</w> 739
solidari té,</w> 739
pharmac eu 739
s ag 738
tr e- 738
l' acquis</w> 738
pl ant 738
crimin els</w> 738
absolu e</w> 738
Belar us</w> 738
j '</w> 737
T am 737
is ent</w> 737
ch y 737
exig ence</w> 737
spécifi ques.</w> 737
rati fi 737
" État</w> 736
m èn 736
ô ts</w> 736
re pris</w> 736
sou ci 736
Brux elles,</w> 736
c élé 735
vi n</w> 735
ain s.</w> 735
com it 735
bi en.</w> 735
fl ation</w> 735
migr ation,</w> 735
volu me</w> 735
s téri 734
G ar 734
es "</w> 734
si e,</w> 734
nu it</w> 734
ir ani 734
effecti ve</w> 734
ti v 733
l'A n 733
spéci ale</w> 733
br an 733
l’ adoption</w> 732
sor t</w> 732
préoccu pés</w> 732
CE ,</w> 732
diz aines</w> 732
com pris 731
M es</w> 730
z o 730
d' empêcher</w> 730
l'é poque</w> 730
suc re</w> 730
constat ons</w> 730
identi fication</w> 730
vig il 730
tolér ance</w> 730
c op 729
y m 729
l' accep 729
av an 729
qu' aucun</w> 729
ap h 729
présent ant</w> 729
communaut aires,</w> 729
autoris er</w> 729
l'extéri eur</w> 729
n ettement</w> 728
s tu 728
B CE</w> 728
ad mis 728
don é 728
200 9,</w> 728
P i 727
acc éder</w> 727
humain e.</w> 727
accompli s</w> 727
m er.</w> 726
b a</w> 726
R o 726
di rai</w> 726
l’ égalité</w> 726
donn ant</w> 726
différ ent</w> 726
sim ples</w> 726
considér ation.</w> 726
examin ons</w> 726
subsi st 726
tribun al</w> 726
ving t</w> 726
m ée</w> 725
K on 725
am ment,</w> 725
ris quent</w> 725
concr ète</w> 725
arriv ée</w> 725
remarqu able</w> 725
è lement</w> 724
pr ag 724
ré tabl 724
sect eur,</w> 724
reven di 724
opportuni tés</w> 724
p esti 723
d' environ</w> 723
com bler</w> 723
él è 723
prom esses</w> 723
Su d- 723
réglement er</w> 723
solidari té.</w> 723
comi tés</w> 723
d' accords</w> 722
autr ement</w> 722
croiss ance.</w> 722
cau sés</w> 722
ins pir 722
touch és</w> 722
sauv er</w> 722
l li 721
o ï 721
n on,</w> 721
M ,</w> 721
ar bi 721
di ons</w> 721
al lu 721
ni té</w> 721
l’ utilisation</w> 721
bi ocarbur 721
de au</w> 721
l'ex ception</w> 721
sau f</w> 721
supprim é</w> 721
Brux elles.</w> 721
lati ne</w> 721
embarg o</w> 721
( RO 720
du ise</w> 720
région ale,</w> 720
civi le,</w> 720
élargiss ement,</w> 720
Ira n</w> 720
chréti ens)</w> 720
s'av ère</w> 720
re join 719
fr oi 719
cons ent 719
popul ation,</w> 719
règl ement 719
l' autre.</w> 718
ven ons</w> 718
proposi tions,</w> 718
ass emblée</w> 718
souhai ter</w> 718
autom obil 718
privi l 718
s ch 717
conn exi 717
conserv ateurs</w> 717
agricol e,</w> 717
aéropor ts</w> 717
jour née</w> 716
pour ri 716
d'A mérique</w> 716
inclu t</w> 716
hon gr 716
comment aire</w> 716
irland aise</w> 716
espagno le</w> 716
ti enne</w> 715
re garder</w> 715
chang é</w> 715
touris me,</w> 715
sugges tions</w> 715
c ancer</w> 714
9 )</w> 714
S w 714
d' assurance</w> 714
résult ats.</w> 714
201 0,</w> 714
bru t 714
du r</w> 713
der .</w> 713
atten d 713
défen s 713
B ö 712
dem eur 712
financi ers,</w> 712
pi t 712
cli mat 712
évo quer</w> 712
perman ente</w> 712
clau ses</w> 712
brev ets</w> 712
l'Ira n</w> 712
Jus qu'à</w> 712
rap h 711
l'ex portation</w> 711
adéqu at</w> 711
exécu ti 711
l’UE ,</w> 711
(RO )</w> 711
s ent 710
I ,</w> 710
k il 710
l' aspect</w> 710
conclu s</w> 710
elle- même.</w> 710
propri ét 710
âg ées</w> 710
l'éduc ation,</w> 710
opport un</w> 710
t lanti 709
A c 709
en ch 709
d' élaborer</w> 709
min es</w> 709
droi te</w> 709
actu el,</w> 709
analy ser</w> 709
sensi bles</w> 709
l'ON U 709
extraordin aire</w> 709
aut eurs</w> 708
fer ons</w> 708
l'en semble,</w> 708
dési r 708
Communau tés</w> 708
félicit ations</w> 708
Personn ellement,</w> 708
é cl 707
T ri 707
ver ser</w> 707
utilis ateurs</w> 707
préf érable</w> 707
irrégul ari 707
p ilo 706
Con g 706
ju ge</w> 706
État s,</w> 706
intéri eure</w> 706
s’ ag 706
pén al</w> 706
devi endra</w> 706
préjudi ce</w> 706
a des</w> 705
" égard</w> 705
m er,</w> 705
3 00</w> 705
- t-elle</w> 705
pa tri 705
autoris és</w> 705
(CE )</w> 705
enc ein 704
d'in st 704
internation ales,</w> 704
handicap ées</w> 704
Somm et</w> 704
L ond 703
objecti f,</w> 703
pres cri 703
correc te</w> 703
Ir lande,</w> 703
disponi ble</w> 703
bas e,</w> 703
l'euro ,</w> 703
ryth me</w> 703
e i 702
ent ends</w> 702
at tr 702
com position</w> 702
éli gi 702
minis téri 702
group e.</w> 702
territori ale</w> 702
l'Itali e</w> 702
per tur 701
pour rais</w> 701
200 5.</w> 701
applic able</w> 701
rac isme</w> 701
(S V)</w> 701
Sou d 701
é clair 700
im parti 700
pour parl 700
form ule</w> 700
souhai table</w> 700
inform és</w> 700
199 9.</w> 700
accu s 700
socié té,</w> 700
Allem agne,</w> 700
m ène</w> 699
A mérique</w> 699
d' intervention</w> 699
financ ement.</w> 699
génér ations</w> 699
consoli der</w> 699
  -,</w> 698
con tenter</w> 698
qu' après</w> 698
charg es</w> 698
flu ence</w> 698
achet er</w> 698
A sh 697
H i 697
( H 697
d' asi 697
inter dit</w> 697
considé rées</w> 697
fer ait</w> 697
gouvernement ales</w> 697
améric ains</w> 697
m unité</w> 696
D u</w> 696
pré visi 696
présid ence.</w> 696
législ ation,</w> 696
préoccu pe</w> 696
compétiti ve</w> 696
manifes tations</w> 696
qualifi ée</w> 696
conten ant</w> 696
M u 695
contr aintes</w> 695
tar d.</w> 695
chôm age,</w> 695
jeun es,</w> 695
empr un 695
Grande-Bret agne</w> 695
Améric ains</w> 695
g e,</w> 694
pl at 694
droi ts,</w> 694
positi ve.</w> 694
rép ète</w> 694
fic ation,</w> 694
M old 693
si non</w> 693
l' entreprise</w> 693
ex tension</w> 693
form ément</w> 693
20 20</w> 693
do ter</w> 693
l'Al liance</w> 693
Kosovo .</w> 693
Pers onne</w> 693
prin temps</w> 693
J oh 692
ch arte</w> 692
sur pris</w> 692
présid enti 692
essenti el,</w> 692
étrang ers</w> 692
Es pagne</w> 692
systémati quement</w> 692
l' ancien</w> 691
ex hor 691
dem eure</w> 691
ist e,</w> 691
l'ex pression</w> 691
indi qu 691
produc tion,</w> 691
consult ations</w> 691
employ és</w> 691
Plu sieurs</w> 691
fall ait</w> 691
r ation 690
or es</w> 690
di re.</w> 690
par ents</w> 690
qu' aucune</w> 690
l’ Europe,</w> 690
limi tation</w> 690
hon orable</w> 690
religi on</w> 690
lieu .</w> 690
é pi 689
re joindre</w> 689
l’ heure</w> 689
produi ts.</w> 689
nor mal 689
l'en f 689
processu s,</w> 689
n s</w> 688
l' assistance</w> 688
op ou 688
important s,</w> 688
insi sté</w> 688
concerné s.</w> 688
hori zon 688
r an 687
éri r</w> 687
arg ent,</w> 687
condi tions,</w> 687
. )</w> 686
I F 686
y eux,</w> 686
ré un 686
at eur.</w> 686
cr aign 686
commun iste</w> 686
dossi ers</w> 686
J ac 685
B o 685
am i</w> 685
for tes</w> 685
él an</w> 685
amend ement,</w> 685
priv atis 685
agn e.</w> 685
agricol e.</w> 685
bor d</w> 685
ati f.</w> 684
dé montrer</w> 684
dé riv 684
matéri el</w> 684
donn ées.</w> 683
financi er.</w> 683
suffis ante</w> 683
mod es 683
condam nation</w> 683
réform er</w> 683
exis tant</w> 683
élector ale</w> 683
espagno l</w> 683
l un 682
á n 682
op posé</w> 682
d' entreprise</w> 682
ra ,</w> 682
per mette</w> 682
sem aine,</w> 682
annu elle</w> 682
explicit ement</w> 682
C hi 681
f rap 681
emb ry 681
séri eux.</w> 681
jeu ne</w> 681
l'Es pagne</w> 681
b er</w> 680
j ac 680
pro lon 680
bu l 680
voul ez</w> 680
lo in.</w> 680
dépend ent</w> 680
Constitu tion.</w> 680
l et 679
fo ot 679
pa t 678
stitu t</w> 678
compl éter</w> 678
accompli r</w> 678
oû t</w> 678
m atu 677
es pé 677
l' ob 677
l'inst ar</w> 677
supéri eur</w> 677
directive -cadre</w> 677
S ,</w> 676
si ves</w> 676
pri x,</w> 676
vol s</w> 676
commer ce.</w> 676
dollar s</w> 676
refu sé</w> 675
subsidiari té.</w> 675
remédi er</w> 675
e z 674
v ues</w> 674
d' enfants</w> 674
s' appliquer</w> 674
inter n 674
ist es,</w> 674
ass ou 674
const ante</w> 674
grav ement</w> 674
responsabili tés.</w> 674
signific atif</w> 674
Euro st 674
démar che</w> 674
ox y 674
l' appel</w> 673
l' alimentation</w> 673
ex u 673
trai tée</w> 673
fo ssé</w> 673
fronti ères,</w> 673
tradi tions</w> 673
transfrontali ère</w> 673
Kyot o</w> 673
l' analyse</w> 672
particuli ères</w> 672
uti les</w> 672
rais on.</w> 672
continu erons</w> 672
mer c 672
partenari ats</w> 672
prob able</w> 672
quanti tés</w> 672
M an 671
S E</w> 671
con centre</w> 671
ré pu 671
ex ter 671
mé ,</w> 671
Qu el 671
an téri 670
inter di 670
personn el,</w> 670
élargiss ement.</w> 670
Fis ch 670
sou p 669
souhai t 669
-B 4-0 669
cad res</w> 669
c .</w> 668
3 0 668
2 9</w> 668
C l 668
P C 668
F er 668
dé ploi 668
po issons</w> 668
ain ement</w> 668
vulnéra bles</w> 668
euro- méditerrané 668
T E 667
vou s- 667
clair ,</w> 667
intégr ante</w> 667
d'é ducation</w> 667
candid ats.</w> 667
refu se</w> 667
annon ce</w> 667
7 5</w> 666
es ;</w> 666
s' en 666
répon se,</w> 666
remerci e,</w> 666
parven u</w> 666
exploi tation</w> 666
rég issant</w> 666
rappel é</w> 666
i rait</w> 665
én onc 665
recher ches</w> 665
cau se,</w> 665
contrô le.</w> 665
sous- ten 665
cultur elles</w> 665
Palestini ens</w> 665
Est- ce</w> 665
c h</w> 664
o s.</w> 664
p in 664
ten sions</w> 664
ca l</w> 664
vo i</w> 664
condam n 664
fisca lité</w> 664
danger euses</w> 664
tab ac 664
aupar avant</w> 664
bilatér aux</w> 664
inég alités</w> 664
W at 663
P N 663
dé posé 663
ac tionn 663
ol é 663
gr atu 663
program me,</w> 663
souti endra</w> 663
soulev ées</w> 663
l'investiss ement</w> 663
Quatri èmement,</w> 663
C el 662
te )</w> 662
gé noci 662
e- t-il</w> 662
éch app 662
sûr s</w> 662
v ac 661
R ,</w> 661
ré cu 661
ri gu 661
l’ emploi</w> 661
jus qu'au</w> 661
comment er</w> 661
stric tement</w> 661
compréhen si 661
systé matique</w> 661
XX I 661
1 1 660
uni forme</w> 660
gé ni 660
pres sion,</w> 660
recher cher</w> 660
environnement al</w> 660
aujourd’hu i.</w> 660
compréhen sible</w> 660
prolifér ation</w> 660
l’ application</w> 659
cl ô 659
direc ts</w> 659
atten tion.</w> 659
prév us</w> 659
fix e</w> 659
d' organiser</w> 658
ph ra 658
indépend ant</w> 658
concr ets</w> 658
t ation.</w> 657
v ali 657
ai ,</w> 657
d' entreprises</w> 657
al - 657
gr avi 657
parti es.</w> 657
soci aux.</w> 657
véri fi 657
(E S)</w> 657
l’homm e.</w> 657
relev ant</w> 657
employ eurs</w> 657
Communau té,</w> 657
l'In de</w> 657
Fin lande</w> 657
substanti elle</w> 657
vag ue</w> 657
piè ces</w> 657
str ö 656
jus qu'en</w> 656
génér aux</w> 656
affec te</w> 656
fic ation.</w> 656
slo v 656
barri ères</w> 656
d enti 655
ou s,</w> 655
d' évaluer</w> 655
nég atifs</w> 655
sep tième</w> 655
Ni ce</w> 655
mettr a</w> 655
repris es,</w> 655
illén aire</w> 655
v ar 654
v ement.</w> 654
li qui 654
im péri 654
l’ intérêt</w> 654
invi té</w> 654
témoi gne</w> 654
d'exper ts</w> 654
v ue.</w> 653
op tion</w> 653
ar mé 653
pl ai 653
j’ espère</w> 653
tend ances</w> 653
mar gin 652
l'ex tr 652
fer ai</w> 652
rou tes</w> 652
charg ée</w> 652
rubri que</w> 652
ag ir.</w> 651
ap er 651
lég ale</w> 651
val oir</w> 651
arri ver 651
produc tion.</w> 651
minu te</w> 651
moder ne</w> 651
tan gi 651
texti le</w> 651
ar t.</w> 650
re cru 650
nor me</w> 650
Su d,</w> 650
structurel s.</w> 650
l'euro .</w> 650
parvi endrons</w> 650
diverg ences</w> 650
in vo 649
ex posé</w> 649
oc ol 649
l'ex i 649
voy age</w> 649
écologi que</w> 649
J e 648
B .</w> 648
l' espère,</w> 648
i i.</w> 647
C au 647
b ill 647
s pi 647
B rési 647
an gu 647
er cer</w> 647
or al</w> 647
d' actu 647
eng endr 647
appor tées</w> 647
N ,</w> 646
péri phéri 646
parlement aire.</w> 646
expli qué</w> 646
Constitu tion,</w> 646
touch ées</w> 646
r al 645
S in 645
ç on</w> 645
in utile</w> 645
con formes</w> 645
cr aintes</w> 645
hé si 645
aiss ent</w> 645
séri euse</w> 645
m' en</w> 645
justifi e</w> 645
préserv ation</w> 645
rapport eure,</w> 644
actu ellement.</w> 644
législ atifs</w> 644
omb re</w> 644
cy cl 644
stabili té,</w> 644
P é 643
Con formément</w> 643
nation ale,</w> 643
gouvern ement.</w> 643
dés ol 643
l'avi ation</w> 643
l am 642
on e.</w> 642
d' enquête</w> 642
préoccup é</w> 642
félicit ons</w> 642
2020 .</w> 642
chu te</w> 642
d avant 641
é dois</w> 641
ai t.</w> 641
mor ts</w> 641
plac er</w> 641
chôm age.</w> 641
étap es</w> 641
sav ons,</w> 641
symb oli 641
pourparl ers</w> 641
n al</w> 640
b ande</w> 640
l' orientation</w> 640
ré tiens</w> 640
dé tention</w> 640
dé libé 640
fon d,</w> 640
particuli ers</w> 640
démocrati ques.</w> 640
sign es</w> 640
jeu di</w> 640
amen er</w> 640
aven ir,</w> 640
Vo tre</w> 640
et - 639
vi abilité</w> 639
l’ intégration</w> 639
d'in stru 639
do x 639
modifi ant</w> 639
fri que.</w> 639
sensibil isation</w> 639
satel li 639
t age</w> 638
g re 638
es te 638
d' énormes</w> 638
du r 638
l’ énergie</w> 638
l’ idée</w> 637
adop tant</w> 637
voi e.</w> 637
part ant,</w> 637
mentionn és</w> 637
sus cité</w> 637
dang ers</w> 637
inqui ète</w> 637
rur al,</w> 637
pla fond</w> 637
W al 636
anc e 636
expli cation</w> 636
corru p 636
culturel s</w> 636
cohé sion,</w> 636
l’ esprit</w> 635
acti ves</w> 635
d'ex ercer</w> 635
cell ules</w> 635
défen se,</w> 635
écou ter</w> 635
priori taires</w> 635
d at 634
J' appelle</w> 634
mor t.</w> 634
nuclé aire,</w> 634
offici elle</w> 634
Médi ateur</w> 634
correspon d</w> 634
indic ateurs</w> 634
Tam per 634
ym pi 634
S ad 633
D el 633
k ur 633
om ali 633
ar rang 633
re dev 633
du bi 633
mo des</w> 633
déci sif</w> 633
soi gn 633
impliqu ées</w> 633
Israë l,</w> 633
palestini enne</w> 633
débatt u</w> 633
feu ille</w> 633
minist ère</w> 633
( art.</w> 632
R oth 632
au cu 632
l'é trang 632
exprim és</w> 632
appor tera</w> 632
a dul 631
S .</w> 631
l' ap 631
ra cin 631
cl av 631
fon dées</w> 631
gé .</w> 631
OG M</w> 631
s port 630
ch ev 630
ju ger</w> 630
clair .</w> 630
concili er</w> 630
ras sur 630
B on 629
ch rétiens</w> 629
ol o 629
l'h y 629
cher a</w> 629
stric te</w> 629
l'OM C.</w> 629
Auc un</w> 629
t est</w> 628
soci ales.</w> 628
rati fié</w> 628
profi te</w> 627
progres si 627
U kr 626
oi e</w> 626
donn ées,</w> 626
l'A fghanist 626
ren contre</w> 625
euro .</w> 625
monét aire.</w> 625
accro issement</w> 625
etc . 625
ati ques</w> 624
cr oyons</w> 624
form ation,</w> 624
conf lit 624
ambi tions</w> 624
poursui t</w> 624
émer g 624
M exi 623
ouv ri 623
évi demment,</w> 623
suffis ant</w> 623
offici ellement</w> 623
Luxembour g</w> 623
expres sément</w> 623
E L 622
h ô 622
J our 622
emb all 622
t- on</w> 622
ist e.</w> 622
positi f.</w> 622
consci ente</w> 622
sous- jac 622
Nor d,</w> 622
démant èlement</w> 622
men tionne</w> 621
observ er</w> 621
autoris é</w> 621
secon d 621
incendi es</w> 621
d' ab 620
d' animaux</w> 620
d’ autre</w> 620
pen sion</w> 620
droi ts.</w> 620
heur euse</w> 620
fais ait</w> 620
vit esse</w> 620
infra ctions</w> 620
communic ation,</w> 620
d' essayer</w> 619
d’ im 619
direc tion,</w> 619
sem es 619
vé tér 619
individu els</w> 619
bâti ments</w> 619
unilat ér 619
on t-ils</w> 618
dem i- 618
pili ers</w> 618
é m 617
S ec 617
in titul 617
re trouver</w> 617
minis tre,</w> 617
onc ,</w> 617
détaill ée</w> 617
mobil isation</w> 617
l’O M 617
St ock 617
l'inform ation,</w> 617
D onc,</w> 616
d' emplois.</w> 616
al in 616
ser vir 616
faç on,</w> 616
monét aire,</w> 616
ec tions</w> 615
démocrati sation</w> 615
invi ter</w> 615
ban que</w> 615
vit ale</w> 615
sexu elle</w> 615
confu sion</w> 615
Hel sin 615
l' unité</w> 614
ar isation</w> 614
al ise</w> 614
sé .</w> 614
program mation</w> 614
équi vo 614
commiss aire.</w> 614
parlement aire,</w> 614
discrimin ation.</w> 614
coor donnée</w> 614
suspen sion</w> 614
fabric ants</w> 614
exerci ce,</w> 614
b ra 613
S a 613
encourag eant</w> 613
contrô le,</w> 613
d'é change</w> 613
int ol 613
l'inst ant,</w> 613
Ti b 613
U )</w> 612
d' ouvrir</w> 612
d' assistance</w> 612
tur c</w> 612
pi erre</w> 612
grand ement</w> 612
condam né</w> 612
entraîn era</w> 612
Pays-B as,</w> 612
navig ation</w> 612
ambigu ï 612
d' autres.</w> 611
té nég 611
vi t</w> 611
l’ une</w> 611
sé jour</w> 611
j' étais</w> 611
actu ellement,</w> 611
particip ants</w> 611
britanni que,</w> 611
Vi ce- 611
aider a</w> 611
intérieur es,</w> 611
regar d</w> 611
f ère</w> 610
res titu 610
n' étaient</w> 610
eng age</w> 610
appar e 610
stock age</w> 610
Royaume-Uni .</w> 610
hypo cri 610
pétr ol 610
vétér in 610
u kraini 609
développ é</w> 609
publi cation</w> 609
UE / 609
Ser bi 609
xembour ge 609
imag in 609
confor mité</w> 609
Belgi que</w> 609
n o</w> 608
s col 608
â gé 608
d' efforts</w> 608
lu xembourge 608
priori t 608
itali enne</w> 608
cev oir</w> 608
d' al 607
ser re</w> 607
l'U kr 607
pouv ant</w> 607
financi er,</w> 607
l'é tiquetage</w> 607
termin er</w> 607
os exu 607
hon gro 607
Roumani e,</w> 607
consist ant</w> 607
li ti 606
ci des</w> 606
particuli ère.</w> 606
men tion</w> 606
fix ation</w> 606
guer re,</w> 606
viv ons</w> 606
dég â 606
constructi f</w> 606
Be auc 606
d' efficacité</w> 605
per for 605
se z- 605
soi n</w> 605
jug ement</w> 605
suédo ise</w> 605
découl ant</w> 605
Parallè lement,</w> 605
R èg 604
ti e</w> 604
d' attention</w> 604
Présid ente</w> 604
inter dire</w> 604
humain s,</w> 604
soulev ée</w> 604
brev et</w> 604
is é</w> 603
l’ accès</w> 603
sé ance,</w> 603
personn el.</w> 603
internation aux.</w> 603
important es,</w> 603
tabl eau</w> 603
priv ées</w> 603
guer re.</w> 603
télé communications</w> 603
propor tion</w> 603
itali en</w> 603
bre f,</w> 603
réd action</w> 603
m él 602
er ions</w> 602
vi ctoire</w> 602
présent era</w> 602
suiv ants</w> 602
maj eurs</w> 602
n’ avons</w> 602
th èse</w> 602
fond ement</w> 602
pros p 602
mani pul 601
compl exi 601
l’homm e,</w> 601
accr u</w> 601
paragraph es</w> 601
Beauc oup</w> 601
é ment,</w> 600
R ien</w> 600
G ,</w> 600
î le</w> 600
ven us</w> 600
alis és</w> 600
200 3.</w> 600
État s.</w> 600
jug é</w> 600
problé matique</w> 600
enthousias me</w> 600
k i</w> 599
G ra 599
con tent 599
l’ ordre</w> 599
dis proportionn 599
l'O u 599
199 8</w> 599
systèm e.</w> 599
par cours</w> 598
sé ,</w> 598
ist es.</w> 598
respec té</w> 598
eng lob 598
spécifi ques,</w> 598
supplément aires.</w> 598
victi me</w> 598
climati ques</w> 598
élargi e</w> 598
rémuné ration</w> 598
Bol k 598
XXI e</w> 598
perfor man 598
L ett 597
l' effort</w> 597
pré co 597
dou ze</w> 597
d'é mission</w> 597
établi es</w> 597
Gali le 597
path ie</w> 597
l ait</w> 596
d' actions</w> 596
péri l</w> 596
l'O C 596
rembour s 596
v ég 595
ti r 595
li eux</w> 595
d' eau</w> 595
ul ti 595
esti ment</w> 595
prouv er</w> 595
urg ente</w> 595
troisi èmement,</w> 595
salu ons</w> 595
loca l</w> 595
compétitivi té,</w> 595
attent ats</w> 595
Verts/ AL 595
horizon t 595
o s,</w> 594
ai de,</w> 594
lib éral</w> 594
indi quent</w> 594
efficac es.</w> 594
bénéfici é</w> 594
lui- même.</w> 594
carb one</w> 594
l'inform ation.</w> 594
mass ac 594
célé b 594
gr ès</w> 593
l’ inst 593
suiv antes</w> 593
réalis ée</w> 593
humain s.</w> 593
CE .</w> 593
Bi élor 593
met tons</w> 592
respec tant</w> 592
travaill ant</w> 592
constitu era</w> 592
compa ra 592
mariti mes</w> 592
cohé sion.</w> 592
Barcel one</w> 592
sociaux- démocrates</w> 592
Bolk este 592
en k 591
l' armée</w> 591
n' aient</w> 591
dévelop pés</w> 591
nor mal</w> 591
satis faits</w> 591
l'occu rr 591
n ô 590
N ous,</w> 590
l' autre,</w> 590
tu n 590
se l</w> 590
vou lions</w> 590
mar i 590
procédu re,</w> 590
sal aire</w> 590
mod alités</w> 590
sav oir,</w> 590
gravi té</w> 590
l' es 589
pro f 589
opé ra 589
pauv res.</w> 589
L’ ordre</w> 589
lui- même,</w> 589
dan ois</w> 589
éloi g 589
l'orateur ")</w> 589
sil ence</w> 589
profond eur</w> 589
requi ert</w> 589
l s.</w> 588
é mi 588
ati fs.</w> 588
ré conciliation</w> 588
dé ni 588
én ari 588
nu méri 588
cour te</w> 588
respons able.</w> 588
énor mé 588
domm ag 588
compét entes</w> 588
honn eur</w> 588
4 - 587
arti fici 587
jeu .</w> 587
déc ev 587
investiss eurs</w> 587
sc énari 587
tari at</w> 587
c o</w> 586
l' offre</w> 586
né o 586
parti sans</w> 586
PPE- DE.</w> 586
si xième</w> 585
dé ten 585
tu des</w> 585
im pres 585
199 7,</w> 585
associ er</w> 585
frag ment 585
angu l 585
l s,</w> 584
ex cé 584
amend ement.</w> 584
souti en,</w> 584
qua si 584
prépar é</w> 584
tar di 584
transport ,</w> 584
révél é</w> 584
Gen ève</w> 584
h abili 583
si e.</w> 583
ré ces 583
import ance.</w> 583
cré ant</w> 583
appro ches</w> 583
entre pris</w> 583
euro s.</w> 583
confi denti 583
éch ec 583
résul tant</w> 583
Sw ob 583
Biélor ussi 583
im age</w> 582
st able</w> 582
Mon ténég 582
recher ch 582
l'ab oli 582
E U 581
g ér 581
P PE</w> 581
ai res 581
d' importance</w> 581
ca dre.</w> 581
proch es</w> 581
ban ie</w> 581
g e.</w> 580
ju in,</w> 580
200 8.</w> 580
encor e.</w> 580
accu mul 580
syn di 580
couver ts</w> 580
i de</w> 579
2 , 579
M os 579
in croy 579
com penser</w> 579
poin ts,</w> 579
nég atives</w> 579
financ ement,</w> 579
jet er</w> 579
civi les</w> 579
administr ations</w> 579
expli cations</w> 579
sept embre,</w> 579
attribu tion</w> 579
Suè de,</w> 579
D .</w> 578
équi tables</w> 578
dou te,</w> 578
défin is</w> 578
déc embre,</w> 578
Aujour d’hu 578
précéd ente</w> 578
renouvel ables.</w> 578
contradi ct 578
géographi que</w> 578
G ro 577
av ance</w> 577
am ène</w> 577
budg ets,</w> 577
mondi aux</w> 577
l'O S 577
transpar ente</w> 577
l'inter net</w> 577
déli cat 577
sold ats</w> 577
flag r 577
B ,</w> 576
d' ordre</w> 576
mentionn é,</w> 576
humani taires</w> 576
pertin entes</w> 576
parol e.</w> 576
Pologn e,</w> 576
cl aire.</w> 575
j' invite</w> 575
l'h onn 575
demand e.</w> 575
réjou ir</w> 575
l'Ira k</w> 575
atta che</w> 575
l'unanim i 575
dispari tés</w> 575
M arti 574
su édois</w> 574
l’ efficacité</w> 574
lu i,</w> 574
uni taire</w> 574
rem is</w> 574
att ente</w> 574
élev age</w> 574
ajou te</w> 574
conform er</w> 574
tax ation</w> 574
exces sive</w> 574
ving t- 574
syndic ats</w> 574
2 3 573
L eur</w> 573
b an</w> 573
er ez</w> 573
d' en 573
cl on 573
déci sive</w> 573
défen se.</w> 573
techni que,</w> 573
assu re</w> 573
hau sti 573
eux- mêmes.</w> 573
subsidiari té,</w> 573
l'orateur )</w> 573
M ich 572
z ér 572
in corpor 572
uti lité</w> 572
produi ts,</w> 572
sû re</w> 572
dét ach 572
éra di 572
réjou issons</w> 572
fond s.</w> 572
L ou 571
pré judici 571
pen sée</w> 571
d'ex pli 571
Fr atti 571
structur elle</w> 571
révolu tion</w> 571
corri ger</w> 571
résol u</w> 571
( L 570
ci ens</w> 570
ab ou 570
anim aux,</w> 570
rapid ement,</w> 570
desti nation</w> 570
jeun es.</w> 570
chin ois</w> 570
dé tenus</w> 569
du re</w> 569
vou lon 569
constitu é</w> 569
assist er</w> 569
éthi que</w> 569
satisfais ante</w> 569
" élargissement</w> 568
m as 568
C 5-0 568
cer .</w> 568
end rez</w> 568
manifes te</w> 568
dérog ation</w> 568
soulig né,</w> 568
alco ol</w> 568
nous- mêmes</w> 568
Canad a</w> 568
p ôt</w> 567
v entes</w> 567
d' amendement</w> 567
dé march 567
l'in fra 567
différ enci 567
réc emment,</w> 567
cam ps</w> 567
dés accord</w> 567
Col om 567
articl e  567
E S 566
ati f,</w> 566
uti le.</w> 566
ani me</w> 566
terroris te</w> 566
précéd ents</w> 566
éventu ellement</w> 566
bénéfi ce</w> 566
ressour ces.</w> 566
inféri eur</w> 566
ser ions</w> 565
per pétr 565
d’ État</w> 565
rapport eurs,</w> 565
détermin ée</w> 565
espri t,</w> 565
concerné es.</w> 565
consen su 565
Moyen-Ori ent,</w> 565
polon ais</w> 565
p sy 564
t t 564
é puis 564
re b 564
ir ré 564
D' un</w> 564
4 5</w> 563
Europ ol 563
ren due</w> 563
cré ée</w> 563
oblig atoires</w> 563
vigu eur,</w> 563
occident aux</w> 563
dict ature</w> 563
ira ki 563
Nord .</w> 563
convaincu e</w> 563
v in 562
s )</w> 562
É vi 562
W e 562
d' approvisionnement</w> 562
d' offrir</w> 562
améric aines</w> 562
touch ent</w> 562
atri ce</w> 562
définiti ve</w> 562
l’in tention</w> 562
2 9 561
au ration</w> 561
ffi ce</w> 561
alis é</w> 561
termin er,</w> 561
appr ouver 561
édé ration</w> 561
impres sionn 561
in justifi 560
l' âge</w> 560
dé ç 560
ver te</w> 560
appropri ée.</w> 560
multi nationales</w> 560
Gu in 560
y ougoslav 559
ent our 559
analy ses</w> 559
défini es</w> 559
d'a justement</w> 559
arbi tr 559
tr a</w> 558
l' apprentissage</w> 558
l’ article</w> 558
pen se 558
rel ancer</w> 558
dom esti 558
voul ait</w> 558
fo is.</w> 558
Cu ba</w> 558
référendum s</w> 558
l'aboli tion</w> 558
o is,</w> 557
h ali 557
M ED 557
pé nu 557
occa sions</w> 557
Su d.</w> 557
excep tion</w> 557
massi ve</w> 557
résul te</w> 557
ers hi 557
Hongri e</w> 557
M o 556
P AC 556
Y ougosl 556
is ée</w> 556
emb ar 556
mo ts,</w> 556
pouv aient</w> 556
Mad ri 556
pass ant</w> 556
199 8,</w> 556
néerland ais</w> 556
mondialis ation.</w> 556
bel ge</w> 556
universi tés</w> 556
s'appliqu ent</w> 556
Yougosl avi 556
l ent 555
ré pres 555
dé passe</w> 555
qui conque</w> 555
continu ons</w> 555
sug gestion</w> 555
vieill issement</w> 555
ri gi 554
défin it</w> 554
élec tions,</w> 554
che c</w> 554
alli ance</w> 554
s es.</w> 553
è vre</w> 553
dé faut</w> 553
por tées</w> 553
l'é chec</w> 553
Bal tique</w> 553
aï w 553
fall u</w> 553
i es</w> 552
f aux</w> 552
d' affaires</w> 552
ég al</w> 552
fai lli 552
vis er</w> 552
organis me</w> 552
examin ée</w> 552
sugg éré</w> 552
conduc teurs</w> 552
L an 551
n er,</w> 551
s ".</w> 551
S a</w> 551
d' après</w> 551
qu' est</w> 551
gr ati 551
amend ement 551
sor tes</w> 551
cons enti 551
l'agricul ture.</w> 551
restri ction</w> 551
télé communic 551
Ne w</w> 551
Jap on</w> 551
Sad dam</w> 551
ati fs,</w> 550
technologi ques</w> 550
complément aire</w> 550
d' Europe.</w> 549
ag i 549
res te,</w> 549
not amment,</w> 549
Itali e,</w> 549
xén opho 549
t ation,</w> 548
b re</w> 548
H ay 548
é tiquet 548
es )</w> 548
l' annexe</w> 548
con gé</w> 548
ex hausti 548
personn elle</w> 548
déc ès</w> 548
dés ar 548
puiss ances</w> 548
législati ve 548
défici ts</w> 548
affirm ation</w> 548
prononc é</w> 548
Auc une</w> 548
RE AC 548
m y 547
ti r</w> 547
d' ajouter</w> 547
pri e</w> 547
sui vie</w> 547
parl ent</w> 547
prouv é</w> 547
tot ali 547
mor t,</w> 547
atti re</w> 547
candid ats,</w> 547
monét aires</w> 547
Ber lin</w> 547
pléni ère.</w> 547
AL DE.</w> 547
éduc ation,</w> 547
H ow 546
S al 546
débat )</w> 546
établi e</w> 546
transport .</w> 546
fisc aux</w> 546
sépar ation</w> 546
u es.</w> 545
G rou 545
qu’ on</w> 545
occu pation</w> 545
inf lig 545
rati fier</w> 545
elle- même,</w> 545
compét ente</w> 545
fév ri 545
N on,</w> 544
d’ améliorer</w> 544
mi d 544
ba ï 544
concern e,</w> 544
libér er</w> 544
dés espé 544
victi mes.</w> 544
DE ,</w> 544
bru t</w> 544
consul ter</w> 544
Ob jet</w> 544
A )</w> 543
B ur 543
co - 543
tra duire</w> 543
partici pe</w> 543
d'ex emp 543
viol ence,</w> 543
approuv ée</w> 543
annu els</w> 543
partag ent</w> 543
h as 542
re po 542
199 6,</w> 542
enf re 542
industri els</w> 542
compli qu 542
effectu és</w> 542
bas e.</w> 542
transi t</w> 542
recti fic 542
poiss on</w> 542
ess ence</w> 541
répon dent</w> 541
cherch ent</w> 541
liv res</w> 541
LA F 541
Pakist an</w> 541
décision -cadre</w> 541
Swob od 541
r at 540
d j 540
règ ne</w> 540
oblig at 540
prouv e</w> 540
off res</w> 540
contin ent.</w> 540
sci ence</w> 540
Israë l.</w> 540
l'OM C,</w> 540
exécu tion</w> 540
terri ble</w> 540
Macédo ine</w> 540
discipl ine</w> 540
c’ est-à-dire</w> 540
prof ess 540
s es,</w> 539
s pati 539
comm and 539
dis posés</w> 539
200 2.</w> 539
rédi ger</w> 539
mai ,</w> 539
entend ons</w> 539
renon cer</w> 539
m écon 538
H ar 538
l' intégrité</w> 538
dé montr 538
fi èvre</w> 538
lis tes</w> 538
précé demment</w> 538
blo quer</w> 538
suivant e:</w> 538
A b 537
J '</w> 537
tr iste</w> 537
di ri 537
min uti 537
responsabili té,</w> 537
l'inst auration</w> 537
mondialis ation,</w> 537
d'instru ments</w> 537
l' autorisation</w> 536
dé .</w> 536
ra ch 536
sou pl 536
contr e- 536
inter rog 536
aujour d'</w> 536
légiti mes</w> 536
tor ture</w> 536
mobil iser</w> 536
siècl e,</w> 536
A 4-0 535
K innoc 535
ou i</w> 535
an s 535
co ï 535
pé d 535
bl anc 535
indi quant</w> 535
interven tion,</w> 535
priori tés.</w> 535
loca le</w> 535
lead ershi 535
aver tiss 535
n on.</w> 534
P L)</w> 534
si fs</w> 534
s' inscrit</w> 534
mi x 534
doi t,</w> 534
déj à,</w> 534
fl é 534
favor ise</w> 534
bure aux</w> 534
d o</w> 533
O M 533
4 00</w> 533
su re</w> 533
im pu 533
contr at</w> 533
199 6</w> 533
L’ Europe</w> 533
abs ten 533
sep ten 533
lan gu 533
circonst ances,</w> 533
domm age</w> 533
transatlanti que</w> 533
main-d' œuvre</w> 533
inond ations</w> 533
r h 532
D ar 532
en d</w> 532
au dit</w> 532
pris on</w> 532
réalis ées</w> 532
Trai tés</w> 532
appar emment</w> 532
dyn am 532
intellectu elle</w> 532
tragi que</w> 532
démographi que</w> 532
etc. ,</w> 532
coï n 532
l e- 531
- je</w> 531
is és</w> 531
av is.</w> 531
ap portent</w> 531
mar s,</w> 531
qu’ au</w> 531
pass e 531
négoci é</w> 531
cohér ent</w> 531
bio diversité</w> 531
parallè lement</w> 531
Cel u 531
p il 530
é tiquetage</w> 530
V en 530
I )</w> 530
d' intégrer</w> 530
di gne</w> 530
ad h 530
met s</w> 530
direc tes</w> 530
t- elles</w> 530
modifi és</w> 530
cau sé</w> 530
rép an 530
crain te</w> 530
l’en contre</w> 530
Fran ç 530
s age</w> 529
s cep 529
dé posée</w> 529
cl asse</w> 529
ven ez</w> 529
form er</w> 529
inci ter</w> 529
publi ques,</w> 529
juridi ques,</w> 529
tabl es,</w> 529
sus cite</w> 529
fix ées</w> 529
associ és</w> 529
hy dr 529
rapproch ement</w> 529
raph ie</w> 529
S P 528
Y or 528
re porter</w> 528
per form 528
ven ir,</w> 528
lég u 528
conn ais</w> 528
mu r</w> 528
Fr on 528
senti r</w> 528
tradui t</w> 528
Hu ss 528
démocrates- chrétiens)</w> 528
gre c</w> 528
c ées</w> 527
G i 527
tr op 527
su pr 527
tou tefois,</w> 527
l’ élargissement</w> 527
sou d 527
Uni es</w> 527
parlement aires,</w> 527
d'é tendre</w> 527
Al liance</w> 527
réti c 527
agricol es.</w> 527
afric aine</w> 527
intensi fier</w> 527
Chamb re.</w> 527
détérior ation</w> 527
u sin 526
i ez</w> 526
- il</w> 526
  millions</w> 526
F édération</w> 526
en voie</w> 526
l' air</w> 526
j' aurais</w> 526
séri euses</w> 526
règl es.</w> 526
profi ts</w> 526
collabor er</w> 526
9 7 525
G UE/ 525
F ace</w> 525
F err 525
pré visions</w> 525
ten si 525
né .</w> 525
d’ ici</w> 525
comp t 525
off ri 525
super vision</w> 525
intergouvernement ale.</w> 525
compagni e</w> 525
incid ence</w> 525
simul tan 525
kil om 525
irrégulari tés</w> 525
d' intérêts</w> 524
d' arrêt</w> 524
dé centralis 524
personn elles</w> 524
l'ex - 524
ass or 524
tot alité</w> 524
individu s</w> 524
Et ats</w> 524
mél ang 524
Aujourd’hu i,</w> 524
l è 523
k h 523
li min 523
au diss 523
d' envoyer</w> 523
doi ve</w> 523
soi ,</w> 523
men se</w> 523
cor d</w> 523
faci lité</w> 523
éventu elles</w> 523
entam é</w> 523
Sec ré 523
é par 522
( démocrates-chrétiens)</w> 522
di ag 522
mo bili 522
tri on 522
équi table.</w> 522
reconn ais</w> 522
not ation</w> 522
empê ch 522
CE E</w> 522
remplac ement</w> 522
septen trion 522
L ang 521
ré duisant</w> 521
re poser</w> 521
pré voient</w> 521
ca les</w> 521
un anime</w> 521
l'av ant</w> 521
ru sses</w> 521
tra ç 521
complex es</w> 521
rich esse</w> 521
siècl e.</w> 521
Maastrich t</w> 521
déloc alis 521
atténu er</w> 521
énormé ment</w> 521
c és</w> 520
S o 520
d' élargissement</w> 520
ex ag 520
for cé 520
ob tenus</w> 520
fon de</w> 520
publi ques.</w> 520
hi li 520
suc ces 520
quali t 520
commis es</w> 520
fabri cation</w> 520
Po etter 520
sé e.</w> 519
laqu elle,</w> 519
communi quer</w> 519
fonctionn ent</w> 519
manifes tation</w> 519
Es t</w> 519
super fici 519
calend ri 519
hom osexu 519
ó n</w> 518
d' approuver</w> 518
pro cur 518
cher .</w> 518
souhai ts</w> 518
aill eurs.</w> 518
mentionn ées</w> 518
appliqu ent</w> 518
exploi ter</w> 518
transport s.</w> 518
maxim ale</w> 518
expl o 518
f act 517
an ation 517
uni form 517
mainten ant.</w> 517
Danemar k</w> 517
C' était</w> 517
supr anation 517
e »</w> 516
S an 516
G o 516
tr aî 516
no sti 516
Con tr 516
sub i</w> 516
prom eu 516
mor t 516
fourni es</w> 516
ethni ques</w> 516
0 %</w> 515
/ 0 515
su d- 515
im posent</w> 515
L' article</w> 515
199 7</w> 515
atti ré</w> 515
souten ant</w> 515
établ issements</w> 515
assist ons</w> 515
régul ation</w> 515
succè s,</w> 515
dégâ ts</w> 515
ré col 514
actu el.</w> 514
stric t</w> 514
illég al</w> 514
ethni que</w> 514
S ’ 513
D G</w> 513
ré es.</w> 513
ré elles</w> 513
l'A r 513
réalis ations</w> 513
préci eux</w> 513
professionn elles</w> 513
véhi cul 513
agricol es,</w> 513
alloc ation</w> 513
oxy de</w> 513
v et 512
M and 512
V al 512
I .</w> 512
parti ellement</w> 512
s' exprimer</w> 512
tionn er</w> 512
appro fond 512
cin é 512
adéqu ates</w> 512
PM E.</w> 512
char bon</w> 512
approfond i</w> 512
g ol 511
J o 511
d' Europe,</w> 511
ar me</w> 511
dis posé</w> 511
mil le</w> 511
initi alement</w> 511
d'ex péri 511
agricul teurs,</w> 511
prépar atifs</w> 511
ultrapériphéri ques</w> 511
f as 510
( 200 510
min i 510
vou s.</w> 510
mer cu 510
extéri eur</w> 510
flexi ble</w> 510
diag nosti 510
t al 509
A z 509
M ilo 509
qu ement.</w> 509
pro clam 509
re :</w> 509
mati ère,</w> 509
amélior e</w> 509
mor atoire</w> 509
rédui te</w> 509
arriv é</w> 509
fourn issent</w> 509
lob by 509
Évi demment,</w> 509
e in</w> 508
W i 508
es  -</w> 508
d' objectifs</w> 508
re port</w> 508
im posé</w> 508
l’ attention</w> 508
st and 508
mar qué</w> 508
march és,</w> 508
aff aire.</w> 508
appor tée</w> 508
délég ations</w> 508
refl ètent</w> 508
bat aille</w> 508
l oi.</w> 507
v on</w> 507
or e</w> 507
d' envisager</w> 507
pos ant</w> 507
différ ents.</w> 507
spéci alement</w> 507
vol et</w> 507
oni que</w> 507
moti f</w> 507
stabil iser</w> 507
intéres se</w> 507
on t.</w> 506
d' accord,</w> 506
mati n.</w> 506
mentionn ée</w> 506
aéri enne</w> 506
aussi .</w> 506
br ève</w> 506
imag iner</w> 506
salari és</w> 506
r oy 505
" était</w> 505
m 'est</w> 505
è dent</w> 505
in capables</w> 505
l’ Assemblée</w> 505
n' aura</w> 505
conti ennent</w> 505
199 5,</w> 505
extéri eur,</w> 505
l'inter n 505
expéri ment 505
pan sion</w> 505
ow sk 505
effondr ement</w> 505
pertur b 505
Stock hol 505
ad mi 504
respons able,</w> 504
l'A tlanti 504
élec tions.</w> 504
rencontr er</w> 504
PM E,</w> 504
Cu ba 504
dist ance</w> 504
Cau ca 504
c end 503
9 8 503
fer m 503
peut- elle</w> 503
discrimin ation,</w> 503
disponi bilité</w> 503
syn ergi 503
collecti ve</w> 503
l'Allem agne,</w> 503
inévi tablement</w> 503
frapp é</w> 503
imp ôts</w> 503
chy prio 503
compris ,</w> 503
rétabl issement</w> 503
propriét aires</w> 503
l' ég 502
ci el</w> 502
vo tera</w> 502
contr aire.</w> 502
économi quement</w> 502
le y</w> 502
oblig és</w> 502
Es pagne,</w> 502
quotidi enne</w> 502
ressour ces,</w> 502
C ot 501
al arm 501
ain es,</w> 501
ol ympi 501
port e- 501
cer ,</w> 501
présid ences</w> 501
initi ative.</w> 501
mauv aises</w> 501
préfér ences</w> 501
automati quement</w> 501
recycl age</w> 501
n °</w> 500
f oi</w> 500
d' accord.</w> 500
av ons,</w> 500
us ag 500
parven ons</w> 500
éché ant,</w> 500
trait ements</w> 500
a just 499
m ais 499
D ,</w> 499
op pose</w> 499
él ève</w> 499
n' avez</w> 499
amélior é</w> 499
nov embre,</w> 499
définiti vement</w> 499
vig our 499
aspir ations</w> 499
v ent,</w> 498
s ant</w> 498
d' utilisation</w> 498
l’ article  498
fin al.</w> 498
ren dus</w> 498
san g</w> 498
ologi que</w> 498
civi les,</w> 498
formul é</w> 498
communic ation.</w> 498
Tri bu 498
prolon ger</w> 498
( B 497
cu b 497
démocrati es</w> 497
transport eurs</w> 497
secr et</w> 497
démi e</w> 497
l' arrêt</w> 496
J' attends</w> 496
médi as,</w> 496
viol ence.</w> 496
homm es.</w> 496
Au ssi</w> 496
Strasbour g,</w> 496
meur ent</w> 496
affai bl 496
affect ent</w> 496
impér atif</w> 496
u sine</w> 495
A mster 495
f oy 495
é mis</w> 495
G ö 495
l' assurance</w> 495
ch anti 495
esp oirs</w> 495
précis es</w> 495
annon cer</w> 495
énag ement</w> 495
d'orig ine.</w> 495
h él 494
se vi 494
n' avaient</w> 494
man u 494
oc é 494
dévelop per 494
conn ue</w> 494
répon d 494
199 5</w> 494
quanti t 494
cherch eurs</w> 494
électroni ques</w> 494
faut ,</w> 494
c u</w> 493
c ouverture</w> 493
h éri 493
er baï 493
l’ ont</w> 493
l’ ai</w> 493
ouver ts</w> 493
mé pris</w> 493
all ait</w> 493
démocr at 493
reconnaiss ons</w> 493
bat eaux</w> 493
intergouvernement ale,</w> 493
3 0.</w> 492
F M 492
op poser</w> 492
d' Israël</w> 492
cu le</w> 492
ad ress 492
co t 492
entr ent</w> 492
enti er,</w> 492
isl am 492
démocrati ques,</w> 492
institutionn elles</w> 492
réussi r</w> 492
compati bles</w> 492
Gen è 492
d'Amsterdam ,</w> 492
naiss ance</w> 492
d’ intérêt</w> 491
contr e.</w> 491
l'in fluence</w> 491
sur vie</w> 491
soli des</w> 491
encourag e 491
exer ce</w> 491
priori té.</w> 491
Copenhag ue.</w> 491
PPE- DE</w> 491
PSE .</w> 491
débar rass 491
Grou pe</w> 491
m asse</w> 490
W ash 490
dev ons,</w> 490
sé s.</w> 490
uni e</w> 490
nouve au,</w> 490
prati ques.</w> 490
natur ellement,</w> 490
cultur e.</w> 490
pléni ère,</w> 490
allou és</w> 490
complexi té</w> 490
e !</w> 489
dé libér 489
av ou 489
port es</w> 489
ad mission</w> 489
propo s,</w> 489
continu eront</w> 489
tent ent</w> 489
comb at</w> 489
gouvernement s,</w> 489
référ ences</w> 489
souff re</w> 489
bénéfi que</w> 489
empr ein 489
Milo sevi 489
ti se</w> 488
ouver tes</w> 488
trans mission</w> 488
(E L)</w> 488
humain e,</w> 488
inclu sion</w> 488
entrepris e,</w> 488
hon t 488
illég aux</w> 488
Europé ens.</w> 488
priori taire</w> 488
rédi g 488
provo qué</w> 488
portug aise</w> 488
Gaz a</w> 488
Wash ing 488
is sus</w> 487
d' O 487
d' ach 487
onn er</w> 487
l’ initiative</w> 487
trans européens</w> 487
cro î 487
euro ,</w> 487
assur é</w> 487
concep ts</w> 487
concili ation,</w> 487
chin ois 487
philos oph 487
m .</w> 486
g ab 486
s tre</w> 486
x - 486
av ons-nous</w> 486
av éré</w> 486
al ban 486
vi eux</w> 486
contraign ant</w> 486
libre- échang 486
l’Uni on,</w> 486
compétitivi té.</w> 486
EL D 486
c ouvert</w> 485
A gence</w> 485
è s,</w> 485
T aïw 485
in cl 485
ac tion.</w> 485
tu s</w> 485
pré férence</w> 485
ma ch 485
d'ex écution</w> 485
ign ent</w> 485
occup ent</w> 485
détru ire</w> 485
débu t,</w> 485
systèm e,</w> 485
jusqu' ici</w> 485
fi d 484
str ation</w> 484
L' idée</w> 484
t- ce</w> 484
200 1.</w> 484
déci d 484
d'in vesti 484
souv en 484
établi s</w> 484
aér on 484
rur al.</w> 484
progrè s.</w> 484
soign eusement</w> 484
g au 483
serv atoire</w> 483
Parl ement 483
résolu ment</w> 483
défen du</w> 483
nuclé aires.</w> 483
routi er</w> 483
suspen due</w> 483
bre f</w> 483
l’im migration</w> 483
toxi com 483
b on 482
s a 482
er a,</w> 482
pr ô 482
cer a</w> 482
voi là</w> 482
Ber lin 482
CI G</w> 482
autrichi enne</w> 482
renforcer a</w> 482
l'avant - 482
C our 481
dé penser</w> 481
ac cident</w> 481
re group 481
cu l</w> 481
march és.</w> 481
Au tr 481
l'inter pré 481
oni e,</w> 481
chac une</w> 481
univer sel</w> 481
ressour ce</w> 481
semain es.</w> 481
NGL .</w> 481
C entre</w> 480
l' identité</w> 480
mo bi 480
co financement</w> 480
cré ent</w> 480
pai r</w> 480
rapp ell 480
crédi ble</w> 480
formul ée</w> 480
décenni es</w> 480
is e.</w> 479
dem i</w> 479
rem on 479
rem ise</w> 479
pres t 479
justi fication</w> 479
ani e.</w> 479
sensi blement</w> 479
soulev és</w> 479
mess ages</w> 479
octob re,</w> 479
humanit aire,</w> 479
stabili té.</w> 479
vég ét 479
l a 478
T .</w> 478
is e,</w> 478
for ment</w> 478
pli cation</w> 478
dév ast 478
trans mis</w> 478
produi te</w> 478
prom esse</w> 478
le çon</w> 478
préc is,</w> 478
suffis antes</w> 478
conven tionn 478
alco ol 478
b ois</w> 477
pro jet.</w> 477
vi able</w> 477
ex tern 477
l’ amendement</w> 477
sé min 477
co ali 477
ouver tement</w> 477
rem et 477
spéci ales</w> 477
l'é poque,</w> 477
d'A n 477
adres sées</w> 477
transfer ts</w> 477
intensi fi 477
Slovaqui e</w> 477
plat e- 477
h ,</w> 476
cu ri 476
du rement</w> 476
présent es</w> 476
voudr ait</w> 476
déci sions.</w> 476
initi ative,</w> 476
effica cité.</w> 476
d'A l 476
réuni r</w> 476
tor t</w> 476
dérog ations</w> 476
A sie</w> 475
n isation</w> 475
ch a 475
ag issent</w> 475
no y 475
fai ts.</w> 475
réglement ation.</w> 475
An n 475
conces sions</w> 475
génoci de</w> 475
rigu eur</w> 475
inter ro 474
pour tant,</w> 474
impli qué</w> 474
l'im age</w> 474
règl es,</w> 474
histori ques</w> 474
aupar avant,</w> 474
l'honn eur</w> 474
G ouvern 473
en suite,</w> 473
dé e.</w> 473
pro xim 473
cr oi 473
dis posée</w> 473
dou t 473
écri te</w> 473
para dox 473
référ ence,</w> 473
intég rées</w> 473
arriv és</w> 473
dép ens</w> 473
plain te</w> 473
sél ection</w> 473
l ement 472
v endre</w> 472
d' aujourd'hui,</w> 472
ex pul 472
sou viens</w> 472
garanti ssent</w> 472
lors qu’il</w> 472
entrepris e.</w> 472
cal cul</w> 472
infra structu 472
éloi gn 472
soup ç 472
l end 471
g ou 471
ê tre.</w> 471
an - 471
ré chauff 471
ré fère</w> 471
d' où</w> 471
do ,</w> 471
it ec 471
pauv res,</w> 471
aéri ens</w> 471
exclu re</w> 471
non- respect</w> 471
opti m 471
distor sions</w> 471
combusti bles</w> 471
opou lo 471
è te.</w> 470
ain si,</w> 470
il .</w> 470
tri ce</w> 470
conf édé 470
résolu s</w> 470
proté gé 470
accue ille</w> 470
Le h 470
d’abor d,</w> 470
décisionn el</w> 470
d' importantes</w> 469
dr ons</w> 469
inter médi 469
différ entes.</w> 469
d'ex ploi 469
plac é</w> 469
excep tions</w> 469
Chypr e,</w> 469
lai ti 469
accom pag 469
lend em 469
c ra 468
l' issue</w> 468
av é 468
ér u 468
ren dra</w> 468
confi ance.</w> 468
abs tenu</w> 468
parven ue</w> 468
Trai té.</w> 468
détaill ées</w> 468
muni ci 468
contrain ts</w> 468
prépa re</w> 468
sanit aires</w> 468
o m</w> 467
A ctu 467
d' aucune</w> 467
dé sign 467
médi as.</w> 467
essenti el.</w> 467
off en 467
abs tenir</w> 467
potenti els</w> 467
An d 467
extérieur es.</w> 467
entret en 467
dé poser</w> 466
pro viennent</w> 466
démocrati quement</w> 466
procé dé</w> 466
terr ain.</w> 466
rév èle</w> 466
renouvel ables,</w> 466
acqu érir</w> 466
Gu erre</w> 466
monop ol 466
rar es</w> 466
Conven tion,</w> 466
t es- 465
1 50</w> 465
su jet 465
s' adapter</w> 465
accor d- 465
fr anc 465
publi er</w> 465
soulign er,</w> 465
mer veill 465
appropri és</w> 465
ambiti euse</w> 465
N' oublions</w> 465
tô t,</w> 465
sacri fi 465
R ob 464
in dubi 464
re dou 464
am bass 464
soulign ant</w> 464
tra duction</w> 464
peut- il</w> 464
guer res</w> 464
concr et</w> 464
précéd ent,</w> 464
regret tons</w> 464
l’ environnement,</w> 463
sui te.</w> 463
anim ale</w> 463
cin qu 463
plan ète</w> 463
peupl e.</w> 463
péti tion</w> 463
compos ante</w> 463
Tribu nal</w> 463
œ ur 462
in déni 462
ev er,</w> 462
Con grès</w> 462
t- il,</w> 462
pres tations</w> 462
institu ant</w> 462
consac rée</w> 462
argu ment 462
sym pathie</w> 462
majori té,</w> 462
précau tion</w> 462
Tchétché ni 462
(L T)</w> 462
hali eu 462
T ,</w> 461
G UE</w> 461
dé sin 461
parti e.</w> 461
trans férer</w> 461
sub or 461
clair ement,</w> 461
Pa s</w> 461
rapi des</w> 461
aimer ions</w> 461
transfrontali ers</w> 461
bilat érales</w> 461
opérationn elle</w> 461
absur de</w> 461
susp endre</w> 461
p tions</w> 460
in conditionn 460
d' I 460
ss e,</w> 460
sui vi 460
nu mérique</w> 460
val oris 460
In de</w> 460
confron té</w> 460
condam ne</w> 460
britanni que.</w> 460
sol li 460
évid ente</w> 460
l'aut o 460
compren ons</w> 460
bal l</w> 460
propos ant</w> 460
incid ents</w> 460
dispari tion</w> 460
accompagn er</w> 460
Zimbabw e</w> 460
e z.</w> 459
in capable</w> 459
d' aides</w> 459
re ?</w> 459
pré rog 459
rapport s,</w> 459
ess ais</w> 459
environnement ale.</w> 459
déch ets.</w> 459
conver g 459
achev er</w> 459
pluri annuel</w> 459
2 4 458
C elle- 458
s me</w> 458
F i 458
ac qui 458
ques tion 458
man œuvre</w> 458
renfor çant</w> 458
modifi ée</w> 458
expli qu 458
réfugi és.</w> 458
aband on</w> 458
neu tr 458
producti vité</w> 458
physi que</w> 458
offer tes</w> 458
d'urg ence.</w> 458
Bosnie- Herzégov 458
s aine</w> 457
s ection</w> 457
( débat)</w> 457
con citoyens.</w> 457
per du 457
ren seign 457
potenti ellement</w> 457
concrè tement</w> 457
audi tion</w> 457
opérationn el</w> 457
sensibil iser</w> 457
transit oire</w> 457
accus ations</w> 457
tun n 457
" non 456
A ussi 456
en rich 456
in s,</w> 456
d' attirer</w> 456
L' année</w> 456
accep tons</w> 456
liber té.</w> 456
exig e 456
fond ements</w> 456
radi cale</w> 456
Méditerran ée.</w> 456
portug ais</w> 456
combin aison</w> 456
abou ti</w> 456
Cot on 456
e k</w> 455
m én 455
Y ougoslav 455
ti fs</w> 455
d' entamer</w> 455
trai tons</w> 455
nég ative</w> 455
région ale.</w> 455
cô tes</w> 455
avanc ement</w> 455
appu ie</w> 455
conjoin te</w> 455
allég ations</w> 455
l'ES B</w> 455
leadershi p</w> 455
philosoph ie</w> 455
d' identifier</w> 454
fi ables</w> 454
gu ise</w> 454
j' attends</w> 454
e- t-elle</w> 454
rais ons.</w> 454
positi f,</w> 454
n’ en</w> 454
milit aire.</w> 454
fond s,</w> 454
franç ais,</w> 454
rédui ts</w> 454
protég és</w> 454
criti quer</w> 454
2020 ,</w> 454
A lors,</w> 453
9 5</w> 453
s ait,</w> 453
N A 453
cl ame</w> 453
amélior ée</w> 453
modifi c 453
dura bles</w> 453
concili ation.</w> 453
fra gi 453
d'ac cid 453
Strasbour g.</w> 453
numér o</w> 453
Aussi ,</w> 453
f i</w> 452
S ant 452
tr é 452
d' engagement</w> 452
ri en.</w> 452
pl aî 452
pouv oir,</w> 452
mondi ales</w> 452
financ és</w> 452
th e</w> 452
réform e.</w> 452
dérou le</w> 452
aupar avant.</w> 452
confér ences</w> 452
i k 451
in s.</w> 451
di te</w> 451
ter aient</w> 451
l’ avis</w> 451
l’ agriculture</w> 451
att en</w> 451
oblig e</w> 451
disponi bles.</w> 451
deven us</w> 451
fru it</w> 451
brev et 451
blan chim 451
adéquat e.</w> 451
Tim or</w> 451
jur is 451
phra se</w> 451
e y 450
2 7 450
anci ennes</w> 450
exist ante</w> 450
confli t.</w> 450
délég u 450
jeun esse</w> 450
ferrovi aires</w> 450
um ,</w> 450
Chamb re,</w> 450
prévoy ant</w> 450
Actu ellement,</w> 450
Yougoslav ie</w> 450
par aly 449
vo terai</w> 449
pon dé 449
l'in stitution</w> 449
d'ex cell 449
coû te</w> 449
extr émis 449
élev é.</w> 449
éten due</w> 449
ignor e</w> 449
Mer co 449
signal é</w> 449
l'Autri che</w> 449
l au 448
t on 448
s on,</w> 448
B ow 448
ser ver 448
dis cours,</w> 448
enf ant</w> 448
élev ée</w> 448
just e,</w> 448
èn e.</w> 448
unanim ité</w> 448
linguis tique</w> 448
déplor e</w> 448
yougoslav e</w> 448
é tri 447
è tre</w> 447
P O 447
d’ in 447
man ,</w> 447
pens é</w> 447
extrê me</w> 447
applic ation.</w> 447
fédé rale</w> 447
Minis tre,</w> 447
ti endrons</w> 446
li aison</w> 446
con vo 446
vo tons</w> 446
rapport eure</w> 446
mé m 446
nu tri 446
tur que</w> 446
financ é</w> 446
signifi erait</w> 446
Mal te</w> 446
plate- forme</w> 446
Celle- ci</w> 446
D em 445
d' énergie.</w> 445
ag es,</w> 445
ca p</w> 445
dis su 445
don ateurs</w> 445
lég èrement</w> 445
ram en 445
ba s,</w> 445
soi r.</w> 445
chôm eurs</w> 445
constitutionn elles</w> 445
W all 444
ai t-il</w> 444
d' éliminer</w> 444
av oc 444
ét ori 444
accep table.</w> 444
encourag é</w> 444
techni ques,</w> 444
D' après</w> 444
refl éter</w> 444
coor donn 444
diplomati que</w> 444
spect acul 444
intérim aire</w> 444
M au 443
vi endra</w> 443
d’ adhésion</w> 443
sti que</w> 443
lo in,</w> 443
homm es,</w> 443
grav e.</w> 443
impliqu ent</w> 443
apparti ennent</w> 443
Égy pte</w> 443
rh étori 443
u es,</w> 442
v er</w> 442
E )</w> 442
P res 442
dé posées</w> 442
ex cl 442
Eur at 442
hé mi 442
véri fication</w> 442
mor ale</w> 442
autoris ée</w> 442
au- dessus</w> 442
Sy rie</w> 442
d'initi atives</w> 442
merc redi</w> 442
S A 441
ss el 441
voudr ais,</w> 441
assur ant</w> 441
réglement aires</w> 441
adres sée</w> 441
d'inter venir</w> 441
is- je</w> 441
terrorist es.</w> 441
l'innov ation,</w> 441
P atten</w> 440
G .</w> 440
ou i 440
ré actions</w> 440
d'in spec 440
lors qu'elles</w> 440
effor cer</w> 440
mis si 440
efficac es,</w> 440
dépen dra</w> 440
avanc és</w> 440
voisin s.</w> 440
Pal aci 440
Gu ant 440
sauve garder</w> 440
précon ise</w> 440
Litu anie</w> 440
incon véni 440
Doh a</w> 440
l'exi gence</w> 440
D im 439
d' administration</w> 439
dé mon 439
ain es.</w> 439
d’ Europe</w> 439
cul tiv 439
ang le</w> 439
souti enne</w> 439
suiv re.</w> 439
viol ences</w> 439
mom ent- 439
Fr ance.</w> 439
fisca l</w> 439
conten us</w> 439
inscri re</w> 439
dési g 439
électri ques</w> 439
accompli .</w> 439
persuad er</w> 439
Mu gab 439
M illénaire</w> 438
S ak 438
l' électricité</w> 438
ri che</w> 438
commun es.</w> 438
abor d,</w> 438
égar ds,</w> 438
indi cations</w> 438
aliment aires.</w> 438
reç oit</w> 438
préal ables</w> 438
phénom ènes</w> 438
mi- parcours</w> 438
L in 437
é min 437
is ation,</w> 437
l' appui</w> 437
pou vions</w> 437
vo l</w> 437
cit ation</w> 437
situ e</w> 437
vrai e</w> 437
fé min 437
religi euses</w> 437
idéologi e</w> 437
humanit aire.</w> 437
civilis ation</w> 437
l'humani té</w> 437
réité rer</w> 437
déploi ement</w> 437
d' harmonisation</w> 436
propo sent</w> 436
abor dée</w> 436
actu elles,</w> 436
l'é car 436
judici eux</w> 436
lab el</w> 436
circonscri ption</w> 436
assassin at</w> 436
lun di</w> 436
blanchim ent</w> 436
l ap 435
P rog 435
pr e</w> 435
ré es,</w> 435
d' ouverture</w> 435
d' opinion</w> 435
différ ente.</w> 435
199 8.</w> 435
génér al 435
continu ité</w> 435
résolu e</w> 435
constitutionn elle</w> 435
14 2</w> 435
atri ces</w> 435
poss èdent</w> 435
flot tes</w> 435
équivo que</w> 435
hongro ise</w> 435
Contr airement</w> 435
p .</w> 434
l' essentiel</w> 434
d' associ 434
pro jet,</w> 434
ap paraître</w> 434
mo t 434
entre - 434
garanti ra</w> 434
spécifi que.</w> 434
orient er</w> 434
Li ban 434
grand - 434
charg és</w> 434
trou bles</w> 434
Tchétché nie</w> 434
P ouv 433
ti ré</w> 433
si n</w> 433
vi de</w> 433
tou jours,</w> 433
l’ absence</w> 433
d’ adopter</w> 433
nu i 433
effor ts.</w> 433
volon tiers</w> 433
fourni s</w> 433
ho sti 433
pari tion</w> 433
tchè que,</w> 433
Mc C 433
mag ni 433
carbur ant</w> 433
Conven tion.</w> 433
Celu i- 433
l également</w> 432
o cu 432
l' importation</w> 432
d' amélioration</w> 432
for ts</w> 432
fai ll 432
l'A sie</w> 432
heur es,</w> 432
ay ez</w> 432
déc embre.</w> 432
détermin é</w> 432
loc ales,</w> 432
consac rés</w> 432
dossi er.</w> 432
Hon g</w> 432
mater n 432
aph t 432
Jour née</w> 432
l ance</w> 431
es s</w> 431
l' année.</w> 431
con viens</w> 431
dis simul 431
oy ez</w> 431
dou ane</w> 431
proch ain.</w> 431
approuv és</w> 431
Es pér 431
respectu eux</w> 431
distor sion</w> 431
inv ent 431
BE I</w> 431
immig rés</w> 431
d'expli quer</w> 431
a j 430
p pe</w> 430
â ch 430
pa ram 430
d' intérê 430
dé tour 430
dé part,</w> 430
nom s</w> 430
région al.</w> 430
infra ction</w> 430
Mar o 430
affec ter</w> 430
caractéris tique</w> 430
Fin lande,</w> 430
octroy er</w> 430
biocarbur ants</w> 430
l oi,</w> 429
en di 429
av ie</w> 429
ss e.</w> 429
déci si 429
gar dant</w> 429
nouve au.</w> 429
dou lour 429
attein tes</w> 429
encourag ement</w> 429
confron tées</w> 429
ga zo 429
Kyot o.</w> 429
Bro k</w> 429
Cam bo 429
atoi res.</w> 429
semes tre</w> 429
ç a</w> 428
d' accélérer</w> 428
ant i</w> 428
qui étude</w> 428
L' industrie</w> 428
comp tes,</w> 428
pres sion.</w> 428
val able</w> 428
offici elles</w> 428
(A 6-0 428
enregistr ement</w> 428
compar aison</w> 428
pouss er</w> 428
Démocr ates- 428
a w 427
l' implication</w> 427
l’ amélioration</w> 427
rapport s.</w> 427
cou rir</w> 427
prati ques,</w> 427
agricul teurs.</w> 427
budgét aires.</w> 427
mutu ellement</w> 427
janvi er,</w> 427
Rom e</w> 427
licenci ements</w> 427
bov ine</w> 427
Ferr er 427
confédé ral</w> 427
m aison</w> 426
A p 426
H aut</w> 426
pa vill 426
ten eur</w> 426
un ,</w> 426
trai ent</w> 426
centr ale,</w> 426
cam p</w> 426
monn ai 426
monop oles</w> 426
après-mi di</w> 426
plur alisme</w> 426
1 0,</w> 425
R A 425
G auche</w> 425
an a</w> 425
is ant</w> 425
in direc 425
s'ag issant</w> 425
d'in di 425
constitu erait</w> 425
condi tions.</w> 425
sub stitu 425
effectu ées</w> 425
nécessi tent</w> 425
Chypr e.</w> 425
dégag er</w> 425
ministéri elle</w> 425
Secré taire</w> 425
Celui- ci</w> 425
O ù</w> 424
S ain 424
au rez</w> 424
d’ ailleurs</w> 424
s' engag 424
lanc ée</w> 424
consommat eur.</w> 424
rép ète,</w> 424
hor ri 424
préfér é</w> 424
tomb er</w> 424
ultéri eur 424
nourri ture</w> 424
privatis ation</w> 424
4 8</w> 423
si dé 423
d' aujourd'hui.</w> 423
l’ avenir.</w> 423
str ali 423
inter médiaire</w> 423
voi x.</w> 423
ph ot 423
off rant</w> 423
commenc ent</w> 423
concréti ser</w> 423
psy ch 423
C ell 422
é poque,</w> 422
R .</w> 422
au rer</w> 422
d' E 422
d' emplois,</w> 422
ap port 422
gar di 422
ess aie</w> 422
accro î 422
approfondi r</w> 422
figur er</w> 422
Po ssel 422
secré tariat</w> 422
atmos phéri 422
magni fi 422
9 6 421
ti ez</w> 421
pa rit 421
con cevoir</w> 421
d' acc 421
su cr 421
di oxyde</w> 421
uni tés</w> 421
région al,</w> 421
fo ssi 421
traditionn elles</w> 421
inspec tions</w> 421
Birmani e</w> 421
opéra bilité</w> 421
V it 420
F lor 420
on g 420
es ".</w> 420
su n 420
dé passer</w> 420
pé es</w> 420
min eurs</w> 420
mar che</w> 420
contribu eront</w> 420
euro s,</w> 420
sem aine.</w> 420
èn e,</w> 420
bru it</w> 420
Scheng en,</w> 420
nomm é</w> 420
(C S)</w> 420
contam in 420
elles- mêmes</w> 420
bill ets</w> 420
v elop 419
V el 419
d' énergie,</w> 419
d' entrer</w> 419
su res</w> 419
pl aide</w> 419
pré limin 419
emb lement</w> 419
peu t,</w> 419
uti le,</w> 419
différ ends</w> 419
approuv ons</w> 419
préten d</w> 419
Scheng en.</w> 419
compati bilité</w> 419
douani ère</w> 419
banc aire</w> 419
addi tionn 419
pesti cides</w> 419
Gouvern ement</w> 419
réchauff ement</w> 419
Espér ons</w> 419
l ement.</w> 418
n at 418
B re 418
d' emploi,</w> 418
im pulsion</w> 418
oc ar 418
én um 418
produi t.</w> 418
équi pes</w> 418
rou te.</w> 418
sign aux</w> 418
étrang e</w> 418
ty p 418
avanc é</w> 418
touch é</w> 418
introdui tes</w> 418
occident ale</w> 418
lac un 418
parol e,</w> 418
pro duise</w> 417
at h 417
d’ énergie</w> 417
fon der</w> 417
ver rons</w> 417
alis ation,</w> 417
alis me,</w> 417
uni fication</w> 417
dévelop pe</w> 417
déci de</w> 417
abor d</w> 417
avant - 417
concerné s,</w> 417
pir ation</w> 417
perman ence</w> 417
préten dre</w> 417
extérieur es,</w> 417
d'orig ine,</w> 417
l'ach èvement</w> 417
munici pa 417
Maro c</w> 417
r alli 416
" évaluation</w> 416
6 5</w> 416
qu at 416
pro vin 416
ab sor 416
l'im munité</w> 416
étrang ère.</w> 416
techni que.</w> 416
des quels</w> 416
évolu tions</w> 416
ax ée</w> 416
err eur.</w> 416
catastrop hi 416
intég rés</w> 416
appréci ation</w> 416
raisonn able.</w> 416
sinc ères</w> 416
couv rant</w> 416
rassembl er</w> 416
l'infra structure</w> 416
A ra 415
g am 415
tr ilo 415
d' activité</w> 415
ces sé</w> 415
fai ts,</w> 415
opér er</w> 415
cou l 415
l'é tude</w> 415
administr atifs</w> 415
victi mes,</w> 415
navi re</w> 415
Pro di,</w> 415
tari fs</w> 415
Déclar ation</w> 415
dénon cer</w> 415
souscri s</w> 415
Palesti ne</w> 415
éc ras 415
r ance</w> 414
H aut 414
F l 414
bli n</w> 414
fai m</w> 414
ba sées</w> 414
n’ ai</w> 414
attein ts</w> 414
aliment aires,</w> 414
examin era</w> 414
ons- le,</w> 414
intég ra 414
souff ert</w> 414
routi ère</w> 414
illu stre</w> 414
monop ole</w> 414
Tuni sie</w> 414
C as 413
T cher 413
op èrent</w> 413
d' am 413
d' organisations</w> 413
ci - 413
ter res 413
no by 413
sid a</w> 413
pass ent</w> 413
do g 413
dés avantag 413
indispens ables</w> 413
Afghanist an</w> 413
foot ball</w> 413
exter nes</w> 413
Pé k 413
d ess 412
ent u 412
im posée</w> 412
ven ue</w> 412
enti tés</w> 412
d'in novation</w> 412
nor d- 412
défin ie</w> 412
rapi dité</w> 412
appréci é</w> 412
géographi ques</w> 412
La ek 412
Gö te 412
0 5 411
re traités</w> 411
sé cher 411
gé n 411
pe ines</w> 411
effica cité,</w> 411
spécifi que,</w> 411
industri elles</w> 411
évolu er</w> 411
loc ales.</w> 411
réfugi és,</w> 411
diminu er</w> 411
développé es</w> 411
carbur ants</w> 411
ran g</w> 411
davant age.</w> 411
Cell es-ci</w> 411
) :</w> 410
l' adaptation</w> 410
ar t 410
sti pul 410
hu i 410
doi g 410
centr ale.</w> 410
proch ainement</w> 410
ologi ques</w> 410
mainten u</w> 410
l'O I 410
positi ve,</w> 410
rend ant</w> 410
diplomati ques</w> 410
nul le</w> 410
défens eurs</w> 410
d'inst aurer</w> 410
d resser</w> 409
op oli 409
pré matu 409
du c</w> 409
J' aurais</w> 409
fer mes</w> 409
jus qu</w> 409
technologi e,</w> 409
jug és</w> 409
Du blin</w> 409
l'Itali e,</w> 409
Sin on,</w> 409
Wal d 409
désar mement</w> 409
A y 408
M ed 408
oi res.</w> 408
ré clame</w> 408
d' accueil</w> 408
ni ,</w> 408
trai tés.</w> 408
l'h eure,</w> 408
Ch in 408
multi ples</w> 408
assu rément</w> 408
pén ales</w> 408
Ira k,</w> 408
famili ale</w> 408
II ,</w> 408
sovié tique</w> 408
l'interpré tation</w> 408
. "</w> 407
J ar 407
in juste</w> 407
l' opportunité</w> 407
d' op 407
d' adhésion.</w> 407
ch ance 407
tou ff 407
ell ,</w> 407
fondament ales.</w> 407
véri té,</w> 407
activi tés.</w> 407
appropri ées.</w> 407
danger euse</w> 407
l'aut on 407
fourn issant</w> 407
ficti fs</w> 407
souffr ances</w> 407
autor ise</w> 407
affron ter</w> 407
A ll 406
n ette</w> 406
P et 406
T I 406
pr ess 406
tu e</w> 406
sé e,</w> 406
sé es.</w> 406
seu lement,</w> 406
s- nous</w> 406
mé fi 406
prot ège</w> 406
déf aut 406
intégr ation.</w> 406
Su isse</w> 406
étrang ère,</w> 406
atur e,</w> 406
orient ale.</w> 406
ing rédi 406
renouv ellement</w> 406
qualifi é</w> 406
senti ments</w> 406
diplomati e</w> 406
résu mé,</w> 406
discussi on.</w> 406
restau rer</w> 406
marqu age</w> 406
répu tation</w> 406
d'investi r</w> 406
proxim ité</w> 406
Cambo dg 406
H eur 405
er te</w> 405
pré val 405
lu i.</w> 405
l'UE M</w> 405
signifi cation</w> 405
rapp el</w> 405
grav e,</w> 405
d'é cu 405
préci pi 405
Trai té,</w> 405
jeun esse,</w> 405
décou le</w> 405
légi férer</w> 405
oppos ants</w> 405
devri ez</w> 405
bloc age</w> 405
a oût</w> 404
3 2</w> 404
A m 404
A in 404
A 5-0 404
d et 404
é mor 404
M e 404
tr ente</w> 404
spéci aux</w> 404
idé al</w> 404
prê ter</w> 404
parven ir.</w> 404
individu elles</w> 404
modern iser</w> 404
commencer ai</w> 404
propag ation</w> 404
faibl esse</w> 404
redev ances</w> 404
s phère</w> 403
è res 403
fi r 403
ét ant,</w> 403
d’ information</w> 403
dis ait</w> 403
enn em 403
accep tée</w> 403
att u</w> 403
résult at.</w> 403
maj eures</w> 403
fo is- 403
transpar ent</w> 403
rapid e.</w> 403
Li ban</w> 403
adap tée</w> 403
hau ts</w> 403
/9 8 403
acces sible</w> 403
accessi bles</w> 403
Pu is 403
Tcher noby 403
l’ approche</w> 402
cl aire,</w> 402
import ance,</w> 402
te :</w> 402
gé ,</w> 402
adop té,</w> 402
sor te,</w> 402
affi ch 402
ing .</w> 402
famill e,</w> 402
lic ences</w> 402
primordi al</w> 402
Ju sti 402
Mold avie</w> 402
n ement</w> 401
ai ent,</w> 401
d' apprendre</w> 401
par viennent</w> 401
obj ections</w> 401
produi t,</w> 401
pass ons</w> 401
do tée</w> 401
trouv ée</w> 401
arri ère</w> 401
environnement ales.</w> 401
14 2)</w> 401
revê tent</w> 401
réserv é</w> 401
Méditerran ée,</w> 401
apparten ant</w> 401
a h</w> 400
oi gn 400
at ou 400
fi chi 400
l’ accent</w> 400
co existence</w> 400
pouv oir.</w> 400
prog ressé</w> 400
Ch ar 400
Au torité</w> 400
supplément aires,</w> 400
sensi bilité</w> 400
élar ussi 400
l'Ir lande,</w> 400
SI S</w> 400
r o</w> 399
3 5 399
s ai 399
f ant 399
in a</w> 399
ap pauv 399
publi quement</w> 399
diffici les.</w> 399
sus pec 399
défen d</w> 399
industri el</w> 399
exer cée</w> 399
t op 398
H aï 398
qu er 398
l' urgence</w> 398
l’ autre</w> 398
ces sez- 398
form ation.</w> 398
20 ,</w> 398
aff aire,</w> 398
19 6 398
conséqu ence.</w> 398
abili té,</w> 398
profes sions</w> 398
visi ble</w> 398
législati f.</w> 398
um .</w> 398
détru it</w> 398
sauve gar 398
incit ations</w> 398
entrepren eurs</w> 398
contam ination</w> 398
connexi on</w> 398
grati tude</w> 398
E ras 397
l' autom 397
ci gar 397
re cul 397
fi able</w> 397
ex posés</w> 397
pu is,</w> 397
memb res 397
rec ouv 397
ba fou 397
19 5 397
moi .</w> 397
exist ait</w> 397
extéri eure.</w> 397
milit aire,</w> 397
glob alement</w> 397
correc tement.</w> 397
sous- esti 397
référ ence.</w> 397
Es pagn 397
néerland aise</w> 397
Autri che</w> 397
l and</w> 396
N a 396
d’ en</w> 396
d'in stitu 396
gl et 396
s’ en</w> 396
positi fs.</w> 396
satis faisant</w> 396
souten ir.</w> 396
D' où</w> 396
visi bilité</w> 396
isol ement</w> 396
usin es</w> 396
d on</w> 395
P ,</w> 395
y p 395
R ü 395
K )</w> 395
or in 395
par ent 395
lu s 395
mani ère.</w> 395
internation aux,</w> 395
pres tation</w> 395
financ ements</w> 395
collègu es.</w> 395
d'A frique</w> 395
exac er 395
/9 7 395
l'Es pagne,</w> 395
princip e.</w> 395
norm alisation</w> 395
mém oire</w> 395
D avi 394
l’ information</w> 394
co difi 394
program mes.</w> 394
soi t.</w> 394
produi tes</w> 394
Au x</w> 394
volon taires</w> 394
fourni e</w> 394
lour ds</w> 394
Bulgar ie,</w> 394
juill et,</w> 394
révis er</w> 394
traver se</w> 394
subi r</w> 394
pénu rie</w> 394
Mand el 394
cessez- le- 394
l er,</w> 393
d ot 393
ä n 393
d' emploi.</w> 393
j' entends</w> 393
l'O b 393
l'O ffice</w> 393
lo gis 393
m' exprimer</w> 393
ty pi 393
des quelles</w> 393
oubli é</w> 393
vers ement</w> 393
appar u</w> 393
exces sivement</w> 393
complément aires</w> 393
israéli en</w> 393
Chamb re</w> 393
tragi ques</w> 393
délibé rément</w> 393
rembours ement</w> 393
s u</w> 392
er a.</w> 392
op posé 392
dé part.</w> 392
ad ressé</w> 392
parti es,</w> 392
L' adoption</w> 392
fav eur.</w> 392
reconn ue</w> 392
exclu sion</w> 392
qualifi és</w> 392
o- Wald 392
biologi que</w> 392
symb ole</w> 392
éman ant</w> 392
consent ement</w> 392
Ferrer o-Wald 392
a fgh 391
C res 391
uni r</w> 391
cour t 391
atten du</w> 391
cli n</w> 391
No ë 391
ban anes</w> 391
rejet ons</w> 391
bio diversi 391
peupl e,</w> 391
univers elle</w> 391
islami que</w> 391
recue illi 391
Liby e</w> 391
angul aire</w> 391
8 5</w> 390
con fon 390
bi r 390
alis tes,</w> 390
lég al</w> 390
mati que.</w> 390
inform ations,</w> 390
réform e,</w> 390
bureaucrati que</w> 390
allou é</w> 390
touris me.</w> 390
unilat érale</w> 390
musul man 390
3 )</w> 389
s aurait</w> 389
ti en</w> 389
gu i 389
différ entes,</w> 389
signifi er</w> 389
docu ment,</w> 389
introdui te</w> 389
affec tés</w> 389
logi ci 389
l'In stitut</w> 389
s'effor ce</w> 389
n ett 388
b el</w> 388
ré agi</w> 388
né e.</w> 388
com posé</w> 388
cl os.</w> 388
ot age</w> 388
effor ts,</w> 388
préci sion</w> 388
expli cite</w> 388
moder nes</w> 388
br è 388
va stes</w> 388
poursui tes</w> 388
atmos phère</w> 388
ek - 388
m énag 387
( Démocrates- 387
ré affirmer</w> 387
for te,</w> 387
né fa 387
sou terr 387
inter dic 387
accor dées</w> 387
hu i,</w> 387
souv enir</w> 387
territ oire.</w> 387
Deuxi ème</w> 387
just e.</w> 387
précéd ent.</w> 387
Grè ce.</w> 387
poursui vent</w> 387
honn ête</w> 387
fréqu emment</w> 387
Démocr ates</w> 387
servir a</w> 387
A h 386
b all 386
P ren 386
l’ ouverture</w> 386
co s 386
peu ,</w> 386
solu tion,</w> 386
voi e,</w> 386
jou issent</w> 386
Uni on.</w> 386
cô te</w> 386
condui ra</w> 386
définiti f</w> 386
poss é 386
intérieur es.</w> 386
dépens é</w> 386
sach ant</w> 386
mesur er</w> 386
i tes</w> 385
9 8</w> 385
ou est</w> 385
pr esse,</w> 385
or s,</w> 385
l' eau,</w> 385
su prê 385
di on 385
s' impos 385
organis ée.</w> 385
initi al</w> 385
budgét aires,</w> 385
vrai ,</w> 385
instru ment 385
minim ale</w> 385
group es,</w> 385
scand ale</w> 385
Belgi que,</w> 385
ACP .</w> 385
nul lement</w> 385
chyprio te</w> 385
ser tion</w> 384
alis ation.</w> 384
demand er,</w> 384
méri dion 384
inst ances</w> 384
estim ations</w> 384
sugg érer</w> 384
l'In tern 384
supéri eure</w> 384
éthi ques</w> 384
l'ag ence</w> 384
aéropor t</w> 384
déséqui libres</w> 384
9 6</w> 383
ti f</w> 383
or tement</w> 383
l' au 383
d' enquê 383
dé clin</w> 383
dis paraî 383
trans fé 383
adap tées</w> 383
manifes té</w> 383
Isra éli 383
justifi é</w> 383
avri l,</w> 383
espè ce</w> 383
consul té</w> 383
norm alement</w> 383
devri ons-nous</w> 383
finland aise</w> 383
Verts/AL E.</w> 383
perform ance</w> 383
cr ates</w> 382
accor dent</w> 382
lib érale</w> 382
gar anti</w> 382
utilis ons</w> 382
all ez</w> 382
ress enti 382
équi table,</w> 382
reconnaiss ent</w> 382
arm ées</w> 382
dro gu 382
d'investiss ements</w> 382
péd op 382
Vit orin 382
S omali 381
4 0 381
ai m 381
fi li 381
voi ture</w> 381
so l</w> 381
cou pes</w> 381
séri eux,</w> 381
tabl ement,</w> 381
recommand er</w> 381
br û 381
déplac er</w> 381
minori tés,</w> 381
far deau</w> 381
accueill i</w> 381
performan ces</w> 381
démarch es</w> 381
coali tion</w> 381
c élè 380
m ans</w> 380
en droit</w> 380
pr endre.</w> 380
im migration</w> 380
s' était</w> 380
s' inqui 380
contr ac 380
Ch ers</w> 380
souten us</w> 380
infra structure</w> 380
enregistr é</w> 380
um s</w> 380
tis ation</w> 380
famill e.</w> 380
Se con 380
Verheug en</w> 380
rejoin t</w> 380
hongr ois</w> 380
dess ous</w> 380
f e</w> 379
dé ri 379
possi bles.</w> 379
l'industr ie.</w> 379
associ é</w> 379
contin u</w> 379
voisin s,</w> 379
Tr ans 379
inscri ts</w> 379
sav oir 379
Nor v 379
lour de</w> 379
entraîn ent</w> 379
équival ent</w> 379
Ham as</w> 379
Hi er,</w> 379
Heur eusement,</w> 379
v œ 378
E L)</w> 378
O om 378
N ouv 378
con çu</w> 378
dé courag 378
ra .</w> 378
l’ éducation</w> 378
d’ aide</w> 378
vo te)</w> 378
ju in.</w> 378
èr ement.</w> 378
car tes</w> 378
Ch ac 378
l'O LAF</w> 378
lit tér 378
exist antes.</w> 378
extéri eurs</w> 378
regr et</w> 378
eux- mêmes,</w> 378
Ir lande.</w> 378
afric ains</w> 378
criti qué</w> 378
commencer ,</w> 378
biologi ques</w> 378
renvoy er</w> 378
v au 377
g el</w> 377
s cepti 377
con texte.</w> 377
re fon 377
mi eux.</w> 377
concer t</w> 377
développ ée</w> 377
comp tes.</w> 377
voi ci</w> 377
œuv rer</w> 377
dépu té,</w> 377
financ ées</w> 377
sembl erait</w> 377
considéra ble.</w> 377
stratégi e.</w> 377
laiss ant</w> 377
profon des</w> 377
tol érer</w> 377
spec tre</w> 377
requ is</w> 377
Du bl 377
o st 376
t o</w> 376
1 1,</w> 376
ement :</w> 376
no té</w> 376
ca ch 376
d’ origine</w> 376
air .</w> 376
abor d 376
pris ons</w> 376
sect eurs,</w> 376
do té</w> 376
sup porter</w> 376
cli ents</w> 376
autoris ées</w> 376
es- nous</w> 376
éten du</w> 376
clari fication</w> 376
rur ales.</w> 376
grec que</w> 376
entret enir</w> 376
d' activités</w> 375
dé passé</w> 375
vi sion.</w> 375
ag in 375
particuli èrement,</w> 375
commun es,</w> 375
ram me</w> 375
ba s.</w> 375
géné rer</w> 375
fu sion</w> 375
att age</w> 375
juridi ques.</w> 375
voul aient</w> 375
élev é,</w> 375
har d 375
empê ché</w> 375
cen sure</w> 375
sex es</w> 375
métho d 375
dipl ô 375
entraîn erait</w> 375
2000 - 375
juris prudence</w> 375
l’ environnement.</w> 374
ser ez</w> 374
alis ée</w> 374
fai lle</w> 374
pris es.</w> 374
ir ont</w> 374
comp tent</w> 374
cor rig 374
199 6.</w> 374
réflexi ons</w> 374
bâti ment</w> 374
offer te</w> 374
diss ement</w> 374
passi onn 374
interrom pu 374
(H U)</w> 374
C eux- 373
P en 373
J éru 373
s'ag it,</w> 373
limi tées</w> 373
ajou t</w> 373
mand at.</w> 373
précéd entes</w> 373
profon d</w> 373
proposé ,</w> 373
soul ag 373
Hongri e,</w> 373
faibl esses</w> 373
log ement</w> 373
projet s,</w> 373
EC H 373
Lond res</w> 373
l'écar t</w> 373
Jéru sal 373
3 8 372
b elles</w> 372
y me</w> 372
ave z-vous</w> 372
mani ères</w> 372
trai tés,</w> 372
ill au 372
proch ain,</w> 372
natur elle</w> 372
industri e,</w> 372
des truc 372
empê chent</w> 372
appel ée</w> 372
pir at 372
éventu els</w> 372
conver sion</w> 372
provo quer</w> 372
hom olo 372
mai .</w> 372
PSE ,</w> 372
l'innov ation.</w> 372
réces sion</w> 372
b et 371
tr es,</w> 371
l' économie.</w> 371
d' attendre</w> 371
vi sion,</w> 371
né e,</w> 371
cer cle</w> 371
réglement ation,</w> 371
sol enn 371
exclu s</w> 371
décl en 371
ent- elles</w> 371
légi fér 371
vie ille</w> 371
d'inter dire</w> 371
Solan a</w> 371
corrup tion,</w> 371
h ect 370
d' ailleurs,</w> 370
soci al 370
prog ress 370
fa ssions</w> 370
technologi e.</w> 370
examin ées</w> 370
préci euse</w> 370
refu sent</w> 370
confir m 370
dimen sions</w> 370
mariti me.</w> 370
(F I)</w> 370
auton omie</w> 370
vend redi</w> 370
médec ins</w> 370
allu sion</w> 370
Soud an</w> 370
clon age</w> 370
indubi tablement</w> 370
z z 369
dé cess 369
pré décess 369
for cer</w> 369
per ception</w> 369
dis e</w> 369
co décision.</w> 369
lég ales</w> 369
cré és</w> 369
ach ar 369
voy ages</w> 369
immédi at</w> 369
construc teurs</w> 369
exis ter</w> 369
ber cul 369
Copenhag ue,</w> 369
écar t</w> 369
Ru ij 369
For um</w> 369
atoi res,</w> 369
scandal eux</w> 369
comit ologi 369
2 8 368
g esti 368
é mettre</w> 368
P ri 368
ti ,</w> 368
is sions</w> 368
our s</w> 368
abor der 368
d'in sist 368
exig eant</w> 368
exist ants.</w> 368
intéress ante</w> 368
An née</w> 368
convi endrait</w> 368
gri ppe</w> 368
préven tion,</w> 368
polici ère</w> 368
biom étri 368
L E 367
s ois</w> 367
z emb 367
P H 367
air ,</w> 367
ba ssi 367
ress ent 367
organis ées</w> 367
essenti elle.</w> 367
d'ex ploitation</w> 367
industri elle,</w> 367
invi tons</w> 367
bat tre</w> 367
bre fs</w> 367
tis me</w> 367
requ ises</w> 367
fi ers</w> 366
appli cations</w> 366
val eurs,</w> 366
Qu els</w> 366
orient ale,</w> 366
judici aire,</w> 366
correc t</w> 366
group es.</w> 366
bri ll 366
pertin ente</w> 366
discipl in 366
mesur e.</w> 366
d'asi le.</w> 366
amendement   366
enfre in 366
Jar zemb 366
S ous</w> 365
J un 365
ver ts</w> 365
nomb rables</w> 365
cré ati 365
abor dées</w> 365
appro che.</w> 365
fer me 365
puis -je</w> 365
cou p 365
diffici les,</w> 365
atur e.</w> 365
har cè 365
des su 365
inaccep table,</w> 365
socialis te,</w> 365
bo î 365
Roumani e.</w> 365
attribu er</w> 365
Jarzemb owsk 365
r oi 364
- delà</w> 364
C oll 364
G on 364
fin al,</w> 364
conn ex 364
jou era</w> 364
tro ï 364
dialo gue,</w> 364
remar qué</w> 364
recommand é</w> 364
distribu é.</w> 364
journ al</w> 364
diversi fication</w> 364
terri bles</w> 364
lang age</w> 364
l èvement</w> 363
d' harmoniser</w> 363
entr era</w> 363
voi sin</w> 363
jou ets</w> 363
199 7.</w> 363
abili té.</w> 363
interven tion.</w> 363
sugg ér 363
PPE ,</w> 363
crain dre</w> 363
éco ss 363
cinqu ante</w> 363
d a</w> 362
k ach 362
B r 362
qu e:</w> 362
tr es.</w> 362
l' adhésion.</w> 362
l’ impact</w> 362
pour suivi</w> 362
entr é</w> 362
L' autre</w> 362
sect eurs.</w> 362
représent és</w> 362
dépu tée</w> 362
m' adresse</w> 362
déc ouvert</w> 362
sus citer</w> 362
ajou terai</w> 362
gen s,</w> 362
acqu ise</w> 362
Balk ans.</w> 362
appell ent</w> 362
ambiguï té</w> 362
nett oy 362
c tion.</w> 361
s omb 361
d' exiger</w> 361
par all 361
ur ani 361
oci ation</w> 361
inci dent</w> 361
fr et</w> 361
exig eons</w> 361
mom ents</w> 361
vé cu</w> 361
offici el</w> 361
contre façon</w> 361
chapi tres</w> 361
pourrai t-il</w> 361
traç abilité</w> 361
  %</w> 360
V u</w> 360
S har 360
l' espér 360
ré alités</w> 360
vi enne</w> 360
bl â 360
alis ées</w> 360
l'A c 360
centr alisation</w> 360
nuclé aires,</w> 360
Re d 360
PPE- DE,</w> 360
reconnu s</w> 360
sap er</w> 360
protectionn isme</w> 360
sous-ten d</w> 360
Wall strö 360
C oh 359
k e 359
es clav 359
él o 359
ren ation 359
amélior era</w> 359
oblig é</w> 359
étrang ères.</w> 359
rapid e,</w> 359
invi tés</w> 359
journ aux</w> 359
satisfais ante.</w> 359
fac ul 359
texti les</w> 359
pes er</w> 359
après-mi di,</w> 359
quasi - 359
Mos co 359
Ceux- ci</w> 359
C 4-0 358
b elle</w> 358
M ari 358
G e 358
dé es.</w> 358
qu' aujourd'hui,</w> 358
l’ ON 358
ad mis</w> 358
s'ag ira</w> 358
accep tés</w> 358
Qu in 358
rou te,</w> 358
Li ik 358
milit aires.</w> 358
condam nés</w> 358
signific atifs</w> 358
intéres sés</w> 358
Bus h</w> 358
kach enk 358
Liik an 358
t om 357
h an 357
4 5 357
is ons</w> 357
l' économie,</w> 357
ér o 357
te -t-il</w> 357
cé der</w> 357
soulign ent</w> 357
charg ées</w> 357
jug es</w> 357
raisonn ables</w> 357
Ver ts,</w> 357
d'Amsterdam .</w> 357
d'urg ence,</w> 357
Cauca se</w> 357
e able</w> 356
K ur 356
ci ble</w> 356
ch ,</w> 356
at s- 356
ag h 356
form ellement</w> 356
soci alement</w> 356
ill ez</w> 356
intégr ation,</w> 356
termin erai</w> 356
connaiss ance,</w> 356
adap té</w> 356
étr oit</w> 356
professionn elle,</w> 356
larg e,</w> 356
mainti ent</w> 356
Ira k.</w> 356
entrav er</w> 356
s'av érer</w> 356
we ek- 356
Main ten 356
extrémis tes</w> 356
a y</w> 355
w and 355
ac tion,</w> 355
tu bercul 355
per pé 355
sé s,</w> 355
souti endrons</w> 355
lut tent</w> 355
résult ats,</w> 355
génér ale.</w> 355
l'im position</w> 355
élev és.</w> 355
sembl ait</w> 355
tez- moi,</w> 355
défini tions</w> 355
reti ré</w> 355
religi eux</w> 355
son d 355
Cor bet 355
S' agissant</w> 355
quit té</w> 355
majori té.</w> 355
vacc ination</w> 355
Galile o</w> 355
diri ger</w> 355
mercu re</w> 355
court oisi 355
6 00</w> 354
b aign 354
y r 354
dé tr 354
pouv ant 354
nu ire</w> 354
environnement ales,</w> 354
ajou té</w> 354
dirig é</w> 354
éventu el</w> 354
ambiti eux.</w> 354
influ encer</w> 354
écologi ques</w> 354
Belar us.</w> 354
spécul ation</w> 354
clandesti ne</w> 354
l'ONU .</w> 354
accord- cadre</w> 354
a tr 353
V ar 353
z á 353
P l 353
in car 353
dé e,</w> 353
im min 353
per d 353
j' apprécie</w> 353
atten tion,</w> 353
équi té</w> 353
assur ances</w> 353
s’ av 353
th è 353
jeu ,</w> 353
jam ais,</w> 353
appliqu és</w> 353
Vi ê 353
minori tés.</w> 353
sél ecti 353
propag ande</w> 353
cab illau 353
quelques- uns</w> 353
autonom e</w> 353
l'accep tation</w> 353
décid eurs</w> 353
h enti 352
P e 352
qu ants</w> 352
li e</w> 352
d' importants</w> 352
d' avancement</w> 352
dé çu</w> 352
comm émor 352
L' aide</w> 352
pass e.</w> 352
vé nie</w> 352
dérou lent</w> 352
Slo vénie</w> 352
Schul z</w> 352
l'hy po 352
Mainten ant,</w> 352
d rap 351
J eux</w> 351
ai mé</w> 351
aut eur.</w> 351
cour se</w> 351
vir us</w> 351
program mes,</w> 351
pag es</w> 351
élev eurs</w> 351
conf ère</w> 351
environnement ale,</w> 351
appropri é.</w> 351
intro duisant</w> 351
jam ais.</w> 351
harmon i 351
pério de,</w> 351
préf ère</w> 351
débattu e</w> 351
(CO M 351
incontes tablement</w> 351
longu ement</w> 351
privil ège</w> 351
sent ent</w> 351
Monténég ro</w> 351
Lou kachenk 351
d'insist er</w> 351
Coh n 351
t aient</w> 350
B ang 350
F O 350
par vient</w> 350
onn aires</w> 350
compl ais 350
d'ex portation</w> 350
dét ec 350
hon te</w> 350
Ir an.</w> 350
Mar oc 350
complex e.</w> 350
figur ant</w> 350
chaî nes</w> 350
inuti les</w> 350
préco ce</w> 350
rectific atif</w> 350
fichi er</w> 350
ferme té</w> 350
p omm 349
2 6 349
s ",</w> 349
pr endront</w> 349
in hér 349
po que.</w> 349
s' éten 349
sy non 349
ru p 349
indi cation</w> 349
d'ex écu 349
lo cu 349
dialo gue.</w> 349
sug gé 349
exer cent</w> 349
peupl es.</w> 349
II I</w> 349
Danemar k,</w> 349
papi er</w> 349
rassur er</w> 349
Chac un</w> 349
B our 348
d' assumer</w> 348
ch es 348
re garde</w> 348
pré su 348
somm et,</w> 348
personn e,</w> 348
personn alité</w> 348
occa sionn 348
Tur cs</w> 348
/200 1)</w> 348
sauv et 348
l’A gence</w> 348
s'op pose</w> 348
C A 347
C ô 347
b y</w> 347
s cru 347
è re- 347
( vote)</w> 347
N S 347
D ev 347
dis positif</w> 347
iti né 347
fondament ales,</w> 347
parven ir,</w> 347
maladi e.</w> 347
palestini ens</w> 347
cherch é</w> 347
fédé ral</w> 347
Car aï 347
rar ement</w> 347
J eu 346
œ il</w> 346
l' eau.</w> 346
onn ement</w> 346
de - 346
voi x,</w> 346
s'ag ir</w> 346
ma tri 346
car rière</w> 346
L’ UE</w> 346
assu me</w> 346
priori té,</w> 346
sex e</w> 346
d'inform er</w> 346
Balk ans,</w> 346
entrav e</w> 346
meur tre</w> 346
répar ation</w> 346
accom pagne</w> 346
vous- même</w> 346
velop pe</w> 346
e ».</w> 345
" éducation</w> 345
d olé 345
é mo 345
li té.</w> 345
pu re</w> 345
ver se</w> 345
obj ection</w> 345
personn e.</w> 345
respec tés</w> 345
représent ante</w> 345
propr ement</w> 345
diffici lement</w> 345
sembl er</w> 345
individu elle</w> 345
religi euse</w> 345
histori que.</w> 345
super flu 345
peupl es,</w> 345
socio- économique</w> 345
parit aire</w> 345
Cohn -B 345
on ais</w> 344
d' ég 344
ab sti 344
s' exprim 344
accor dant</w> 344
l'h émi 344
tri ces</w> 344
rê ve</w> 344
arri vent</w> 344
ban an 344
discrimin ations</w> 344
mand at,</w> 344
Tr ès</w> 344
dirig ée</w> 344
celui- ci.</w> 344
excu se</w> 344
flagr ante</w> 344
r ob 343
m aisons</w> 343
[...]
