e n 1584989
e s 1529091
o s</w> 1510641
d e</w> 1497901
c i 1416983
e r 1168327
l a</w> 1003773
q u 959233
a r 947585
o n 932289
a s</w> 879212
en t 863209
e l</w> 809129
e s</w> 789898
a d 762842
qu e</w> 753805
e n</w> 716193
t i 678915
a n 662775
o r 648777
ó n</w> 633266
i n 621739
r o 597152
r e 571982
es t 571219
i d 533652
c o 532194
a m 530342
a l 517462
u n 490634
a ci 485938
e m 462765
s i 458564
l os</w> 449919
p o 415841
m i 396378
e c 395324
s t 386321
a r</w> 370133
d i 350135
l as</w> 326884
r es 320485
c on 319640
p ar 316651
c u 295580
a b 286544
p ro 284679
d e 282690
a s 279262
t r 264258
o ,</w> 260244
a l</w> 259546
aci ón</w> 258501
d el</w> 256774
s o 253305
s e 244542
l i 238968
p e 238082
ent e</w> 236169
co m 234898
d o</w> 232645
s e</w> 224636
ad o</w> 210477
b r 210476
a c 209081
u n</w> 208486
un a</w> 199506
u ro 198186
a n</w> 197748
o r</w> 196282
par a</w> 196053
p u 195240
b i 193566
an t 192563
p er 188165
r i 184241
n o</w> 182025
a ,</w> 180457
l e 177274
l o</w> 175472
on es</w> 175178
a t 174456
po r</w> 171442
o s 169568
u r 166338
f i 160386
en ci 159078
e ,</w> 156385
co n</w> 153167
a d</w> 151107
C o 150541
t o 148741
uro pe 144746
ti v 144274
or m 143764
v i 143003
t er 142567
e r</w> 142123
a .</w> 141680
g r 140765
s u 138289
n i 137877
t o</w> 136954
ar i 133450
br e</w> 130979
ent o</w> 128517
l u 124880
de b 123607
i m 123093
ó n 122248
e x 121484
p or 120284
f orm 120271
í a</w> 119683
Co mi 118170
ad os</w> 118011
ci ón</w> 117413
c a</w> 115335
d es 112965
id ad</w> 112559
em os</w> 112034
E st 110762
h a</w> 109375
o .</w> 108740
si ón</w> 108138
t u 107048
e d 104943
n u 104697
g u 102669
am bi 101429
p res 100414
E urope 99968
so bre</w> 98211
p a 96145
l am 95445
est a</w> 94761
m á 94230
u c 93754
e l 92870
am os</w> 89400
est r 88908
res id 88860
ent e,</w> 88313
com o</w> 86922
P resid 86026
t en 85689
qu i 84723
g i 84641
p r 84563
ec h 83540
es ,</w> 82899
est e</w> 82683
por t 80533
má s</w> 80100
p l 79680
p re 79545
al es</w> 79188
id o</w> 78836
s u</w> 78616
l í 77180
m e 76206
p on 75804
am ente</w> 75704
d os</w> 74943
a y 74700
os ,</w> 73836
er a</w> 73499
ent r 72847
e ñ 72812
an do</w> 72323
c o</w> 71427
U ni 70871
a j 70284
in form 69997
é n</w> 69764
Comi sión</w> 69233
enci a</w> 69125
b l 67894
as ,</w> 66502
ad a</w> 66279
C on 66120
s ti 65993
o b 65848
re c 65755
P ar 65362
aci ones</w> 65339
ambi én</w> 65323
t a</w> 65147
Uni ón</w> 64950
ant e</w> 64872
S eñ 64653
es ti 64295
t os</w> 64248
m u 63607
u d 63468
es .</w> 63196
lí ti 63082
ón ,</w> 62187
f u 62095
ab l 61823
pu est 61038
o m 60881
p i 60598
p li 60417
c re 60382
po líti 60260
i z 59602
e g 59134
id ad 58911
er o</w> 58884
l ar 58573
in ter 57440
i st 56710
s er 56495
al m 56479
e v 56404
L a</w> 55935
os .</w> 55906
se ñ 55619
E l</w> 55319
u m 55311
nu estr 54518
po si 53923
an ci 53047
a v 53031
Par lam 52734
con tr 52662
E n</w> 52387
en d 52289
g un 52230
t ambién</w> 52225
m o</w> 52056
fi c 51562
aci on 51395
pa í 51009
m in 50411
v o 49655
S r 49614
a tiv 49488
or a</w> 49383
or es</w> 49210
a ñ 48844
im port 48717
de ci 48214
d er 48149
h a 47808
v er 47579
t ur 47532
f in 47296
ón .</w> 47216
p ec 47158
ec es 47046
mi em 46779
Est ados</w> 46594
h ac 46401
se j 46342
d em 46219
t e</w> 46078
Presid ente,</w> 45622
Con sej 45356
m o 45071
as .</w> 44930
ci ones</w> 44663
p ri 44523
per o</w> 44505
n eces 44211
á n</w> 44205
alm ente</w> 44076
i t 44032
e urope 43987
P or</w> 43979
o c 43953
Señ or</w> 43794
h an</w> 43488
s ,</w> 43273
f r 42688
Parlam ento</w> 42493
ti en 42328
s o</w> 42266
di c 41943
g o</w> 41392
f er 41299
e .</w> 41199
ab aj 40612
Europe a</w> 40433
ci on 39940
n os</w> 39859
a z 39439
tr abaj 39297
c lu 39275
E uro 39202
con s 38693
cu er 38596
su s</w> 38545
p o</w> 38463
a u 38449
paí s 38311
en do</w> 38057
cu l 37902
y a</w> 37892
c e 37741
inform e</w> 37701
o l 37574
re l 37515
se r</w> 37515
ad as</w> 37281
0 0 37181
le g 36860
me di 36518
so n</w> 36350
b u 36048
di s 36026
m er 35868
o tr 35538
ent es</w> 35535
nu ev 35423
ro l 35398
Euro p 35305
o p 35170
ech o</w> 35137
mu y</w> 35103
c ri 35068
par ti 35034
t ant 34987
g ar 34902
t ar</w> 34659
s i</w> 34517
entr e</w> 34239
en er 34219
Consej o</w> 34020
u l 34004
po d 33886
m ar 33884
u st 33813
miem br 33709
to d 33574
d uc 33479
o ci 33308
n acion 33175
e j 33123
a cuer 33043
Sr .</w> 32991
pres ent 32946
t or 32927
to dos</w> 32729
al ,</w> 32527
m e</w> 32232
r u 32224
sti tu 32219
an d 32146
tr an 32017
políti ca</w> 32010
ari o</w> 31989
so ci 31940
qu e,</w> 31861
est á</w> 31849
pu e 31494
c ar 31128
mi s 31124
uc h 30960
cu esti 30797
mi ento</w> 30778
i r</w> 30774
pu esta</w> 30742
ec on 30477
em a</w> 30422
a po 30361
per s 30267
ent os</w> 30174
país es</w> 30157
c as</w> 30091
f un 29754
j e 29675
fi ci 29671
in i 29626
b ar 29612
ar rol 29567
con t 29438
al iz 29357
o y</w> 29183
in t 29123
st r 29077
id as</w> 29071
m en 29068
m an 28858
idad es</w> 28831
c es 28771
h ab 28756
i s 28600
ú n</w> 28548
c as 28530
miembr os</w> 28521
y ,</w> 28408
or d 28243
ech os</w> 28235
señ or</w> 28087
m ed 28058
se g 27905
o cu 27856
v e 27820
t ado</w> 27728
apo y 27712
m uch 27683
m i</w> 27652
c a 27616
m os</w> 27603
am i 27538
in ci 27359
an os</w> 27323
un i 27168
b er 26873
m ay 26742
a si 26726
st a</w> 26640
ant es</w> 26640
des arrol 26630
tran s 26608
ob je 26176
in o</w> 26162
pri m 26115
2 00 26100
l idad</w> 26089
ó lo</w> 26028
al .</w> 25982
t ar 25964
pli c 25962
l o 25954
id a</w> 25953
tr at 25833
s ab 25766
me j 25710
deb e</w> 25329
pers on 25306
n o 25158
f ec 25118
deb at 25058
em ente</w> 24943
c os</w> 24842
ó mi 24803
pro bl 24625
c h 24517
p en 24421
i r 24419
g o,</w> 24409
tien e</w> 24388
in clu 24347
Europe o</w> 24321
m un 24230
res pon 24207
seg ur 24184
é s</w> 24055
ha y</w> 24055
ec u 24010
acuer do</w> 23954
N o</w> 23892
p as 23844
un to</w> 23797
Comi s 23785
l ti 23779
deb er 23767
z ar</w> 23709
Europ a</w> 23474
em bar 23437
s ólo</w> 23434
cons id 23421
S i 23417
pr inci 23355
p le 23343
a pro 23304
fin anci 23192
b li 23165
am ent 23161
a g 23124
mer c 23069
si n</w> 22806
aci ón,</w> 22771
j u 22555
hac er</w> 22546
pu ed 22521
o per 22509
fu er 22459
s .</w> 22445
tiv a</w> 22397
d u 22394
c or 22372
a ti 22363
pe ci 22203
ud ad 22172
g an 22171
mi end 22161
contr a</w> 22108
pue de</w> 22019
to do</w> 22001
ac tu 21968
econ ómi 21796
import ante</w> 21709
di rec 21681
es peci 21655
h echo</w> 21633
si st 21579
der echos</w> 21543
res pec 21529
embar go,</w> 21507
I n 21473
form a</w> 21468
en miend 21447
por que</w> 21433
ci udad 21252
U n 21197
an ti 21184
pro duc 21124
re gi 20990
t ec 20957
si gu 20950
est o</w> 20949
z a</w> 20854
r at 20817
par te</w> 20807
o n</w> 20630
er i 20625
pro puesta</w> 20546
a h 20541
bl e</w> 20532
l e</w> 20529
enci ón</w> 20467
A s 20378
le v 20355
Si n</w> 20324
de r</w> 20298
si era</w> 20194
obje tiv 20132
e p 19968
es i 19847
re ci 19791
tant o,</w> 19789
d ar</w> 19760
E s</w> 19699
l es</w> 19694
ti em 19655
ay ud 19622
h um 19611
si tu 19600
er ci 19507
si ones</w> 19486
aci ón.</w> 19464
est án</w> 19460
gr am 19445
d a</w> 19434
ú bli 19317
est ab 19298
or i 19296
ú lti 19286
ent a</w> 19267
r á 19233
t ad 19206
se gu 19188
ari a</w> 19159
h emos</w> 19015
al gun 19000
res ul 18869
m a</w> 18834
ari os</w> 18830
s al 18774
com un 18663
t as</w> 18648
b as 18563
puest o</w> 18513
le gi 18510
c lar 18425
a plic 18178
s ido</w> 18155
a qu 18135
gr aci 18124
consid er 17994
v en 17958
med idas</w> 17952
in g 17903
s ec 17843
l l 17792
al es,</w> 17774
a gr 17764
Comi si 17611
s ino</w> 17537
ar á</w> 17492
c ambi 17484
pro gram 17482
cu ando</w> 17476
abl e</w> 17473
bi er 17457
e ci 17449
li ci 17402
g ar</w> 17330
p es 17311
ad o,</w> 17281
Q u 17222
to .</w> 17216
er r 17164
pre gun 17148
L os</w> 17071
f av 17068
enci as</w> 17067
qui ero</w> 17025
ar se</w> 17016
est amos</w> 16970
ces o</w> 16878
est os</w> 16817
si g 16793
du ci 16770
am pli 16747
nuestr a</w> 16723
est as</w> 16718
d ur 16708
í as</w> 16611
cu r 16522
e t 16469
lu gar 16457
n eg 16447
com pe 16411
un tos</w> 16392
t an</w> 16376
t ados</w> 16338
em as</w> 16289
t o,</w> 16287
h e</w> 16158
deb emos</w> 16138
debat e</w> 16123
ad op 16106
pres u 16086
lu ción</w> 16077
r az 16063
s l 16048
g ener 16028
ter i 15955
n om 15890
í an</w> 15850
em pres 15821
h ay 15805
e b 15793
gr an</w> 15760
n orm 15649
r ía</w> 15637
fun d 15634
per mi 15599
o bier 15495
G ru 15465
trabaj o</w> 15460
desarrol lo</w> 15453
ocu p 15448
ari o,</w> 15435
dic h 15424
al es.</w> 15423
deb en</w> 15371
re g 15337
nuestr o</w> 15319
anci a</w> 15319
d ad</w> 15301
co oper 15300
li ber 15300
c an 15295
Sr a.</w> 15272
ad i 15240
b le 15208
segur idad</w> 15195
ten er</w> 15192
tur a</w> 15174
c ab 15158
ar ía</w> 15146
ini ci 15121
cre o</w> 15089
t amente</w> 15061
ab or 15046
fi r 15022
ej em 15021
legi sl 15015
situ ación</w> 14942
pre ci 14926
pro puest 14916
al idad</w> 14915
ami ento</w> 14915
l lev 14899
ex ist 14883
u ti 14876
lugar ,</w> 14840
p úbli 14794
ist r 14777
ativ a</w> 14772
m bi 14764
con su 14746
person as</w> 14659
ve z</w> 14631
g a</w> 14606
á n 14494
as í</w> 14494
merc ado</w> 14490
aci a</w> 14473
com pro 14409
em ple 14361
ser vi 14329
r á</w> 14318
e a</w> 14268
al i 14258
c ti 14236
cuesti ón</w> 14215
id os</w> 14211
ad ores</w> 14205
eg ur 14156
t or</w> 14155
apro b 14155
b ro 14095
ten emos</w> 14093
dem oc 14072
t é 14046
se a</w> 14037
v er</w> 14015
i lidad</w> 14014
Presid ente</w> 13992
li g 13971
or gan 13968
in stitu 13963
ec e</w> 13925
x im 13905
ener g 13887
pro pi 13883
may or</w> 13880
posi ción</w> 13858
s a</w> 13814
Gru po</w> 13774
ad o.</w> 13769
ac ep 13760
princi pi 13723
ni v 13690
Presid ent 13659
a st 13641
1 9 13628
f or 13579
ciudad anos</w> 13531
di pu 13529
p al 13483
to m 13465
ten d 13358
mis mo</w> 13355
op ini 13315
lam ent 13294
U E</w> 13289
tien en</w> 13284
nuestr os</w> 13266
nom bre</w> 13265
inter nacion 13252
tod as</w> 13247
y ec 13224
servi ci 13207
qui siera</w> 13206
b re 13194
pro ce 13192
prim er</w> 13138
deci r</w> 13111
T ambién</w> 13097
lu gar</w> 13097
S e</w> 13094
miem bro 13070
uti li 13054
d ad 13047
d ec 13027
des de</w> 13024
com erci 12977
ah ora</w> 12921
h abl 12891
c er 12847
pro yec 12814
dur ante</w> 12780
v a</w> 12699
pro tec 12694
qu er 12681
Est o</w> 12675
se gun 12657
deber ía</w> 12649
i bu 12604
á mbi 12583
c a,</w> 12582
graci as</w> 12551
idad ,</w> 12548
v al 12484
p unto</w> 12466
D i 12453
c ada</w> 12448
j er 12429
t ación</w> 12398
apoy o</w> 12390
T rat 12386
ac tiv 12382
neg oci 12374
t al</w> 12354
otr os</w> 12348
au tor 12318
con di 12304
res o 12299
a um 12297
e fec 12281
rel ación</w> 12264
s os</w> 12241
ci er 12226
e fici 12210
Señ ora</w> 12176
h i 12165
t ores</w> 12135
ust ri 12134
á s</w> 12121
ter min 12106
mej or 12105
r a 12091
es per 12075
cooper ación</w> 12074
al l 12073
President a,</w> 12070
c entr 12055
gr u 12032
co l 12015
cu m 12012
e qui 11975
co leg 11928
t í 11924
o port 11920
estr uc 11920
x i 11910
cu enta</w> 11897
m om 11886
hum an 11808
C re 11800
L as</w> 11791
el ec 11786
ca p 11781
c r 11758
re present 11747
v esti 11739
ent o,</w> 11718
ent e.</w> 11713
re con 11703
oport un 11670
pl ant 11639
fuer z 11618
men os</w> 11611
m ant 11571
e gi 11568
hac e</w> 11566
añ o</w> 11558
m o,</w> 11545
í amos</w> 11490
e gr 11488
re aliz 11482
es a</w> 11454
mar co</w> 11449
fav or</w> 11438
Europe a.</w> 11426
pod emos</w> 11408
mi ll 11377
t ro 11357
pre ocup 11352
contr ibu 11349
fer encia</w> 11348
fund ament 11340
añ os</w> 11338
el l 11320
in d 11318
parti ci 11307
protec ción</w> 11304
S i</w> 11300
m on 11279
señ ora</w> 11278
est ar</w> 11276
co ,</w> 11202
con stitu 11186
sist ema</w> 11119
ec er</w> 11110
nuev o</w> 11098
co mi 11085
y o</w> 11057
pa ñ 11052
neces it 11041
sig ni 11036
tant o</w> 11020
s ent 10962
much o</w> 10953
i gu 10949
vesti g 10946
Qu i 10920
er e</w> 10912
sigu i 10910
ac ción</w> 10883
qu é</w> 10844
as egur 10835
en i 10826
pued en</w> 10820
ent ar</w> 10816
z on 10814
par t 10808
proce di 10805
no so 10804
hay a</w> 10777
ú ni 10762
bi en</w> 10761
E s 10752
ativ as</w> 10742
c am 10721
norm as</w> 10698
gar anti 10691
compe t 10675
es e</w> 10674
comun it 10647
algun os</w> 10646
Europe a,</w> 10626
ex pres 10623
ari as</w> 10560
í a,</w> 10552
m at 10550
organ iz 10545
ti n 10530
deci r 10530
D e</w> 10518
pro ceso</w> 10470
á cti 10436
t ad</w> 10420
niv el</w> 10400
respon sab 10395
partici p 10392
c l 10356
2 0 10341
lo gr 10300
dich o</w> 10299
l leg 10264
f í 10262
est abl 10252
idad .</w> 10248
cu lo</w> 10201
propuest as</w> 10168
der echo</w> 10167
tiem po</w> 10167
pr ácti 10149
des e 10129
paí s</w> 10109
estr at 10105
enmiend as</w> 10076
per i 10058
enci on 10056
mill ones</w> 10044
Co mo</w> 10033
em an 10027
b en 10023
h oy</w> 10019
cas o</w> 10019
probl ema</w> 10018
fir m 10018
a p 10015
fi ca</w> 10000
si s</w> 9977
posi ble</w> 9928
ed ad</w> 9921
estab le 9914
sec tor</w> 9889
cuesti ones</w> 9887
n e 9864
f on 9843
obier no</w> 9836
especi almente</w> 9822
m id 9810
ser v 9806
medi o</w> 9800
bi lidad</w> 9796
e d</w> 9795
c a.</w> 9785
res pe 9783
agr ad 9771
est oy</w> 9741
probl emas</w> 9709
19 9 9708
ser i 9705
Presid encia</w> 9704
lam ento</w> 9694
f e 9685
in vestig 9680
min istr 9667
di fer 9662
fu e</w> 9645
at ur 9636
man era</w> 9633
D es 9623
program a</w> 9616
ha sta</w> 9607
un que</w> 9599
desarrol l 9598
t am 9596
ab r 9594
Cre o</w> 9588
m as</w> 9587
bu en 9584
ind ustri 9584
v id 9549
Comisi ón,</w> 9514
ar tí 9508
h ech 9505
inter es 9493
inform ación</w> 9490
princi p 9485
n ing 9482
ejem pl 9454
vi st 9451
pl az 9441
políti cas</w> 9420
p os</w> 9419
re cur 9416
pr ó 9402
entr o</w> 9398
al can 9390
dec lar 9360
C u 9323
em pr 9322
en ,</w> 9312
much os</w> 9311
Est ado</w> 9252
ayud a</w> 9251
mu jer 9245
ad ecu 9244
tr i 9237
Di rec 9235
esi ón</w> 9210
or ía</w> 9186
f en 9154
t é</w> 9144
é n 9144
Trat ado</w> 9140
al qui 9136
fi n</w> 9134
n i</w> 9132
neces idad</w> 9127
é ti 9125
e fic 9120
ci o</w> 9117
fu tur 9114
ti do</w> 9113
ex i 9111
servici os</w> 9101
al u 9088
es o</w> 9075
si m 9070
so lu 9057
Comis ario,</w> 9055
aplic ación</w> 9041
nuestr as</w> 9034
d on 9010
m í 8999
fr on 8998
an c 8996
U E 8993
ver s 8981
trat a</w> 8948
empres as</w> 8937
cu lar 8932
tr os</w> 8887
b o 8877
com ún</w> 8873
Comis ario</w> 8809
objetiv o</w> 8807
pró xim 8798
co .</w> 8792
segu ir</w> 8785
y e</w> 8780
alm ente,</w> 8775
europe a</w> 8772
con clu 8759
respec to</w> 8751
financi er 8744
otr as</w> 8733
ámbi to</w> 8716
de j 8709
b aj 8705
uni c 8704
M e</w> 8684
ur í 8669
de termin 8653
li c 8647
at os</w> 8646
á s,</w> 8644
pal abr 8639
gu st 8629
tor i 8627
al go</w> 8625
ab a</w> 8620
c ha</w> 8617
pon er</w> 8613
qu ed 8590
bas e</w> 8586
di ci 8583
d o 8582
le br 8580
abl es</w> 8577
Est e</w> 8575
es cri 8560
em pe 8554
es pec 8537
er ,</w> 8533
enmiend a</w> 8532
i l 8531
ter r 8521
parti cular 8503
aqu í</w> 8499
as pec 8493
int egr 8486
i endo</w> 8471
c ed 8463
cu alqui 8453
mat eri 8445
dipu tados</w> 8430
f al 8426
t ema</w> 8420
re fi 8419
p id 8402
ser á</w> 8379
co s 8376
t al 8366
trans port 8363
cons ecu 8356
ant e,</w> 8347
A l 8344
objetiv os</w> 8344
de fin 8339
tr es</w> 8335
reso lución</w> 8320
ar ,</w> 8319
consu mid 8315
P o 8301
n ú 8293
í as,</w> 8282
condi ciones</w> 8263
tiv o</w> 8254
mi entos</w> 8252
ce lebr 8238
l lam 8236
ti r</w> 8225
R e 8220
co st 8218
ci ón,</w> 8216
es fuerz 8215
an za</w> 8213
fic ación</w> 8213
o f 8205
pri or 8198
c el 8197
o g 8185
mej or</w> 8183
vo l 8175
c amente</w> 8172
pon ente</w> 8163
pu és</w> 8161
import ancia</w> 8150
l id 8143
d ud 8141
su b 8135
e di 8133
artí culo</w> 8133
un o</w> 8127
at ención</w> 8122
ben efici 8119
utili z 8106
egi a</w> 8070
m encion 8065
rá ti 8059
fun cion 8048
f le 8046
estruc tur 8034
qu e 8028
ob lig 8025
d entro</w> 8018
ex to</w> 7999
g n 7991
econ om 7980
plant e 7975
presu puest 7971
pod ría</w> 7969
po co</w> 7943
Señ or 7907
p el</w> 7899
cualqui er</w> 7899
and es</w> 7896
ent emente</w> 7890
presu puesto</w> 7890
enci a,</w> 7888
segun do</w> 7882
ri cul 7875
ust ed</w> 7860
so lici 7846
or es,</w> 7831
g res 7829
am in 7824
tod a</w> 7820
legisl ación</w> 7817
pa pel</w> 7814
is mo</w> 7805
v ención</w> 7793
Est a</w> 7790
li br 7788
duci r</w> 7777
ten ido</w> 7772
ent o.</w> 7771
ejempl o,</w> 7761
ti r 7760
int ro 7728
cambi o</w> 7728
re almente</w> 7715
señ al 7696
gr andes</w> 7681
deci sión</w> 7678
produc tos</w> 7655
ati s 7647
com unic 7641
ativ o</w> 7628
e z 7618
vi sión</w> 7604
a ún</w> 7593
hum anos</w> 7588
fron ter 7584
m ero</w> 7577
pro t 7551
u so</w> 7549
c ó 7525
estable ci 7516
ord in 7503
g esti 7501
ri c 7497
fe lici 7494
cre ci 7492
D eb 7491
a par 7474
inclu so</w> 7454
an i 7444
a tr 7420
prim era</w> 7413
qu eñ 7408
o do</w> 7401
nuev os</w> 7393
ci ón.</w> 7388
otr o</w> 7379
co h 7377
R eg 7374
vi ol 7372
pe queñ 7370
cri sis</w> 7364
a unque</w> 7351
gust aría</w> 7347
respec ta</w> 7346
H a 7332
su per 7323
vi sta</w> 7314
tu d</w> 7314
f ac 7313
pres i 7312
pl en 7306
algun as</w> 7301
esti m 7300
soci al</w> 7294
pon e</w> 7292
s atis 7288
cont ro 7285
est u 7277
su fici 7262
sti n 7244
in str 7243
nú mero</w> 7243
com ple 7235
bl es</w> 7235
P ro 7228
compro mi 7227
j urí 7220
democ r 7218
es enci 7204
co s,</w> 7203
pro por 7200
c es</w> 7183
hab er</w> 7180
ver dad 7179
est ado</w> 7172
a fec 7156
n atur 7140
h ora</w> 7138
L i 7134
Comi té</w> 7127
v enci 7121
mom ento</w> 7120
d o,</w> 7115
nuev a</w> 7109
bi l 7108
í ti 7104
con j 7099
cab o</w> 7096
h acia</w> 7093
al im 7072
ci n 7052
e vi 7044
ad amente</w> 7042
empr e</w> 7041
h or 7035
si on 7033
re uni 7018
futur o</w> 7014
ce p 7009
to t 7006
Consej o,</w> 7003
neces ario</w> 7001
en contr 6999
am ente,</w> 6998
proyec to</w> 6988
té r 6985
principi o</w> 6985
in ver 6970
con cre 6969
pr en 6968
puest os</w> 6961
europe os</w> 6959
instr um 6957
ac to</w> 6953
or ,</w> 6949
di stin 6942
pen s 6935
pro gres 6931
am ble 6926
may oría</w> 6924
d in 6917
Direc tiva</w> 6913
A dem 6904
P ero</w> 6902
m é 6896
ev alu 6896
ú n 6873
tr av 6873
d en 6865
con ti 6863
mo di 6853
tér min 6852
autor idades</w> 6849
As untos</w> 6848
Qui siera</w> 6846
s c 6838
mant en 6838
nacion ales</w> 6834
Par a</w> 6833
t em 6817
M in 6813
institu ciones</w> 6807
si endo</w> 6802
G obierno</w> 6793
po ,</w> 6783
trav és</w> 6779
t e 6776
em i 6770
In ter 6769
mi gr 6768
ad os,</w> 6764
d ado</w> 6757
v o</w> 6756
democ ráti 6756
lu cha</w> 6733
noso tros</w> 6733
D er 6724
po bl 6707
Comisi ón.</w> 6695
a gu 6685
ob serv 6681
par ece</w> 6675
recur sos</w> 6675
h in 6661
fí ci 6658
duc ción</w> 6655
As amble 6653
des pués</w> 6650
hac er 6646
conti nu 6645
u estr 6642
di fíci 6640
g l 6618
oportun idad</w> 6614
l ar</w> 6609
st anci 6609
hech o,</w> 6602
res puesta</w> 6595
pe di 6582
h o 6578
an z 6576
í ,</w> 6567
pregun ta</w> 6558
c au 6554
cap aci 6550
responsab ilidad</w> 6549
t re 6538
ó gi 6528
aliz ación</w> 6528
Un id 6525
pre par 6494
si empre</w> 6488
espec í 6483
mujer es</w> 6478
ri es 6465
ur g 6464
propor cion 6462
decir ,</w> 6461
re gu 6455
ob st 6454
f ri 6429
garanti zar</w> 6422
aj e</w> 6406
ag ricul 6406
direc tiva</w> 6404
u d</w> 6398
b un 6396
europe o</w> 6394
j o</w> 6376
económi ca</w> 6375
vo tado</w> 6365
u eb 6356
nuev as</w> 6356
ju sti 6345
much as</w> 6336
ent i 6328
necesit amos</w> 6328
ambi ent 6319
rel acion 6318
ej erci 6317
ciudad an 6317
asegur ar</w> 6306
terr or 6300
compromi so</w> 6282
g an</w> 6268
sigu e</w> 6258
mun do</w> 6256
h u 6247
ar on</w> 6247
ari a,</w> 6246
ser ía</w> 6246
ca pi 6243
n ol 6237
ar án</w> 6231
e ur 6216
es cu 6194
mun di 6187
so lo</w> 6186
al ist 6167
so st 6167
ad os.</w> 6152
m es 6141
má ti 6130
c er</w> 6121
investig ación</w> 6118
su puest 6115
el los</w> 6108
é r 6107
quer emos</w> 6092
don de</w> 6090
Co mun 6087
Europ a.</w> 6087
mejor ar</w> 6087
c al 6083
cul ar</w> 6080
r án</w> 6072
Señor ías,</w> 6061
resul tado</w> 6059
de pen 6049
medi ante</w> 6021
re qui 6006
otr a</w> 6006
raz ón</w> 6006
ac er 6004
í a.</w> 6003
pa z</w> 6000
emple o</w> 6000
L o</w> 5997
so lid 5996
equi libr 5987
an im 5969
sal ud</w> 5959
estrat egia</w> 5955
transport e</w> 5950
ti po</w> 5947
de fen 5947
cum pli 5940
Adem ás,</w> 5932
po der</w> 5928
on i 5922
opini ón</w> 5919
per í 5918
man i 5908
regi on 5906
g os</w> 5888
re fer 5885
c alidad</w> 5871
R u 5871
r en 5870
á lo 5870
ci a</w> 5869
li mi 5863
j ust 5857
ex cel 5852
c li 5846
fon dos</w> 5843
tec nol 5839
trans par 5835
com pl 5834
acep t 5833
ocu m 5828
regi ones</w> 5818
con st 5810
an a</w> 5800
id ente</w> 5799
ab le 5792
T ur 5790
f o 5788
C á 5779
procedi miento</w> 5770
miembro s,</w> 5759
ac ceso</w> 5752
có mo</w> 5752
c e</w> 5746
re mos</w> 5743
ar .</w> 5741
as oci 5730
gesti ón</w> 5730
ad a.</w> 5724
ri g 5721
rec ha 5719
g en 5714
str uc 5708
contro l</w> 5707
deci siones</w> 5703
términ os</w> 5703
pro mo 5700
tot almente</w> 5699
rel aciones</w> 5688
negoci aciones</w> 5667
H e</w> 5664
pued a</w> 5664
v í 5643
vo tación</w> 5635
cre ar</w> 5633
s eman 5621
d o.</w> 5610
pes ar</w> 5605
cre ación</w> 5593
Ha y</w> 5592
ni ñ 5588
d ocum 5582
al g 5582
T en 5575
import antes</w> 5573
ad a,</w> 5569
tom ar</w> 5569
supuest o,</w> 5568
con ver 5563
sost eni 5563
gru po</w> 5556
tiv as</w> 5547
ejem p 5545
e li 5544
dem o 5544
energ ía</w> 5539
estu di 5531
ativ os</w> 5528
ab ord 5527
signi fic 5522
F on 5521
Europ a,</w> 5521
re d 5513
l abor 5506
materi a</w> 5499
di álo 5497
E n 5492
entr as</w> 5486
ad ministr 5485
especi al</w> 5478
compet encia</w> 5478
ning una</w> 5478
ci r 5472
l an 5466
in dic 5461
so lución</w> 5461
u s 5458
ex teri 5456
D E 5440
of rec 5437
inter és</w> 5434
pued an</w> 5433
actu al</w> 5433
abl emente</w> 5431
a pli 5430
at ori 5429
dem asi 5423
gr av 5422
f om 5421
L is 5417
parti cular</w> 5413
posi ciones</w> 5404
el abor 5403
v ida</w> 5400
fle xi 5400
energ éti 5395
Lis bo 5394
in di 5392
t es</w> 5384
cor rec 5383
o so 5381
ci vi 5380
M edi 5373
miembro s.</w> 5364
inici ativa</w> 5363
co ordin 5354
signi fica</w> 5350
ed uc 5347
liber tad</w> 5344
program as</w> 5337
vi s 5325
bi en 5294
vo t 5294
acuer dos</w> 5292
é xi 5277
pas o</w> 5276
últi mos</w> 5276
prot eg 5276
Cá mar 5271
igu al 5270
con fi 5267
00 0</w> 5253
ad h 5249
ac e</w> 5234
T ri 5233
establ ecer</w> 5233
i er 5232
el lo</w> 5230
ar nos</w> 5228
Est oy</w> 5227
un os</w> 5224
di st 5224
con f 5222
en cu 5217
se an</w> 5194
bun al</w> 5190
min u 5189
E x 5187
miembr o</w> 5187
nacion al</w> 5186
rec ord 5181
en fr 5180
S u 5178
econom ía</w> 5176
Tur qu 5176
ant eri 5171
inform e.</w> 5170
trabaj adores</w> 5169
cri min 5166
enci a.</w> 5165
en fo 5156
b an 5155
qui er 5149
Parlam ento,</w> 5149
l ec 5146
ent on 5144
industri a</w> 5143
fal ta</w> 5135
t exto</w> 5133
gl ob 5132
h om 5128
esfuerz os</w> 5127
pr ueb 5120
inform e,</w> 5120
exist e</w> 5115
o v 5112
agr í 5112
ant o</w> 5103
import ant 5099
baj o</w> 5099
ex tre 5097
ed ad 5095
ter ri 5094
com end 5090
d ía</w> 5089
compe ti 5089
empe ñ 5089
sim pl 5086
m ente</w> 5084
ci d 5080
m añ 5079
tiv os</w> 5074
g en</w> 5070
Min istr 5070
em ente,</w> 5068
form as</w> 5068
refi ere</w> 5066
cul tur 5057
tad es</w> 5052
fic ar</w> 5037
zon a</w> 5032
br ay 5029
ar emos</w> 5028
or .</w> 5026
apoy ar</w> 5026
últi mo,</w> 5025
defin i 5024
mi s</w> 5021
perí odo</w> 5020
ac ciones</w> 5017
institu cion 5014
av ía</w> 5011
soci edad</w> 5007
err a</w> 5001
er os</w> 4998
ament e.</w> 4995
su bray 4977
F r 4973
tod o,</w> 4961
cont rol 4959
co s.</w> 4953
internacion al</w> 4953
com b 4945
at o</w> 4945
reci b 4945
20 1 4941
ami li 4940
habl ar</w> 4935
ejerci cio</w> 4934
N aciones</w> 4933
n ada</w> 4932
u el 4931
g ast 4929
interes es</w> 4926
pue do</w> 4921
as e</w> 4912
0 0</w> 4911
Europe o,</w> 4907
probl em 4898
e uro 4895
medi os</w> 4895
jurí di 4894
ab solu 4891
t os,</w> 4885
fr ente</w> 4882
obje to</w> 4882
ad or</w> 4881
/ 200 4874
h aci 4864
ent es,</w> 4861
comerci o</w> 4860
escri to.</w> 4860
clar amente</w> 4858
Reg lamento</w> 4855
l oc 4847
Ru si 4846
Un idos</w> 4845
inter i 4842
d est 4838
fi j 4835
A l</w> 4826
pl an</w> 4822
fu t 4822
adop t 4802
diálo go</w> 4795
c ni 4792
P er 4791
mo vi 4791
p aci 4788
in migr 4786
f amili 4781
- 0 4779
com pañ 4772
lar go</w> 4765
depen di 4763
gener al</w> 4760
pon ente,</w> 4756
des empeñ 4751
financi ación</w> 4749
adi cion 4749
aum ento</w> 4748
s en 4745
pu l 4743
t on 4738
p untos</w> 4734
c and 4732
e z</w> 4728
fut uro 4728
vol un 4725
est ric 4720
í sti 4717
or es.</w> 4716
particular ,</w> 4716
Deb emos</w> 4716
manten er</w> 4713
té cni 4712
re comend 4706
ces i 4706
cu los</w> 4699
a :</w> 4697
constitu ye</w> 4687
ah or 4679
Un a</w> 4676
vi g 4670
aspec tos</w> 4665
produc ción</w> 4664
v ent 4659
demo str 4659
h ist 4658
os o</w> 4654
vi si 4652
t os.</w> 4649
Tri bunal</w> 4646
gru pos</w> 4637
en z 4636
resul tados</w> 4627
excel ente</w> 4626
á ci 4623
buen a</w> 4619
ejemp lo</w> 4614
á r 4613
ord en</w> 4602
for tal 4594
principi os</w> 4593
med ida</w> 4592
di fi 4589
clar o</w> 4589
z ación</w> 4588
ex amin 4585
D e 4583
políti co</w> 4572
posi bilidad</w> 4566
s id 4564
activ idades</w> 4561
deber íamos</w> 4559
iz ación</w> 4556
ent es.</w> 4552
A g 4551
ex clu 4548
as unto</w> 4546
con oci 4536
M i 4535
T o 4532
enfo que</w> 4526
a vi 4525
f aci 4523
ampli ación</w> 4523
tend rá</w> 4520
presi ón</w> 4520
un ci 4515
tiem po,</w> 4515
añ os,</w> 4514
medi o 4514
eci miento</w> 4512
escu ch 4511
creci miento</w> 4510
tecnol og 4509
in f 4508
d atos</w> 4499
respon s 4499
ad em 4498
Asamble a</w> 4496
logr ar</w> 4495
p end 4492
á ni 4489
ter n 4486
asi st 4481
D em 4475
con struc 4474
c le 4473
mis ma</w> 4473
ari o.</w> 4471
conf lic 4471
dest ac 4467
B ar 4466
fu era</w> 4466
mi entras</w> 4463
G r 4461
recon oci 4458
pas ado</w> 4457
dud a</w> 4441
H emos</w> 4438
políti cos</w> 4438
cri teri 4437
un as</w> 4430
v in 4427
sist emas</w> 4421
aprob ación</w> 4418
fav or 4415
i o</w> 4414
l and 4411
pers pec 4410
es pero</w> 4409
d ido</w> 4407
zon as</w> 4406
V er 4403
l ,</w> 4402
re forma</w> 4398
s an 4390
pres ente</w> 4385
c rat 4384
c at 4372
des a 4372
re ducir</w> 4371
el em 4371
A n 4360
in fr 4350
Der echos</w> 4347
v e</w> 4340
A c 4338
vist o</w> 4336
S ch 4335
tod avía</w> 4324
( C 4317
cu anto</w> 4316
li bre</w> 4316
evi tar</w> 4311
pl an 4305
ec en</w> 4297
pod r 4288
llev ar</w> 4284
par lament 4272
tr a 4269
opini ón,</w> 4269
no v 4266
úbli ca</w> 4264
at er 4260
c as,</w> 4256
er on</w> 4256
ten go</w> 4251
id o,</w> 4248
co g 4245
acion es,</w> 4245
re cu 4239
proyec tos</w> 4239
medio ambient 4238
difi cul 4233
po st 4227
dis pon 4227
ex pl 4225
F in 4223
present ado</w> 4216
hab ía</w> 4213
aci ón 4208
especí fic 4205
est rec 4202
sent ido</w> 4201
ust ed 4200
in st 4197
difer entes</w> 4196
n a</w> 4190
pro f 4190
part es</w> 4188
esenci al</w> 4188
ori ent 4187
mo do</w> 4186
haci endo</w> 4186
seri e</w> 4182
id ea</w> 4175
alim ent 4175
segun da</w> 4174
A hora</w> 4173
ó crat 4165
fin al</w> 4162
consecu encias</w> 4162
o :</w> 4159
Co n</w> 4157
d é 4154
est é</w> 4151
recha z 4150
er os,</w> 4148
fi co</w> 4140
en orm 4138
é st 4137
ble .</w> 4137
organiz aciones</w> 4137
y en</w> 4132
pri v 4131
pobl ación</w> 4127
difíci l</w> 4127
t a,</w> 4122
fi sc 4107
tr as 4099
an u 4096
exi g 4096
O M 4086
l ab 4075
á ti 4075
con form 4075
T r 4061
particip ación</w> 4055
igual dad</w> 4052
faci li 4051
os a</w> 4049
tro s,</w> 4049
dis posiciones</w> 4048
S oci 4046
cos as</w> 4046
s in 4043
acion es.</w> 4039
din ero</w> 4036
á si 4033
recon oc 4017
m ec 4015
T )</w> 4015
capaci dad</w> 4012
po t 4005
demasi ado</w> 3994
r é 3990
coleg as,</w> 3986
com ent 3985
dese o</w> 3984
de pend 3983
br es</w> 3977
d as</w> 3971
en es</w> 3968
d am 3966
v an</w> 3961
mi li 3960
cu al</w> 3958
qued a</w> 3957
mu er 3954
z ,</w> 3953
des tin 3953
democr acia</w> 3952
deb ido</w> 3951
comunic ación</w> 3942
lleg ar</w> 3941
fundament al</w> 3937
g obier 3934
enfr ent 3933
eg o</w> 3926
preci s 3921
ati r</w> 3920
eli min 3920
v amos</w> 3916
respe to</w> 3915
form ul 3914
ning ún</w> 3914
M ar 3911
com ún 3911
felici tar</w> 3911
t a.</w> 3910
( P 3909
nu cle 3909
consumid ores</w> 3907
ari a.</w> 3905
es os</w> 3904
simpl emente</w> 3896
p ido</w> 3895
enton ces</w> 3893
reso lu 3891
in dependi 3889
dem ás</w> 3886
mec an 3878
pro hi 3877
deber ían</w> 3870
ocu r 3869
Cu ando</w> 3867
añ ad 3866
económi co</w> 3866
os os</w> 3864
soci ales</w> 3859
declar ación</w> 3859
um bre</w> 3858
un d 3855
Par tido</w> 3853
er n 3852
J u 3850
dis crimin 3846
solid ar 3842
Es pero</w> 3839
evalu ación</w> 3838
am en 3833
cau s 3831
a cu 3826
com par 3825
- y</w> 3823
reuni ón</w> 3822
bu en</w> 3817
procedi mientos</w> 3812
E so</w> 3811
prácti ca</w> 3810
t en</w> 3809
s í</w> 3809
s on 3792
lab or</w> 3783
señal ar</w> 3781
integr ación</w> 3779
úni co</w> 3778
L )</w> 3772
extre m 3769
obst ante,</w> 3768
e ti 3766
v ec 3766
( E 3765
europe as</w> 3765
a z</w> 3764
Co m 3760
encu entr 3755
dic e</w> 3753
cas os</w> 3753
ter cer 3752
b ast 3750
di vers 3750
terri tori 3750
regi ón</w> 3748
conj un 3746
asist encia</w> 3743
satis fac 3741
v ech 3734
es as</w> 3734
is mos</w> 3730
form ación</w> 3729
l .</w> 3727
b ási 3726
g im 3716
es :</w> 3715
in nov 3708
ó ven 3705
im p 3705
plaz o</w> 3704
id e 3696
j óven 3691
en s 3691
con sigui 3685
pregun tas</w> 3681
( F 3679
reg lamento</w> 3679
propi o</w> 3678
mo str 3676
amen az 3675
ar mon 3672
regu l 3664
P u 3663
en fer 3662
i s</w> 3655
coleg as</w> 3654
re ducción</w> 3653
Con stitu 3650
agrí co 3650
per man 3648
M on 3643
ví cti 3642
consu l 3641
b ur 3640
inform es</w> 3638
cab all 3638
ayud ar</w> 3631
j os</w> 3630
Ten emos</w> 3628
ten ga</w> 3621
er an</w> 3615
S er 3609
ab ilidad</w> 3603
cor respon 3602
ré gim 3602
pr on 3601
ter cer</w> 3600
t an 3597
pu er 3597
cuer do</w> 3596
Comun idad</w> 3596
rel ativa</w> 3593
UE .</w> 3591
ble ,</w> 3588
realiz ado</w> 3587
res ol 3585
últi ma</w> 3573
cli máti 3573
ex per 3569
ab ier 3568
tr as</w> 3568
cr íti 3567
g amos</w> 3559
merc ados</w> 3558
eur os</w> 3557
aum ent 3555
Consej o.</w> 3545
Re ino</w> 3535
cand id 3520
t ales</w> 3519
éxi to</w> 3518
cier to</w> 3517
apro vech 3510
sigu en</w> 3510
o fici 3503
esi on 3500
C hin 3499
ac es</w> 3492
pu bli 3492
adh esión</w> 3490
Con ferencia</w> 3489
pue b 3489
Parlam ento.</w> 3488
c as.</w> 3487
extrem adamente</w> 3487
encontr ar</w> 3479
tien do</w> 3478
expres ar</w> 3478
S o 3475
ó r 3475
pequeñ as</w> 3469
qui enes</w> 3468
proteg er</w> 3468
part e,</w> 3464
l o.</w> 3461
2 0</w> 3459
di rig 3459
modi fic 3447
J un</w> 3446
hay an</w> 3441
a ;</w> 3439
vi r 3437
im os</w> 3437
cl av 3429
competi tiv 3429
ad as,</w> 3427
pro duci 3427
Cámar a</w> 3426
al tern 3423
pr end 3421
añ os.</w> 3419
g in 3413
present ar</w> 3408
m ent 3407
in medi 3405
dem uestr 3405
actu almente</w> 3403
vid u 3402
ries go</w> 3402
fom entar</w> 3401
indi vidu 3399
públi co</w> 3398
requi si 3397
j unto</w> 3392
l ado,</w> 3384
U n</w> 3384
DE )</w> 3384
pro b 3383
cambi os</w> 3382
ju dici 3381
ac ab 3380
elec ciones</w> 3377
neces i 3376
m o.</w> 3375
po bre 3372
os as</w> 3372
- ,</w> 3370
tr á 3368
ad as.</w> 3364
qui z 3364
criteri os</w> 3363
mu lti 3362
régim en</w> 3361
col abor 3359
ex peri 3358
princip ales</w> 3358
( DE)</w> 3357
re alidad</w> 3357
mo de 3357
Turqu ía</w> 3351
satis f 3350
u do</w> 3343
vo c 3339
vo lu 3339
pod amos</w> 3338
( A 3335
trabaj ar</w> 3333
Fon do</w> 3329
caball eros,</w> 3329
con tin 3327
Est amos</w> 3325
estab ilidad</w> 3322
S egur 3319
segu ir 3316
efic az</w> 3315
acep tar</w> 3314
compl ace</w> 3313
tercer os</w> 3313
fronter iz 3309
á re 3308
niñ os</w> 3307
alcan zar</w> 3305
est o,</w> 3302
ab ri 3302
mani f 3299
ev idente</w> 3295
ur a</w> 3293
pe ti 3291
a ?</w> 3280
ar m 3280
pe li 3280
B an 3277
reci bi 3272
ar é</w> 3270
e za</w> 3269
ri s 3268
atr o</w> 3266
estim ados</w> 3266
instrum entos</w> 3263
peli gr 3263
aplic ar</w> 3262
C umbre</w> 3261
pro ces 3257
niv el 3257
bast ante</w> 3255
ber n 3249
er g 3248
con ven 3246
cas o,</w> 3246
resul ta</w> 3245
c err 3243
ac lar 3243
adop tar</w> 3242
fundament ales</w> 3237
i leg 3236
dis cu 3234
mi r 3232
cin co</w> 3230
h on 3228
europe a.</w> 3221
V i 3219
un ca</w> 3213
cas i</w> 3213
progres os</w> 3206
ad u 3204
si v 3202
re ferencia</w> 3199
deci di 3195
bern ament 3195
est ad 3191
) ,</w> 3189
gu bernament 3183
su stanci 3180
o t 3179
financi era</w> 3178
ar a</w> 3177
plen amente</w> 3177
cons ci 3176
prohi bi 3176
su s 3174
alcan z 3172
ex plic 3171
inici ativas</w> 3171
con ci 3170
ser án</w> 3166
em bre</w> 3164
sigui ente</w> 3164
ad el 3160
c ru 3159
men udo</w> 3158
R ep 3156
able .</w> 3156
er se</w> 3154
val or</w> 3151
a firm 3145
des graci 3140
cur so</w> 3138
val ores</w> 3134
N uestr 3132
lí n 3132
As í</w> 3129
C ar 3122
cu atro</w> 3122
gar ant 3122
tr ó 3121
0 ,</w> 3120
p un 3114
enfer med 3113
u su 3112
adi c 3112
M i</w> 3110
end a</w> 3110
raz ones</w> 3109
es ca 3108
re for 3108
ri t 3108
oc asi 3108
Ex teri 3106
A si 3102
ari os,</w> 3100
mí ni 3100
ú ti 3098
prior idad</w> 3097
P a 3096
er v 3095
úni ca</w> 3094
v arios</w> 3092
instrum ento</w> 3092
h í 3088
1 4 3088
conj unto</w> 3088
últi mo</w> 3086
con ce 3085
igu al</w> 3085
vi gi 3084
ent as</w> 3082
ac ti 3082
propi a</w> 3082
permi tir</w> 3080
pres id 3079
necesi ta</w> 3078
o ?</w> 3077
Rep ública</w> 3076
Des de</w> 3075
pre v 3072
trat ar</w> 3069
conform idad</w> 3069
ell o,</w> 3068
2 ,</w> 3065
responsab il 3059
preocup ación</w> 3056
lam entos</w> 3054
A cuerdo</w> 3052
pro pon 3050
efec to</w> 3047
Qui ero</w> 3047
Ministr o</w> 3047
consigui ente,</w> 3047
ent í 3045
palabr a</w> 3045
in cre 3044
rá pid 3044
g obierno</w> 3043
re duci 3043
vo tar</w> 3040
as untos</w> 3039
dej ar</w> 3036
en so</w> 3034
efec tos</w> 3032
pedi r</w> 3032
A C 3031
vec es</w> 3031
l o,</w> 3030
P ri 3028
ter rá 3028
am b 3026
e lev 3025
res puest 3023
c an</w> 3019
raz on 3017
an ,</w> 3015
asi gn 3015
permi ti 3015
si ón,</w> 3014
públi ca</w> 3014
distin tos</w> 3014
f áci 3010
g as</w> 3008
de ,</w> 3007
confi anza</w> 3005
hin capi 3003
de t 3000
t as 2999
pro ced 2998
de leg 2998
ej ecu 2997
Europe o.</w> 2995
utili zar</w> 2993
ex cep 2988
I r 2985
mí tam 2985
br o</w> 2983
nu mer 2981
Dem ócrat 2980
j a</w> 2977
ambi ente</w> 2973
dispon i 2968
an as</w> 2967
lig ro 2959
v arias</w> 2958
in a</w> 2957
pe ligro 2957
e :</w> 2955
cont amin 2951
t er</w> 2950
trabaj o.</w> 2946
compro mis 2946
princip al</w> 2945
se p 2939
preci os</w> 2938
im pul 2936
qu es</w> 2933
precis amente</w> 2931
os :</w> 2930
pr est 2927
Des arrol 2925
v uel 2922
id o.</w> 2921
país es,</w> 2921
establ ece</w> 2919
prof esion 2917
M uch 2916
R )</w> 2916
con den 2915
re li 2914
lí mi 2912
men s 2910
í .</w> 2907
Ir land 2907
in s 2906
mej ora</w> 2906
/ 9 2905
qui ere</w> 2904
lu ch 2902
respon der</w> 2899
é re 2898
at u 2894
ez co</w> 2894
cor por 2892
raz ón,</w> 2892
debat e.</w> 2891
compro me 2891
Un idas</w> 2890
O r 2886
posi tiv 2886
t ando</w> 2881
solidar idad</w> 2876
mítam e</w> 2876
I s 2875
hincapi é</w> 2875
fr an 2871
estab a</w> 2870
1 ,</w> 2867
clar a</w> 2859
coh er 2858
gobier nos</w> 2857
E con 2856
t ex 2854
palabr as</w> 2849
transpar encia</w> 2847
Ju sti 2844
cost es</w> 2840
Gr aci 2840
rel ativas</w> 2838
a port 2836
contribu ción</w> 2834
inmedi at 2833
ren ov 2828
rel ativo</w> 2824
ex port 2822
lam ente</w> 2818
mañ ana</w> 2818
Rusi a</w> 2816
al to</w> 2814
re tir 2811
Po líti 2809
sal ud 2802
der es</w> 2801
mo der 2801
posi bil 2800
a la</w> 2798
dam as</w> 2793
po .</w> 2791
fu gi 2791
dis minu 2791
con cep 2790
(F R)</w> 2790
en vi 2789
pro pone</w> 2789
ci entí 2781
ad or 2781
cum pl 2778
cir c 2778
v en</w> 2777
5 ,</w> 2777
infr a 2777
a cont 2776
lar es</w> 2776
A m 2771
ten gan</w> 2769
om in 2769
inter vención</w> 2767
educ ación</w> 2765
ist as</w> 2764
coh esión</w> 2764
coordin ación</w> 2764
com pren 2763
pa que 2762
adem ás</w> 2761
en e</w> 2754
esca la</w> 2752
interi or</w> 2747
estruc tura</w> 2745
imp acto</w> 2741
pi de</w> 2736
paque te</w> 2736
consid era</w> 2733
sab er</w> 2729
fuer on</w> 2725
exteri or</w> 2725
3 ,</w> 2724
venci ones</w> 2723
peligr o</w> 2722
aum entar</w> 2720
o ;</w> 2718
comun idad</w> 2717
ad ap 2716
av anc 2714
au to 2712
circ un 2710
ar le</w> 2709
cuesti on 2704
de li 2700
volun tad</w> 2700
represent a</w> 2699
dipu tad 2697
Econ ómi 2697
cont exto</w> 2693
represent antes</w> 2693
próxim o</w> 2693
hist ori 2693
Á fri 2690
pes ca</w> 2689
L e</w> 2688
al idad,</w> 2687
prim ero</w> 2686
equilibr io</w> 2686
ten iendo</w> 2685
consid ero</w> 2685
C or 2683
em ent 2682
absolu tamente</w> 2682
N or 2681
n oc 2680
con oc 2677
trabaj o,</w> 2676
a ére 2675
ed er 2675
debat es</w> 2675
neces idades</w> 2671
se x 2670
vin cul 2669
UE ,</w> 2663
l ado</w> 2657
estrec h 2657
r ati 2652
aspec to</w> 2651
vent aj 2650
in corpor 2649
de l 2649
viol encia</w> 2649
human it 2647
terrá ne 2647
bre ,</w> 2646
er as</w> 2643
Políti ca</w> 2643
mes es</w> 2641
P or 2640
dist ri 2640
1 0</w> 2638
é gi 2637
n unca</w> 2634
democr aci 2634
má s,</w> 2633
pot enci 2633
anti gu 2630
fronter as</w> 2629
reg lament 2628
intro ducción</w> 2628
l en 2627
s esi 2626
vi vi 2625
quier en</w> 2624
acer ca</w> 2623
subray ar</w> 2622
mode lo</w> 2620
r se</w> 2616
to tal</w> 2615
jóven es</w> 2613
habl ando</w> 2611
má xim 2610
internacion ales</w> 2607
estim adas</w> 2607
hac en</w> 2606
á c 2604
M un 2601
import ante,</w> 2599
sec tores</w> 2599
es paci 2597
S ólo</w> 2594
o z 2593
paí s,</w> 2589
P res 2588
cu ales</w> 2588
er o 2587
as es 2585
Segur idad</w> 2585
ci fr 2584
ol vid 2584
emi siones</w> 2582
y endo</w> 2581
9 ,</w> 2578
) .</w> 2578
ju i 2578
re t 2576
parti r</w> 2574
so mos</w> 2572
san it 2571
Pu e 2569
sufici ente</w> 2567
con seguir</w> 2566
el las</w> 2564
segu ido</w> 2564
futuro .</w> 2564
Con vención</w> 2563
estrat égi 2563
financier os</w> 2563
re fugi 2562
princip almente</w> 2562
país es.</w> 2561
Lisbo a</w> 2561
hab ría</w> 2559
regi str 2558
desarroll ar</w> 2558
abord ar</w> 2557
c anti 2555
li sta</w> 2553
sim pli 2552
6 ,</w> 2551
seman a</w> 2551
apar tado</w> 2550
cam ino</w> 2546
m and 2543
dificul tades</w> 2542
br it 2539
1 5</w> 2538
brit áni 2538
con vi 2537
estableci miento</w> 2537
resol ver</w> 2536
t ali 2531
O ri 2531
D ec 2530
prior idades</w> 2529
mis mo,</w> 2528
di men 2523
lín ea</w> 2523
y .</w> 2518
d es</w> 2518
relacion adas</w> 2518
sen si 2517
en car 2515
int ent 2515
clav e</w> 2515
particular mente</w> 2512
re fle 2511
demostr ado</w> 2511
v ac 2508
prácti cas</w> 2507
p at 2506
se .</w> 2506
ha ga</w> 2506
fer ro 2505
mej ores</w> 2505
Desarrol lo</w> 2503
vícti mas</w> 2502
nivel es</w> 2502
Uni ón,</w> 2501
ad mi 2497
t ,</w> 2496
j uni 2494
comb atir</w> 2490
Ban co</w> 2490
ing res 2488
cion es,</w> 2487
d en</w> 2485
pon entes</w> 2485
coleg a</w> 2485
s anci 2483
próxim os</w> 2482
ó ri 2481
pri mer 2481
aliz ar</w> 2481
pres idente</w> 2480
¿ Qu 2479
le y</w> 2479
docum ento</w> 2479
fuer te</w> 2477
in ten 2475
um an 2475
económi cas</w> 2475
ec er 2473
í n 2472
C E 2470
i gn 2469
gu erra</w> 2468
depend encia</w> 2468
per o,</w> 2463
dad es</w> 2461
di a</w> 2460
tiv a,</w> 2459
necesit an</w> 2458
in acept 2455
person al</w> 2455
a i 2454
re visión</w> 2450
fuer za</w> 2450
consider ar</w> 2447
Al eman 2446
sab er,</w> 2445
re formas</w> 2444
s or 2443
human os,</w> 2440
soci al,</w> 2439
en .</w> 2437
seg ún</w> 2437
alg una</w> 2437
Medi o</w> 2437
3 0</w> 2435
ari os.</w> 2435
5 0</w> 2434
podr ían</w> 2433
hu bi 2431
mundi al</w> 2431
Dec lar 2430
europe a,</w> 2428
perspec tiva</w> 2428
ampli a</w> 2426
m or 2424
acont eci 2424
sab emos</w> 2423
ra f 2422
ac aba</w> 2421
dic os</w> 2419
ampli o</w> 2419
garanti z 2419
soci edad 2418
re tras 2416
propi os</w> 2416
inver siones</w> 2416
G ener 2415
ani a</w> 2414
im plic 2412
recu per 2410
oportun idades</w> 2409
ho y,</w> 2409
B ru 2408
organiz ación</w> 2407
distri bu 2407
inf lu 2406
con duc 2404
Y o</w> 2403
con venci 2396
añ o,</w> 2396
agrad ezco</w> 2395
adi e</w> 2394
asoci ación</w> 2393
europe o.</w> 2389
important e.</w> 2384
Est as</w> 2383
record ar</w> 2383
O N 2381
habl ado</w> 2380
cumpli r</w> 2378
lan des 2377
eur o</w> 2373
actu ar</w> 2372
respec to,</w> 2372
te le 2372
const ru 2371
á li 2370
st as</w> 2369
¿Qu é</w> 2367
N eces 2366
L e 2365
promo ver</w> 2365
aprob ar</w> 2364
defen sa</w> 2364
aprob ado</w> 2363
Li ber 2363
n e</w> 2362
mis m 2362
" .</w> 2360
7 ,</w> 2359
fun ción</w> 2359
dem and 2358
usted es</w> 2358
agríco la</w> 2358
in e 2356
direc ción</w> 2356
servici o</w> 2356
i v 2355
se is</w> 2355
i a</w> 2354
estructur as</w> 2354
posibil idades</w> 2354
o tro 2353
in vi 2353
Est r 2351
noso tros,</w> 2351
alg ún</w> 2351
conclu siones</w> 2346
A li 2345
ab an</w> 2344
ant es,</w> 2339
est o.</w> 2331
exist en</w> 2329
contr ario,</w> 2328
sal v 2328
lí ne 2327
u g 2326
h iz 2325
Uni ón.</w> 2325
em os,</w> 2324
to :</w> 2321
Reg lament 2321
permi te</w> 2320
lleg ado</w> 2318
aqu ellos</w> 2317
do se</w> 2317
comunit ario</w> 2316
compromis os</w> 2316
m al 2315
8 ,</w> 2313
ven ir</w> 2313
comerci ales</w> 2313
pueb lo</w> 2311
t ada</w> 2310
gener al,</w> 2310
so .</w> 2309
reconoci miento</w> 2309
experi encia</w> 2309
fuerz as</w> 2307
Bru se 2305
pañ a</w> 2304
Neces it 2303
deb ati 2300
cir cul 2300
ten gamos</w> 2299
ve hí 2299
inmigr ación</w> 2299
Justi cia</w> 2298
g er 2296
si ón.</w> 2295
vi aj 2294
neces aria</w> 2294
ca paz</w> 2292
di go</w> 2290
so lamente</w> 2290
natur al 2290
determin ados</w> 2288
comi sión</w> 2285
d ía,</w> 2284
ac tos</w> 2284
cier tas</w> 2284
li z 2283
emple o,</w> 2283
solu ciones</w> 2282
pi r 2280
agrad ecimiento</w> 2280
reli gi 2279
c ar</w> 2277
abl emente,</w> 2277
and o,</w> 2277
d ol 2276
respons able</w> 2276
v ías</w> 2275
K oso 2274
ad ores,</w> 2273
c ado</w> 2271
p ó 2269
di ver 2269
ar gu 2268
el la</w> 2268
agricul tores</w> 2265
ambi én 2262
en di 2261
tar ea</w> 2259
mom ento,</w> 2259
com enz 2256
cre emos</w> 2256
t e,</w> 2255
cion es.</w> 2252
sosteni ble</w> 2252
ocur r 2250
» .</w> 2249
C h 2248
A unque</w> 2247
qui en</w> 2247
alist a</w> 2247
direc tamente</w> 2246
mon ed 2246
in volu 2244
ev id 2244
expl o 2244
min or 2243
5 -0 2241
so me 2241
apli car 2240
cap aces</w> 2239
To dos</w> 2238
involu cr 2237
an áli 2235
mañ an 2235
a f 2232
opini ones</w> 2232
Est os</w> 2231
desgraci a,</w> 2230
su ministr 2228
o í 2227
an o</w> 2225
pa g 2225
satisf acción</w> 2225
declar aciones</w> 2224
verdad era</w> 2224
Mun di 2224
Pri m 2219
jurídi ca</w> 2217
pu es</w> 2216
preocup aciones</w> 2216
Is ra 2216
plan es</w> 2213
s ac 2212
gu i 2211
financi ero</w> 2211
P E 2209
tur a,</w> 2207
constitu yen</w> 2207
st er 2206
deb o</w> 2205
on ar</w> 2204
segur o</w> 2204
G reci 2203
au di 2203
per fec 2202
condi ción</w> 2202
red es</w> 2202
N os</w> 2201
actu ales</w> 2200
se ,</w> 2199
es pañ 2197
as un 2197
elem entos</w> 2196
in g</w> 2195
mi r</w> 2195
tend rán</w> 2194
et ap 2193
bien ven 2191
r ur 2190
I tali 2188
hiz o</w> 2188
vig or</w> 2183
si mi 2182
agricul tura</w> 2181
ad r 2180
adop ción</w> 2179
esfuerz o</w> 2179
able ,</w> 2179
Necesit amos</w> 2179
preci o</w> 2178
Est rat 2177
es p 2172
cid ent 2172
am ento</w> 2171
med id 2168
activ idad</w> 2168
all á</w> 2168
re ter 2166
ar es</w> 2165
enfermed ad 2165
efic az 2161
fortal ecer</w> 2161
d ías</w> 2159
car reter 2159
C i 2158
bi en,</w> 2158
ab and 2157
gi r</w> 2156
sub sid 2156
es cas 2155
id i 2155
enorm e</w> 2155
cuesti ón.</w> 2153
cr é 2153
( S 2151
ant e.</w> 2151
cumpli miento</w> 2151
car ac 2149
G u 2148
ist a</w> 2146
económi cos</w> 2146
mi ento,</w> 2145
con ced 2143
mun do.</w> 2143
tam ente,</w> 2141
Fin almente,</w> 2140
ar mas</w> 2139
mi sión</w> 2138
ali fic 2136
just o</w> 2136
s ur 2135
se par 2135
carac ter 2134
ambi ci 2132
ísti cas</w> 2131
h e 2130
adop tado</w> 2129
gu e</w> 2128
ob tener</w> 2127
trans fronteriz 2127
ori gin 2127
aprovech ar</w> 2127
quiz á</w> 2127
der ech 2126
human os.</w> 2125
tiv a.</w> 2122
com en 2120
inclu ir</w> 2120
r estric 2119
v el 2119
er en</w> 2117
competitiv idad</w> 2116
fon do</w> 2112
construc ción</w> 2112
4 ,</w> 2109
br i 2109
id amente</w> 2106
ru p 2106
cré di 2106
mens aje</w> 2103
p ár 2102
con serv 2101
am eri 2099
hab rá</w> 2098
cu á 2096
direc tri 2096
circun stanci 2096
país .</w> 2094
su fr 2092
al ta</w> 2085
ahor a,</w> 2085
por que,</w> 2084
subsid i 2084
t ambién 2083
res erv 2083
Estrat egia</w> 2083
A mbi 2082
desa fí 2082
int ención</w> 2081
terror ismo</w> 2081
am entos</w> 2080
fr u 2080
es c 2079
re vis 2078
demuestr a</w> 2078
o u 2077
er o,</w> 2075
con sist 2073
son ,</w> 2073
pár raf 2073
Chin a</w> 2072
mo tivo</w> 2071
l ater 2070
vo tar 2070
requisi tos</w> 2070
a k 2069
vigi l 2068
n o,</w> 2067
es ;</w> 2067
car ác 2067
alist as</w> 2067
e leg 2066
may ores</w> 2065
trá fico</w> 2063
funcion amiento</w> 2062
Pres u 2062
cu ent 2061
pod ido</w> 2061
s esión</w> 2060
z ca</w> 2060
comen zar</w> 2058
( I 2057
realiz ar</w> 2055
tar se</w> 2054
apro pi 2054
ex tra 2053
O b 2051
europe os,</w> 2051
ofrec er</w> 2051
bu sc 2046
a sión</w> 2045
tran si 2045
liber alización</w> 2044
Mon et 2044
neces arias</w> 2043
si sti 2040
dipu tado</w> 2040
carác ter</w> 2039
tiv amente</w> 2037
di ez</w> 2036
cu ya</w> 2036
aconteci mientos</w> 2035
co jo</w> 2034
Comis aria,</w> 2033
t emas</w> 2031
am os,</w> 2030
desarroll o,</w> 2029
europe os.</w> 2028
sist em 2027
E E 2026
mencion ado</w> 2025
in c 2023
cri si 2022
ciudadan os.</w> 2022
europe o,</w> 2021
vist as</w> 2018
intro ducir</w> 2018
j er</w> 2014
dici embre</w> 2014
pens ar</w> 2013
idad es.</w> 2012
medi anas</w> 2012
a cog 2010
comun es</w> 2010
mili tar 2010
con firm 2009
inter pre 2009
g ri 2008
fir ma</w> 2008
a per 2007
á ,</w> 2006
proporcion ar</w> 2006
justi cia</w> 2005
dimen sión</w> 2005
en a</w> 2004
mé ri 2003
d r 2002
solici tud</w> 2002
mar z 1997
comunit aria</w> 1997
plante amiento</w> 1997
sep tiem 1995
espaci o</w> 1995
f ab 1993
anim ales</w> 1993
satisfac tori 1993
promo ción</w> 1992
energéti ca</w> 1990
elec tor 1988
n or 1986
. . 1986
cer ca</w> 1986
est én</w> 1985
E se</w> 1984
g e 1982
mu tu 1981
apo ya</w> 1981
civi l</w> 1979
glob al</w> 1978
posi ble.</w> 1977
cul tura</w> 1977
justi fic 1976
deleg ación</w> 1975
gr á 1974
tom ado</w> 1974
qui era</w> 1973
an .</w> 1971
prueb a</w> 1971
av anz 1970
gast os</w> 1969
es o,</w> 1962
ob ern 1962
difer encias</w> 1962
l er 1961
mu estr 1961
bre v 1961
mencion ar</w> 1961
ent emente,</w> 1960
análi sis</w> 1959
benefici os</w> 1958
s o,</w> 1957
concep to</w> 1957
ent end 1956
su stitu 1956
pal esti 1956
n er 1955
discrimin ación</w> 1955
con tenido</w> 1954
le jos</w> 1954
trat ando</w> 1953
Der echo</w> 1953
a m</w> 1952
id enti 1952
pr estar</w> 1952
Bar ro 1952
h er 1951
particip ar</w> 1949
Y a</w> 1948
prohibi ción</w> 1948
C hi 1947
expres i 1947
B el 1946
ci dad</w> 1946
llev a</w> 1946
conflic to</w> 1943
desarroll o.</w> 1942
é l</w> 1941
mi les</w> 1940
jurídi co</w> 1940
pobre za</w> 1940
pen a</w> 1939
Demócrat as</w> 1939
adecu ada</w> 1938
mecan ismo</w> 1938
to mar 1937
r um 1935
con centr 1934
b res 1933
D ur 1933
ayud as</w> 1927
dis posición</w> 1926
parti dos</w> 1926
incre m 1921
án ,</w> 1920
E l 1919
pes quer 1918
comi enz 1918
ob vi 1917
oni a</w> 1917
pas aj 1914
mant eni 1914
B er 1912
ari amente</w> 1911
di ri 1910
C entr 1908
posi tivo</w> 1908
vo y</w> 1907
k ,</w> 1906
o -</w> 1905
mis mos</w> 1904
colabor ación</w> 1904
ci al</w> 1902
Much as</w> 1900
de dic 1898
dich o,</w> 1898
Un ido</w> 1897
organ ismos</w> 1897
hom bres</w> 1897
Y M 1895
os ;</w> 1895
reconoc er</w> 1895
qu í 1894
R es 1893
oblig aciones</w> 1893
le ,</w> 1892
aqu í,</w> 1892
res pal 1891
recib ido</w> 1890
2 5</w> 1888
ex ten 1888
efici encia</w> 1888
o pon 1887
ori gen</w> 1887
verdad ero</w> 1886
g obern 1884
terror is 1884
me dic 1882
esp í 1882
vo to</w> 1880
sion es,</w> 1879
to ma</w> 1878
examin ar</w> 1874
prev é</w> 1874
soci al.</w> 1873
I ra 1872
áre as</w> 1871
compet encias</w> 1870
Unid os,</w> 1870
tecnolog ía</w> 1870
n adie</w> 1869
1 0 1869
re form 1869
t adas</w> 1868
S u</w> 1863
ac cid 1863
ten ía</w> 1863
mon et 1863
re d</w> 1862
de ud 1862
fran ces 1861
tant es</w> 1860
defini ción</w> 1860
re per 1859
M er 1857
so l 1857
S eg 1855
consider amos</w> 1855
Irland a</w> 1853
In teri 1852
alim entos</w> 1852
efec to,</w> 1850
úni camente</w> 1849
c es,</w> 1848
pro puesto</w> 1848
fec ha</w> 1848
eti que 1848
pu lar</w> 1847
próxim a</w> 1846
l a 1844
cul p 1843
C ó 1842
exper im 1842
Or gan 1842
ex ac 1841
ant es.</w> 1840
idad es,</w> 1840
segu i 1840
común .</w> 1840
histori a</w> 1840
Prim er</w> 1840
conclu sión</w> 1839
reper cu 1839
L u 1838
su ce 1838
des cri 1838
grav e</w> 1838
futuro ,</w> 1838
H oy</w> 1837
posi bles</w> 1837
ac as 1836
abl es.</w> 1835
respons ables</w> 1834
merc anc 1833
Inter nacional</w> 1833
cre di 1832
rá p 1832
acti tud</w> 1831
añad ir</w> 1830
pro fund 1829
C E</w> 1827
su ger 1827
le y 1825
com pr 1822
señ or 1822
resul tad 1822
super visión</w> 1822
form e</w> 1819
oblig atori 1819
natural eza</w> 1819
tend remos</w> 1817
buen as</w> 1817
as :</w> 1816
centr al</w> 1815
(P T)</w> 1815
obst á 1814
ar les</w> 1813
plant ea</w> 1811
sex u 1811
dud a,</w> 1810
en der</w> 1809
bl o 1809
pre visto</w> 1808
emple o.</w> 1808
l es,</w> 1807
im pli 1807
pu di 1806
pu es,</w> 1806
Con sid 1805
det all 1805
con tiene</w> 1804
f es</w> 1802
argu m 1802
anu al</w> 1801
ac ord 1800
P YM 1799
conver tir 1799
So bre</w> 1798
ir ,</w> 1797
esper amos</w> 1797
terr en 1797
mun do,</w> 1796
adecu ado</w> 1796
ej er 1794
t un 1792
Li bro</w> 1792
lec tura</w> 1792
mand ato</w> 1792
directri ces</w> 1792
an s 1790
per ten 1790
anci a,</w> 1790
aj ust 1789
debat e,</w> 1788
esper ar</w> 1788
é s,</w> 1787
su fri 1787
añ o.</w> 1786
utiliz ación</w> 1786
destac ar</w> 1786
circul ación</w> 1786
im ag 1785
mar íti 1785
hist óri 1785
contribu ir</w> 1784
coment arios</w> 1784
a -</w> 1783
s ó 1783
requi ere</w> 1783
Pro gram 1781
Am ster 1780
pó si 1780
re flexi 1779
cam in 1779
ir á</w> 1777
firm emente</w> 1777
as u 1776
di o</w> 1775
ro ,</w> 1774
li zación</w> 1773
agrad eci 1772
mecan ismos</w> 1772
amenaz a</w> 1771
vehí culos</w> 1771
Ministr os</w> 1769
Dur ante</w> 1769
no vi 1768
Fon dos</w> 1768
vir tud</w> 1768
bas a</w> 1767
pron to</w> 1765
sanci ones</w> 1765
fab ric 1765
pro fun 1764
pas ado,</w> 1764
s mo</w> 1763
cat eg 1763
manif est 1763
H a</w> 1762
posi ble,</w> 1762
sec tor 1762
internacion al.</w> 1762
contribu y 1762
cambi ar</w> 1761
docum entos</w> 1761
ar lo</w> 1760
car ga</w> 1756
consu mo</w> 1756
S )</w> 1755
S ab 1755
n ,</w> 1753
dis puesta</w> 1752
nacion ales.</w> 1752
trat ado</w> 1751
grav es</w> 1750
S E 1749
pre vención</w> 1749
ries gos</w> 1749
adicion ales</w> 1747
P ol 1746
agu a</w> 1746
b a</w> 1744
br a</w> 1744
T A 1743
respec to.</w> 1743
reci ente</w> 1743
fu entes</w> 1742
al egr 1741
con solid 1740
labor al</w> 1740
tam poco</w> 1739
volun t 1739
Mundi al</w> 1739
jurí dic 1735
Constitu ción</w> 1735
á usu 1734
lam os</w> 1734
inclu idos</w> 1734
o lución</w> 1732
Medi terráne 1732
tecnolog ías</w> 1732
post eri 1732
trat o</w> 1731
rápid amente</w> 1731
1 1</w> 1730
fi g 1730
to co 1729
ér d 1728
líne as</w> 1728
plen o</w> 1727
rit u</w> 1727
G obier 1725
it ali 1725
elem ento</w> 1725
am en</w> 1723
armon ización</w> 1722
cesi v 1721
Gener al</w> 1720
autor idad</w> 1719
recomend aciones</w> 1719
espí ritu</w> 1719
juni o</w> 1718
a - 1717
ari as,</w> 1717
rel ativos</w> 1717
col ógi 1717
im puesto</w> 1716
m es</w> 1714
res uel 1712
común ,</w> 1712
apro xim 1711
co sa</w> 1710
oc tu 1708
com pa 1707
T i 1706
Ac ta</w> 1706
uni vers 1703
preci so</w> 1703
Co mer 1702
Program a</w> 1702
a ero 1701
financier as</w> 1701
acu s 1701
f recu 1700
fr au 1700
respe tar</w> 1700
adem ás,</w> 1700
bre .</w> 1699
noso tro 1698
prueb as</w> 1698
v ul 1697
un id 1697
su pone</w> 1697
mi ento.</w> 1696
region al</w> 1694
t as.</w> 1693
d ro 1693
candid atos</w> 1693
reci entemente</w> 1690
t ab 1689
a pren 1689
ámbi tos</w> 1688
au s 1687
reg res 1687
os ?</w> 1684
ciudadan os,</w> 1684
m pi 1683
an unci 1683
sion es.</w> 1683
ar l 1682
públi cos</w> 1682
A po 1681
z can</w> 1681
fr acas 1681
agrad ecer</w> 1680
m ar</w> 1679
refor zar</w> 1679
párraf o</w> 1679
pre vi 1678
trans mi 1677
hubi era</w> 1676
con seguido</w> 1675
produc tores</w> 1675
cion al</w> 1673
mu l 1671
abl es,</w> 1671
ad qui 1670
elimin ar</w> 1670
sesi ones</w> 1670
bienven ida</w> 1670
institucion al</w> 1669
er .</w> 1668
oblig ación</w> 1668
comb in 1668
d an</w> 1667
b uro 1666
U cr 1665
inclu ye</w> 1665
re i 1664
continu ar</w> 1664
observ aciones</w> 1662
control es</w> 1661
comerci al</w> 1660
divers idad</w> 1660
bas ada</w> 1658
ar ían</w> 1657
no ta</w> 1657
z .</w> 1655
ad amente,</w> 1654
so ber 1654
no ti 1654
recibi r</w> 1654
pre ten 1653
facili tar</w> 1653
políti ca.</w> 1652
len gu 1652
cau sa</w> 1651
s es</w> 1649
des empleo</w> 1649
inter cambio</w> 1649
qued ado</w> 1649
inclu ida</w> 1646
etap a</w> 1646
" ,</w> 1645
ti pos</w> 1645
llev ado</w> 1645
efic acia</w> 1644
A r 1643
Organ ización</w> 1641
t aciones</w> 1640
ex amen</w> 1639
empres as,</w> 1639
proce de</w> 1639
0 .</w> 1638
pre fer 1638
de tal 1637
trabaj ando</w> 1637
en ero</w> 1636
er a,</w> 1636
armon iz 1635
Por tu 1635
A d 1634
des apar 1634
intro duci 1634
inst al 1634
ingres os</w> 1633
de fici 1630
De fen 1630
» ,</w> 1628
elec tró 1626
ofrec e</w> 1626
Vi ce 1626
Car ta</w> 1626
fáci l</w> 1626
pro voc 1625
tem por 1624
s per 1623
Sch en 1623
relacion ados</w> 1622
im puestos</w> 1621
desempeñ ar</w> 1621
úti l</w> 1621
electró ni 1621
cl áusu 1619
oc asión</w> 1618
aper tura</w> 1618
P acto</w> 1616
ami entos</w> 1616
Ag encia</w> 1616
p érd 1615
pe dido</w> 1615
ari as.</w> 1614
ter c 1613
Al gun 1613
recomend ación</w> 1613
fin ales</w> 1612
s enci 1611
sufici entemente</w> 1611
1 5 1610
ar reg 1610
señal ado</w> 1610
di jo</w> 1609
políti ca,</w> 1609
g ente</w> 1607
ex tran 1607
col ec 1606
d os,</w> 1605
reg lamentos</w> 1605
uc ha</w> 1604
sig a</w> 1604
graci as,</w> 1603
estudi o</w> 1603
adel ante</w> 1603
dic tam 1602
t ú 1601
mí tan 1601
b ol 1600
tu des</w> 1600
anz as</w> 1600
gr ado</w> 1599
tu lo</w> 1599
(I T)</w> 1599
tiem po.</w> 1598
perspec tivas</w> 1598
es ?</w> 1597
im pl 1597
ambi ente,</w> 1597
segur idad,</w> 1597
sent ido,</w> 1597
de ten 1596
hab ido</w> 1596
com prend 1594
mo tiv 1594
cu y 1593
cu yo</w> 1593
vol ver</w> 1593
re cog 1592
podr íamos</w> 1591
in sisti 1590
tu vi 1590
1 2</w> 1589
comple tamente</w> 1589
per tin 1588
conoci miento</w> 1587
men es</w> 1586
fir me</w> 1586
bi o 1585
ell o.</w> 1585
Tr ans 1585
canti dad</w> 1585
afec ta</w> 1583
consider ación</w> 1582
b o</w> 1581
empres a</w> 1580
internacion al,</w> 1580
á mi 1579
H ab 1579
am a</w> 1579
to ler 1579
Ten go</w> 1579
toco lo</w> 1579
gr an 1578
án ti 1578
cuesti ón,</w> 1577
Áfri ca</w> 1577
1 2 1576
j un 1576
moned a</w> 1576
qu en</w> 1575
soci os</w> 1575
capi tal</w> 1575
asi lo</w> 1574
v ay 1573
on es,</w> 1573
ativ amente</w> 1573
apoy amos</w> 1573
benefici o</w> 1573
extra ordin 1573
nacion ales,</w> 1571
judici al</w> 1571
B aj 1569
pro pósi 1569
Pa í 1569
potenci al</w> 1567
cu o 1566
pro du 1566
r esto</w> 1565
red ac 1564
Ori ente</w> 1564
s em 1561
apli ca</w> 1561
s é</w> 1559
ju li 1559
Portu g 1559
1 3 1558
r adi 1557
er o.</w> 1557
cu ar 1557
palabr as,</w> 1557
rei ter 1556
e i 1555
encuentr a</w> 1554
dic ha</w> 1553
po lic 1551
de d 1551
ve z,</w> 1551
con vers 1550
in dependencia</w> 1549
nucle ar</w> 1549
ci li 1546
au t 1546
S alu 1544
ol ógi 1544
et c 1544
propi as</w> 1544
ad ores.</w> 1543
estableci do</w> 1543
A méri 1541
ón :</w> 1541
ameri can 1541
también ,</w> 1541
C O 1540
qu in 1540
luch ar</w> 1540
er amente</w> 1539
hor as</w> 1539
Graci as,</w> 1538
pes qu 1536
f e</w> 1535
ci os</w> 1535
cu br 1534
inclu ido</w> 1534
mé todos</w> 1534
entr ada</w> 1533
fin almente</w> 1533
acuer do,</w> 1533
inclu sión</w> 1532
econom ías</w> 1532
territori o</w> 1532
f eder 1531
inter n 1531
tar á</w> 1530
Lisbo a,</w> 1530
económi ca,</w> 1529
preocup a</w> 1529
Min ist 1529
pas ar</w> 1528
estrec ha</w> 1528
encuentr an</w> 1528
( artículo</w> 1527
estrat egi 1527
aband on 1527
mítan me</w> 1527
l ógi 1525
pres encia</w> 1525
loc ales</w> 1525
P al 1524
di ferencia</w> 1524
so r</w> 1524
cost e</w> 1524
mé todo</w> 1524
m í</w> 1523
l ánti 1523
Comis aria</w> 1523
contamin ación</w> 1523
rec or 1522
autor iz 1522
enfermedad es</w> 1522
mis mas</w> 1521
o li 1520
ent os,</w> 1520
ge o 1520
últi mas</w> 1518
exist entes</w> 1518
ases in 1517
as es</w> 1516
ac el 1516
Centr al</w> 1516
consci entes</w> 1515
permi tir 1514
bu sti 1513
desa str 1513
garant ías</w> 1512
ben e 1511
Des pués</w> 1511
den omin 1510
conven i 1510
cont ex 1509
l le 1508
com busti 1507
bil ater 1507
fin ,</w> 1506
present adas</w> 1505
at a 1504
con ten 1501
dich os</w> 1501
divers as</w> 1501
defen der</w> 1500
ó vi 1499
M u 1497
er emos</w> 1497
ar me</w> 1497
sustanci as</w> 1497
Declar aciones</w> 1497
de .</w> 1496
cultur al</w> 1496
t as,</w> 1495
cer ti 1495
acuer do.</w> 1494
p an 1493
per mítame</w> 1493
decir le</w> 1493
t a 1492
pod rá</w> 1492
E m 1491
Salu d</w> 1491
c ent 1490
cri sti 1490
mar cha</w> 1490
mi tad</w> 1489
innov ación</w> 1489
ley es</w> 1488
pl áci 1487
b el 1486
ins pec 1486
bene pláci 1486
g anos</w> 1485
H o 1485
re to</w> 1482
alcanz ado</w> 1482
J e 1481
refugi ados</w> 1481
comi té</w> 1480
nosotro s.</w> 1480
s as</w> 1478
Po pular</w> 1478
muer te</w> 1477
p ac 1476
Bel ar 1476
si l 1475
di endo</w> 1475
bi li 1474
nacion al,</w> 1473
ér amos</w> 1473
agu ar 1472
es o.</w> 1471
ést e</w> 1471
n º</w> 1470
- 00 1469
est ados</w> 1469
di pl 1469
ve cin 1469
hacer lo</w> 1469
usted ,</w> 1469
d ando</w> 1468
liber tad 1468
er á</w> 1467
inci d 1467
administr ación</w> 1467
cu alific 1466
pi en 1466
N i 1464
neces arios</w> 1464
tar e 1464
k i 1463
Ag ricul 1463
conci li 1463
subsidi ari 1463
bi a</w> 1462
agrí col 1462
permiti rá</w> 1461
climáti co</w> 1460
por tu 1459
medioambient ales</w> 1458
em erg 1457
ir landes 1457
ferro vi 1456
ráp ida</w> 1456
r aci 1455
má s.</w> 1455
escri to</w> 1455
deb idamente</w> 1454
region ales</w> 1454
Belar ú 1454
V an</w> 1452
situ aciones</w> 1452
De ber 1452
g én 1451
A L 1451
po deres</w> 1451
vi tal</w> 1451
dad ,</w> 1451
exac tamente</w> 1451
re an 1449
(P L)</w> 1449
atu to</w> 1448
prob ablemente</w> 1447
for tun 1446
produc to</w> 1445
án dose</w> 1445
estructur ales</w> 1445
tor no</w> 1444
Fr ancia</w> 1444
n av 1442
su pon 1442
refle j 1442
al idad.</w> 1441
ir se</w> 1441
dictam en</w> 1441
í as.</w> 1440
so y</w> 1440
aqu í.</w> 1440
cientí fic 1440
o posición</w> 1439
m en</w> 1439
exist encia</w> 1439
impul s 1439
numer osas</w> 1438
flexi bilidad</w> 1437
bur go</w> 1437
so bre 1436
dici endo</w> 1436
proced entes</w> 1436
b e</w> 1435
tar de</w> 1435
diputad os,</w> 1435
m ucha</w> 1431
P i 1431
re al</w> 1431
de tr 1431
públi cas</w> 1431
progres o</w> 1431
com parti 1430
U st 1428
4 -0 1428
coleg a,</w> 1428
llam ar</w> 1428
c en</w> 1427
seguir á</w> 1427
alm ente.</w> 1425
exclu siv 1425
con ferencia</w> 1424
sus pen 1424
suministr o</w> 1424
car b 1423
A u 1422
ay er</w> 1422
ide as</w> 1422
ent or 1421
Asi mismo,</w> 1421
posi tiva</w> 1420
M a 1418
ar an</w> 1418
mili tar</w> 1418
f era</w> 1417
int e 1417
m a 1416
e te</w> 1416
e cológi 1416
benepláci to</w> 1416
v é 1415
tr o</w> 1414
Isra el</w> 1414
j untos</w> 1413
ul g 1413
person a</w> 1412
empe zar</w> 1412
específic as</w> 1412
S ec 1410
legisl ativ 1410
t e.</w> 1409
correspon di 1409
avanc es</w> 1409
ti tu 1408
pro me 1408
pid iendo</w> 1407
problem a.</w> 1406
t amos</w> 1405
re ac 1404
re tos</w> 1404
exi sti 1404
experim ent 1403
direc tivas</w> 1402
l ación</w> 1401
ci o,</w> 1401
esper a</w> 1401
elabor ar</w> 1400
regul ación</w> 1400
liber tades</w> 1399
mani fi 1399
lu ego</w> 1397
elec ción</w> 1397
Paí ses</w> 1397
pa gos</w> 1396
reuni ones</w> 1396
deb atir</w> 1395
bl es.</w> 1395
f lu 1394
logr ado</w> 1392
rean ud 1392
fu tura</w> 1391
cifr as</w> 1391
acel er 1391
end o,</w> 1390
leg ales</w> 1390
nacion al.</w> 1390
pregun tar 1390
mostr ar</w> 1388
apro bar 1387
escuch ado</w> 1387
contin ú 1387
vul ner 1387
su ced 1386
dej ado</w> 1385
ver dad</w> 1384
responsabil idades</w> 1384
tu ris 1383
funcion arios</w> 1383
Per mítame</w> 1383
dé fici 1383
fisc al</w> 1383
salv aguar 1381
resid u 1380
com port 1379
t ni 1378
O TA 1378
elabor ación</w> 1378
cons enso</w> 1377
m asi 1376
ent e:</w> 1376
ejecu ción</w> 1375
s a,</w> 1374
P re 1374
as í,</w> 1374
vi ven</w> 1374
n o.</w> 1372
al ismo</w> 1372
x em 1371
P l 1370
fic ado</w> 1370
En erg 1370
produci do</w> 1370
v emos</w> 1369
di r</w> 1369
determin ar</w> 1369
regu lar 1369
plante ado</w> 1368
Có mo</w> 1368
democráti co</w> 1367
ho y.</w> 1366
entr ar</w> 1365
pes c 1365
estad o 1365
consci ente</w> 1365
vé ase</w> 1365
agu as</w> 1364
ocur ri 1364
present ada</w> 1363
empe z 1363
B alcan 1362
pl ani 1362
J urí 1361
si quiera</w> 1361
po l 1361
conflic tos</w> 1361
ór ganos</w> 1361
h ar 1360
ambi ente.</w> 1360
cri ti 1360
dec ep 1360
decidi r</w> 1360
distribu ción</w> 1359
inver sión</w> 1358
á l 1357
¿ Por</w> 1357
tur a.</w> 1357
segur a</w> 1357
esper anza</w> 1357
ign or 1357
S ol 1356
cos as,</w> 1356
cont em 1355
est at 1354
adicion al</w> 1354
tas a</w> 1354
0 %</w> 1353
garant ía</w> 1353
refi ero</w> 1352
an zar</w> 1351
compl ement 1351
estado unid 1351
peti ción</w> 1350
tró le 1350
cier ta</w> 1349
é ri 1348
sab e</w> 1348
re pi 1347
person as,</w> 1347
Su eci 1347
200 0</w> 1345
t ó</w> 1344
deci dido</w> 1344
igu almente</w> 1344
disminu ción</w> 1344
di gn 1343
lí deres</w> 1343
cor to</w> 1343
so la</w> 1342
cor rup 1342
institu ción</w> 1342
escuch ar</w> 1342
medic amentos</w> 1341
R egi 1340
po cas</w> 1340
Mi em 1340
A ustri 1339
oc h 1339
presupuest aria</w> 1339
con tar</w> 1338
con cesi 1338
ón de</w> 1338
dis curso</w> 1338
as ;</w> 1336
án d 1336
cam ente,</w> 1336
is l 1335
B ulg 1334
buen o</w> 1334
anteri orm 1334
P PE 1332
trat amiento</w> 1332
pe tróle 1331
val or 1330
tecnol ógi 1330
En ton 1330
re co 1328
po cos</w> 1328
re alidad,</w> 1327
As un 1327
su m 1326
circunstanci as</w> 1326
n ti 1325
¿ Cómo</w> 1325
pequeñ os</w> 1324
hon or 1324
respuest as</w> 1323
Ambi ente,</w> 1323
Ali anza</w> 1321
hab ían</w> 1320
Asun to:</w> 1320
ti m 1319
amb os</w> 1319
ex tr 1317
r a</w> 1316
cerr ado.</w> 1316
marz o</w> 1316
bu ques</w> 1315
segu imos</w> 1315
lími tes</w> 1315
convertir se</w> 1314
a compañ 1313
E sa</w> 1313
contr at 1313
int ento</w> 1313
po bres</w> 1312
amb as</w> 1312
par lamentos</w> 1311
llam amiento</w> 1311
b ú 1310
lu z</w> 1310
permi ta</w> 1310
and o.</w> 1309
represent an</w> 1309
ventaj as</w> 1309
mercanc ías</w> 1309
ab st 1308
so s.</w> 1307
ver si 1307
gen éti 1307
expresi ón</w> 1307
C ro 1306
blo que 1305
inte lig 1305
estrech amente</w> 1304
sober an 1304
segur idad.</w> 1302
d amos</w> 1301
exig encias</w> 1301
so s,</w> 1300
au té 1300
bas ado</w> 1300
auté nti 1299
po der 1297
ab u 1297
Nuestr o</w> 1297
h err 1296
é tni 1296
señ al</w> 1296
Po d 1296
des ea</w> 1295
convi er 1295
a tiendo</w> 1294
cre ado</w> 1294
llev ando</w> 1294
evalu ar</w> 1294
refor z 1294
E U 1292
apoy ado</w> 1292
exig e</w> 1292
agríco las</w> 1292
pobre z 1292
er ro 1291
su peri 1291
inici ativ 1291
seri o</w> 1291
sin cer 1291
ist án</w> 1290
oper ación</w> 1290
compa ti 1290
d os.</w> 1289
á b 1288
si va</w> 1288
may o</w> 1288
S r</w> 1287
mu jer</w> 1287
As í,</w> 1287
Graci as</w> 1287
demand a</w> 1287
h echos</w> 1286
mo tivos</w> 1286
asu mir</w> 1286
vigil ancia</w> 1283
convers aciones</w> 1283
vi v 1282
constru ir</w> 1282
des plaz 1281
urg ente</w> 1281
gast o</w> 1281
m ag 1280
fu sión</w> 1280
M ac 1279
cam paña</w> 1279
anteri or</w> 1279
herr ami 1278
o po 1277
bl emente</w> 1277
resolu ciones</w> 1277
N atur 1276
present ación</w> 1275
Inter gubernament 1275
lo g 1273
nom br 1273
al eman 1272
anci a.</w> 1272
( N 1271
S e 1270
consecu encia</w> 1270
ocasi ones</w> 1270
septiem bre</w> 1270
post ura</w> 1269
I I 1268
ant emente</w> 1267
im poner</w> 1267
N oso 1266
In vestig 1266
present a</w> 1265
oper aciones</w> 1265
movi lidad</w> 1265
hay amos</w> 1264
R uman 1263
T odo</w> 1263
ug os 1261
% .</w> 1259
men or</w> 1258
for z 1258
terc era</w> 1258
¿ qué</w> 1257
adop te</w> 1257
í es</w> 1256
car ne</w> 1255
ampli ar</w> 1255
manteni miento</w> 1255
enti v 1254
g o.</w> 1253
si ete</w> 1253
natur almente,</w> 1253
1 8</w> 1251
pon ente.</w> 1251
adh esi 1251
Greci a</w> 1251
só l 1251
i a,</w> 1250
é sta</w> 1249
leg íti 1249
T am 1248
creci ente</w> 1248
gu err 1247
cion ar</w> 1247
Exteri ores</w> 1247
extran jer 1247
cu án 1246
consul ta</w> 1246
v encion 1245
B o 1245
centr o</w> 1245
inmigr antes</w> 1245
M c 1244
ó ni 1244
europe as,</w> 1244
asi mismo</w> 1244
ra í 1244
determin ación</w> 1243
ugos l 1243
mundi al.</w> 1242
ahor r 1242
lími te</w> 1242
eci do</w> 1241
é l 1240
sub venciones</w> 1239
di ó</w> 1238
P ueb 1236
ad ora</w> 1236
is ra 1236
Dem oc 1236
res i 1235
ocu par 1235
v ali 1234
4 0</w> 1234
deb atiendo</w> 1234
exper tos</w> 1234
S on</w> 1233
consider able</w> 1233
negoci ación</w> 1233
viol aciones</w> 1233
democráti ca</w> 1233
Améri ca</w> 1233
Aleman ia</w> 1232
ord en 1231
isra el 1231
F und 1230
de port 1230
europe as.</w> 1230
car go</w> 1230
perfec tamente</w> 1230
t el 1229
v ari 1229
propuest a.</w> 1229
bar r 1228
impli ca</w> 1228
f lo 1227
tu vo</w> 1227
elabor ado</w> 1227
ro man 1226
In d 1226
pro poner</w> 1225
int entar</w> 1224
gui en</w> 1224
í menes</w> 1222
s indic 1221
Estr as 1221
de f 1220
t ari 1219
o tros,</w> 1218
aprob ó</w> 1218
A cojo</w> 1217
1 4</w> 1217
lam i 1217
Sab emos</w> 1217
fac tor</w> 1216
compañ ías</w> 1216
celebr ar</w> 1215
comienz o</w> 1215
pac í 1215
o l</w> 1213
S ud 1213
estab an</w> 1213
Co pen 1211
uni ón</w> 1211
democraci a,</w> 1211
comple j 1210
.. .</w> 1210
Comer cio</w> 1210
deb er</w> 1209
segur os</w> 1209
reserv as</w> 1209
¿ Cu 1207
A f 1206
pu so</w> 1206
ri sti 1205
a ud 1204
re estructur 1204
estab i 1204
propuest a,</w> 1204
míni mo</w> 1204
Pueb lo</w> 1204
fr anc 1203
ne t</w> 1203
influ encia</w> 1203
Ind ustri 1203
labor ales</w> 1202
A qu 1201
H ace</w> 1201
qui én</w> 1201
compro b 1201
Seg ún</w> 1201
señor as</w> 1201
co ch 1200
Es per 1200
OM C</w> 1200
olvid ar</w> 1200
d ada</w> 1199
av anzar</w> 1198
reci entes</w> 1198
desafí os</w> 1198
tr e</w> 1196
mujer es,</w> 1196
2 7</w> 1195
In forme</w> 1195
Presu puest 1195
e lo</w> 1194
i lu 1194
un anim 1194
mer ece</w> 1194
jui cio</w> 1194
Copen ha 1194
re ,</w> 1192
explo tación</w> 1192
perman ente</w> 1191
OM C 1190
mo d 1189
P ública</w> 1188
at aqu 1188
C as 1187
recuper ación</w> 1186
idi om 1186
ded or</w> 1186
st ro 1185
man o</w> 1185
disponi bles</w> 1185
en de</w> 1184
puer tos</w> 1184
N )</w> 1183
plaz o,</w> 1183
bien estar</w> 1183
contex to,</w> 1183
L ament 1182
vi endo</w> 1182
Ver de</w> 1182
Y ugosl 1181
mes es,</w> 1181
er ía</w> 1180
consecu encia,</w> 1180
comunic aciones</w> 1180
modi ficar</w> 1180
estr u 1179
cre e</w> 1179
impul so</w> 1179
Trans port 1179
pueb los</w> 1178
G e 1177
man os</w> 1177
prior it 1177
Ser ía</w> 1177
numer osos</w> 1176
(N L)</w> 1176
infra estructura</w> 1175
Agricul tura</w> 1175
may or 1174
gener ales</w> 1174
medioambient al</w> 1174
bl es,</w> 1173
oc cident 1173
viol ación</w> 1173
entor no</w> 1173
al idades</w> 1171
empres as.</w> 1171
án .</w> 1171
resolu ción,</w> 1171
A soci 1170
dis cur 1170
inacept able</w> 1170
P I 1169
1 3</w> 1165
in cu 1165
Económi cos</w> 1165
contr adic 1164
soci ales,</w> 1164
comunit arias</w> 1164
p e</w> 1163
tec ción</w> 1163
prepar ación</w> 1163
represent ante</w> 1162
peri o 1162
cuá l</w> 1162
r on 1161
ci a,</w> 1161
Parlam ent 1161
c ad 1160
so s 1160
at os,</w> 1160
o h 1159
parti do</w> 1159
energ ía,</w> 1159
restric ciones</w> 1159
segui miento</w> 1159
défici t</w> 1159
eg o,</w> 1158
ev olución</w> 1158
merc ado.</w> 1158
comun idades</w> 1158
pasaj eros</w> 1158
car ta</w> 1157
situ ación.</w> 1156
inici ar</w> 1155
Af gan 1155
ni zación</w> 1154
Bruse las</w> 1154
Ust ed</w> 1154
al re 1153
legisl ativo</w> 1153
principi o,</w> 1153
hacer se</w> 1153
diver sos</w> 1152
en g 1151
Con ven 1151
ve ci 1151
Nuestr a</w> 1151
m al</w> 1150
e o</w> 1150
all í</w> 1150
preten de</w> 1150
ent e 1149
pro ve 1149
fen ó 1149
famili as</w> 1149
o la</w> 1148
inform ación,</w> 1148
Pue do</w> 1148
hac emos</w> 1147
quer ía</w> 1147
(E N)</w> 1147
present ó</w> 1146
exclusiv amente</w> 1146
cam po</w> 1145
credi bilidad</w> 1145
Ho y,</w> 1145
9 .</w> 1144
am os.</w> 1144
des ,</w> 1144
inclu yendo</w> 1144
pa gar</w> 1143
der iv 1143
Cu entas</w> 1143
Bruse l 1143
d estru 1142
O c 1142
si ,</w> 1142
gobern anza</w> 1142
portu gu 1142
conver g 1141
Pue de</w> 1141
pro sper 1140
or gi 1139
( El</w> 1138
asegur arnos</w> 1138
novi embre</w> 1137
v ía</w> 1136
com plic 1136
independi entemente</w> 1136
a preci 1135
vo z</w> 1135
ent u 1134
Deb e</w> 1134
Asamble a,</w> 1134
dich as</w> 1133
19 8 1133
R o 1132
com pens 1131
C an 1130
ad ver 1130
l ing 1129
S al 1129
- como</w> 1129
es fer 1129
ac o</w> 1129
inclu idas</w> 1129
sigui entes</w> 1129
defin ir</w> 1129
oni a,</w> 1129
sufici entes</w> 1128
seman as</w> 1127
crédi tos</w> 1127
muestr a</w> 1127
def end 1127
expres ado</w> 1126
o )</w> 1125
d omin 1124
trabaj os</w> 1124
mejor as</w> 1124
ell os.</w> 1124
Es lo 1124
frau de</w> 1124
su je 1123
t s 1122
ju ego</w> 1122
Ag enda</w> 1122
2 .</w> 1121
Estr uc 1121
d um 1120
eg a</w> 1120
hab lamos</w> 1120
In clu 1120
utiliz ando</w> 1119
refer ir 1119
p ar</w> 1118
hab la</w> 1118
propi edad</w> 1118
si r 1117
consumid ores.</w> 1117
españ ol 1117
políti cos,</w> 1116
afec tan</w> 1116
humanit aria</w> 1116
Apo yo</w> 1116
d estruc 1115
acion al</w> 1115
trabaj ado</w> 1115
Nor te</w> 1115
car ri 1114
ún gar 1114
den unci 1114
l ocu 1113
d a,</w> 1113
d am</w> 1113
lev ant 1113
n aciones</w> 1112
Inter net</w> 1112
arreg lo</w> 1112
observ ación</w> 1111
consumid or</w> 1110
le .</w> 1109
tar ía</w> 1109
financi ar</w> 1109
gener al.</w> 1109
encar g 1109
pon iendo</w> 1108
d an 1107
Koso v 1107
Lu xem 1107
clar as</w> 1106
Lisbo a.</w> 1106
ec a</w> 1105
mo ción</w> 1105
hab i 1105
verdad eramente</w> 1105
En tre</w> 1105
em ente.</w> 1104
ser es</w> 1104
cas os,</w> 1104
ve o</w> 1104
consist e</w> 1104
obstá culos</w> 1104
aproxim adamente</w> 1104
s í 1103
h ará</w> 1103
rec lam 1102
presupuest ario</w> 1102
mañan a,</w> 1102
cab e</w> 1101
Unid os.</w> 1101
Estruc tur 1101
depen de</w> 1100
conver tido</w> 1100
1 7 1099
es fera</w> 1099
proces os</w> 1099
r ,</w> 1098
U U 1098
es cand 1098
li mpi 1098
pa go</w> 1098
máxim o</w> 1098
ti dos</w> 1097
modi ficación</w> 1097
vot ación.</w> 1097
adopt adas</w> 1097
en camin 1096
cu id 1096
emple ados</w> 1096
ví n 1096
multi later 1096
otro ,</w> 1096
ha gan</w> 1095
pod rán</w> 1095
person as.</w> 1095
concre to</w> 1095
técni cas</w> 1095
requisi to</w> 1095
salud ,</w> 1095
re quer 1094
ob li 1094
nuev o,</w> 1094
inform ar</w> 1093
im presión</w> 1092
cru cial</w> 1092
del incu 1092
minor ías</w> 1092
Europe os</w> 1091
ve in 1091
of reci 1090
futur as</w> 1089
lid er 1089
tas as</w> 1089
B u 1088
ac tiva</w> 1088
asi sti 1088
cier tos</w> 1088
Rusi a,</w> 1088
tor es,</w> 1087
fig ur 1087
on al</w> 1086
clar idad</w> 1086
pobl aciones</w> 1086
quier da</w> 1086
n et 1085
% ,</w> 1085
just a</w> 1085
or o</w> 1084
im puest 1084
dis capaci 1084
ani a,</w> 1084
refer én 1084
V )</w> 1083
fac tores</w> 1083
rig uro 1083
Koso vo</w> 1083
in dem 1082
Re present 1082
octu bre</w> 1082
é ,</w> 1081
Cre emos</w> 1081
adu an 1081
mu ev 1080
Unid as,</w> 1080
alre dedor</w> 1080
h úngar 1079
lament able</w> 1079
fe br 1079
inmediat amente</w> 1079
compañ eros</w> 1078
o st 1077
ent os.</w> 1076
inter locu 1076
esenci ales</w> 1076
3 .</w> 1075
T al</w> 1075
c av 1074
d ó 1074
un idad</w> 1074
ab ar 1074
asun to.</w> 1074
1 6</w> 1073
R om 1073
el ,</w> 1073
pod remos</w> 1073
on es.</w> 1072
gr adu 1072
su puesto</w> 1072
dis fru 1072
conclu ir</w> 1072
2 )</w> 1071
pro vi 1071
su st 1071
empres ari 1071
consumid ores,</w> 1071
a ir 1070
ban cos</w> 1070
propósi to</w> 1070
1 .</w> 1069
li zar</w> 1069
enci as,</w> 1069
im posible</w> 1069
especí fica</w> 1069
pesqu era</w> 1069
P es 1068
aliment aria</w> 1068
' .</w> 1067
cor az 1067
cu idad 1066
ex pec 1066
centr os</w> 1066
(E S)</w> 1066
inten si 1066
di señ 1065
deud a</w> 1065
r adic 1064
d oc 1064
trabaj an</w> 1064
trans fer 1064
Algun os</w> 1064
juli o</w> 1064
im oni 1063
ación )</w> 1062
ci to</w> 1061
acep tado</w> 1061
bre ve</w> 1061
encontr amos</w> 1061
fij ar</w> 1061
ileg al</w> 1061
cláusu la</w> 1061
críti cas</w> 1060
r ían</w> 1059
an os,</w> 1058
res um 1058
ataqu es</w> 1058
pren sa</w> 1057
específic amente</w> 1057
altern ativ 1057
fortal ecimiento</w> 1056
d oy</w> 1055
d ónde</w> 1055
D u 1055
señ ores,</w> 1055
p ti 1054
mom ento.</w> 1054
a fron 1053
en en</w> 1053
iz a</w> 1053
pedi mos</w> 1053
const antemente</w> 1053
á stro 1052
publi c 1052
gu ar 1051
ci ón 1050
or al</w> 1050
di vid 1050
cu bier 1050
Qu eremos</w> 1050
investig ación,</w> 1050
abier to</w> 1050
f ase</w> 1048
ó ,</w> 1048
cat ástro 1048
Defen sor</w> 1048
contr atos</w> 1047
o máti 1046
T u 1046
le j 1046
su l 1046
consider ablemente</w> 1046
d om 1045
par ecen</w> 1045
edi fici 1045
am ar 1044
neces ario,</w> 1044
as ?</w> 1043
expec t 1043
ferro carri 1042
oí do</w> 1042
á lti 1041
par ci 1041
dad .</w> 1041
posi tivos</w> 1040
fri can 1040
ent re 1039
cum bre</w> 1039
terror istas</w> 1039
ejer cer</w> 1039
i ó</w> 1038
L am 1038
ir ía</w> 1038
aprob ada</w> 1038
determin adas</w> 1038
críti ca</w> 1038
Inclu so</w> 1038
permi tido</w> 1037
envi ar</w> 1036
regi ón.</w> 1035
enci ones</w> 1034
ell a.</w> 1034
peri odo</w> 1034
utiliz an</w> 1034
Ac tu 1034
increm entar</w> 1034
Conven io</w> 1034
200 7 1033
Ex ist 1033
diri gi 1033
hab it 1032
correspon de</w> 1032
polic ía</w> 1032
n os,</w> 1031
B r 1029
co inci 1029
enci as.</w> 1029
Asoci ación</w> 1029
5 .</w> 1028
direc ta</w> 1028
tare as</w> 1028
at lánti 1027
pre ced 1027
cont acto</w> 1027
prácti camente</w> 1027
peri ó 1027
important es.</w> 1027
vivi r</w> 1027
H um 1026
conce der</w> 1025
s a.</w> 1024
1 7</w> 1024
cal end 1024
seri as</w> 1023
do ble</w> 1023
EE . 1023
ar r 1022
m esa</w> 1021
id ent 1021
su r</w> 1021
d años</w> 1020
re duc 1019
al guien</w> 1019
os amente</w> 1019
recha zar</w> 1019
1 6 1018
R O 1018
ar ti 1018
pas ado.</w> 1018
( H 1017
de liber 1017
seg uro 1017
mañan a.</w> 1016
terren o</w> 1016
gr ad 1015
abri r</w> 1015
crisi s,</w> 1015
a )</w> 1014
H uman 1014
deber á</w> 1014
económi ca.</w> 1014
Mi entras</w> 1013
ab il 1012
evi t 1012
geo grá 1012
pa z,</w> 1011
aliz ado</w> 1011
Est á</w> 1010
caus as</w> 1010
at enci 1009
lar ,</w> 1009
deli to</w> 1009
El los</w> 1009
PPE - 1008
t ent 1007
E ,</w> 1007
I gu 1007
si ento</w> 1007
deci d 1007
cier tamente</w> 1007
ar se.</w> 1006
or adores</w> 1006
Ha sta</w> 1006
exclu sión</w> 1006
e k 1005
políti co,</w> 1005
M ás</w> 1004
as um 1004
fu ente</w> 1004
demuestr an</w> 1004
PYM E</w> 1004
EE. UU 1004
Euro pa 1003
ju dic 1003
estudi os</w> 1003
alcan ce</w> 1002
venci ón,</w> 1002
t és</w> 1001
l es.</w> 1000
inver tir</w> 1000
cuo tas</w> 1000
e legi 999
ex cesiv 999
cas ti 999
Es paña</w> 999
Com unic 999
ador as</w> 999
sistem áti 999
so cav 998
estable zca</w> 998
dipl omáti 998
efic aces</w> 997
independi ente</w> 997
soci al 996
Cámar a,</w> 995
Itali a</w> 995
quí mi 995
control ar</w> 994
re par 993
reconoc e</w> 993
Pal esti 993
trans ferencia</w> 992
activ o</w> 992
aument ado</w> 992
S é</w> 991
hab iendo</w> 991
movi miento</w> 991
merc ado,</w> 990
concre tas</w> 990
cli ma</w> 990
aclar ar</w> 990
5 00</w> 989
primer os</w> 989
re pe 988
super ar</w> 988
. 00</w> 987
bas es</w> 987
Pro tección</w> 987
- que</w> 986
máxim a</w> 986
escand al 986
con sej 985
ver sión</w> 985
ahor a.</w> 985
embar go</w> 984
llam ado</w> 984
vuel to</w> 984
br u 983
dem ócrat 983
estrategi as</w> 983
Em ple 983
F is 982
enmiend as,</w> 982
asoci aciones</w> 982
repercu siones</w> 982
Ge orgi 982
f l 981
. 000</w> 981
au tom 981
ag enda</w> 981
adecu adas</w> 981
estu vi 981
ol og 980
In stitu 980
cambi o,</w> 980
1 00</w> 979
consecu ción</w> 979
sum amente</w> 978
Fund ament 978
O fici 977
próxim as</w> 977
aplicar se</w> 977
sab en</w> 976
mundi al,</w> 976
coher ente</w> 976
transi ción</w> 976
seri amente</w> 974
rechaz o</w> 974
g ol 973
I V 973
cu entas</w> 973
mar gen</w> 973
for est 973
comunit arios</w> 973
explic ar</w> 973
en señ 972
solici tudes</w> 972
civi les</w> 972
pon en</w> 971
pen siones</w> 971
situ ación,</w> 971
cap í 971
Adem ás</w> 971
pa tr 970
ven ido</w> 970
caracter ísticas</w> 970
Gobier nos</w> 970
an a,</w> 969
est ará</w> 969
Ucr ania</w> 969
pérd ida</w> 969
a sta</w> 968
pres erv 968
sor prend 968
m ac 967
Mac ed 967
ci entos</w> 966
indi ca</w> 966
dist or 966
pre venir</w> 965
ami ento,</w> 965
contribu ido</w> 965
natur almente</w> 965
ton el 965
sociedad es</w> 965
peri f 964
Liber tades</w> 964
Je fes</w> 964
pas os</w> 963
enorm es</w> 963
deli tos</w> 963
no t 962
recon struc 962
individu ales</w> 962
Pro tocolo</w> 961
erro r</w> 961
exteri ores</w> 960
g en,</w> 959
demostr ar</w> 959
An tes</w> 959
(S V)</w> 958
Deber íamos</w> 958
Jurí dicos</w> 958
de lic 957
tiem pos</w> 957
difer ente</w> 957
problem as.</w> 957
elimin ación</w> 957
infra estructuras</w> 957
apoy o.</w> 956
sig lo</w> 956
Tr abaj 956
eleg ido</w> 956
Investig ación</w> 956
especi ales</w> 955
di j 954
áb amos</w> 954
l anz 953
t al,</w> 953
or gu 953
económi co,</w> 953
coment ario</w> 953
registr o</w> 953
busc ar</w> 953
l ob 952
H un 952
ci erra</w> 952
id a.</w> 952
ar la</w> 951
señ ala</w> 951
pedi r 951
ac tú 950
ex pli 950
plante ar</w> 950
turis mo</w> 950
H er 949
aliz ación,</w> 949
plaz o.</w> 949
hor a,</w> 949
raí z</w> 949
id a,</w> 948
enfermed ad</w> 948
im peri 947
inter venciones</w> 947
adopt ada</w> 947
lami ento</w> 946
L an 945
form ar</w> 945
efec tiv 945
noc he</w> 945
os )</w> 944
energ ía.</w> 944
20 20 944
cumpl en</w> 944
pesc adores</w> 944
o tor 942
6 .</w> 942
8 .</w> 942
exist a</w> 942
exi gir</w> 942
cel on 942
Per o,</w> 942
Bar celon 942
och o</w> 942
inter rum 941
import aciones</w> 940
mo do,</w> 940
men os,</w> 940
enton ces,</w> 940
euro s.</w> 940
veci nos</w> 940
n ad 939
a ur 939
prepar ados</w> 939
terroris mo,</w> 939
s at 938
recon oz 938
aus encia</w> 938
i n</w> 937
edad ,</w> 937
orient ación</w> 937
estad ísticas</w> 937
l on 936
Con tro 936
distin tas</w> 936
resol ver 936
democraci a.</w> 936
c ro 935
b al 935
car a</w> 935
Hun gr 935
id os,</w> 934
fund amento</w> 934
Turqu ía,</w> 934
Miem bro</w> 934
su el 933
hu bo</w> 933
adopt en</w> 933
coher encia</w> 933
Contro l</w> 933
libertad ,</w> 932
sal ir</w> 931
ejemp los</w> 931
parlament aria</w> 931
profesion al</w> 931
en as</w> 930
Est abilidad</w> 930
pr ud 930
ampli ación,</w> 930
cl ase</w> 929
OM ( 929
in dis 928
tr ag 928
op ción</w> 928
(E L)</w> 928
e x</w> 927
b or 927
A ,</w> 927
am as</w> 927
mon t 927
b om 926
ri r</w> 926
afec tados</w> 926
abri l</w> 926
soberan ía</w> 926
ed ores</w> 925
tend ría</w> 925
ell os,</w> 925
Unid o,</w> 925
est atuto</w> 924
comi tés</w> 924
autom óvi 924
re em 923
at os.</w> 923
rá pido</w> 923
pron unci 923
M ar</w> 922
k a</w> 922
consider ando</w> 922
se lec 921
pequeñ o</w> 921
DE .</w> 921
Soci al</w> 921
añad ido</w> 921
B os 920
sab en,</w> 920
actu alidad</w> 920
human a</w> 920
Asamble a.</w> 920
mes es.</w> 920
destin adas</w> 920
le r</w> 919
ch i 919
consider an</w> 919
aére o</w> 919
B ro 918
por cent 918
particip ado</w> 918
afec tad 918
respuest a.</w> 918
in sist 917
organ ismo</w> 917
plen a</w> 917
detr ás</w> 917
petróle o</w> 917
elec tri 916
Consid ero</w> 916
D in 915
im pedir</w> 915
ministr os</w> 915
F eder 914
fisc ales</w> 914
cuá les</w> 914
um br 913
Trat ado,</w> 913
resolu ción.</w> 913
m ad 912
correc ta</w> 912
ret ario</w> 912
d ía.</w> 911
tr adi 911
sigui ente:</w> 911
199 9</w> 911
Ti ene</w> 911
acep tar 910
escas ez</w> 910
u ev 909
á .</w> 909
é s.</w> 908
di a,</w> 908
contr ario</w> 908
Sr a</w> 908
lament ablemente,</w> 908
equi val 908
bres ,</w> 908
inter venir</w> 907
person almente</w> 907
suce de</w> 907
( B 906
R E 906
medi a</w> 906
Exteri ores,</w> 906
r .</w> 905
d ará</w> 905
euro ,</w> 905
compren der</w> 905
Fr ancia,</w> 904
accid entes</w> 904
trag edi 904
re lev 903
etique tado</w> 903
etc .</w> 903
Noso tros</w> 903
en c 902
Presid enta</w> 902
oper adores</w> 902
felici to</w> 902
s urg 901
end o.</w> 901
mant ener 901
modi fica</w> 901
Bulg aria</w> 901
decep cion 900
P r 899
interes ante</w> 899
hacer .</w> 899
educ ación,</w> 899
lider az 899
D eci 898
on ,</w> 897
Hum anos</w> 897
t .</w> 896
h am 896
equi po</w> 896
super vis 896
ó li 895
min ist 895
trat ados</w> 895
comple ta</w> 895
c í 894
ar los</w> 894
ámbi to.</w> 894
escri tas</w> 894
edad .</w> 894
Amster dam 894
residu os</w> 894
h ol 893
en v 893
lar ga</w> 893
ampli ación.</w> 893
sigui endo</w> 893
industri as</w> 893
compren si 893
E )</w> 892
tri bun 892
formul ada</w> 892
Much os</w> 892
Au tor 892
des ti 891
mujer es.</w> 891
fenó men 890
l in 889
a prueb 889
b os 889
elec tu 889
tem a.</w> 889
quiz ás</w> 889
id os.</w> 888
cultur ales</w> 888
instal aciones</w> 888
ti err 887
res ist 887
dic tad 887
inclu ya</w> 887
refle ja</w> 887
profund amente</w> 887
200 0,</w> 886
cor r 886
Es pañ 886
concre tamente</w> 886
perí o 886
Amster dam</w> 886
sanit aria</w> 885
as pir 884
ciudad es</w> 884
carb on 884
destruc ción</w> 884
interlocu tores</w> 884
S I 883
B álti 883
to n</w> 883
ocup a</w> 883
militar es</w> 883
defici encias</w> 883
gener ación</w> 882
imag in 882
Balcan es</w> 882
añ a</w> 881
internacion ales,</w> 881
pien sa</w> 881
ag entes</w> 880
legi tim 880
revis ar</w> 880
al es 879
vi ene</w> 879
Euro po 879
regi ón,</w> 879
reg las</w> 879
conclu ir,</w> 879
din ámi 879
important es,</w> 879
Per mítanme</w> 879
Fin lan 879
t u</w> 878
F l 878
activ amente</w> 878
pequeñ a</w> 878
presi on 878
p la</w> 877
po lici 877
pre vist 877
and a</w> 877
uni later 877
tend encia</w> 877
mon opo 877
(A 5-0 877
S om 876
fun ciones</w> 876
Comis ario.</w> 876
satisfac er</w> 875
end en</w> 874
ver g 874
int electu 874
públi ca,</w> 874
avanc e</w> 874
1 8 873
– ,</w> 872
contro versi 872
argum entos</w> 872
in gun 871
in evit 870
Soci alista</w> 870
c ráti 869
judici ales</w> 869
Din amar 869
bi r</w> 868
términ o</w> 868
sosteni ble.</w> 868
problem a,</w> 868
famili a</w> 868
escu e 867
limi tar</w> 867
fom ento</w> 867
ísti ca</w> 867
apropi ado</w> 867
' ,</w> 866
com eti 866
su gi 866
r est 865
al lí 865
al tamente</w> 865
F u 864
equi t 864
sent ido.</w> 864
ór gan 864
crisi s.</w> 864
m em 863
s ecu 863
pro ducir</w> 863
de bili 863
dej a</w> 863
simpl e</w> 863
Ali ment 863
b urg 862
conjun tamente</w> 862
ti ó</w> 861
expl ot 861
transport e,</w> 860
h os 859
si vo</w> 859
atori o</w> 859
Schen gen</w> 859
- B 858
/ 0 858
par ec 858
tr a</w> 858
bú s 858
ex ha 857
Tr as</w> 857
Mediterráne o</w> 857
/ CE 856
A t 855
v idas</w> 855
tod os.</w> 855
difíci les</w> 855
L es</w> 854
cum plan</w> 854
ventaj a</w> 854
cubr ir</w> 854
dign idad</w> 854
Comunic ación</w> 854
í do</w> 853
ón om 853
tad o,</w> 853
dur ad 853
absolu to</w> 853
enfrent amos</w> 853
ent ender</w> 852
di z 852
ir land 852
efec tu 852
represent ación</w> 852
Al to</w> 852
Inter net 852
cuy as</w> 852
bl an 851
tod os,</w> 851
debat e 851
pr ést 850
ciudadan o</w> 850
v a 849
C I 849
ec ha</w> 849
políti co.</w> 849
fundament ales.</w> 849
acab ar</w> 849
conci encia</w> 849
tex ti 849
origin al</w> 849
form a,</w> 848
inclu y 848
éxi to.</w> 848
Vice presidente</w> 848
c ero</w> 847
hacer lo.</w> 847
tr ist 846
carreter a</w> 846
brev emente</w> 846
b et 845
re un 845
favor eci 845
sac ar</w> 845
cuar to</w> 845
su ma</w> 844
én dose</w> 844
Com ún</w> 844
o fer 843
A z 843
B lan 843
actu al,</w> 843
alegr o</w> 843
s amente</w> 842
R el 842
vi ej 842
adr es</w> 842
categ or 842
Sec retario</w> 842
Aqu í</w> 842
– y</w> 841
C ul 841
ar íamos</w> 841
internacion ales.</w> 841
equi voc 841
exha us 841
6 0</w> 840
gru po,</w> 840
barr eras</w> 840
o br 839
V I 839
ci a.</w> 839
pi enso</w> 839
llev an</w> 839
lleg ó</w> 839
estableci dos</w> 839
prest ación</w> 839
ju ris 838
Transport es</w> 838
E .</w> 837
enfr enta</w> 837
simpli ficación</w> 837
manifi esto</w> 837
b rec 836
U no</w> 836
4 .</w> 836
mom entos</w> 836
di gi 835
man tiene</w> 835
oblig ados</w> 835
fom ent 835
d ,</w> 834
ver i 834
Trat ado.</w> 834
cifr a</w> 834
nor te</w> 834
buro cráti 834
Esper amos</w> 834
K y 833
pun to,</w> 832
rati ficación</w> 832
ata que</w> 832
gén ero</w> 832
in und 831
em bre,</w> 831
tom ando</w> 831
industri al</w> 831
presupuest os</w> 831
fij ado</w> 831
é c 830
des ign 830
l ech 828
D o 828
cuestion es.</w> 828
convenci da</w> 828
Bos ni 828
Autor idad</w> 828
activ os</w> 827
celebr ado</w> 827
profesion ales</w> 827
destin ados</w> 826
export ación</w> 826
2 1</w> 825
él gi 825
m as 824
con exi 824
refi eren</w> 824
Señor ías</w> 824
mé di 824
publi cidad</w> 824
noc h 824
desastr e</w> 824
A hora,</w> 823
2 4</w> 823
direc tiva,</w> 823
regu lar</w> 823
ar lo.</w> 822
re peti 822
plani ficación</w> 822
Emple o</w> 822
M an 821
d arle</w> 821
R ur 821
Comisi ón 821
nucle ares</w> 821
concesi ón</w> 821
urg entemente</w> 820
signific ativo</w> 820
dé c 820
formul ar</w> 820
n a,</w> 819
al em 819
cl asi 819
seri a</w> 819
a pl 818
er a.</w> 818
os -</w> 818
acept able</w> 818
atori a</w> 818
converg encia</w> 818
at ent 817
políti cas,</w> 817
efec tivamente</w> 817
Ac ción</w> 817
J ap 816
ri ch 816
pres entes</w> 816
inform ación.</w> 816
1 9</w> 815
í ci 815
dur ación</w> 815
Ori ent 815
B élgi 814
pr e</w> 814
terror ist 814
Pa k 814
ocurr e</w> 814
ami ento.</w> 813
mi l 812
ab oli 812
utili ce</w> 812
comunit ario.</w> 812
hech as</w> 812
interi or.</w> 812
altern ativa</w> 812
éc tri 812
ex tern 811
el éctri 811
actu ación</w> 811
especi e</w> 811
espec ul 811
mir as</w> 811
em os.</w> 810
pregun to</w> 810
utiliz arse</w> 810
bur go,</w> 810
g a,</w> 809
pro lon 809
cor ri 809
tem a,</w> 809
ON G</w> 809
bús queda</w> 809
f ech 808
libr es</w> 808
interi or,</w> 808
Gr an</w> 808
o posi 807
su er 807
niñ os,</w> 807
a gi 806
d a.</w> 806
S ur 806
N uev 806
pe r</w> 806
leg al</w> 806
dis puestos</w> 806
tí tulo</w> 806
realiz ados</w> 806
sent i 806
buen os</w> 806
contin ente</w> 806
p a</w> 805
I rán</w> 805
pro vo 805
Chin a,</w> 805
áre a</w> 805
Mer cado</w> 805
Ruman ía</w> 805
ah í</w> 804
presupuest arias</w> 804
natur ales</w> 804
defini tivamente</w> 804
Reglament o,</w> 804
Interi or</w> 804
trabaj adores,</w> 803
pas ada</w> 803
dese aría</w> 803
climáti co,</w> 803
¿Cu á 803
o vi 802
G ar 802
pro muev 802
consider ado</w> 802
provi sion 802
proces o.</w> 801
vi legi 800
pre tend 800
euro s,</w> 800
Rusi a.</w> 800
apren der</w> 800
sig an</w> 799
mis mo.</w> 798
pes e</w> 798
permi tan</w> 798
compet encia,</w> 798
fí si 798
compar ación</w> 798
s k 797
in ,</w> 797
al ent 797
per dido</w> 797
form an</w> 797
Qu iz 797
an o,</w> 796
ce der</w> 796
det ención</w> 796
Aleman ia,</w> 796
Al b 795
comple to</w> 795
paci entes</w> 795
abier ta</w> 795
decidi ó</w> 795
ñ o</w> 794
ur ban 794
inf anti 794
(C OM( 794
salud .</w> 794
dol e</w> 794
EE.UU .</w> 794
c ali 793
pri vilegi 793
có digo</w> 793
interpre tación</w> 793
a cojo</w> 792
tar de,</w> 792
garanti ce</w> 792
Belarú s</w> 792
air e</w> 792
a firma</w> 791
T er 791
L A 791
contribu ciones</w> 791
fal si 791
estadounid ens 791
C am 790
op ciones</w> 790
reg ímenes</w> 790
aut ónom 790
referir me</w> 790
pre val 789
me tros</w> 789
pue bl 789
consider aciones</w> 789
artí culos</w> 789
coh esi 789
ren di 789
categ oría</w> 789
ling ü 789
L ati 788
se urope 788
monet aria</w> 788
S ar 787
fic ados</w> 787
trá gi 787
AC P 787
Ira q</w> 787
expect ativas</w> 787
al coh 786
sufici ente.</w> 786
relacion ado</w> 786
razon able</w> 786
ab og 785
alm ac 785
cooper ación.</w> 785
continu ación</w> 785
bien .</w> 785
eficaz .</w> 785
Ci udad 785
sincer amente</w> 785
2 2</w> 784
ar se,</w> 784
ti da</w> 784
re cuer 784
po ca</w> 784
As h 784
lugar es</w> 784
proporcion a</w> 784
entu si 784
enmiend as.</w> 783
Turqu ía.</w> 783
anteri ores</w> 783
favor able</w> 783
dificul tad 783
enfrent an</w> 783
Asi a</w> 783
esper ando</w> 782
sosteni bilidad</w> 782
específic os</w> 782
cru ci 782
Chi pre</w> 782
impuls ar</w> 782
Lament ablemente,</w> 782
Tu ris 782
p lu 781
as h 781
dud as</w> 781
correc to</w> 781
compar to</w> 781
calend ario</w> 781
t esti 780
an ex 780
ro .</w> 780
si ti 780
efici ente</w> 780
antigu a</w> 780
OTA N</w> 780
Sueci a</w> 780
r estr 779
B us 779
declar ado</w> 779
técni ca</w> 779
contribuy entes</w> 779
Natur almente,</w> 779
r é</w> 778
R i 778
urg encia</w> 778
destac a</w> 778
Declar ación</w> 778
pro cur 777
hech o.</w> 777
lideraz go</w> 777
cion ales</w> 776
servici os,</w> 776
agrad ecer 776
natur al</w> 776
b anc 775
ast rich 775
antigu o</w> 775
Ma astrich 775
P len 774
I rá 774
re vi 774
pe or</w> 774
pi er 774
In st 774
t h 772
so f 772
men ores</w> 772
permi ten</w> 772
comunit ario,</w> 772
ér gi 772
terroris mo.</w> 772
indis pens 772
neces ariamente</w> 771
orient aciones</w> 771
Cor ea</w> 771
tab aco</w> 771
bilater ales</w> 771
m ala</w> 770
200 6</w> 770
In dia</w> 770
cam pañ 770
res .</w> 769
dis par 769
comerci alización</w> 769
Su s</w> 769
ación ?</w> 769
conce de</w> 769
unanim idad</w> 769
d i</w> 768
P en 768
par cial</w> 768
des mant 768
Con su 768
ofrec en</w> 768
Portug al</w> 768
tad o.</w> 767
vícti m 767
soci ales.</w> 766
cas o.</w> 766
inclu yen</w> 765
Di ch 764
v ino</w> 763
Y ,</w> 763
conoci mientos</w> 763
canti dades</w> 763
Pl an</w> 763
delincu encia</w> 763
Z im 762
AC P</w> 762
científic os</w> 762
monopo li 762
ingun o</w> 762
e do</w> 761
consider e</w> 761
consider arse</w> 761
dese amos</w> 761
investig aciones</w> 761
intro duc 761
fabric antes</w> 761
o col 760
C ada</w> 760
V al 760
señ ores</w> 760
aliz ada</w> 760
fuer tes</w> 760
contem pl 760
Cro acia</w> 760
y o,</w> 759
un áni 759
tran seurope 759
alim enti 759
prepar ar</w> 759
desempeñ a</w> 759
profun da</w> 759
ident idad</w> 759
reconstruc ción</w> 759
g ases</w> 758
fr en 758
medi terráne 758
direc to</w> 758
establ ecen</w> 758
vist a,</w> 758
(C E)</w> 758
bási cos</w> 758
i j 757
G az 757
du m</w> 757
cooper ación,</w> 757
ell a,</w> 757
inc entiv 757
fracas o</w> 757
insisti r</w> 757
in as</w> 756
pon ga</w> 756
fin es</w> 756
bu s 756
pen di 756
organiz ar</w> 756
fortun adamente,</w> 756
superi or</w> 756
ac cesi 755
tor es.</w> 755
norm ativa</w> 755
vigi lar</w> 755
entend ido</w> 755
aceler ar</w> 755
Deci sión</w> 755
a parte</w> 754
H el 754
ci pl 754
imoni o</w> 754
n as</w> 753
¿ cómo</w> 753
aj es</w> 753
cre a</w> 753
trans atlánti 753
cier on</w> 753
pid ió</w> 753
eng añ 753
O tro</w> 752
R ot 752
qu et 752
in qui 752
re .</w> 752
ra pid 752
Deb o</w> 752
é x 751
aplic an</w> 751
recon cili 751
estable zcan</w> 751
particip an</w> 750
Ser vi 750
l lo</w> 749
es es</w> 749
ri que 749
concre tos</w> 749
as )</w> 748
obvi amente</w> 748
preguntar le</w> 748
corrup ción</w> 748
c án 747
an alizar</w> 747
op ti 747
aliz ación.</w> 747
Fis ch 747
lí der</w> 746
tom ó</w> 746
201 0</w> 746
conjun ta</w> 746
dic en</w> 745
transpar encia,</w> 745
gen .</w> 745
apli quen</w> 745
glob alización</w> 745
elector al</w> 745
nor te 745
des ast 744
ej ér 744
determin ado</w> 744
argum ento</w> 744
ci as</w> 743
pi lar</w> 743
ist án,</w> 743
establ ec 743
lu ego,</w> 742
legisl ativa</w> 742
ofici al</w> 742
export aciones</w> 742
vay a</w> 742
Yugosl avi 742
sec re 741
President e.</w> 741
inver nad 741
euro .</w> 741
modific aciones</w> 741
almac en 741
su pl 740
Presid encia,</w> 740
ag encias</w> 740
direc tiva.</w> 740
Tam poco</w> 740
on ancia</w> 739
dis cipl 739
Barro so,</w> 739
imag en</w> 739
pre ,</w> 738
tur no</w> 738
str ö 738
err ón 738
públi co,</w> 738
pid en</w> 738
equilibr ado</w> 738
transpar ente</w> 738
A y 737
í si 737
es cal 737
rel ativamente</w> 737
ati zación</w> 737
lament ablemente</w> 737
concre to,</w> 737
asign ación</w> 737
Pod emos</w> 737
visi ta</w> 736
cuy os</w> 736
Oc cident 736
n os.</w> 735
d año</w> 735
( La</w> 735
tr am 735
políti cos.</w> 735
públi ca.</w> 735
human o</w> 735
firm ado</w> 735
manten ido</w> 735
estratégi ca</w> 735
t amente.</w> 734
ud ad</w> 734
compet encia.</w> 734
llam ada</w> 734
reestructur ación</w> 734
2 3</w> 733
200 7</w> 733
parlament arios</w> 733
Reglament o)</w> 733
honor able</w> 733
c ár 732
e ta</w> 732
as ci 732
norm a</w> 732
sos p 732
pu r 731
const ante</w> 731
sufr en</w> 731
m a,</w> 730
ar ro 730
me z 730
consolid ación</w> 730
m an</w> 729
ampli amente</w> 729
vot ación)</w> 729
reconoci do</w> 729
dirig idas</w> 729
(A 4-0 729
conduc ta</w> 729
inc endi 729
porcent aje</w> 729
d ías,</w> 728
ent endi 728
re ales</w> 728
pon entes,</w> 728
materi as</w> 728
sil enci 728
P at 727
in stanci 727
fav or,</w> 727
capaci dades</w> 727
relacion ada</w> 727
tex tos</w> 727
increm ento</w> 727
c ál 726
energéti co</w> 726
parlament ario</w> 726
ación :</w> 726
afirm ar</w> 726
Barro so</w> 726
elegi r</w> 726
g ama</w> 725
est ánd 725
financier a,</w> 725
loc al</w> 725
ases or 725
admi si 725
convenci do</w> 725
a is 724
g o 724
qu ej 724
cre o,</w> 724
lar .</w> 724
apoy ando</w> 724
liber ación</w> 724
públi co.</w> 724
prof es 724
coraz ón</w> 724
T E 723
con duci 723
eg os</w> 723
celebr ación</w> 723
hom bre</w> 723
az ú 722
futur os</w> 722
administr ativ 722
enorm emente</w> 722
sexu al</w> 722
nav eg 722
tari f 722
orgu ll 722
D ado</w> 721
su cesiv 721
dem ás,</w> 721
ad o 720
re fuerz 720
par al 720
pen as</w> 720
ju ev 720
const at 720
C A 719
an os)</w> 719
equilibr i 719
dr am 719
fenómen o</w> 719
S impl 718
5 -00 718
es cap 718
soci o 718
fundament ales,</w> 718
solici tantes</w> 718
debate )</w> 718
é uti 717
in just 717
cons onancia</w> 717
pes o</w> 717
excep ción</w> 717
cumpl ido</w> 717
pobrez a,</w> 717
m os,</w> 716
contribu ye</w> 716
democráti cas</w> 716
tr án 715
ac er</w> 715
autor ización</w> 715
sac ri 715
pas a</w> 714
garanti za</w> 714
ambient al</w> 714
pi e</w> 713
centr ales</w> 713
suced ido</w> 713
Enton ces,</w> 713
negoci ar</w> 712
mill ón</w> 712
20 0</w> 712
volu men</w> 712
usu arios</w> 712
referén dum</w> 712
Ofici na</w> 712
o lu 711
r íamos</w> 711
convi c 711
M il 710
P E</w> 710
v u 710
ex it 710
conver tir</w> 710
r í 709
d arse</w> 709
v end 709
( debate)</w> 709
F e 709
gubernament ales</w> 709
ar las</w> 708
vi c 708
produc tiv 708
orient al</w> 708
reduci do</w> 708
intent ado</w> 708
I ,</w> 707
políti cas.</w> 707
200 9,</w> 707
fronter a</w> 707
sen o</w> 707
To d 707
ci p 706
an aliz 706
ro m 706
comport amiento</w> 706
Industri a,</w> 706
Rel aciones</w> 706
P ac 705
1 )</w> 705
venci ón.</w> 705
climáti co.</w> 705
altern ativas</w> 705
Ira q 705
trán si 705
( RO 704
Ob vi 704
( votación)</w> 703
9 )</w> 703
parti d 703
hi ci 703
realiz ación</w> 703
celebr ó</w> 703
simi lar</w> 703
quí vo 703
Vice presid 703
(RO )</w> 703
200 8</w> 702
tem o</w> 702
manif estar</w> 702
febr ero</w> 702
ami gos</w> 701
fir mar 701
partici par 701
felici tar 701
Cámar a.</w> 701
1 1 700
I z 700
legisl ativas</w> 700
caus ado</w> 700
Pol onia</w> 700
er os.</w> 699
tran qui 699
económi co.</w> 699
plant as</w> 699
Consid er 699
ir án</w> 698
Comun idad.</w> 698
mac ro 698
solici tar</w> 697
transi tori 697
n .</w> 696
8 0</w> 696
ac tores</w> 696
su pri 696
sab emos,</w> 696
problem as,</w> 696
conoc er</w> 696
a pe 695
est aría</w> 695
expl íci 695
Por que</w> 695
prosper idad</w> 695
B i 694
en érgi 694
po se 694
enci ma</w> 694
mo l 694
debati do</w> 694
suspen sión</w> 694
ul tra 693
err e</w> 693
Li tu 693
al tos</w> 692
ing ,</w> 692
rati fic 692
G ine 691
pa tri 691
qui si 691
ecu s</w> 691
Comun idad,</w> 691
cumpl e</w> 691
Baj os</w> 691
esfer as</w> 691
l ad 690
on z 690
Ci vi 690
l la</w> 689
é l.</w> 689
pro mes 689
pas ando</w> 689
solici tado</w> 689
oso .</w> 689
terri ble</w> 689
prove edores</w> 689
a plaz 688
T om 688
pa z.</w> 688
present ará</w> 688
comunic ación,</w> 688
correc ta.</w> 688
Mar ru 688
bres .</w> 688
b e 687
A ún</w> 687
to tal 687
independi entes</w> 687
Consu mid 687
E C 686
dis cre 686
200 6,</w> 686
ins pir 686
retir ada</w> 686
desastr es</w> 686
puer to</w> 685
detal les</w> 685
Zim b 685
sosp ech 685
Tod avía</w> 685
5 %</w> 684
O S 684
D amas</w> 684
actu al.</w> 684
prob able</w> 684
motiv o,</w> 684
r ent 683
d rá</w> 683
E D 683
com e 683
err ores</w> 683
investig ación.</w> 683
Unid as.</w> 683
Le y</w> 683
ci udad</w> 682
er va</w> 682
ab e</w> 682
ex cesi 682
Fr an 682
Económi ca</w> 682
vel oci 682
g e</w> 681
s h 681
d amente</w> 681
I I</w> 681
lí n</w> 681
fin al,</w> 681
condi cion 681
manif estado</w> 681
e co 680
energ ías</w> 680
criteri o</w> 680
cerr ar</w> 680
empr end 679
tele visión</w> 679
D E</w> 678
st eri 678
iz on 678
deci sión.</w> 678
neces ario.</w> 678
ust e 678
ju z 678
aqu ellas</w> 678
ejempl o.</w> 678
baj os</w> 678
democráti cos</w> 678
subray a</w> 678
apren diz 678
al ;</w> 677
perio dist 677
pr acti 676
aprob adas</w> 676
cier to,</w> 676
adecu ados</w> 676
Mu jer</w> 676
di ,</w> 675
de por 675
per der</w> 675
pregun ta,</w> 675
pren de</w> 675
conoc e</w> 675
PI B</w> 675
a prend 674
on al,</w> 674
esti mu 674
cor regi 674
inici al</w> 674
celebr ará</w> 674
gen era</w> 674
M al 673
S í,</w> 673
200 9</w> 673
Gru po,</w> 673
hor izon 673
c anos</w> 672
r acion 672
mi edo</w> 672
19 7 672
ez ca</w> 672
ést as</w> 672
legitim idad</w> 672
l mente</w> 671
S ant 671
in os</w> 671
re vel 671
deber án</w> 671
aplic ado</w> 671
materi al</w> 671
atr ibu 671
distin gu 671
gen es</w> 671
sosteni ble,</w> 671
Itali a,</w> 671
agradeci da</w> 671
p ad 670
prácti ca,</w> 670
agricul tura,</w> 670
adopt ó</w> 670
masi v 670
habi tu 670
W al 669
ad or,</w> 669
os a.</w> 669
deci siv 669
cas a</w> 669
199 9,</w> 669
hacer lo,</w> 669
Co h 668
trat an</w> 668
demo grá 668
signific ativ 668
pro pag 667
hac er,</w> 667
ati z 667
sal arios</w> 667
jer on</w> 667
avi ación</w> 667
mostr ado</w> 667
desti no</w> 667
- 201 666
al :</w> 666
os o,</w> 666
baj a</w> 666
refer ido</w> 666
institucion es.</w> 666
ilu str 666
e ;</w> 665
con cer 665
gr af 665
labor al,</w> 665
t al.</w> 664
especi es</w> 664
ne u 664
plaz os</w> 664
limi tado</w> 664
primer as</w> 664
lógi ca</w> 664
anteriorm ente</w> 664
t án 663
a frican 663
cre ando</w> 663
evalu aciones</w> 663
ton ,</w> 663
feder al</w> 663
- en</w> 662
pi ens 662
trans acciones</w> 662
200 0.</w> 662
proce der</w> 662
Intergubernament al</w> 662
200 4</w> 661
pregun ta.</w> 661
prohi b 661
Ser bia</w> 661
peti ciones</w> 661
sus ci 661
propon emos</w> 661
ine quívo 661
herrami enta</w> 661
cre en</w> 660
import e</w> 660
Trat ados</w> 660
concili ación</w> 660
Represent ante</w> 660
g ado</w> 659
tr adicion 659
os a,</w> 659
acer vo</w> 659
asoci ados</w> 659
conden a</w> 659
ent iendo</w> 658
po pu 658
is mo,</w> 658
ciudadan ía</w> 658
simpli fic 658
ad uc 657
ec o</w> 657
orm ente,</w> 657
des echos</w> 657
pon er 657
E ur 656
com parte</w> 656
ex pedi 656
inter na</w> 656
tom adas</w> 656
apli que</w> 656
disponi ble</w> 656
Nuev a</w> 656
m uni 655
G o 655
G ali 655
mi o</w> 655
apoy e</w> 655
adecu adamente</w> 655
simi lares</w> 655
Res ul 655
frecu encia</w> 655
Can ad 655
Estructur ales</w> 655
C reci 654
B ret 654
¿ por</w> 654
des .</w> 654
conform e</w> 654
formul ación</w> 654
es -</w> 653
com entar</w> 653
cre í 653
fer i 653
hor as.</w> 653
ens ay 653
adap tación</w> 653
sól ida</w> 653
esper an</w> 652
adop tar 651
institucion es,</w> 651
inmediat a</w> 651
medid as,</w> 651
2 6</w> 650
cu ant 650
as ent 650
Europe os,</w> 650
estab il 650
miembro ,</w> 650
retras o</w> 650
e y 649
pe d 649
des igual 649
inter gubernament 649
interes ados</w> 649
Greci a,</w> 649
vín culos</w> 649
tonel adas</w> 649
éx it 649
ultra perif 649
ad ad 648
mi cro 648
ec os</w> 648
de teri 648
tur as</w> 648
prácti ca.</w> 648
requi eren</w> 648
vis ados</w> 648
sin cero</w> 648
Simpl emente</w> 648
2 8</w> 647
per mítanme</w> 647
200 0 647
tar je 647
ayud ará</w> 647
cos as.</w> 647
Soci alistas</w> 647
reiter ar</w> 647
correspondi entes</w> 647
perío dos</w> 647
minu to</w> 646
anu ales</w> 646
confirm ar</w> 646
bi a,</w> 645
gr atu 645
200 3</w> 645
objetiv o.</w> 645
dese an</w> 645
recib en</w> 645
Energ ía</w> 645
campañ as</w> 645
g el 644
mar ca</w> 644
indic adores</w> 644
destac ado</w> 644
Mar co</w> 644
tempor al</w> 644
é mi 643
encontr ado</w> 643
ren unci 643
dro gas</w> 643
3 1</w> 642
L on 642
ni z 642
propuest as,</w> 642
H ar 641
) )</w> 641
mi l</w> 641
red acción</w> 641
civi l,</w> 641
k ur 640
deci sión,</w> 640
soci o</w> 640
equi pos</w> 640
órgan o</w> 640
V amos</w> 639
acer tad 639
in certi 638
tar de.</w> 638
seguir án</w> 638
utili za</w> 637
comi siones</w> 637
¿ No</w> 636
co sta</w> 636
hab erse</w> 636
técni cos</w> 636
estad ísti 636
antigu os</w> 636
o cul 635
P SE 635
ar anc 635
cu ri 635
ust r 635
cambi ado</w> 635
utiliz ado</w> 635
s s 634
in vesti 634
Co operación</w> 634
import ancia.</w> 634
200 4,</w> 634
sab e,</w> 634
actu alidad,</w> 634
simpli ficar</w> 634
cuent a,</w> 634
capí tulo</w> 634
ent reg 633
res ,</w> 633
gan ado</w> 633
legisl ación.</w> 633
/9 7 633
reac cion 633
é pti 632
av a</w> 632
vo tos</w> 632
mer ecen</w> 632
comerci o,</w> 632
ell as.</w> 632
p adres</w> 631
re acción</w> 631
llev arse</w> 631
Irland a,</w> 631
sensi ble</w> 631
Monet arios</w> 631
emerg encia</w> 631
genéti camente</w> 631
deport e</w> 631
s :</w> 630
re mi 630
as í.</w> 630
inter ven 630
compromis o,</w> 630
Reglament o.</w> 630
M ad 629
f a 629
( Demócrat 629
person ales</w> 629
pregun tar</w> 629
bil idad,</w> 629
lec tura.</w> 629
auto máti 629
b at 628
C hech 628
di visión</w> 628
servi r</w> 628
intro du 628
desafí o</w> 628
Ob je 628
resultad o,</w> 628
200 5,</w> 627
desarroll ado</w> 627
vid a.</w> 627
medid a,</w> 627
lengu as</w> 627
v enta</w> 626
cul tiv 626
cont actos</w> 626
propuest as.</w> 626
vol ver 626
cu bre</w> 625
tr aduc 625
deb ía</w> 625
ir a</w> 625
negoci aciones.</w> 625
cam pos</w> 625
migr ación</w> 625
dro g 625
ron da</w> 625
c alific 624
o bra</w> 624
al ej 624
exi gen</w> 624
in mun 623
exi gi 623
Minist ro,</w> 623
ki ,</w> 623
demócrat as</w> 623
a prueba</w> 622
L a 622
uni rse</w> 622
miembro .</w> 622
Sch ul 622
territori os</w> 622
O C 621
pa pe 621
200 7,</w> 621
20 20</w> 621
presupuest o,</w> 621
conven cer</w> 621
comprob ar</w> 621
vein te</w> 621
o - 620
p as</w> 620
I )</w> 620
inform ado</w> 620
hi po 620
presupuest o.</w> 620
lec tura,</w> 620
/ AL 619
se l 619
recur so</w> 619
abord a</w> 619
plan o</w> 619
amenaz as</w> 619
ab uso</w> 618
ab sur 618
pro tocolo</w> 618
ten ían</w> 618
In ver 618
logr ados</w> 618
empe or 618
sem ej 618
mag n 618
o to 617
res erva</w> 617
Gru pos</w> 617
cab ez 617
propi et 617
tribun ales</w> 617
c ens 616
n aci 616
permi so</w> 616
ación ;</w> 616
Enton ces</w> 616
L í 615
en l 615
le y,</w> 615
parti da</w> 615
económi cos,</w> 615
cooper ar</w> 615
financier os,</w> 615
especí fico</w> 615
competi tiva</w> 615
fig ura</w> 615
g ,</w> 614
i ción</w> 614
d .</w> 614
trabaj adores.</w> 614
fuer an</w> 614
tom en</w> 614
crédi to</w> 614
Blan co</w> 614
p acto</w> 613
L amento</w> 613
ag encia</w> 613
minu tos</w> 613
Su r</w> 613
áti ca</w> 613
mutu o</w> 613
p á 612
D A 612
li fer 612
ámbi to,</w> 612
ani a.</w> 612
I sl 611
H on 611
pro v 611
produc e</w> 611
UE / 611
dirig ida</w> 611
discu ti 611
U )</w> 610
pe t 610
explic ación</w> 610
subsidiari edad</w> 610
Human os,</w> 610
aranc el 610
C risti 609
re mun 609
cri p 609
empr ender</w> 609
exteri or,</w> 609
dirig ido</w> 609
rur al</w> 609
aprendiz aje</w> 609
Señ oría</w> 607
aplic ando</w> 607
hon or</w> 607
elev ar</w> 607
inacept able.</w> 607
aband onar</w> 607
h ,</w> 606
v an 606
¿ Hay</w> 606
li st 606
indic ar</w> 606
ocasi on 606
accid ente</w> 606
Españ a,</w> 606
Par ece</w> 605
prepar ado</w> 605
dó lares</w> 605
- la</w> 604
  %</w> 604
docum ent 604
ev e</w> 603
atur a</w> 603
institucion ales</w> 603
moder nización</w> 603
o mi 602
2 9</w> 602
pl á 602
int entos</w> 602
negoci aciones,</w> 602
logr o</w> 602
dese os</w> 602
conserv ación</w> 602
sufr ido</w> 602
sector ,</w> 602
Copenha gu 602
cad ena</w> 602
remun er 602
v ast 601
I F 601
Presid entes</w> 601
aplic able</w> 601
servici os.</w> 601
conclu sión,</w> 601
infra estructur 601
afron tar</w> 601
patr imonio</w> 601
as o</w> 600
ac ción,</w> 600
ac ción.</w> 600
im posición</w> 600
ex ención</w> 600
ser ían</w> 600
import ación</w> 600
ir regular 600
hom en 600
desempeñ ado</w> 600
electri cidad</w> 600
nuev e</w> 599
part es.</w> 599
puer ta</w> 599
cuestion es,</w> 599
intent ando</w> 599
e los</w> 598
M ol 598
re ali 598
aliz ados</w> 598
trans form 598
vid a,</w> 598
K in 597
gi p 597
apoy an</w> 597
realiz ada</w> 597
coordin ar</w> 597
prohibi r</w> 597
a co 596
est arán</w> 596
efec tiva</w> 596
destin ado</w> 596
asun to,</w> 596
po s,</w> 595
de fi 595
puest as</w> 595
min oría</w> 595
200 2</w> 595
neg ativ 595
signific ativa</w> 595
edad es</w> 595
i ,</w> 594
in toler 594
in feri 594
com o,</w> 594
termin ar</w> 594
labor al.</w> 594
y n 593
E gip 593
B ur 593
om ía</w> 593
especi al,</w> 593
produc en</w> 593
asegur arse</w> 593
afec tadas</w> 593
jóven es,</w> 593
responsabil idad.</w> 593
comprome tido</w> 593
frances a</w> 593
recor tes</w> 593
m os 592
A R 592
al er 592
cu la</w> 592
pres os</w> 592
ing l 592
program a.</w> 592
celebr amos</w> 592
estructur al</w> 592
correc tamente</w> 592
Ver ts 592
rechaz ado</w> 592
Presu puestos</w> 592
Brusel as,</w> 592
Br asi 592
ejér cito</w> 592
ent idades</w> 591
pi lo 591
contr a 591
jurí dicos</w> 591
din ero.</w> 591
anz a.</w> 591
experi encias</w> 591
(H U)</w> 591
f arm 590
di ría</w> 590
vi éti 590
tragedi a</w> 590
Chech eni 590
f all 589
ú ne 589
com partir</w> 589
enci ales</w> 589
vi enen</w> 589
fuer t 589
incre ment 589
O LA 588
¿ Es</w> 588
des per 588
gu en</w> 588
lleg a</w> 588
materi ales</w> 588
conjun to,</w> 588
Austri a</w> 588
Verts /AL 588
a "</w> 587
financier a.</w> 587
mencion a</w> 587
mundi ales</w> 587
dé bi 587
conjun to.</w> 587
CO 2</w> 587
OTA N 587
va qui 587
indispens able</w> 587
P u</w> 586
T úne 586
des pu 586
ali vi 586
especí fi 586
altern ativos</w> 586
sociedad .</w> 586
o j 585
discur sos</w> 585
Igu al 585
Resul ta</w> 585
e -</w> 584
in v 584
con vir 584
Fin anci 584
Áfri ca,</w> 584
supl ement 584
b eb 583
des favoreci 583
pres cin 583
industri ales</w> 583
tot alidad</w> 583
construc tiva</w> 583
culp a</w> 583
plu ri 583
at ac 582
Copenha gue</w> 582
6 -0 581
Comis arios</w> 581
cal idad,</w> 581
estudi ar</w> 581
coch es</w> 581
desempeñ an</w> 580
nucle ar 580
aport ar</w> 580
sector .</w> 580
N unca</w> 579
w e 579
re alidad.</w> 579
pl acer</w> 579
comi té 579
celebr a</w> 579
armoniz ar</w> 579
i va</w> 578
k .</w> 578
G lob 578
7 0</w> 578
ti erra</w> 578
di eron</w> 578
ri cos</w> 578
ay er,</w> 578
val e</w> 578
anz a,</w> 578
discu tir</w> 578
/9 8 578
adqui r 578
Luxem burgo</w> 578
d os 577
or ador</w> 577
po s 577
part e.</w> 577
palesti nos</w> 577
adhesi ón.</w> 577
rec ep 576
vot aciones</w> 576
depend en</w> 576
detal le</w> 576
n °</w> 575
en za</w> 575
so port 575
person al,</w> 575
bas arse</w> 575
funcion a</w> 575
niñ os.</w> 575
eficaz ,</w> 575
Lí ban 575
llev e</w> 574
preocup ados</w> 574
mor al</w> 574
Res olución</w> 574
Rot h 574
(Demócrat a- 574
p ing</w> 573
n inguno</w> 573
hu bier 573
anim al</w> 573
estudi antes</w> 573
Seg un 573
Servi cio</w> 573
o gi 572
e ?</w> 572
t i</w> 572
ac ceder</w> 572
pu si 572
ver se</w> 572
respon der 572
económi cas,</w> 572
objetiv os,</w> 572
cier tamente,</w> 572
sub vencion 572
ani vers 572
Ambi ente</w> 572
combusti bles</w> 572
flo ta</w> 572
pen al</w> 571
dur o</w> 571
incorpor ación</w> 571
identi fic 571
IV A</w> 571
aboli ción</w> 571
3 00</w> 570
J un 570
pro lifer 570
desarrol lar 570
ir .</w> 570
inici o</w> 570
estric tas</w> 570
burg o.</w> 570
bási cas</w> 569
Pes ca</w> 569
m os.</w> 568
Co l 568
iz quierda</w> 568
200 5</w> 568
Po steri 568
celebr ada</w> 568
limi taciones</w> 568
us ar</w> 568
o d 567
/ CE</w> 567
tr ibu 567
dis puesto</w> 567
is mo.</w> 567
pudi era</w> 567
habit antes</w> 567
n a.</w> 566
g ur 566
d arnos</w> 566
O D 566
T im 566
X X 566
con sig 566
mejor .</w> 566
gesti on 566
bil idad.</w> 566
acab o</w> 566
buro cr 566
cuid ado</w> 566
l un 565
con fer 565
ún ,</w> 565
contrat ación</w> 565
Kosov o,</w> 565
des esper 564
presupuest arios</w> 564
esenci almente</w> 564
consul tas</w> 564
cientí fica</w> 564
viaj es</w> 564
compati ble</w> 564
t empr 563
3 0 563
in vers 563
per judic 563
esper anzas</w> 563
constitu ción</w> 563
desarroll ando</w> 563
felici tando</w> 563
priv ado</w> 563
elev ado</w> 563
. ,</w> 562
es forz 562
co decisión</w> 562
to me</w> 562
exist an</w> 562
conden ar</w> 562
audi tor 562
esc en 562
adver t 562
c rec 561
adqui si 561
Ar g 561
ha go</w> 560
au ton 560
egr o</w> 560
Per son 560
adel ant 560
estadounid en 560
figur an</w> 560
incentiv os</w> 560
entendi miento</w> 560
r ar 559
B on 559
em pi 559
hi cieron</w> 559
evid entemente,</w> 559
concentr ación</w> 559
enc ant 559
Dich o</w> 559
n ada.</w> 558
d é</w> 558
com uni 558
orm ente</w> 558
eni endo</w> 558
transport e.</w> 558
administr ativa</w> 558
e - 557
t es 557
h r 557
E duc 557
aci a,</w> 557
bi ll 557
adecu ada.</w> 557
Ver he 557
Económi co</w> 557
Europo l</w> 557
B ir 556
re alist 556
tant a</w> 556
rat s 556
199 8</w> 556
ejerci cio,</w> 556
ameri canos</w> 556
come tido</w> 556
re tro 555
apoy o,</w> 555
acep ta</w> 555
UE - 555
reli eve</w> 555
evid entemente</w> 555
Estras burgo</w> 555
Eslo vaqui 555
S oy</w> 554
G ro 554
B E 554
di fusión</w> 554
ser ,</w> 554
particular .</w> 554
hor as,</w> 554
equilibr ada</w> 554
ofici na</w> 554
eficaz mente</w> 554
pá gin 554
l a.</w> 553
se a,</w> 553
confi ar</w> 553
excep cion 553
Pre gun 553
repe tir</w> 553
Igual dad</w> 553
n oci 552
al la</w> 552
fi l 552
pl ur 552
fin al.</w> 552
car r 552
Si empre</w> 552
permiti ría</w> 552
rur ales</w> 552
noti cias</w> 552
OMC ,</w> 552
escue las</w> 552
S w 551
C ier 551
B 5-0 551
es co 551
so m 551
pon erse</w> 551
trat e</w> 551
legisl ación,</w> 551
mejor ado</w> 551
mism a,</w> 551
Pi enso</w> 551
Fundament ales</w> 551
d ados</w> 550
R ed 550
7 .</w> 550
ci o.</w> 550
tiv o.</w> 550
fin almente,</w> 550
Cu ar 550
Cu alqui 550
absolu ta</w> 550
diputad os.</w> 550
b ac 549
É st 549
al ?</w> 549
al ar 549
li bre 549
ll en 549
refer encias</w> 549
pun tos.</w> 549
españ ola</w> 549
homen aje</w> 549
si em 548
le er</w> 548
ari z 548
ap un 548
propor ción</w> 548
refer ente</w> 548
seman as,</w> 548
bien es</w> 548
proces o,</w> 548
estratégi co</w> 548
respal do</w> 548
pérd idas</w> 548
Portug al,</w> 548
isl ámi 548
convier ta</w> 548
m óvi 547
s í,</w> 547
R eci 547
int enciones</w> 547
comi sión,</w> 547
flexi ble</w> 547
ambici oso</w> 547
c amente.</w> 546
r me</w> 546
al ter 546
el .</w> 546
for o</w> 546
solici tu 546
míni mas</w> 546
¿Cuá l</w> 546
es lo 545
ex posición</w> 545
nuev o.</w> 545
eleg idos</w> 545
inqui e 545
E vid 544
ob ten 544
mar gin 544
gener almente</w> 544
ocup ación</w> 544
respe tu 544
británi co</w> 544
pedir le</w> 544
re ún 543
ev olu 543
tri bunal</w> 543
Pro di</w> 543
irland és</w> 543
norte american 543
refuerz o</w> 543
objetiv o,</w> 542
consider ables</w> 542
caus ados</w> 542
prést amos</w> 542
categor ías</w> 542
mi siones</w> 541
posi tivas</w> 541
car gas</w> 541
c á 540
vi aje</w> 540
Es as</w> 540
defen s 540
conver ti 540
franc és</w> 540
geográ fic 540
reem bol 540
Ky o 540
1 /200 539
ex pul 539
fin landes 539
200 1</w> 539
otro s.</w> 539
consolid ar</w> 539
resum en,</w> 539
P A 538
cum pla</w> 538
sent encia</w> 538
manteni endo</w> 538
reflexi ón</w> 538
env ej 538
Obvi amente,</w> 538
a t</w> 537
v ál 537
continu a</w> 537
candid ato</w> 537
combin ación</w> 537
resist encia</w> 537
t aria</w> 536
á s.</w> 536
x en 536
K ar 536
pro hí 536
ori a</w> 536
introduci do</w> 536
resi de</w> 536
Du b 536
d rá 535
2 5 535
ent es:</w> 535
id ar 535
ac éuti 535
compet entes</w> 535
econom ía,</w> 535
transfronteriz a</w> 535
corregi r</w> 535
P eti 534
A grad 534
I N 534
Con cili 534
aplic ables</w> 534
cab o,</w> 534
integr ar</w> 534
of o 534
Fr on 534
renov ables</w> 534
Algun as</w> 534
rest aur 534
E A 533
T eniendo</w> 533
ci tar</w> 533
vi abilidad</w> 533
pa quet 533
posi blemente</w> 533
pregun tas.</w> 533
fundament al.</w> 533
verdad eros</w> 533
encamin adas</w> 533
éxit o,</w> 533
b and 532
G UE/ 532
4 0 532
al o</w> 532
at a</w> 532
preci sa</w> 532
exist ente</w> 532
ileg ales</w> 532
lle gue</w> 532
n ada,</w> 531
signific ado</w> 531
encu entro</w> 531
excep ciones</w> 531
ci c 530
acep tación</w> 530
prepar ando</w> 530
energéti ca,</w> 530
pun to.</w> 530
exten der</w> 530
farm acéuti 530
ch e 529
err adic 529
Es co 529
efic ac 529
abord ado</w> 529
visi ón,</w> 529
m ,</w> 528
r establecer</w> 528
O I 528
¿ Puede</w> 528
ju g 528
don os</w> 528
senci llam 528
m a.</w> 527
i cid 527
ó x 527
ar bi 527
tiv o,</w> 527
objetiv os.</w> 527
bas an</w> 527
oportun o</w> 527
Direc tiva.</w> 527
14 2)</w> 527
conduc tores</w> 527
diver si 527
e la</w> 526
I .</w> 526
particip en</w> 526
financier os.</w> 526
exteri or.</w> 526
loc ales,</w> 526
movi mientos</w> 526
áti cos</w> 526
conce b 526
británi cos</w> 526
Sol idar 526
abst en 526
indem nización</w> 526
atenci ón.</w> 526
t he</w> 525
R ecu 525
re di 525
tr adu 525
tant os</w> 525
recha za</w> 525
civi l.</w> 525
adhesi ón,</w> 525
pur amente</w> 525
m ente,</w> 524
f am 524
G i 524
N adie</w> 524
B ol 524
in oc 524
cu anti 524
fin anzas</w> 524
sen s 524
herrami entas</w> 524
re vist 523
cor re 523
constitu cion 523
eni o</w> 523
provoc ar</w> 523
estabi lización</w> 523
r as 522
an n 522
in fec 522
refi ri 522
minu ci 522
sustanci al</w> 522
adr e</w> 522
repercu sión</w> 522
reflexi onar</w> 522
nombr amiento</w> 522
instanci a,</w> 522
R um 521
N G 521
  000</w> 521
an d</w> 521
vo lución</w> 521
man ej 521
Qu e</w> 521
cer e 521
razon es,</w> 521
comenz ado</w> 521
regres ar</w> 521
S ist 520
N acional</w> 520
de vast 520
des vi 520
ver ti 520
sal vo</w> 520
sec tori 520
organiz ado</w> 520
difíci l.</w> 520
cuo ta</w> 520
Kin noc 520
c é 519
a fi 519
W at 519
Est atuto</w> 519
anci as</w> 519
distin to</w> 519
continú a</w> 519
sust ancia</w> 519
Maced onia</w> 519
n e,</w> 518
i ba</w> 518
si ent 518
expres a</w> 518
particip antes</w> 518
recur rir</w> 518
super fici 518
region al,</w> 518
enfrent arse</w> 518
ON U</w> 518
identi ficar</w> 518
pertin entes</w> 518
Afgan istán</w> 518
olog ía</w> 518
Iz quierda</w> 518
magn í 518
anivers ario</w> 518
políti camente</w> 517
constitu cional</w> 517
atr ás</w> 517
ocasi ones,</w> 517
aero puertos</w> 517
lech e</w> 517
tránsi to</w> 517
a penas</w> 516
bas adas</w> 516
atr a 516
/9 6 516
mag ni 516
bos ques</w> 516
t ante</w> 515
S ,</w> 515
co ti 515
tant as</w> 515
comunit aria.</w> 515
propon go</w> 515
ecer á</w> 515
Ad ministr 515
ahorr o</w> 515
OMC .</w> 515
estadounidens es</w> 515
B ö 514
re cuerdo</w> 514
deb id 514
ten ,</w> 514
miend a</w> 514
ez can</w> 514
observ ar</w> 514
acord ado</w> 514
Pol onia,</w> 514
ofer ta</w> 514
h id 513
C entro</w> 513
é l,</w> 513
pes ca,</w> 513
inici ado</w> 513
presi ones</w> 513
bási co</w> 513
ocurr ido</w> 513
tab a 513
hos pi 513
neu tr 513
desigual dades</w> 513
Posteri ormente,</w> 513
g eri 512
d ría</w> 512
as -</w> 512
fi que</w> 512
integr al</w> 512
compromi so.</w> 512
dificul tad</w> 512
o jos</w> 511
G ol 511
é li 511
di g 511
200 3,</w> 511
ag a</w> 511
tam año</w> 511
Chin a.</w> 511
del ante</w> 511
pesquer as</w> 511
rapid ez</w> 511
M .</w> 510
í o</w> 510
é sti 510
lar es.</w> 510
dis poner</w> 510
bar cos</w> 510
ho gar 510
vis ado</w> 510
favor ablemente</w> 510
rique za</w> 510
c k 509
i k 509
S A 509
ó .</w> 509
ad or.</w> 509
bi ológi 509
to log 509
pi ed 509
Si ri 509
col oc 509
distin ción</w> 509
Apo y 509
r e</w> 508
d or 508
dis pone</w> 508
centr a</w> 508
din ero,</w> 508
pobl ación,</w> 508
administr ativos</w> 508
subray ado</w> 508
cláusu las</w> 508
Her z 508
juris dic 508
GUE/ NG 508
pre texto</w> 507
mu sul 507
ir an 507
program a,</w> 507
miembro s 507
protec cion 507
Deb ido</w> 507
adopt ando</w> 507
explot aciones</w> 507
a un</w> 506
s mo,</w> 506
3 5</w> 506
R ,</w> 506
pre vistas</w> 506
deci siones.</w> 506
au tor</w> 506
quer ido</w> 506
centr arse</w> 506
gran de</w> 506
Exist e</w> 506
id as.</w> 505
inter nos</w> 505
aum enta</w> 505
mí ,</w> 505
pobl ación.</w> 505
Fe lici 505
ar á,</w> 504
200 2,</w> 504
creci miento,</w> 504
sost en 504
seman a,</w> 504
famili ar</w> 504
busc ando</w> 504
Barcelon a</w> 504
hubier an</w> 504
re p 503
ab ast 503
inter no</w> 503
gan ar</w> 503
To da</w> 503
explic aciones</w> 503
pat ente</w> 503
sustitu ir</w> 503
resultad os.</w> 503
arbi tr 503
K )</w> 502
fin alidad</w> 502
asi lo,</w> 502
concre ta</w> 502
glob al.</w> 502
tras lad 502
- no</w> 501
an des 501
li stas</w> 501
preci pi 501
justi cia,</w> 501
modific ados</w> 501
recuper ar</w> 501
pací fic 501
doc e</w> 501
á fri 500
re patri 500
per der 500
posi ción.</w> 500
neg ativa</w> 500
qued an</w> 500
Pro di,</w> 500
reglament ación</w> 500
Amsterdam ,</w> 500
asesor amiento</w> 500
es con 499
tar on</w> 499
To das</w> 499
innov ación,</w> 499
rit mo</w> 499
derech os,</w> 499
Palesti na</w> 499
anex o</w> 499
opti mi 499
promes as</w> 499
sal ido</w> 498
estableci ó</w> 498
observ adores</w> 498
201 0,</w> 498
compren sión</w> 498
vay an</w> 498
irlandes a</w> 498
risti an</w> 498
Actu almente</w> 498
Som os</w> 498
ar d</w> 497
per sist 497
le y.</w> 497
otr a,</w> 497
prim as</w> 497
capi tal 497
demasi adas</w> 497
vot ación,</w> 497
envi ado</w> 497
vulner ables</w> 497
Eslo ven 497
Quiz á</w> 497
on .</w> 496
man era,</w> 496
constitu y 496
integr idad</w> 496
cualqui era</w> 496
nucle ar.</w> 496
Interi or,</w> 496
combusti ble</w> 496
existi r</w> 496
At lánti 496
( L 495
ad ul 495
Est ado,</w> 495
Des eo</w> 495
én do 495
utiliz ados</w> 495
anteri or,</w> 495
sociedad ,</w> 495
(S K)</w> 495
segui remos</w> 495
Ad ap 495
Cristi anos)</w> 495
prescin di 495
res u 494
gr ati 494
logr os</w> 494
agu a,</w> 494
ocupar se</w> 494
suje tos</w> 494
dom ésti 494
n er</w> 493
R ec 493
in a,</w> 493
ro s,</w> 493
pro puso</w> 493
Est ocol 493
tro pas</w> 493
proporcion ado</w> 493
ofici ales</w> 493
dirig entes</w> 493
otro .</w> 493
posteri or</w> 493
comprend ido</w> 493
Energ ía,</w> 493
allí .</w> 493
é s 492
inter institucional</w> 492
vo n</w> 492
au str 492
enmiend a,</w> 492
ne er 492
difer ente.</w> 492
felici taciones</w> 492
oz co</w> 492
d umbre</w> 491
id as,</w> 491
car g 491
ayud a,</w> 491
gener ales,</w> 491
realiz adas</w> 491
ries g 491
peligr os</w> 491
fáci lmente</w> 491
bri ca</w> 491
Europe a 490
respon de</w> 490
produc ción,</w> 490
empres arios</w> 490
ind ud 490
comi tolog 490
record arle</w> 490
estric tamente</w> 490
priv ados</w> 490
mism a.</w> 490
Ob serv 490
quin to</w> 490
Sud áfri 490
sí m 490
Georgi a</w> 490
periodist as</w> 490
C ,</w> 489
ci erre</w> 489
id ez</w> 489
at o,</w> 489
pon gan</w> 489
199 6</w> 489
benefici arse</w> 489
compl em 489
bási camente</w> 489
some ter 489
conveni ente</w> 489
bill ones</w> 489
c lam 488
de tec 488
neg ativo</w> 488
contribu irá</w> 488
anc e</w> 488
diri gir</w> 488
Kosov o.</w> 488
conexi ón</w> 488
cons agr 487
territori al</w> 487
carreter as</w> 487
auténti ca</w> 487
Pod ría</w> 487
Adap tación</w> 487
B CE</w> 486
en um 486
lar es,</w> 486
uni form 486
part es,</w> 486
pens ando</w> 486
justi ficar</w> 486
administr ativas</w> 486
conoci do</w> 486
respuest a,</w> 486
correspondi ente</w> 486
Actu almente,</w> 486
Institu to</w> 486
Pr ó 486
almacen amiento</w> 486
Zimb ab 486
em bre.</w> 485
des centr 485
ud ,</w> 485
apoy en</w> 485
trans posición</w> 485
ag ost 485
oblig ado</w> 485
So lo</w> 485
inmedi ato</w> 485
luch ando</w> 485
caracter iz 485
sufri endo</w> 485
A b 484
ro de 484
est aremos</w> 484
at re 484
ón ;</w> 484
min as</w> 484
infr acción</w> 484
reform ar</w> 484
pol ac 484
Pró xim 484
S E</w> 483
¿ Qui 483
un cia</w> 483
di ca</w> 483
pa gar 483
car á</w> 483
prim av 483
públi cos,</w> 483
fí o</w> 483
obst acu 483
R econ 482
J oh 482
cri men</w> 482
tori a</w> 482
técni co</w> 482
experiment ado</w> 482
V oy</w> 481
im prescindi 481
hab ilidad</w> 481
ayud a.</w> 481
Ver des 481
cuent a.</w> 481
gri eg 481
aleman a</w> 481
Trabaj o</w> 481
Pen al</w> 481
M esa</w> 480
di stanci 480
at e</w> 480
fundament almente</w> 480
cep ti 480
Cá uc 480
vig ente</w> 480
construc tivo</w> 480
destin ada</w> 480
úti les</w> 480
esc ánd 480
abu sos</w> 480
deriv ados</w> 480
/CE E</w> 480
drá sti 480
1 , 479
re alista</w> 479
Es peci 479
recur sos.</w> 479
difíci l,</w> 479
deten idos</w> 479
9 /200 478
des empleo,</w> 478
car gos</w> 478
Re almente</w> 478
defini tiva</w> 478
(C S)</w> 478
vec es,</w> 478
Gu erra</w> 478
frances es</w> 478
perten ecen</w> 478
azú car</w> 478
a isl 477
br in 477
firm ar</w> 477
encuentr en</w> 477
viaj ar</w> 477
h all 476
P N 476
1 . 476
per pe 476
pr ag 476
pre ver</w> 476
int encion 476
asi s</w> 476
raci smo</w> 476
óx ido</w> 476
Sist ema</w> 476
mi entos,</w> 475
pregun t 475
ampli as</w> 475
fe li 475
vel ar</w> 475
El lo</w> 475
detr im 475
B rit 474
fic aciones</w> 474
200 1,</w> 474
reci cl 474
negoci os</w> 474
consumid or,</w> 474
hor as)</w> 474
positiv amente</w> 474
comenz ó</w> 474
conced ido</w> 474
tomar se</w> 474
Hungr ía</w> 474
si mul 473
deci sivo</w> 473
én f 473
oso s,</w> 473
Parlament aria</w> 473
Finlan dia</w> 473
M or 472
V o 472
est able</w> 472
tiv as,</w> 472
posi ción,</w> 472
200 8,</w> 472
tan gi 472
desmant e 472
M at 471
cul tivos</w> 471
man tienen</w> 471
tar d 471
qued ar</w> 471
lec ciones</w> 471
(C h 471
adel ante.</w> 471
prev entiv 471
pobrez a.</w> 471
entusi as 471
aci a.</w> 470
ru ta</w> 470
esi a</w> 470
lleg an</w> 470
sub y 470
plante an</w> 470
exig encia</w> 470
quin ce</w> 470
dipl om 470
éri cas</w> 470
vein ti 470
Bosni a</w> 470
cé lu 470
b as</w> 469
2 7 469
co la</w> 469
ambi ción</w> 469
In gl 469
principi o.</w> 469
respe ten</w> 469
Direc tiva,</w> 469
oni a.</w> 469
peligro sas</w> 469
Ciudad anos,</w> 469
h á 468
R espec 468
pod ía</w> 468
ca í 468
resul tan</w> 468
compe tir</w> 468
admi tir</w> 468
retras os</w> 468
an a.</w> 467
cul tivo</w> 467
bási ca</w> 467
ín dole</w> 467
dedic ado</w> 467
Democ rats 467
(Ch ristian</w> 467
u bi 466
2 3 466
C 5-0 466
T end 466
inter cambios</w> 466
financi ación.</w> 466
ministr o</w> 466
(F I)</w> 466
posteri ormente</w> 466
estánd ares</w> 466
Zimbab w 466
Respec to</w> 466
P ,</w> 465
0 , 465
ex ced 465
cor aje</w> 465
direc ción.</w> 465
comun es,</w> 465
anim ales.</w> 465
Pri mer 465
medid as.</w> 465
sir ve</w> 465
al es:</w> 464
con seguir 464
con firma</w> 464
pre vista</w> 464
trans curso</w> 464
integr ado</w> 464
benefici arios</w> 464
comunic ación.</w> 464
energéti ca.</w> 464
incre í 464
manifest aciones</w> 464
desapar eci 464
pesqu ero</w> 464
ferrovi ario</w> 464
compens ación</w> 464
pet rol 464
ti ni 463
br os</w> 463
im per 463
form ación,</w> 463
ten íamos</w> 463
ag on 463
hi jos</w> 463
prepar ativos</w> 463
recib an</w> 463
comprome ter 463
Nor te,</w> 463
jui cio,</w> 463
univers al</w> 463
edifici os</w> 463
suer te</w> 463
M o 462
est emos</w> 462
fi co,</w> 462
gres o</w> 462
suger encias</w> 462
2007 -201 462
PPE- DE.</w> 462
n ación</w> 461
d añ 461
res al 461
tr adicionales</w> 461
im pide</w> 461
clar os</w> 461
equi vo 461
contribu yen</w> 461
dej ando</w> 461
acus aciones</w> 461
cuán do</w> 461
Brusel as.</w> 461
Exist en</w> 461
juev es</w> 461
o pone</w> 460
pre c 460
gener ar</w> 460
solu cionar</w> 460
An d 460
renov ación</w> 460
vac un 460
oí r</w> 460
idiom a</w> 460
carbon o</w> 460
estimu lar</w> 460
Evid entemente,</w> 460
Ingl at 460
S h 459
vi mos</w> 459
su ces 459
el or 459
norm almente</w> 459
án do 459
estableci das</w> 459
mode los</w> 459
obstá culo</w> 459
tuvi mos</w> 459
su presión</w> 458
ist án.</w> 458
car se</w> 458
cab eza</w> 458
expres adas</w> 458
199 8,</w> 458
signific ativamente</w> 458
demasi ada</w> 458
vot amos</w> 458
crimin ales</w> 458
discu tiendo</w> 458
separ ación</w> 458
cometi dos</w> 458
Irá n,</w> 458
cán cer</w> 458
Ést e</w> 458
E ri 457
li qu 457
des p 457
cal idad.</w> 457
region es,</w> 457
extre ma</w> 457
resuel to</w> 457
empresari al</w> 457
mantener se</w> 457
t ó 456
u p 456
in o,</w> 456
con fusión</w> 456
ur o</w> 456
Baj os,</w> 456
iniciativ a,</w> 456
Tam per 456
abil idad,</w> 456
a pi 455
M ed 455
d atos,</w> 455
com posición</w> 455
tiv amente,</w> 455
el ogi 455
Con federal</w> 455
der ro 455
person al.</w> 455
199 7</w> 455
comple jo</w> 455
movi lización</w> 455
solidar idad,</w> 455
derech o,</w> 455
G ,</w> 454
B la 454
per d 454
to ?</w> 454
opini ón.</w> 454
difer entes.</w> 454
desarroll ados</w> 454
Direc ción</w> 454
sur gi 454
detall ada</w> 454
minist eri 454
Gali le 454
ar lo,</w> 453
di vi 453
im plant 453
ju gu 453
zon a.</w> 453
recur sos,</w> 453
guerr a,</w> 453
dum ping</w> 453
arti fici 453
brec ha</w> 453
magni tud</w> 453
5 0 452
est atu 452
di ga</w> 452
ac h 452
des ech 452
deci siones,</w> 452
mer idi 452
200 9.</w> 452
raz ón.</w> 452
Des graci 452
proced ente</w> 452
vincul ante</w> 452
A ño</w> 451
ú t 451
cu ando,</w> 451
constitu ir</w> 451
mé dicos</w> 451
transpar encia.</w> 451
cultur al,</w> 451
acab amos</w> 451
Nuestr os</w> 451
sanit arios</w> 451
alegr a</w> 451
r id 450
M éxi 450
em o 450
par lamento</w> 450
tiv as.</w> 450
pl ata 450
ju bil 450
oper an</w> 450
energéti cos</w> 450
estric ta</w> 450
ajust e</w> 450
Dinamar ca</w> 450
d arles</w> 449
2 /200 449
B al 449
re mo 449
organiz ada</w> 449
continu idad</w> 449
excel entes</w> 449
lengu a</w> 449
masi va</w> 449
k il 448
E L 448
H ay 448
en - 448
in ti 448
al es;</w> 448
per ci 448
cre er</w> 448
der rum 448
soci alistas</w> 448
favor ecer</w> 448
roman íes</w> 448
Bir mani 448
énf asis</w> 448
f ór 447
em bri 447
sec und 447
agr av 447
liber al</w> 447
realiz ado.</w> 447
expres amente</w> 447
solu ción.</w> 447
honor ables</w> 447
- el</w> 446
H am 446
9 0</w> 446
ci encia</w> 446
ar ra 446
co di 446
pre fi 446
rec ti 446
end as</w> 446
pec es</w> 446
mant end 446
ell as,</w> 446
administr aciones</w> 446
primer o,</w> 446
Mediterráne o,</w> 446
pací fica</w> 446
incerti dumbre</w> 446
Mol do 446
auton omía</w> 446
á sti 445
E sos</w> 445
L et 445
or g 445
est ábamos</w> 445
al it 445
aj o</w> 445
mo tor</w> 445
fr ag 445
men ud 445
anti cip 445
respe tando</w> 445
difer enci 445
Cu ent 445
dici embre,</w> 445
estructur ales,</w> 445
econom ía.</w> 445
presi onar</w> 445
aliment ación</w> 445
británi ca</w> 445
convenci dos</w> 445
reconcili ación</w> 445
c ami 444
i s,</w> 444
A cuer 444
en o,</w> 444
est án 444
bi a.</w> 444
clar o,</w> 444
alem án</w> 444
convic ción</w> 444
dos si 444
detrim ento</w> 444
C F 443
eg ov 443
hi j 443
201 0.</w> 443
priv adas</w> 443
propon en</w> 443
positiv o.</w> 443
tele comunicaciones</w> 443
Jap ón</w> 443
feli z</w> 443
n er,</w> 442
d ' 442
tur co</w> 442
ord en.</w> 442
ch ,</w> 442
et es</w> 442
emi sión</w> 442
favor ece</w> 442
conserv ar</w> 442
septiem bre,</w> 442
prud encia</w> 442
propiet arios</w> 442
cic lo</w> 442
sím bo 442
1 / 441
bas ados</w> 441
fav or.</w> 441
mat ern 441
control .</w> 441
debati mos</w> 441
hol andes 441
t esi 440
g as 440
2 4 440
E S 440
N I 440
se amos</w> 440
hab er 440
negoci o</w> 440
dej e</w> 440
examin ado</w> 440
responsabil idad,</w> 440
adap tarse</w> 440
uste des,</w> 440
Agrad ezco</w> 440
Herz egov 440
o u</w> 439
al a 439
Comun idades</w> 439
también .</w> 439
obligatori a</w> 439
restr in 439
aj e,</w> 438
preocup an</w> 438
limi tar 438
inst o</w> 438
fisc alidad</w> 438
nucle ar,</w> 438
aument ando</w> 438
demand as</w> 438
Verdes / 438
de grad 437
tr az 437
li min 437
ex cu 437
sal ari 437
verdad eras</w> 437
inmigr ación,</w> 437
inst ar</w> 437
transmi tir</w> 437
extraordin ariamente</w> 437
comprensi ble</w> 437
in ta</w> 436
fr ase</w> 436
sig no</w> 436
realiz a</w> 436
ést os</w> 436
Cor te</w> 436
juni o,</w> 436
jurídic a,</w> 436
senti miento</w> 436
6 /200 435
an o.</w> 435
import ancia,</w> 435
financi ación,</w> 435
program ación</w> 435
cer can 435
pens amos</w> 435
ren dir</w> 435
grav edad</w> 435
cultur a,</w> 435
incorpor ar</w> 435
2020 ,</w> 435
C e 434
H ol 434
pre .</w> 434
declar ar</w> 434
conclu ye</w> 434
Unid o.</w> 434
sus pend 434
jui ci 434
estat ales</w> 434
t os:</w> 433
N S 433
Á r 433
ent emente.</w> 433
di mos</w> 433
mencion ó</w> 433
indic ado</w> 433
individu os</w> 433
marz o,</w> 433
Pal aci 433
mem or 433
(Demócrata- Cristianos)</w> 433
ó ti 432
ter in 432
pl agu 432
norm al</w> 432
famili ares</w> 432
(C OD 432
satisf echo</w> 432
asesin ato</w> 432
anteriorm ente,</w> 432
umbr al</w> 432
Hel sin 432
J ac 431
es s</w> 431
ob tenido</w> 431
deci siva</w> 431
der ,</w> 431
dem or 431
uni forme</w> 431
200 6.</w> 431
actu ando</w> 431
comun es.</w> 431
llev ó</w> 431
respe te</w> 431
financier as,</w> 431
migr atori 431
avi ones</w> 431
ileg al,</w> 431
Regi onal,</w> 431
sugi ere</w> 431
prolifer ación</w> 431
GUE/NG L 431
b asta</w> 430
V ol 430
or di 430
sus cri 430
elev ados</w> 430
aére as</w> 430
pat entes</w> 430
argu ment 430
ambici osos</w> 430
asisti r</w> 430
despu és,</w> 430
musul man 430
célu las</w> 430
po bres,</w> 429
con mi 429
av es</w> 429
pers ecu 429
discu sión</w> 429
mir ar</w> 429
afirm ación</w> 429
sor prende</w> 429
Plen o</w> 429
o f</w> 428
t - 428
t os 428
en k 428
un idades</w> 428
de fec 428
mar avi 428
trans formación</w> 428
pas aport 428
liber ales</w> 428
civi liz 428
anteri ores,</w> 428
Asi mismo</w> 428
inspec ciones</w> 428
verg ü 428
ex pan 427
vo tantes</w> 427
sab ido</w> 427
respon dido</w> 427
gan ad 427
algun o</w> 427
tex to.</w> 427
Áfri ca.</w> 427
austr í 427
c emos</w> 426
2 / 426
V el 426
identi ficación</w> 426
dinámi ca</w> 426
tarif as</w> 426
kil ó 426
N iz 425
es a,</w> 425
iz quier 425
ativ o,</w> 425
mar c 425
tend encias</w> 425
human a.</w> 425
cr ímenes</w> 425
represent ar</w> 425
part en</w> 425
terror ista</w> 425
limi tación</w> 425
radi o 425
iniciativ a.</w> 425
reduc ciones</w> 425
piens an</w> 425
a un 424
á gi 424
A h 424
Y or 424
di ré</w> 424
con tienen</w> 424
resid encia</w> 424
fic ación,</w> 424
ativ a.</w> 424
comunit aria,</w> 424
199 5</w> 424
sensi bles</w> 424
idiom as</w> 424
gradu al</w> 424
alimenti cios</w> 424
naveg ación</w> 424
Bol k 424
en ví 423
mi ér 423
mi entos.</w> 423
con gel 423
des car 423
inform es,</w> 423
car ece</w> 423
direc tos</w> 423
norm as,</w> 423
úni co,</w> 423
Des e 423
justi cia.</w> 423
ier on</w> 423
pudi eran</w> 423
estat al</w> 423
Austri a,</w> 423
israel íes</w> 423
secu estr 423
están dar</w> 423
plagu icid 423
d as,</w> 422
G M 422
3 )</w> 422
aplic ación.</w> 422
particip a</w> 422
cost os</w> 422
desgraci a</w> 422
vuel va</w> 422
adap tar</w> 422
Isra el,</w> 422
Có digo</w> 422
maríti mo</w> 422
ovi su 422
Inst o</w> 422
incendi os</w> 422
há bi 422
C at 421
er án</w> 421
vi ern 421
gr e</w> 421
funcion ar</w> 421
democráti co.</w> 421
disponi bilidad</w> 421
históri co</w> 421
profun do</w> 421
jun tos,</w> 421
tradi ción</w> 421
supri mir</w> 421
S .</w> 420
est ando</w> 420
al ban 420
enti miento</w> 420
compañ ía</w> 420
Ver des</w> 420
sesi ón,</w> 420
Feder ación</w> 420
unáni me</w> 420
f út 419
un ida</w> 419
si tú 419
di a.</w> 419
pi rat 419
preocup ante</w> 419
llam a</w> 419
candid atos.</w> 419
regres o</w> 419
i a.</w> 418
199 6,</w> 418
gesti onar</w> 418
aliment aria,</w> 418
Alb ania</w> 418
fór mu 418
en ri 417
am o</w> 417
pro clam 417
ver ,</w> 417
prim ordi 417
defini tiva,</w> 417
inspec ción</w> 417
2020 .</w> 417
rid í 417
n at 416
h aría</w> 416
F i 416
D im 416
ver á</w> 416
aqu í 416
fundament al,</w> 416
don antes</w> 416
emi ti 416
ambient ales</w> 416
region al.</w> 416
adh er 416
glob al,</w> 416
obli ga</w> 416
lej os.</w> 416
cohesi ón,</w> 416
rendi miento</w> 416
ci dad,</w> 415
Europe a?</w> 415
Presid encia.</w> 415
sec ción</w> 415
satisfac e</w> 415
ofici nas</w> 415
obligatori o</w> 415
auténti co</w> 415
prolon g 415
c end 414
h echa</w> 414
N o,</w> 414
4 00</w> 414
in e</w> 414
po s.</w> 414
com et 414
Est ados,</w> 414
estr e</w> 414
rec al 414
mar ch 414
segur amente</w> 414
du plic 414
llev ará</w> 414
atenci ón,</w> 414
excesiv amente</w> 414
A parte</w> 413
deb a</w> 413
Parlam entos</w> 413
uti lidad</w> 413
adel ante,</w> 413
vivi endo</w> 413
respal dar</w> 413
vín culo</w> 413
Fl or 413
provision al</w> 413
cár cel 413
Civi les,</w> 413
Sw ob 413
sencillam ente</w> 413
f em 412
res cat 412
at o.</w> 412
mar co,</w> 412
nom bres</w> 412
exist entes.</w> 412
mejor ,</w> 412
funcion e</w> 412
oso s.</w> 412
audi ovisu 412
votar emos</w> 412
subsidiari edad.</w> 412
tierr as</w> 412
M os 411
é poca</w> 411
K i 411
É sta</w> 411
al tas</w> 411
au tores</w> 411
actu ado</w> 411
loc ales.</w> 411
só lid 411
produ zca</w> 411
cali ficación</w> 411
Turis mo,</w> 411
veloci dad</w> 411
an gu 410
mi ent 410
ec a,</w> 410
di co</w> 410
bi om 410
Con greso</w> 410
present an</w> 410
centr arnos</w> 410
nú cle 410
esenci al.</w> 410
escu el 410
vig entes</w> 410
dé cada</w> 410
Ju vent 410
correspon den</w> 410
tex to,</w> 410
mism os.</w> 410
bel ga</w> 410
social demócratas</w> 410
qu err 409
pr esta</w> 409
cuer po</w> 409
institucion al.</w> 409
control ,</w> 409
Com par 409
reduci endo</w> 409
peligro so</w> 409
derech os.</w> 409
suger encia</w> 409
compr ar</w> 409
efectiv amente,</w> 409
Obje tivo</w> 409
N iza</w> 408
er b 408
re du 408
si go</w> 408
con ec 408
os as.</w> 408
des em 408
ami go</w> 408
ag n 408
199 7,</w> 408
sim b 408
gen oci 408
inf lación</w> 408
medic ament 408
intern as</w> 408
catástro fes</w> 408
Fu e</w> 408
desmante lamiento</w> 408
- .</w> 407
al ine 407
os as,</w> 407
im pone</w> 407
ev entos</w> 407
av es 407
et ter 407
condi ciones,</w> 407
qued arse</w> 407
Po etter 407
alist a,</w> 407
solidar idad.</w> 407
ON U 407
religi ón</w> 407
cí r 407
enri qu 407
m ención</w> 406
r ú 406
f á 406
er gi 406
decir les</w> 406
integr ada</w> 406
limi tad 406
formul ado</w> 406
mens ajes</w> 406
anunci ado</w> 406
not able</w> 406
Iraq ,</w> 406
inmun idad</w> 406
O tra</w> 405
K on 405
form u 405
habl an</w> 405
compet ente</w> 405
fal lo</w> 405
cultur as</w> 405
obvi o</w> 405
inund aciones</w> 405
discipl ina</w> 405
m últi 404
d ías.</w> 404
min i 404
it or 404
verdad ,</w> 404
moned as</w> 404
PSE .</w> 404
st as,</w> 403
import a</w> 403
fr aud 403
tar ,</w> 403
199 9.</w> 403
llam adas</w> 403
estableci endo</w> 403
ár ab 403
ide ológi 403
asign ado</w> 403
invi er 403
agrícol a,</w> 403
encarg ados</w> 403
preserv ar</w> 403
g ü 402
trat arse</w> 402
lugar .</w> 402
gener aciones</w> 402
hi pó 402
palabr a,</w> 402
consumid or.</w> 402
cal cul 402
visi ón.</w> 402
Mon ten 402
electróni co</w> 402
enseñ anza</w> 402
Desgraci adamente,</w> 402
8 /200 401
R .</w> 401
F rat 401
deci mos</w> 401
terri bles</w> 401
fij ación</w> 401
Mi s</w> 401
aliment os,</w> 401
individu al</w> 401
impl ement 401
cristi anos</w> 401
cubier to</w> 401
Pak istán</w> 401
tarje ta</w> 401
defens ores</w> 401
N e 400
co - 400
financier o,</w> 400
ez ,</w> 400
dist ancia</w> 400
Constitu cion 400
retir ar</w> 400
Le h 400
salv ar</w> 400
natural ez 400
Gu in 400
Hab iendo</w> 400
empez ando</w> 400
excesi va</w> 400
o –</w> 399
E j 399
) 0 399
as s 399
des emple 399
involucr ados</w> 399
repi to</w> 399
tán e 399
noci v 399
xen ofo 399
Administr ación</w> 399
S an</w> 398
ó sti 398
3 /200 398
produc tos.</w> 398
financier as.</w> 398
DE ,</w> 398
pot encia</w> 398
jurídic a.</w> 398
catástro fe</w> 398
estuvi era</w> 398
vu elos</w> 398
Bolk est 398
n un 397
G A 397
hab rían</w> 397
resul tantes</w> 397
éti ca</w> 397
formul adas</w> 397
(A 5-00 397
recibi endo</w> 397
PYM E,</w> 397
previ a</w> 397
senci ll 397
distor sion 397
P e 396
re presión</w> 396
di óxido</w> 396
im presion 396
des can 396
je fes</w> 396
llev aron</w> 396
exist entes,</w> 396
asegur arle</w> 396
sufri miento</w> 396
itali ano</w> 396
produ jo</w> 396
Pregun ta</w> 396
in su 395
in sufici 395
de part 395
vi o</w> 395
man ,</w> 395
produc tos,</w> 395
tom amos</w> 395
indic ación</w> 395
correc ta,</w> 395
vot ando</w> 395
conci enci 395
deleg aciones</w> 395
CE ,</w> 395
ai w 395
Ni geri 395
AL DE.</w> 395
surg ido</w> 395
obr as</w> 395
O om 394
C res 394
re y 394
contr a.</w> 394
fr uc 394
hab íamos</w> 394
neg ativas</w> 394
capi tales</w> 394
rati ficado</w> 394
Bélgi ca</w> 394
l ác 393
N i</w> 393
in adecu 393
deb ida</w> 393
lí sti 393
entr ó</w> 393
hab ida</w> 393
is las</w> 393
fronter as,</w> 393
Inter nacional,</w> 393
us ando</w> 393
loc al,</w> 393
jóven es.</w> 393
Chi pre,</w> 393
subsidiari edad,</w> 393
reco mienda</w> 393
Yugosl ava</w> 393
errón e 393
Felici to</w> 393
Swob o 393
mencion ado,</w> 392
viol encia,</w> 392
comple tar</w> 392
vot ó</w> 392
Soci ales</w> 392
acab an</w> 392
discu siones</w> 392
Bo w 392
revist e</w> 392
6 / 391
ad o;</w> 391
ant e 391
industri a,</w> 391
afec tado</w> 391
ofici almente</w> 391
circunstanci as,</w> 391
avanz ado</w> 391
históri ca</w> 391
permitir án</w> 391
Orient al</w> 391
aprend ido</w> 391
fuert emente</w> 391
Cáuc aso</w> 391
l os.</w> 390
b on 390
señ ales</w> 390
ru tas</w> 390
In don 390
tom an</w> 390
medioambient ales,</w> 390
dé bil 390
dol es</w> 390
españ ol</w> 390
muestr an</w> 390
univers idades</w> 390
Pre mio</w> 390
t alidad</w> 389
a »</w> 389
par o</w> 389
neces aria.</w> 389
ve a</w> 389
adop ta</w> 389
sent encias</w> 389
agricul tura.</w> 389
promo viendo</w> 389
jui cios</w> 389
descri to</w> 389
A SE 388
ar te</w> 388
ad o:</w> 388
az o</w> 388
ru ego</w> 388
comerci ales,</w> 388
elec ciones,</w> 388
llam ados</w> 388
multi nacionales</w> 388
ofreci endo</w> 388
abar ca</w> 388
tradi ciones</w> 388
l as.</w> 387
j an</w> 387
qu es,</w> 387
st ri 387
ju vent 387
ayud ado</w> 387
esper o,</w> 387
colabor ar</w> 387
aport ación</w> 387
implic ados</w> 387
perten eci 387
tent ri 387
Cualqui er</w> 387
4 /200 386
con ducir</w> 386
pu gn 386
gu sta</w> 386
ser bi 386
legisl ativos</w> 386
comerci ales.</w> 386
Mi ch 386
inst ancia</w> 386
rápid amente.</w> 386
Internet ,</w> 386
noch e,</w> 386
escap ar</w> 386
p in 385
t s</w> 385
4 5</w> 385
em baj 385
se ver 385
su eñ 385
pr estado</w> 385
ist as,</w> 385
it aria</w> 385
pen sion 385
can cel 385
comi sión.</w> 385
justi ficación</w> 385
sen sat 385
Constitu ción,</w> 385
credi ti 385
novi embre,</w> 385
tuvi era</w> 385
encarg ado</w> 385
trist e</w> 385
Tim or</w> 385
a –</w> 384
í cola</w> 384
N av 384
vi able</w> 384
form a.</w> 384
fr ustr 384
ej as</w> 384
comb ati 384
medioambient al.</w> 384
explic ado</w> 384
diver g 384
Ber lín</w> 384
indem niz 384
2007 .</w> 384
mont ón</w> 384
Internet .</w> 384
deteri oro</w> 384
Arg eli 384
t ación,</w> 383
a fortunadamente,</w> 383
dis capacidad</w> 383
esi ones</w> 383
atr aves 383
esenci al,</w> 383
Liber ales</w> 383
comienz os</w> 383
polici al</w> 383
Gine bra</w> 383
Col om 383
coti di 383
a er 382
P os 382
ad judic 382
com pensar</w> 382
fi lo 382
deb ían</w> 382
financi amiento</w> 382
pun tu 382
Exteri or</w> 382
avanz ando</w> 382
Sueci a,</w> 382
impuest as</w> 382
c al</w> 381
f as 381
k i</w> 381
F M 381
ad amente.</w> 381
ón ?</w> 381
agricul tores,</w> 381
míni mos</w> 381
terren o.</w> 381
Schen gen,</w> 381
Minist eri 381
gol pe</w> 381
intelectu al</w> 381
suby ac 381
T anto</w> 380
fi co.</w> 380
it ario</w> 380
int enta</w> 380
indic an</w> 380
defini tivo</w> 380
confirm ado</w> 380
escen ario</w> 380
fruc tí 380
m atr 379
F err 379
w s 379
J ar 379
des cu 379
idad ;</w> 379
enmiend a.</w> 379
comerci o.</w> 379
termin ar,</w> 379
áti co</w> 379
asign ados</w> 379
produ zcan</w> 379
lle r</w> 379
Oom en- 379
5 /200 378
ti po.</w> 378
co ali 378
vi ve</w> 378
inter oper 378
refi er 378
democráti ca.</w> 378
region ales,</w> 378
vent as</w> 378
prest ando</w> 378
tele comunic 378
maríti ma</w> 378
gradu almente</w> 378
/97 )</w> 378
núcle o</w> 378
e lu 377
A frican 377
re torno</w> 377
co ber 377
tu los</w> 377
tu ve</w> 377
contr aria</w> 377
sal ida</w> 377
clar o.</w> 377
lec ción</w> 377
Oomen- Ru 377
t á 376
s í.</w> 376
st at 376
per fi 376
nu tri 376
pa gan</w> 376
Con vención,</w> 376
mer curi 376
incid encia</w> 376
carr era</w> 376
c amos</w> 375
o "</w> 375
p si 375
a !</w> 375
s esion 375
propuest os</w> 375
limi ta</w> 375
extre mi 375
acu mul 375
escas a</w> 375
jun tos.</w> 375
flu jos</w> 375
sindic atos</w> 375
Consider amos</w> 375
Apoy amos</w> 375
- 9 374
¿ no</w> 374
W i 374
D ar 374
cre an</w> 374
fin .</w> 374
realiz ando</w> 374
interes adas</w> 374
Der ech 374
publi cado</w> 374
úti l.</w> 374
profun di 374
octu bre,</w> 374
extraordin ario</w> 374
ignor ar</w> 374
public ación</w> 374
previst os</w> 374
Ash ton,</w> 374
Democrats )</w> 374
é .</w> 373
er as,</w> 373
per mis 373
ni ega</w> 373
mar ,</w> 373
tar án</w> 373
neg ativos</w> 373
ne o 373
indic aciones</w> 373
influ ir</w> 373
Se gu 373
Cul tura</w> 373
desast ro 373
invers ores</w> 373
libre mente</w> 373
inti mid 373
co mis 372
st ru 372
pre limin 372
ag o 372
of re 372
tre inta</w> 372
éxi tos</w> 372
recog ida</w> 372
Democ ráti 372
estabi liz 372
referén dum 372
(L T)</w> 372
maravi ll 372
lác te 372
h al 371
G én 371
es encia</w> 371
con vencion 371
li ter 371
económi camente</w> 371
reg la</w> 371
priv ada</w> 371
son .</w> 371
renov able</w> 371
sol dados</w> 371
salvaguar dia</w> 371
contradic ción</w> 371
C anci 370
H u 370
F or 370
inter esa</w> 370
ativ as,</w> 370
pri sion 370
seman as.</w> 370
conoc en</w> 370
sistem a,</w> 370
irlandes es</w> 370
enérgi camente</w> 370
lun es</w> 370
P PE</w> 369
am ist 369
mo dos</w> 369
pas ada,</w> 369
medioambient ales.</w> 369
audi encia</w> 369
satisfactori a</w> 369
asu mi 369
Presupuest os,</w> 369
Bu eno,</w> 369
intensi ficar</w> 369
Rur al</w> 369
recuer da</w> 369
simb óli 369
Oomen-Ru ij 369
m ente.</w> 368
al arm 368
gu a</w> 368
me .</w> 368
resul tar</w> 368
urg entes</w> 368
institucion al,</w> 368
Monet ario</w> 368
ocurri r</w> 368
Feder al</w> 368
agradecer le</w> 368
abast ecimiento</w> 368
) :</w> 367
par ecer</w> 367
ab sor 367
su mas</w> 367
200 4.</w> 367
equi p 367
Li bre</w> 367
propon iendo</w> 367
conoc emos</w> 367
vincul antes</w> 367
consist ente</w> 367
Gobier no,</w> 367
Gaz a</w> 367
irregular idades</w> 367
auditor ía</w> 367
C .</w> 366
ci ento</w> 366
rec í 366
is la</w> 366
cur r 366
estructur ales.</w> 366
emi tir</w> 366
hacer le</w> 366
cau tel 366
Ucr ania,</w> 366
extraordin aria</w> 366
EU R</w> 366
noch e.</w> 366
Maastrich t</w> 366
graf ía</w> 366
Canad á</w> 366
o fen 365
ver de</w> 365
consider en</w> 365
discrimin ación.</w> 365
pesquer os</w> 365
provoc ado</w> 365
pertin ente</w> 365
toler ancia</w> 365
Afgan istán,</w> 365
alcoh ol</w> 365
frag ment 365
b en</w> 364
j i 364
es en</w> 364
su pr 364
form al</w> 364
resid entes</w> 364
Si ,</w> 364
In formación</w> 364
mencion ados</w> 364
cal ent 364
14 2</w> 364
¿Cu án 364
invernad ero</w> 364
Verdes/ Alianza</w> 364
in men 363
le ído</w> 363
vig or,</w> 363
san gre</w> 363
Soci ales,</w> 363
modific ado</w> 363
estrech o</w> 363
suministr os</w> 363
compr a</w> 363
infanti l</w> 363
c az 362
l las</w> 362
e u 362
P reci 362
é si 362
di agn 362
com ponente</w> 362
pres ente,</w> 362
pri o 362
pas ó</w> 362
sal en</w> 362
vícti ma</w> 362
candid atos,</w> 362
ins cri 362
positiv o,</w> 362
estrech os</w> 362
ou ,</w> 362
redac tar</w> 362
Noso tros,</w> 362
Lati na</w> 362
Isl an 362
n ea</w> 361
t w 361
st a,</w> 361
ant án 361
ni ci 361
im pon 361
ag ro 361
ast e</w> 361
dec enas</w> 361
aspec tos,</w> 361
compl ac 361
cultur al.</w> 361
muer tes</w> 361
puer tas</w> 361
comprome tidos</w> 361
retir o</w> 361
olvid emos</w> 361
convi ene</w> 361
sensi bilidad</w> 361
comparti mos</w> 361
l a,</w> 360
C um 360
per judicial</w> 360
le tra</w> 360
tien de</w> 360
200 3.</w> 360
económi cas.</w> 360
permi tiendo</w> 360
dec ía</w> 360
preocup ado</w> 360
discrimin ación,</w> 360
aument ará</w> 360
org áni 360
tesi s</w> 360
m end 359
e k</w> 359
S res.</w> 359
T aiw 359
an os.</w> 359
in admisi 359
pro mesa</w> 359
aliz adas</w> 359
ve an</w> 359
centr ar</w> 359
procedi miento.</w> 359
Cu b 359
enti vo</w> 359
aliment aria.</w> 359
responsabil idades.</w> 359
Monet arios,</w> 359
perten ece</w> 359
Pos sel 359
1 0,</w> 358
T ec 358
D ía</w> 358
com parten</w> 358
ru ido</w> 358
sal ario</w> 358
contribu yendo</w> 358
viol encia.</w> 358
region es.</w> 358
Irland a.</w> 358
incorpor ado</w> 358
la gun 358
extran j 358
concesi ones</w> 358
introduc e</w> 358
Verts/AL E.</w> 358
filo sof 358
o !</w> 357
ec ed 357
ac a</w> 357
ambi ciones</w> 357
ca :</w> 357
ocup an</w> 357
estudi ando</w> 357
excep cional</w> 357
conserv adores</w> 357
sistem a.</w> 357
habi li 357
expli car 357
mont añ 357
acertad amente</w> 357
recí pro 357
a -,</w> 356
ag resi 356
quer er</w> 356
democr atización</w> 356
recib e</w> 356
muer te,</w> 356
mostr ó</w> 356
fru tas</w> 356
fech a,</w> 356
o -,</w> 355
n egr 355
b an</w> 355
di su 355
oc ar 355
ve z.</w> 355
all strö 355
decir se</w> 355
sim ple 355
prot agon 355
críti co</w> 355
mutu a</w> 355
obli gar</w> 355
Bálti co</w> 355
cuanti t 355
t es,</w> 354
M alta</w> 354
2 9 354
en cabez 354
neces arias.</w> 354
ep id 354
aprob ados</w> 354
manten ga</w> 354
coordin ada</w> 354
conf id 354
14 9</w> 354
profesion al,</w> 354
garantiz ando</w> 354
reco pi 354
cuán to</w> 354
(COM( 9 354
Inver siones</w> 354
F oro</w> 353
pre d 353
ay u 353
produc ción.</w> 353
efici entes</w> 353
perman ecer</w> 353
acog er</w> 353
jurídic amente</w> 353
carb ón</w> 353
absten ido</w> 353
enum er 353
tó xi 353
Tec nol 353
p ida</w> 352
M ED 352
k o 352
200 5.</w> 352
comunit ari 352
cl on 352
concre tamente,</w> 352
anim ales,</w> 352
exclu ir</w> 352
terrá nea</w> 352
har d 352
mez c 352
imprescindi ble</w> 352
m adre</w> 351
g al 351
E ra</w> 351
é ric 351
B lo 351
ro g 351
po bres.</w> 351
con voc 351
lí mpi 351
fr ági 351
je fe</w> 351
aplic ación,</w> 351
norm as.</w> 351
progres iv 351
An te</w> 351
lín ,</w> 351
Exteri or,</w> 351
Ch eca</w> 351
Sud án</w> 351
disfru tar</w> 351
transeurope as</w> 351
c h</w> 350
A .</w> 350
nom in 350
públi cos.</w> 350
én ti 350
que de</w> 350
gesti ón,</w> 350
defen sa,</w> 350
An ti 350
satisf echos</w> 350
acog ida</w> 350
bilater al</w> 350
contradic tori 350
¿Qui én</w> 350
Compar to</w> 350
T í 349
Est ado.</w> 349
públi cas,</w> 349
human a,</w> 349
industri a.</w> 349
te za</w> 349
observ ado</w> 349
En tiendo</w> 349
aliment os.</w> 349
derech o.</w> 349
Mediterráne o.</w> 349
intelig ente</w> 349
Sur ,</w> 349
estabil idad,</w> 349
prov inci 349
t h</w> 348
S ad 348
S ala</w> 348
P as 348
- por</w> 348
en f 348
ent abl 348
an un 348
ri tu 348
inform es.</w> 348
ativ a,</w> 348
económi cos.</w> 348
especi almente,</w> 348
In dia,</w> 348
val u 348
limi tada</w> 348
ban co</w> 348
positiv a.</w> 348
reglament o,</w> 348
hubi ese</w> 348
votar on</w> 348
instal ación</w> 348
Miem bros</w> 348
víctim as,</w> 348
rom per</w> 348
caí da</w> 348
é fon 347
or ador 347
pres a</w> 347
ser va</w> 347
ha gamos</w> 347
200 2.</w> 347
úni co.</w> 347
expres ada</w> 347
UE M</w> 347
comprome ti 347
cientí fico</w> 347
Cor bet 347
desplaz amiento</w> 347
estadouniden se</w> 347
" no 346
3 8 346
F ,</w> 346
7 /200 346
pro stitu 346
contr ato</w> 346
pod ían</w> 346
oper ar</w> 346
palabr a.</w> 346
continu o</w> 346
competitiv idad,</w> 346
recibi ó</w> 346
afirm ado</w> 346
etique ta</w> 346
occident ales</w> 346
multilater al</w> 346
t ed 345
D G</w> 345
deb ajo</w> 345
red und 345
medioambient al,</w> 345
conden ado</w> 345
acog e</w> 345
arl a.</w> 345
tel éfon 345
a y</w> 344
D is 344
su y 344
pi lares</w> 344
inter vención,</w> 344
tad os,</w> 344
celebr ando</w> 344
prot e 344
democráti co,</w> 344
infr acciones</w> 344
innov ación.</w> 344
asign ar</w> 344
complej idad</w> 344
Rur al,</w> 344
Marru ecos</w> 344
Bret aña</w> 344
grati tud</w> 344
ent al</w> 343
in capacidad</w> 343
adi ción</w> 343
Pu es</w> 343
dimen siones</w> 343
ambici osa</w> 343
pien sos</w> 343
convier te</w> 343
siti o</w> 343
Marru e 343
Solidar idad</w> 343
múlti pl 343
h aremos</w> 342
ar ía,</w> 342
re presi 342
de z</w> 342
se de</w> 342
inter medi 342
cru z 342
minor ías,</w> 342
vecin dad</w> 342
extranjer os</w> 342
equilibri os</w> 342
Litu ania</w> 342
siem pre,</w> 342
in estabilidad</w> 341
al es?</w> 341
con cier 341
fi quen</w> 341
ter cio</w> 341
pes ca.</w> 341
inici almente</w> 341
igu ales</w> 341
ez as</w> 341
fronter as.</w> 341
hu el 341
míni ma</w> 341
prest aciones</w> 341
palesti no</w> 341
cuidad osamente</w> 341
gol pe 341
unilater al</w> 341
Segun da</w> 341
b os</w> 340
G ra 340
4 -00 340
V en 340
di jeron</w> 340
con fu 340
clar a.</w> 340
aqu el</w> 340
aprob amos</w> 340
tend rían</w> 340
cer teza</w> 340
comi sion 340
democráti ca,</w> 340
ecer ía</w> 340
EC H 340
epid emi 340
o le 339
e o 339
n adi 339
t es.</w> 339
a precio</w> 339
and o 339
consider ada</w> 339
centr ado</w> 339
mani pul 339
sesi ón:</w> 339
fabric ación</w> 339
agrícol as,</w> 339
supon en</w> 339
mayor ía,</w> 339
reconoz ca</w> 339
primav era</w> 339
j as</w> 338
er as.</w> 338
pu la</w> 338
cons entimiento</w> 338
soci alista</w> 338
ju eg 338
cambi o.</w> 338
dur a</w> 338
Cu ba</w> 338
que o</w> 338
transpar entes</w> 338
ov en</w> 338
ileg al.</w> 338
satisfactori amente</w> 338
sexu ales</w> 338
reflexi on 338
agrícol a.</w> 338
Vicepresid enta</w> 338
explíci tamente</w> 338
semej ante</w> 338
enl ace</w> 338
BE I</w> 338
c aj 337
d as.</w> 337
C l 337
W ash 337
ti po,</w> 337
si s,</w> 337
par eci 337
ur as</w> 337
des le 337
fu ego</w> 337
200 8.</w> 337
trat aba</w> 337
Comis ari 337
ag reg 337
direc tas</w> 337
adecu ado.</w> 337
señal ó</w> 337
reglament o.</w> 337
Aliment aria</w> 337
tradu ci 337
Wash ing 337
E co 336
at ro 336
des pi 336
des empleo.</w> 336
pl au 336
az os</w> 336
may o,</w> 336
200 4 336
ori gen,</w> 336
et n 336
oportun idad.</w> 336
fon do,</w> 336
Ha it 336
Bar ni 336
14 9)</w> 336
presid entes</w> 336
colec tiva</w> 336
abandon o</w> 336
conveni os</w> 336
conten idas</w> 336
destru ir</w> 336
Luxem burgo,</w> 336
sat éli 336
dictad ura</w> 336
hos ti 336
menud o,</w> 336
Ce lebr 336
t aba</w> 335
in seguridad</w> 335
ten erse</w> 335
me tas</w> 335
entr a</w> 335
tod o.</w> 335
gust ado</w> 335
Po dr 335
migr antes</w> 335
cumpli endo</w> 335
us ado</w> 335
movi lizar</w> 335
sin ergi 335
votar á</w> 335
redac tado</w> 335
ei n</w> 335
quisi éramos</w> 335
magní fico</w> 335
l os,</w> 334
j oven</w> 334
qu ía</w> 334
in suficiente</w> 334
re h 334
al tura</w> 334
mi ti 334
par á 334
fic ación.</w> 334
resul te</w> 334
clar a,</w> 334
termin ado</w> 334
lic encias</w> 334
emi gr 334
parlament arias</w> 334
abier tamente</w> 334
escas as</w> 334
quími cos</w> 334
Creci miento</w> 334
agost o</w> 334
t ación.</w> 333
M y 333
P ido</w> 333
or adores,</w> 333
in k 333
leg almente</w> 333
bo l</w> 333
te la</w> 333
energéti cas</w> 333
dispon emos</w> 333
diputad o,</w> 333
.. . 333
prefer encias</w> 333
lingü ísti 333
/98 )</w> 333
ayu de</w> 333
e gue</w> 332
¿ Se</w> 332
K o 332
ti ,</w> 332
Par í 332
ver emos</w> 332
az u 332
ing eni 332
proporcion e</w> 332
signific aría</w> 332
ero - 332
portugu esa</w> 332
víctim as.</w> 332
pilo to</w> 332
Cier tamente,</w> 332
s idad</w> 331
i lí 331
í gen 331
H au 331
0 )</w> 331
ad mir 331
as ti 331
ur a,</w> 331
cont est 331
preocup ada</w> 331
solu cion 331
financier o.</w> 331
dej emos</w> 331
inmigr ación.</w> 331
estric tos</w> 331
mili tari 331
aero líneas</w> 331
adqui rir</w> 331
bom bar 331
Bélgi ca,</w> 331
M alm 330
h arán</w> 330
in cumplimiento</w> 330
ro ga</w> 330
as om 330
ac cion 330
vo to.</w> 330
oportun idad,</w> 330
super viv 330
correc to.</w> 330
produci rá</w> 330
detall ado</w> 330
jurídic as</w> 330
reac cionar</w> 330
ferrocarri l</w> 330
abil idad.</w> 330
cober tura</w> 330
c es.</w> 329
i g 329
I m 329
ent a,</w> 329
in sul 329
con segu 329
so viéti 329
pre visi 329
tad os.</w> 329
decir lo</w> 329
lleg amos</w> 329
199 5,</w> 329
nú mer 329
presupuest aria,</w> 329
enti ende</w> 329
dependi entes</w> 329
Or den</w> 329
bal ance</w> 329
investi gar</w> 329
converti rá</w> 329
i ble</w> 328
P H 328
¿ podría</w> 328
emple os</w> 328
negoci ado</w> 328
comunit arios.</w> 328
investig adores</w> 328
mujer ,</w> 328
vir tu 328
reflej an</w> 328
consej o</w> 328
controversi a</w> 328
partid arios</w> 328
a str 327
inform ados</w> 327
car tas</w> 327
obje ciones</w> 327
mejor ando</w> 327
preocup ación.</w> 327
apar ece</w> 327
limi tarse</w> 327
Mi lo 327
plan e 327
muer te.</w> 327
cuent an</w> 327
resultad o.</w> 327
pendi entes</w> 327
l er,</w> 326
1 00 326
9 / 326
) ).</w> 326
R on 326
T ,</w> 326
tiv os,</w> 326
ve terin 326
rá ,</w> 326
zon a,</w> 326
fon dos,</w> 326
benefici a</w> 326
encu entre</w> 326
enfo ques</w> 326
produci endo</w> 326
acont ecimiento</w> 326
admi sión</w> 326
lógi co</w> 326
fa cul 326
Verhe u 326
prag máti 326
m .</w> 325
e le 325
1 1,</w> 325
er nos</w> 325
un ir</w> 325
ex tend 325
pre ferencia</w> 325
der echa</w> 325
actu ales,</w> 325
reci pro 325
ocup e</w> 325
responsab le.</w> 325
acer c 325
inst aur 325
fisc al,</w> 325
fronteriz os</w> 325
prev én</w> 325
concep tos</w> 325
opon emos</w> 325
Schen gen.</w> 325
deten idamente</w> 325
Deber ía</w> 325
vari edad</w> 325
ham bre</w> 325
texti l</w> 325
anun cio</w> 325
B ,</w> 324
en u 324
ab i 324
ten siones</w> 324
mu ri 324
neces aria,</w> 324
encontr arse</w> 324
vig or.</w> 324
guerr a.</w> 324
preserv ación</w> 324
Sar k 324
inferi or</w> 324
Eslovaqui a</w> 324
S a 323
2 6 323
H an</w> 323
W allströ 323
em bo 323
br ind 323
ún .</w> 323
region ales.</w> 323
auto movi 323
opon en</w> 323
israel í</w> 323
sistemáti camente</w> 323
incluy an</w> 323
VI H 323
Pat ten</w> 323
hici mos</w> 323
Túne z</w> 323
Recu er 323
Malm strö 323
d atos.</w> 322
an g 322
ec emos</w> 322
as en</w> 322
tr adicional</w> 322
ac ei 322
nuev amente</w> 322
ener o,</w> 322
fun dir</w> 322
tom ada</w> 322
realiz an</w> 322
comunit arias,</w> 322
mostr ando</w> 322
encar cel 322
vehí cul 322
Estras burgo,</w> 322
Bro k</w> 322
Amsterdam .</w> 322
aprueb e</w> 322
imagin ar</w> 322
veri ficar</w> 322
sk i</w> 322
Sark oz 322
acei te</w> 322
P .</w> 321
B a</w> 321
V e 321
di sta</w> 321
cu alit 321
ni zar</w> 321
cre ativ 321
inter fer 321
activ as</w> 321
cap tura</w> 321
transport es</w> 321
estric to</w> 321
expl or 321
presid encia</w> 321
Nor te.</w> 321
ret óri 321
escandal oso</w> 321
in sta</w> 320
re al.</w> 320
cre encia</w> 320
contr arr 320
pas o,</w> 320
inver siones,</w> 320
cli entes</w> 320
rig en</w> 320
áti cas</w> 320
arl os.</w> 320
Jurí di 320
flo tas</w> 320
Hungr ía,</w> 320
Cul tura,</w> 320
vic toria</w> 320
a pa 319
1 %</w> 319
E fec 319
7 5</w> 319
con venciones</w> 319
su elo</w> 319
ex poner</w> 319
rec a 319
esti pula</w> 319
respec tivos</w> 319
efec tivo</w> 319
col oni 319
Cre o,</w> 319
declar ó</w> 319
sim pat 319
flexi bles</w> 319
movi liz 319
SI D 319
persecu ción</w> 319
Mos c 319
calent amiento</w> 319
confid enci 319
A gr 318
N ing 318
Est án</w> 318
inform aciones</w> 318
éti cos</w> 318
priv atización</w> 318
Monet aria</w> 318
reanud ación</w> 318
durad era</w> 318
repeti damente</w> 318
restr ing 318
ais lamiento</w> 318
Lon d 318
t ej 317
C lar 317
po li 317
gener an</w> 317
Direc tor</w> 317
ric anos</w> 317
plan et 317
consigui ente</w> 317
agradeci endo</w> 317
bloque o</w> 317
repe tir 317
aspir aciones</w> 317
corri entes</w> 317
Wal d 317
pied ra</w> 317
Preci samente</w> 317
r am 316
s pec 316
1 2,</w> 316
C 4-0 316
¿ cuál</w> 316
ro s.</w> 316
ri b 316
merc ados,</w> 316
comunit arias.</w> 316
defin e</w> 316
alist as,</w> 316
refugi ados,</w> 316
Ber è 316
Belarú s,</w> 316
denunci ar</w> 316
dificultad es.</w> 316
OLA F</w> 316
liqu id 316
supr an 316
e t</w> 315
r nos</w> 315
r acional</w> 315
3 / 315
5 / 315
5 0%</w> 315
st as.</w> 315
as ust 315
se t 315
ex ceso</w> 315
Europe as</w> 315
vo te</w> 315
human idad</w> 315
20 ,</w> 315
niñ o</w> 315
favor ables</w> 315
Ser á</w> 315
peligro .</w> 315
af ricanos</w> 315
tuvi eron</w> 315
automóvi les</w> 315
DA )</w> 315
g as,</w> 314
b ord 314
R ü 314
in .</w> 314
com ponentes</w> 314
im á 314
ex ag 314
trans misión</w> 314
ir a,</w> 314
20 %</w> 314
respe ta</w> 314
comple ja</w> 314
inf l 314
estratégi cos</w> 314
ingres o</w> 314
mod alidades</w> 314
occident al</w> 314
bus ca</w> 314
filosof ía</w> 314
b y</w> 313
V itor 313
est er 313
mi x 313
ativ os,</w> 313
tur ísti 313
mar in 313
dich o.</w> 313
tin i</w> 313
presupuest ario,</w> 313
sosteni bles</w> 313
De leg 313
Gener ales</w> 313
reform a.</w> 313
escue la</w> 313
Do ha</w> 313
Glob alización</w> 313
PA C</w> 313
N o 312
Ú ni 312
an si 312
ir re 312
continu amente</w> 312
bur gu 312
Is las</w> 312
débi les</w> 312
kiló metros</w> 312
erb ai 312
B .</w> 311
es casos</w> 311
ur ,</w> 311
anti - 311
eci endo</w> 311
habl ó</w> 311
difer entes,</w> 311
solici ta</w> 311
adicion ales.</w> 311
tecnolog ía,</w> 311
circun s 311
dol or 311
denomin ado</w> 311
flu jo</w> 311
transfer encias</w> 311
RE AC 311
allí ,</w> 311
Hon g</w> 311
perteneci entes</w> 311
aer on 311
o duc 310
t anos</w> 310
r ast 310
v ar 310
j ud 310
ti gi 310
in depend 310
cu al,</w> 310
des proporcion 310
esti mul 310
proyec to.</w> 310
proyec to,</w> 310
cap turas</w> 310
expres ando</w> 310
funcion an</w> 310
proporcion an</w> 310
atori as</w> 310
hom o 310
jun ta</w> 310
salvaguar dar</w> 310
Regi onal</w> 310
II ,</w> 310
guerr as</w> 310
supervis ar</w> 310
especul ación</w> 310
Brasi l</w> 310
Rum ania</w> 310
fórmu la</w> 310
s en</w> 309
– como</w> 309
v ido</w> 309
6 0 309
po co,</w> 309
contr ario.</w> 309
fin aliz 309
pri sión</w> 309
present en</w> 309
sec reto</w> 309
próxim o.</w> 309
determin ada</w> 309
lid i 309
estu vo</w> 309
just amente</w> 309
gast ar</w> 309
elev ada</w> 309
garantiz ará</w> 309
Gu antán 309
inc entivo</w> 309
sustitu ción</w> 309
lengu aje</w> 309
perió dicos</w> 309
e gu 308
h ec 308
C ari 308
in sostenible</w> 308
uc r 308
segu ida</w> 308
dese en</w> 308
creci miento.</w> 308
conoci da</w> 308
Pu esto</w> 308
satisfactori o</w> 308
cuar ta</w> 308
imperi o</w> 308
reun ir</w> 308
bat alla</w> 308
Ferr ero- 308
permis os</w> 308
erbai y 308
1 50</w> 307
N U 307
F er 307
am pl 307
con vin 307
pe ores</w> 307
abl emente.</w> 307
ver ano</w> 307
hab ríamos</w> 307
trat a,</w> 307
trat amos</w> 307
ch in 307
comunit arios,</w> 307
dese able</w> 307
Al ta</w> 307
prior idad.</w> 307
individu ales.</w> 307
Demócrat a</w> 307
implic ación</w> 307
conced a</w> 307
inevit ablemente</w> 307
digi tal</w> 307
asci ende</w> 307
Gine br 307
ultraperif éricas</w> 307
La ek 307
Egip to</w> 307
Atlánti co</w> 307
simul táne 307
fem en 307
L ul 306
J os 306
en t</w> 306
di vis 306
ab o 306
Europe a;</w> 306
agr up 306
19 5 306
activ istas</w> 306
elec ciones.</w> 306
apar tados</w> 306
peligro s 306
contem pla</w> 306
resi sti 306
coinci de</w> 306
evolu cion 306
s end 305
R A 305
D anu 305
re volución</w> 305
bi ó</w> 305
su poner</w> 305
lu s 305
Uni vers 305
pregun tas,</w> 305
lig eramente</w> 305
signific ativos</w> 305
estratégi cas</w> 305
15 .00</w> 305
bio diversidad</w> 305
mayor ía.</w> 305
defend ido</w> 305
perió dic 305
corr e</w> 305
pretend en</w> 305
dificultad es,</w> 305
Peti ciones</w> 305
si les</w> 304
import ar</w> 304
consider adas</w> 304
espec tro</w> 304
(C NS 304
Constitu ción.</w> 304
dr es</w> 304
juli o,</w> 304
ferrocarri les</w> 304
deliber aciones</w> 304
ísi mo</w> 304
burocr acia</w> 304
Ferrero- Wald 304
t ales,</w> 303
a ".</w> 303
s ín 303
es a.</w> 303
ci ón:</w> 303
al entar</w> 303
im pedi 303
der og 303
dem ás.</w> 303
car ecen</w> 303
preci os,</w> 303
abr e</w> 303
anteri or.</w> 303
minor it 303
rur al,</w> 303
reform a,</w> 303
desapar ición</w> 303
bú l 303
lanz amiento</w> 303
pred eces 303
superviv encia</w> 303
s mo.</w> 302
ó pti 302
H e 302
ob er 302
fon dos.</w> 302
hacer nos</w> 302
201 1</w> 302
absolu to.</w> 302
fisc al.</w> 302
Nor u 302
rup ción</w> 302
previ o</w> 302
Mu jer 302
Rom a</w> 302
bor do</w> 302
Lon dres</w> 302
bombar de 302
Milo se 302
exag er 302
g a.</w> 301
f ,</w> 301
L ag 301
D entro</w> 301
po bre</w> 301
ob serva</w> 301
dis culp 301
consider ados</w> 301
enfr entar</w> 301
reconoc emos</w> 301
judici al,</w> 301
Ban g 301
Estras burgo.</w> 301
reem plaz 301
Az erbaiy 301
ensay os</w> 301
crip ción</w> 301
reali ce</w> 301
x ,</w> 300
ó gen 300
B or 300
idad :</w> 300
cont abilidad</w> 300
cab o.</w> 300
tend ríamos</w> 300
interes antes</w> 300
estableci da</w> 300
manten gan</w> 300
ries go,</w> 300
acept amos</w> 300
tan o</w> 300
Le on 300
introduci endo</w> 300
libertad .</w> 300
Belarú s.</w> 300
compati bles</w> 300
Pes ca,</w> 300
selec ción</w> 300
SI S</w> 300
clasi ficación</w> 300
apl au 300
monopoli o</w> 300
monopoli os</w> 300
Yugoslavi a</w> 300
pose e</w> 300
jurisdic ción</w> 300
plata forma</w> 300
ucr ani 300
o i 299
D .</w> 299
, 5</w> 299
in justa</w> 299
co br 299
co financiación</w> 299
po pular</w> 299
con vención</w> 299
per su 299
per juicio</w> 299
ex pir 299
des acuerdo</w> 299
ocup ado</w> 299
sigui entes:</w> 299
prior idades.</w> 299
cin cuenta</w> 299
record ado</w> 299
conten idos</w> 299
legislativ o.</w> 299
casti g 299
verg onz 299
déc adas</w> 299
we b</w> 299
Jar z 299
Democráti ca</w> 299
c ha 298
a fortun 298
j a 298
in justific 298
ac ciones.</w> 298
Co sta</w> 298
im parci 298
medi cin 298
asi lo.</w> 298
can ales</w> 298
procedi miento,</w> 298
oblig ada</w> 298
lan zar</w> 298
existi endo</w> 298
edifici o</w> 298
juris prudencia</w> 298
diagn ósti 298
Jarz embo 298
a cost 297
A fortunadamente,</w> 297
G )</w> 297
ó s 297
W e 297
cu esta</w> 297
su av 297
ed a</w> 297
má r 297
pre mat 297
Comisi on 297
realiz arse</w> 297
logr arse</w> 297
defen sa.</w> 297
glob alización,</w> 297
fij a</w> 297
peligro sos</w> 297
involucr ar</w> 297
Mer idi 297
descri p 297
aero puerto</w> 297
Finlan dia,</w> 297
Consumid or,</w> 297
Har bo 297
épti mo</w> 297
remuner ación</w> 297
c res 296
z i 296
3 3 296
I nici 296
ar á.</w> 296
an - 296
co ;</w> 296
em pu 296
de tener</w> 296
ex ter 296
des cont 296
um ento</w> 296
cons en 296
condi ciones.</w> 296
cl ari 296
logr amos</w> 296
seri o.</w> 296
ez .</w> 296
pens ado</w> 296
prepar ada</w> 296
seman a.</w> 296
orient al,</w> 296
rechaz ó</w> 296
clav e.</w> 296
permitir nos</w> 296
Dinamar ca,</w> 296
Bus h</w> 296
neer landes 296
suces os</w> 296
conmi go</w> 296
ad ,</w> 295
re al 295
est e,</w> 295
ativ o.</w> 295
ativ as.</w> 295
hab il 295
legisl aciones</w> 295
comerci al,</w> 295
natur ales,</w> 295
agu a.</w> 295
ho ja</w> 295
pot encias</w> 295
gobier nos,</w> 295
incid entes</w> 295
gén ero,</w> 295
criti car</w> 295
éri ca</w> 295
Intergubernament al.</w> 295
alivi ar</w> 295
sens ación</w> 295
l ati 294
s a 294
. 30</w> 294
2 8 294
co :</w> 294
si ente</w> 294
di ario</w> 294
por no 294
tu ber 294
esti ma</w> 294
fu i</w> 294
19 6 294
garanti cen</w> 294
dej an</w> 294
defin ido</w> 294
confi anza.</w> 294
Su iza</w> 294
coment ari 294
gobier no,</w> 294
invi tación</w> 294
aplicar á</w> 294
PYM E.</w> 294
denomin ada</w> 294
vecin os,</w> 294
ecológi ca</w> 294
ahorr ar</w> 294
PPE- DE</w> 294
hipo cres 294
diplom acia</w> 294
restrin gir</w> 294
rú brica</w> 294
automovi lísti 294
convin c 294
M ul 293
S á 293
O ,</w> 293
K ir 293
ä n 293
ad o?</w> 293
or as</w> 293
par a 293
ac ad 293
su minist 293
ambi gü 293
ist a,</w> 293
tor tura</w> 293
fuer te,</w> 293
libr o</w> 293
verdad .</w> 293
agricul tores.</w> 293
Comun ista</w> 293
humanit aria,</w> 293
exten der 293
resultad os,</w> 293
roman í 293
socav ar</w> 293
advert encia</w> 293
envej ecimiento</w> 293
brin da</w> 293
U N 292
an ul 292
re acciones</w> 292
benefici an</w> 292
afec tar</w> 292
justi fica</w> 292
exteri ores,</w> 292
usted .</w> 292
afirm an</w> 292
registr os</w> 292
cuent as,</w> 292
cualific ada</w> 292
orden ación</w> 292
reduc e</w> 292
dispar idades</w> 292
entusias mo</w> 292
rast re 292
N .</w> 291
D ,</w> 291
mi zar</w> 291
cu ot 291
to ;</w> 291
eg et 291
lo v 291
úni cos</w> 291
dici embre.</w> 291
atori os</w> 291
abri l,</w> 291
afirm ó</w> 291
some tidos</w> 291
carreter a,</w> 291
restric ción</w> 291
acog emos</w> 291
establec erse</w> 291
pluri anual</w> 291
Líban o</w> 291
jugu etes</w> 291
( DA)</w> 290
C C 290
en juici 290
di era</w> 290
au l 290
respon da</w> 290
án donos</w> 290
te or 290
educ ación.</w> 290
fij ados</w> 290
famili ar 290
exclu siva</w> 290
facili ta</w> 290
ide al</w> 290
produci dos</w> 290
encar eci 290
suger ido</w> 290
itali ana</w> 290
public ó</w> 290
Turis mo</w> 290
Copenhagu e,</w> 290
Canci ller</w> 290
Efec tivamente,</w> 290
l ados</w> 289
f or</w> 289
E P 289
w it 289
J er 289
7 00</w> 289
in vent 289
id énti 289
hab lo</w> 289
actu alidad.</w> 289
ali ce</w> 289
acep te</w> 289
gru po.</w> 289
responsab le,</w> 289
prácti co</w> 289
il las</w> 289
prot estas</w> 289
CE .</w> 289
frau de,</w> 289
continú an</w> 289
abst ener 289
opo ul 289
constat ar</w> 289
mezc la</w> 289
Deleg ación</w> 289
m e,</w> 288
r enta</w> 288
s ;</w> 288
M it 288
G .</w> 288
v as</w> 288
v eget 288
re fuerza</w> 288
ac ces 288
lu c 288
vo ces</w> 288
dur as</w> 288
pid o,</w> 288
có di 288
reuni rse</w> 288
indi gn 288
vuel ve</w> 288
mutu amente</w> 288
sól ido</w> 288
franc és,</w> 288
/96 )</w> 288
pregunt a:</w> 288
Ron da</w> 288
t emos</w> 287
O tros</w> 287
D el</w> 287
ci dad.</w> 287
ad ó 287
an al 287
st ancia</w> 287
os idad</w> 287
to mo</w> 287
bas ándose</w> 287
legi o</w> 287
val ores,</w> 287
adecu ada,</w> 287
esfuerz os.</w> 287
contamin antes</w> 287
Mundi al,</w> 287
ocupar nos</w> 287
radic al</w> 287
senti mientos</w> 287
resal tar</w> 287
imá genes</w> 287
m s.</w> 286
t ún 286
O límpi 286
con sisti 286
su prim 286
Europe a:</w> 286
fic ada</w> 286
eci n 286
ali anza</w> 286
Re for 286
instr uc 286
Bar ón</w> 286
independi ente,</w> 286
registr ado</w> 286
frecu entemente</w> 286
Ej ecu 286
M ug 285
3 2</w> 285
es cl 285
ant el 285
gr as 285
aj e.</w> 285
aplic adas</w> 285
centr arme</w> 285
comi endo</w> 285
vist a.</w> 285
lic encia</w> 285
supuest amente</w> 285
Constitu cional</w> 285
úti l,</w> 285
fáci l.</w> 285
democraci as</w> 285
profund as</w> 285
certi ficación</w> 285
decep ción</w> 285
blan queo</w> 285
sacri fici 285
OTAN ,</w> 285
escánd alo</w> 285
V ol</w> 284
ar qui 284
ri st 284
ur a.</w> 284
des empleados</w> 284
esti lo</w> 284
medi terránea</w> 284
man n</w> 284
much o,</w> 284
reci entemente,</w> 284
firm es</w> 284
palabr as.</w> 284
anim ar</w> 284
loc al.</w> 284
examin ando</w> 284
Mar íti 284
Liber al</w> 284
mism os,</w> 284
busc an</w> 284
suce dió</w> 284
profund idad</w> 284
Ucr ania.</w> 284
geográ fica</w> 284
viej os</w> 284
b oc 283
G re 283
en ce</w> 283
re ver 283
des igualdad</w> 283
idad ?</w> 283
inter vencion 283
inter venido</w> 283
dis puestas</w> 283
mar co.</w> 283
ven der</w> 283
nú ms.</w> 283
pens as</w> 283
signific a,</w> 283
Medi os</w> 283
jurídi co,</w> 283
arm as,</w> 283
noti cia</w> 283
prefer ido</w> 283
suspen dió</w> 283
valor ación</w> 283
automóvi l</w> 283
texti les</w> 283
págin a</w> 283
expul s 283
indud ablemente</w> 283
Bang eman 283
m era</w> 282
l ásti 282
u li 282
f ases</w> 282
T AC 282
4 8</w> 282
ex puesto</w> 282
des equilibrios</w> 282
pre mi 282
fir me 282
ra p 282
199 8.</w> 282
particular es</w> 282
distin ta</w> 282
sc h</w> 282
observ aciones.</w> 282
reconoc en</w> 282
manifest ación</w> 282
arl as.</w> 282
recog e</w> 282
comparti da</w> 282
falsi ficación</w> 282
Coh n 282
prohí be</w> 282
Galile o</w> 282
excu sa</w> 282
GUE/NGL .</w> 282
lidi ar</w> 282
t aliz 281
r o</w> 281
s t</w> 281
R os 281
T h 281
Sr i</w> 281
leg ales,</w> 281
ca ;</w> 281
ca ?</w> 281
diálo go,</w> 281
razon ables</w> 281
Justi cia,</w> 281
Mer k 281
volunt aria</w> 281
agrícol as.</w> 281
Sol ana,</w> 281
dij e</w> 281
Aliment aria,</w> 281
desmant el 281
Copenhagu e.</w> 281
eficac es.</w> 281
sient en</w> 281
vergü enza</w> 281
coali ción</w> 281
3 5 280
el li 280
ru sos</w> 280
utili cen</w> 280
esfuerz os,</w> 280
Li ik 280
grav emente</w> 280
ár amos</w> 280
Chi pre.</w> 280
vali osa</w> 280
complic ado</w> 280
diseñ o</w> 280
exit osa</w> 280
productiv idad</w> 280
Ár ti 280
aun que,</w> 280
re ti 279
est í 279
est o?</w> 279
con ducción</w> 279
at ún</w> 279
to -</w> 279
Comi té 279
Con vención.</w> 279
ord en,</w> 279
protec ción,</w> 279
úni ca,</w> 279
pró r 279
emi tido</w> 279
muer tos</w> 279
sustanci almente</w> 279
presid enciales</w> 279
vincul adas</w> 279
obvi amente,</w> 279
reanud a</w> 279
reanud ó</w> 279
Ruman ía,</w> 279
-B endi 279
siti os</w> 279
profes or</w> 279
recti fic 279
símbo lo</w> 279
g e,</w> 278
P uti 278
A cog 278
W og 278
di lig 278
pro xim 278
de posi 278
as equi 278
ri endo</w> 278
ur b 278
Est o,</w> 278
tien e,</w> 278
dis pu 278
cont amos</w> 278
ámbi tos,</w> 278
buen o,</w> 278
aspec tos.</w> 278
evi tar 278
pens amiento</w> 278
acept able.</w> 278
tra fic 278
coment arios.</w> 278
consul tar</w> 278
some tido</w> 278
medid a.</w> 278
acord ó</w> 278
etc .,</w> 278
impuest os,</w> 278
equival ente</w> 278
atent amente</w> 278
oposi ción,</w> 278
Quiz ás</w> 278
Cohn -Bendi 278
m b 277
f o</w> 277
D ej 277
K al 277
ar re 277
em e</w> 277
con gratu 277
des c 277
pr o</w> 277
pon go</w> 277
present ando</w> 277
emple ar</w> 277
sent imos</w> 277
bil le 277
vuel ta</w> 277
rati ficar</w> 277
Intergubernament al,</w> 277
transfer ir</w> 277
distor siones</w> 277
perpe tr 277
sitú a</w> 277
querr ía</w> 277
j am 276
entr an</w> 276
ca er</w> 276
legisl ar</w> 276
natur al,</w> 276
Medi o.</w> 276
críti cos</w> 276
competitiv idad.</w> 276
histori a,</w> 276
párraf os</w> 276
incid ente</w> 276
terrorist as.</w> 276
intergubernament al</w> 276
arra str 276
o x 275
d aré</w> 275
. )</w> 275
in direc 275
present é</w> 275
ve la</w> 275
ber ,</w> 275
bas e,</w> 275
Trat ados,</w> 275
do :</w> 275
ries go.</w> 275
labor ales,</w> 275
Fr ente</w> 275
rechaz amos</w> 275
rechaz ada</w> 275
circun stancia</w> 275
sensi bi 275
dedic ar</w> 275
prome tido</w> 275
vali oso</w> 275
parec er,</w> 275
promuev e</w> 275
mi ed 274
res titu 274
present ados</w> 274
present amos</w> 274
tad as.</w> 274
Comisi ón:</w> 274
ali a</w> 274
pid i 274
Po si 274
apar entemente</w> 274
conflic to.</w> 274
áre as,</w> 274
camin o.</w> 274
Mc Car 274
silenci o</w> 274
Esloven ia</w> 274
Estocol mo</w> 274
firme za</w> 274
M ,</w> 273
b ek 273
P ari 273
L om 273
ö r 273
ar e</w> 273
al eg 273
con ozco</w> 273
as amble 273
cul o 273
ori gen.</w> 273
ing .</w> 273
ampli o,</w> 273
preci sión</w> 273
públi camente</w> 273
autor .</w> 273
respe tan</w> 273
tri pul 273
ofrec er 273
hom bres,</w> 273
examin ará</w> 273
sep an</w> 273
ocurri ó</w> 273
bloque ar</w> 273
sistemáti ca</w> 273
mad era</w> 273
pusi eron</w> 273
Dub lín</w> 273
ubi c 273
o »</w> 272
d aría</w> 272
v a,</w> 272
T he 272
re al,</w> 272
ex pensas</w> 272
pre cau 272
mar .</w> 272
present aron</w> 272
pen sab 272
ir é</w> 272
Si l 272
financi ado</w> 272
neg ar</w> 272
hi gi 272
solu ción,</w> 272
utiliz adas</w> 272
Medi o,</w> 272
Vi etn 272
juni o.</w> 272
garantiz an</w> 272
caracter ística</w> 272
bri ll 272
militar ,</w> 272
brev e.</w> 272
permitir se</w> 272
estabi lizar</w> 272
denunci as</w> 272
reconoz co</w> 272
atent ados</w> 272
suer te,</w> 272
discipl in 272
a ».</w> 271
f ant 271
í n</w> 271
ro t 271
re produc 271
con fío</w> 271
fi cos,</w> 271
Co ton 271
Est ados.</w> 271
ru so</w> 271
escri ta</w> 271
Re comend 271
apar ición</w> 271
demasi ados</w> 271
Fr ancia.</w> 271
muer to</w> 271
Pue bl 271
carreter a.</w> 271
salvaguar di 271
fl agr 271
exhaus tiva</w> 271
físi ca</w> 271
participar on</w> 271
excesi vo</w> 271
eslo ven 271
Acuer dos</w> 271
lus con 271
c era</w> 270
g .</w> 270
S P 270
S ep 270
1 3,</w> 270
T .</w> 270
re alidades</w> 270
st ad 270
fi ables</w> 270
cul min 270
dis cul 270
human o.</w> 270
Re h 270
ocasi ón,</w> 270
moder nizar</w> 270
aére o,</w> 270
Isra el.</w> 270
Ber luscon 270
combin ar</w> 270
ei j 270
II I</w> 270
reclam aciones</w> 270
corr en</w> 270
controversi as</w> 270
ACP ,</w> 270
fren o</w> 270
tram it 270
som br 270
atra er</w> 270
expan sión</w> 270
3 7 269
im piden</w> 269
des en 269
me tod 269
rec esión</w> 269
especi al.</w> 269
et ,</w> 269
llev ada</w> 269
Di am 269
atr ap 269
te x</w> 269
docum ento,</w> 269
imp ac 269
modific ada</w> 269
Sol ana</w> 269
dan és</w> 269
Do y 269
cohesi ón.</w> 269
entreg a</w> 269
o dio</w> 268
r es</w> 268
j or 268
D ada</w> 268
qu e.</w> 268
gru pos,</w> 268
plante adas</w> 268
prot esta</w> 268
anteri ores.</w> 268
visi tar</w> 268
sustanci ales</w> 268
razon es.</w> 268
transfronteriz o</w> 268
elector ales</w> 268
aero puer 268
Defen sa</w> 268
recog er</w> 268
profes ores</w> 268
creí ble</w> 268
Sudáfri ca</w> 268
c alm 267
g est 267
6 00</w> 267
on al.</w> 267
ti das</w> 267
par ar</w> 267
per judiciales</w> 267
at añ 267
ed es</w> 267
medi o,</w> 267
cont enta</w> 267
much o.</w> 267
proyec tos,</w> 267
plant a</w> 267
Bar on 267
ens o,</w> 267
abier tos</w> 267
hon est 267
Presu puesto</w> 267
itali anos</w> 267
cualific aciones</w> 267
ofreci do</w> 267
Fisch ler</w> 267
Eur at 267
aler ta</w> 267
Checheni a</w> 267
m es,</w> 266
P ens 266
z o 266
2 50</w> 266
N apo 266
in útil</w> 266
est anc 266
su eca</w> 266
Europe an</w> 266
dic e,</w> 266
apoy ará</w> 266
ven i 266
quer ían</w> 266
interes es.</w> 266
conclu y 266
sub vención</w> 266
mundi ales.</w> 266
Tri bun 266
recomend ar</w> 266
aclar arlo</w> 266
hon r 266
Am bos</w> 266
volunt ario</w> 266
aproxim ación</w> 266
corrup ción,</w> 266
legíti mo</w> 266
lej os,</w> 266
Juvent ud,</w> 266
h of 265
2 2 265
ci ta</w> 265
er s</w> 265
cu adr 265
el es</w> 265
inter és.</w> 265
ist as.</w> 265
ing redi 265
públi cas.</w> 265
regu la</w> 265
aclar ación</w> 265
acti tudes</w> 265
positiv os,</w> 265
moder na</w> 265
vay amos</w> 265
Oc cid 265
cuid ar</w> 265
Sur .</w> 265
Bret añ 265
débi l</w> 265
Fron tex</w> 265
obstacu liz 265
encareci damente</w> 265
adó ji 265
A un 264
- a</w> 264
1 5,</w> 264
8 / 264
en emi 264
es pal 264
es col 264
tiv os.</w> 264
lu xem 264
entr ado</w> 264
end a,</w> 264
man n,</w> 264
agr aria</w> 264
pes cado</w> 264
protec ción.</w> 264
oportun idades,</w> 264
199 0</w> 264
pren sa,</w> 264
progres os.</w> 264
continu ará</w> 264
cristi an 264
científic as</w> 264
tecnológi co</w> 264
óni ca</w> 264
repar to</w> 264
expli ca</w> 264
bor r 264
estabil idad.</w> 264
desarrollar se</w> 264
Siri a</w> 264
genoci dio</w> 264
descu bri 264
lagun as</w> 264
Verheu gen</w> 264
S en 263
b anda</w> 263
ad ir</w> 263
mom entos,</w> 263
mant u 263
Des afortunadamente,</w> 263
glob alización.</w> 263
So lamente</w> 263
individu ales,</w> 263
priorit ario</w> 263
riguro sa</w> 263
insist e</w> 263
mem oria</w> 263
demográ fic 263
propag ación</w> 263
automáti camente</w> 263
finlandes a</w> 263
cami ones</w> 263
e hr 262
C ap 262
per cep 262
per diendo</w> 262
emple adores</w> 262
val idez</w> 262
aum ente</w> 262
termin e</w> 262
gesti ón.</w> 262
cultur ales,</w> 262
escuch ando</w> 262
Desarrol lo,</w> 262
vivi enda</w> 262
pasaj eros.</w> 262
suspen der</w> 262
legislativ o,</w> 262
preced entes</w> 262
Educ ación</w> 262
Jer u 262
n ar 261
neces arias,</w> 261
merc ados.</w> 261
respec tivas</w> 261
clar amente,</w> 261
sig nos</w> 261
norm ativas</w> 261
alist a.</w> 261
civi les,</w> 261
visi tas</w> 261
desa fi 261
aére os</w> 261
del ante.</w> 261
forest ales</w> 261
consig naciones</w> 261
Person almente,</w> 261
hec t 261
luxem burgu 261
Jeru sal 261
des pli 260
ob t 260
cre ó</w> 260
cre ará</w> 260
ev entu 260
ativ os.</w> 260
neces arios.</w> 260
200 1.</w> 260
pen ales</w> 260
ju ec 260
empres a,</w> 260
pid ieron</w> 260
llam amos</w> 260
lan d</w> 260
conoci miento,</w> 260
So viéti 260
comenz ando</w> 260
apropi ada</w> 260
roman í</w> 260
inevit able</w> 260
fren ar</w> 260
OS CE</w> 260
ultraperif éric 260
diversi ficación</w> 260
estí mu 260
S t 259
3 6 259
í an,</w> 259
V as 259
au ster 259
mer ec 259
present ado,</w> 259
aqu él 259
agr ado</w> 259
contribu ya</w> 259
prot est 259
An g 259
Cor e 259
conduc e</w> 259
religi osas</w> 259
relev ante</w> 259
comuni car 259
desp leg 259
Moldo va</w> 259
acad émi 259
est aríamos</w> 258
co pi 258
inter vención.</w> 258
ej a</w> 258
apoy ada</w> 258
esi ón,</w> 258
comi enza</w> 258
difer ente,</w> 258
integr ación.</w> 258
compren de</w> 258
vincul ados</w> 258
hubi éramos</w> 258
PE S 258
EU - 258
alternativ os,</w> 258
cubier tos</w> 258
seguro ,</w> 258
forest al</w> 258
Irá n.</w> 258
quej as</w> 258
Jun ta</w> 258
confer encias</w> 258
viern es</w> 258
concier ne</w> 258
arqui tec 258
n ór 257
– que</w> 257
D on 257
so le 257
cas as</w> 257
In str 257
tad a.</w> 257
fund amentos</w> 257
afec tada</w> 257
progres iva</w> 257
disminu y 257
esc épti 257
expresi ón,</w> 257
titu lares</w> 257
repi to,</w> 257
Bulg aria,</w> 257
israel í 257
renunci ar</w> 257
Podr íamos</w> 257
pará metros</w> 257
M au 256
i gl 256
al ú 256
at ender</w> 256
ten .</w> 256
pr erro 256
inter cambi 256
realiz ado,</w> 256
expres ó</w> 256
abr um 256
acept ada</w> 256
signific ar</w> 256
volun tad 256
independi ente.</w> 256
Ju egos</w> 256
sep tentri 256
méri to</w> 256
Lu k 256
terren o,</w> 256
posteri ores</w> 256
poder ,</w> 256
febr ero,</w> 256
(H -0 256
Igu almente,</w> 256
parec ía</w> 256
distingu ir</w> 256
nuclear es,</w> 256
bac ala 256
reembol so</w> 256
superfici e</w> 256
extranj ero</w> 256
p h 255
5 5</w> 255
é tri 255
J o 255
re considerar</w> 255
inform ó</w> 255
ev alú 255
cas os.</w> 255
desarrol lo 255
ayud ando</w> 255
sec ciones</w> 255
cap tur 255
sufici ente,</w> 255
difíci les.</w> 255
facili tación</w> 255
enfrent arnos</w> 255
satisf ech 255
14 ,</w> 255
discur so,</w> 255
resum en</w> 255
capí tulos</w> 255
vu elo</w> 255
discre p 255
Wal li 255
cens ura</w> 255
Gro s 255
l lo 254
f ó 254
G onz 254
D avi 254
K au 254
co les</w> 254
al ismo,</w> 254
po la 254
Est aba</w> 254
el h 254
pr este</w> 254
pre vención,</w> 254
av eri 254
trabaj a</w> 254
trabaj en</w> 254
estim ado</w> 254
proteg idos</w> 254
adopt amos</w> 254
desa fortun 254
rápid amente,</w> 254
sex to</w> 254
Aleman ia.</w> 254
some ter</w> 254
militar es,</w> 254
deteri or 254
Concili ación</w> 254
Danu bi 254
prerro g 254
l ac 253
qu é,</w> 253
des echo</w> 253
pi ezas</w> 253
au stri 253
acuer dos,</w> 253
tad a,</w> 253
conclu ido</w> 253
Li bia</w> 253
signific ativas</w> 253
administr ar</w> 253
competi d 253
contin ente.</w> 253
peligro sa</w> 253
Pres ent 253
septiem bre.</w> 253
descri bir</w> 253
13 . 253
preced ente</w> 253
provo ca</w> 253
Mil eni 253
habitu al</w> 253
Kinnoc k</w> 253
Agr ícola</w> 253
obt ención</w> 253
l as,</w> 252
t ácti 252
s ?</w> 252
í a:</w> 252
T a 252
V ar 252
al -</w> 252
per segu 252
su d 252
inter rog 252
deci de</w> 252
embar az 252
industri al,</w> 252
integr ación,</w> 252
acept ó</w> 252
conflic tos,</w> 252
vin os</w> 252
abier tas</w> 252
razon able.</w> 252
retras ar</w> 252
mism as.</w> 252
exten sión</w> 252
noti ficación</w> 252
vecin os.</w> 252
español es</w> 252
Palesti na,</w> 252
traduc ción</w> 252
plaguicid as</w> 252
fút bol</w> 252
e f 251
y r 251
D os</w> 251
re medio</w> 251
re habili 251
un ido</w> 251
po co.</w> 251
el lo 251
rec aud 251
ayud en</w> 251
activ idades.</w> 251
condi cional</w> 251
human as</w> 251
preocup ación,</w> 251
necesit ará</w> 251
199 7.</w> 251
do tación</w> 251
mencion adas</w> 251
plen aria</w> 251
acept adas</w> 251
Fon ta 251
proteg e</w> 251
confi gur 251
famili a,</w> 251
avi ón</w> 251
An n 251
orient al.</w> 251
dirig idos</w> 251
aclar a</w> 251
coher entes</w> 251
sanit arias</w> 251
obstá cul 251
sorprend ente</w> 251
equival e</w> 251
polici ales</w> 251
testi go</w> 251
desper dici 251
hid ro 251
taba co,</w> 251
TAC I 251
t ales.</w> 250
P ap 250
person almente,</w> 250
quer íamos</w> 250
prior idades,</w> 250
Señor ía,</w> 250
fortal eza</w> 250
perman entes</w> 250
implic an</w> 250
senci llo</w> 250
reflej ar</w> 250
Balcan es,</w> 250
adad adad 250
defi ende</w> 250
llen o</w> 250
debid amente.</w> 250
Especi al</w> 250
Monten egro</w> 250
depart amentos</w> 250
interoper abilidad</w> 250
simpat ía</w> 250
m as,</w> 249
f res 249
in min 249
est á,</w> 249
est arían</w> 249
enci al</w> 249
form ado</w> 249
pre mio</w> 249
pon der 249
contr apro 249
and a,</w> 249
car ía</w> 249
actu ales.</w> 249
program as,</w> 249
pregun tado</w> 249
prácti cas,</w> 249
creci endo</w> 249
ví sper 249
recib a</w> 249
movi l 249
famili ariz 249
dirig e</w> 249
confirm ó</w> 249
dirigi rme</w> 249
terrorist as,</w> 249
Schul z</w> 249
Rec u</w> 249
polac os</w> 249
Primer o,</w> 249
psi cológi 249
asti ll 249
o v</w> 248
m ati 248
P O 248
3 9 248
3 %</w> 248
¿ Está</w> 248
re volu 248
des ventajas</w> 248
mar cado</w> 248
may or.</w> 248
asi mismo,</w> 248
pas ará</w> 248
direc ción,</w> 248
tí pi 248
tí culo</w> 248
conj untos</w> 248
democráti camente</w> 248
cultur a.</w> 248
produci rse</w> 248
positiv a,</w> 248
ción ;</w> 248
Human os.</w> 248
conexi ones</w> 248
plá tanos</w> 248
ras mu 248
hogar es</w> 248
Tend remos</w> 248
miér coles</w> 248
Segu imos</w> 248
prision eros</w> 248
prote ín 248
Refor mi 248
C ast 247
F E 247
em in 247
at mos 247
des cubr 247
inter és,</w> 247
posi bili 247
car n 247
ju gar</w> 247
adecu adas.</w> 247
Pro gres 247
mé dic 247
civi lización</w> 247
aprovech ando</w> 247
renov ables,</w> 247
potenci ales</w> 247
implic adas</w> 247
transfronteriz os</w> 247
monet aria,</w> 247
ajust es</w> 247
compati bilidad</w> 247
ente ?</w> 247
fenó menos</w> 247
Bu i 247
procur ar</w> 247
Consider ando</w> 247
c e,</w> 246
e tas</w> 246
g oz 246
v ini 246
1 6,</w> 246
C abe</w> 246
N ór 246
B ri 246
ti bet 246
le z</w> 246
lar gas</w> 246
inter cambiar</w> 246
mar cos</w> 246
gri ega</w> 246
etique tas</w> 246
ejer ce</w> 246
anunci ó</w> 246
preguntar nos</w> 246
regular mente</w> 246
acompañ ado</w> 246
aleman es</w> 246
Represent ante,</w> 246
delic ado</w> 246
bom bas</w> 246
exhaus tivo</w> 246
mas ac 246
médi co</w> 246
CA P</w> 246
erradic ación</w> 246
rep ent 246
tini ,</w> 246
ministeri al</w> 246
ehr end 246
atmos f 246
M A 245
N orm 245
V ecin 245
D oy</w> 245
ad os 245
ac redi 245
pi so 245
tur b 245
tor tur 245
financi ados</w> 245
anti bi 245
ampli ado</w> 245
gener alizada</w> 245
oport una</w> 245
recon stru 245
proporcion ará</w> 245
sin o,</w> 245
publi car</w> 245
simi lar,</w> 245
gri pe</w> 245
inspec tores</w> 245
español ,</w> 245
resolver se</w> 245
band era</w> 245
t egr 244
a u</w> 244
S ak 244
ci gar 244
re pu 244
ve amos</w> 244
actu almente,</w> 244
ra k 244
prácti cos</w> 244
benefici ar</w> 244
defen diendo</w> 244
quier an</w> 244
perman ente.</w> 244
religi osa</w> 244
pasaj eros,</w> 244
pan or 244
manifi esta</w> 244
cad en 244
Ash ton</w> 244
azú car 244
prov echo</w> 244
IN D 244
Esco cia</w> 244
comprometer se</w> 244
Bui ten 244
P edi 243
- de</w> 243
H abl 243
D oh 243
er lo</w> 243
ro r</w> 243
su mar 243
form as,</w> 243
entr ará</w> 243
iz ar</w> 243
ul teri 243
llev amos</w> 243
llev adas</w> 243
segun do,</w> 243
asegur ado</w> 243
Sch mid 243
pun tos,</w> 243
mor atoria</w> 243
sem illas</w> 243
perió dico</w> 243
actú a</w> 243
¿Cuá les</w> 243
felicitar le</w> 243
cuant ía</w> 243
Tamper e</w> 243
contrarr estar</w> 243
Acog emos</w> 243
Instr umento</w> 243
( en</w> 242
K en 242
ci en</w> 242
fi able</w> 242
form ación.</w> 242
des arme</w> 242
port av 242
trans curr 242
pen siones,</w> 242
Comis arios,</w> 242
tiem po 242
coleg as.</w> 242
lleg ada</w> 242
recur r 242
baj ar</w> 242
refugi ados.</w> 242
mercanc ías,</w> 242
tecnológi ca</w> 242
decid ida</w> 242
-B ehrend 242
Cam bo 242
Educ ación,</w> 242
paquet es</w> 242
increí ble</w> 242
embri ones</w> 242
f asci 241
E rasmu 241
ar as</w> 241
con firmar 241
vi tales</w> 241
pres un 241
der iva</w> 241
neces ari 241
it arios</w> 241
medi r</w> 241
otr a.</w> 241
is .</w> 241
aplic aciones</w> 241
Re pi 241
cost as</w> 241
reuni ficación</w> 241
ho y 241
signific an</w> 241
flexi bilidad,</w> 241
defini ciones</w> 241
multi plic 241
histori a.</w> 241
vivi mos</w> 241
olvid ado</w> 241
implic aciones</w> 241
volunt ari 241
genéti ca</w> 241
obli gar 241
dom ini 241
distor sión</w> 241
drog as.</w> 241
Roth -Behrend 241
códi gos</w> 241
contrapro duc 241
antibi óti 241
cigar ri 241
c en 240
s son</w> 240
f ar 240
" la</w> 240
v á 240
6 -00 240
8 0%</w> 240
re asent 240
un idos</w> 240
Uni taria</w> 240
ru sa</w> 240
inci ner 240
direc tor</w> 240
resul tante</w> 240
err or.</w> 240
hi to</w> 240
buen o.</w> 240
apar eci 240
just as</w> 240
asoci ación,</w> 240
exteri ores.</w> 240
gast ado</w> 240
vin cular</w> 240
rechaz an</w> 240
recibi rán</w> 240
implic ar</w> 240
invi tar</w> 240
tomar á</w> 240
previ siones</w> 240
desapar ecido</w> 240
american o</w> 240
suel en</w> 240
drog as,</w> 240
recep ción</w> 240
ocar bur 240
u ,</w> 239
A ustr 239
z bek 239
E s,</w> 239
de pl 239
estr es</w> 239
pi on 239
dic e:</w> 239
trat os</w> 239
adop tará</w> 239
dipu tada</w> 239
lament ar</w> 239
comunic ado</w> 239
jurídi co.</w> 239
inmigr antes,</w> 239
envi ando</w> 239
ador a,</w> 239
constru yendo</w> 239
revis ado</w> 239
opon erse</w> 239
estrategi a.</w> 239
masi vo</w> 239
consej os</w> 239
abog ados</w> 239
refiri ó</w> 239
Brit áni 239
primordi al</w> 239
ws ki,</w> 239
My an 239
tuber culo 239
Gonz á 239
A ri 238
z a,</w> 238
en mend 238
ent idad</w> 238
in her 238
con fron 238
de volver</w> 238
actu aciones</w> 238
ocup ar</w> 238
esper ado</w> 238
cal cula</w> 238
competi tivo</w> 238
específic as.</w> 238
humanit aria.</w> 238
rur al.</w> 238
Estructur ales,</w> 238
Iraq .</w> 238
Litu ania,</w> 238
propag anda</w> 238
exigi endo</w> 238
OTAN .</w> 238
"no "</w> 238
" sí 237
9 0 237
) ;</w> 237
T em 237
pro medio</w> 237
com pi 237
enci ón,</w> 237
vi en 237
deb e,</w> 237
deb amos</w> 237
des loc 237
man u 237
Es paci 237
ambient al,</w> 237
desempeñ ando</w> 237
mor talidad</w> 237
ON G,</w> 237
Greci a.</w> 237
separ ado</w> 237
Ti enen</w> 237
Ni el 237
Sec re 237
levant ar</w> 237
limpi eza</w> 237
(B 5-0 237
repeti das</w> 237
ACP - 237
expedi ente</w> 237
EL D 237
Helsin ki</w> 237
S in 236
N ,</w> 236
qu es.</w> 236
as so 236
ter cios</w> 236
ex enciones</w> 236
pres ento</w> 236
inter ferencia</w> 236
acion es:</w> 236
leg alidad</w> 236
oper ativa</w> 236
fuer te.</w> 236
ayud arán</w> 236
pes ados</w> 236
gener aliz 236
lament amos</w> 236
hech os.</w> 236
álo go</w> 236
transpar ente,</w> 236
reduci rá</w> 236
disminu ir</w> 236
ador a.</w> 236
evid ente,</w> 236
agradeci do</w> 236
sector es,</w> 236
concili ar</w> 236
bru to</w> 236
revi se</w> 236
cán cer 236
arro j 236
Pac í 236
Concili ación,</w> 236
erradic ar</w> 236
orador )</w> 236
ja pon 236
e bre</w> 235
e k,</w> 235
M us 235
3 3</w> 235
¿ Y</w> 235
W ol 235
D ocum 235
re bel 235
Co elh 235
pue de,</w> 235
cas u 235
fon do.</w> 235
determin a</w> 235
progres os,</w> 235
tem ores</w> 235
luch ado</w> 235
bri cas</w> 235
Presupuest ario</w> 235
encamin ada</w> 235
ACP .</w> 235
juz gar</w> 235
oto ño</w> 235
Zimbabw e</w> 235
Inglat err 235
Cuent as,</w> 235
ASE A 235
juvent ud</w> 235
múltipl es</w> 235
búl gar 235
rap port 235
Recomend ación</w> 235
c ord 234
m amente</w> 234
e qu 234
t ú</w> 234
M E 234
A le 234
í os</w> 234
V arios</w> 234
en es,</w> 234
un e</w> 234
vi al</w> 234
por ti 234
des prende</w> 234
pres enci 234
inform al</w> 234
medi os,</w> 234
op in 234
actu aliz 234
actu ar.</w> 234
cur sos</w> 234
represent ados</w> 234
cl ases</w> 234
fal los</w> 234
prior idad,</w> 234
solici to</w> 234
acept ables</w> 234
anteri or 234
cuestion ar</w> 234
vigil ando</w> 234
Natur a</w> 234
radic ales</w> 234
Europa ?</w> 234
Maced onia,</w> 234
hol and 234
Man del 234
comité ,</w> 234
Méxi co</w> 234
l los</w> 233
a ún,</w> 233
( 200 233
8 0 233
R ober 233
4 6 233
¿ D 233
con sta</w> 233
ver án</w> 233
adop tan</w> 233
din am 233
den eg 233
asoci ación.</w> 233
educ ativo</w> 233
técni ca,</w> 233
visi ble</w> 233
(C EE 233
judici al.</w> 233
quiz á,</w> 233
Nuestr as</w> 233
transfronteriz as</w> 233
acus ación</w> 233
ocurri endo</w> 233
reforz ada</w> 233
prove ed 233
deliber adamente</w> 233
paral e 233
som bra</w> 233
dossi er</w> 233
már genes</w> 233
prór roga</w> 233
y a,</w> 232
M ovi 232
ent er 232
ni eg 232
ay er.</w> 232
fu ese</w> 232
contr ab 232
embar c 232
cor ta</w> 232
comerci al.</w> 232
presupuest ario.</w> 232
facili tado</w> 232
aument ó</w> 232
Vi ena</w> 232
sol v 232
ajust ar</w> 232
sufri r</w> 232
Ar men 232
Fund ación</w> 232
Maastrich t,</w> 232
aco so</w> 232
enk o</w> 232
naturalez a,</w> 232
recopi lación</w> 232
c all 231
l ema</w> 231
a consej 231
3 4</w> 231
/ DE 231
é ni 231
¿ Podría</w> 231
di eci 231
cu las</w> 231
bi r 231
Co oper 231
ob sole 231
ud a</w> 231
acion ales</w> 231
trabaj amos</w> 231
tor ,</w> 231
cont entos</w> 231
trans porti 231
ch ocol 231
19 ,</w> 231
ámbi tos.</w> 231
oportun idades.</w> 231
efic acia.</w> 231
funcion ario</w> 231
estim aciones</w> 231
Pro yec 231
ton o</w> 231
demostr ación</w> 231
depend erá</w> 231
innov adoras</w> 231
renov ables.</w> 231
ador as.</w> 231
explo tar</w> 231
caracter iza</w> 231
monet aria.</w> 231
culp ables</w> 231
Comer cio,</w> 231
gén ero.</w> 231
titu l 231
viv ido</w> 231
Presupuest ario,</w> 231
PPE- DE,</w> 231
Jap ón,</w> 231
Mad e 231
Niz a,</w> 231
s -</w> 230
M en 230
S an 230
C ab 230
D ü 230
in capaz</w> 230
to c 230
vi vir 230
gi g 230
debat es,</w> 230
centr al,</w> 230
human o,</w> 230
respe tar 230
baj as</w> 230
mencion ada</w> 230
capi tal,</w> 230
tecnolog ía.</w> 230
vuel van</w> 230
moder niz 230
opon go</w> 230
Mu y</w> 230
petróle o,</w> 230
seguro s.</w> 230
Barcelon a,</w> 230
surg en</w> 230
rí g 230
Consumid or</w> 230
mercuri o</w> 230
send ero</w> 230
descrip ción</w> 230
para í 230
s int 229
8 00</w> 229
est e.</w> 229
pr or 229
bu l 229
reci én</w> 229
tad as,</w> 229
sig amos</w> 229
ampli ada</w> 229
val ores.</w> 229
esper aba</w> 229
esper anz 229
sent ir</w> 229
prácti cas.</w> 229
pró sper 229
administr ativo</w> 229
prest an</w> 229
evid entes</w> 229
esc ena</w> 229
electróni cos</w> 229
aprobar on</w> 229
empez ado</w> 229
catástro f 229
Sant er</w> 229
Anti gua</w> 229
IND /DE 229
A du 228
F o 228
on ce</w> 228
pe lí 228
at z 228
ur e</w> 228
vi ru 228
pon emos</w> 228
op ina</w> 228
Es cu 228
presi ón,</w> 228
esenci ales.</w> 228
rig or</w> 228
muer en</w> 228
acu i 228
intent an</w> 228
ug en,</w> 228
Prim era</w> 228
gri ego</w> 228
poder .</w> 228
seguro s,</w> 228
equit ativo</w> 228
Ter cer</w> 228
absur do</w> 228
exter nos</w> 228
Luk ash 228
« la</w> 227
C 6-0 227
cu en 227
ac tor</w> 227
ten sión</w> 227
Consej os</w> 227
neces idad,</w> 227
especi fic 227
program as.</w> 227
constitu cionales</w> 227
199 4</w> 227
labor .</w> 227
Fin anzas</w> 227
ment al</w> 227
positiv os.</w> 227
compa tri 227
autoriz ar</w> 227
suje to</w> 227
guar dia</w> 227
repar ación</w> 227
afectad os.</w> 227
(COM( 200 227
sof tw 227
Verhe ugen,</w> 227
extremi stas</w> 227
Marrue cos,</w> 227
Recuer do</w> 227
m ap 226
p ant 226
e dic 226
¿ El</w> 226
er es</w> 226
ar :</w> 226
in a.</w> 226
par adóji 226
Co legio</w> 226
im puesta</w> 226
op tado</w> 226
gar se</w> 226
car bur 226
men os 226
inici ales</w> 226
propi ci 226
bo t 226
integr arse</w> 226
apar ecen</w> 226
super vi 226
concre to.</w> 226
just o,</w> 226
conflic to,</w> 226
plan eta</w> 226
clav e,</w> 226
aport aciones</w> 226
militar .</w> 226
sector es.</w> 226
bio divers 226
legíti ma</w> 226
suel e</w> 226
Ciudad anos</w> 226
secre taría</w> 226
horizon tal</w> 226
beb idas</w> 226
eficac es,</w> 226
Europea / 226
Bla ir</w> 226
concienci ación</w> 226
retóri ca</w> 226
k er</w> 225
V eo</w> 225
ar ma</w> 225
re vela</w> 225
al ber 225
aci dad</w> 225
st a.</w> 225
fi ebre</w> 225
Co ll 225
su eco</w> 225
ati on</w> 225
ampli o.</w> 225
proyec tos.</w> 225
ind ígen 225
Pro b 225
hor taliz 225
concre tos.</w> 225
enti va</w> 225
record arles</w> 225
sid o,</w> 225
post ales</w> 225
afirm aciones</w> 225
vincul ada</w> 225
vac uno</w> 225
rur ales.</w> 225
transmi tir 225
insisti do</w> 225
levant amiento</w> 225
intensi ficación</w> 225
Kyo to</w> 225
Inglat erra</w> 225
(COD ))</w> 225
salvaguardi as</w> 225
P AC 224
3 6</w> 224
E ti 224
C ambi 224
in au 224
in adecuado</w> 224
con ex 224
con du 224
pro vech 224
tr en</w> 224
bi ocarbur 224
Con serv 224
ser .</w> 224
ali ados</w> 224
decir lo,</w> 224
lleg aron</w> 224
interes ado</w> 224
sub estim 224
libr os</w> 224
just o.</w> 224
alg o.</w> 224
crimin al</w> 224
disponi bles.</w> 224
profesion al.</w> 224
ador as,</w> 224
Am b</w> 224
pag ado</w> 224
satisfactori a.</w> 224
detall adas</w> 224
Esper emos</w> 224
sir ven</w> 224
aprueb o</w> 224
tempr ana</w> 224
cír culo</w> 224
averi gu 224
r an 223
3 7</w> 223
es cog 223
ti .</w> 223
in discuti 223
ur ani 223
uni ficación</w> 223
asi le 223
sal ió</w> 223
negoci ando</w> 223
plante ada</w> 223
cal les</w> 223
us o,</w> 223
famili as,</w> 223
priv ado,</w> 223
presid enta</w> 223
disminu ido</w> 223
simi lares.</w> 223
acus ados</w> 223
arreg los</w> 223
entre gar</w> 223
dirigi rse</w> 223
Pak istán,</w> 223
nuclear es.</w> 223
degrad ación</w> 223
implement ación</w> 223
huel ga</w> 223
luc han</w> 223
escl avi 223
Dü hr 223
c el</w> 222
f f</w> 222
C li 222
es )</w> 222
ti n</w> 222
con tengan</w> 222
de tenido</w> 222
pl om 222
ev ento</w> 222
medi ados</w> 222
present arse</w> 222
cas a,</w> 222
debat es.</w> 222
produc tores,</w> 222
liber ar</w> 222
seri o,</w> 222
cost eras</w> 222
señal ar,</w> 222
natur ales.</w> 222
vot en</w> 222
facili tando</w> 222
humanit ario</w> 222
inacept ables</w> 222
entend er,</w> 222
volunt arios</w> 222
frau de.</w> 222
aus ura</w> 222
étni ca</w> 222
Bo ur 222
raí ces</w> 222
Rom a,</w> 222
rent abilidad</w> 222
reali cen</w> 222
reún e</w> 222
Herzegov ina</w> 222
Palaci o</w> 222
Islan dia</w> 222
vá lid 222
a ",</w> 221
M artí 221
- los</w> 221
T it 221
4 0%</w> 221
ci tado</w> 221
ro b 221
co t 221
rec lu 221
uni versi 221
ju ez</w> 221
anti ci 221
adop tarse</w> 221
llev ados</w> 221
Direc tivas</w> 221
presupuest aria.</w> 221
urg encia.</w> 221
proporcion ando</w> 221
limi tados</w> 221
fij adas</w> 221
técni co,</w> 221
prof esiones</w> 221
inmediat amente.</w> 221
rup tura</w> 221
descri be</w> 221
pose en</w> 221
Ministeri o</w> 221
entabl ar</w> 221
ingredi entes</w> 221
a »,</w> 220
z - 220
G eb 220
E R 220
O l 220
es cru 220
ón -</w> 220
pre dic 220
car ter 220
dad es,</w> 220
mejor ará</w> 220
decir .</w> 220
éti cas</w> 220
señal ado,</w> 220
te óri 220
lan g 220
facili tará</w> 220
territori ales</w> 220
Ser bia,</w> 220
Baj o</w> 220
reac tores</w> 220
continú e</w> 220
Coh esión</w> 220
resu mir 220
Observ atorio</w> 220
Bolkest e 220
interfer ir</w> 220
empu j 220
o z</w> 219
g h 219
s ah 219
d arán</w> 219
P ek 219
k ov 219
G il 219
6 5</w> 219
O p 219
er to</w> 219
re iv 219
re alistas</w> 219
co existencia</w> 219
bl emente,</w> 219
asi áti 219
norm alización</w> 219
mom ent 219
adecu adamente.</w> 219
plen amente.</w> 219
equilibr ar</w> 219
diálo go.</w> 219
correc tamente,</w> 219
Ver hof 219
enfrent ando</w> 219
precis amente,</w> 219
trá mi 219
permiti ó</w> 219
pat ent 219
militar es.</w> 219
tempor ales</w> 219
cristi anos)</w> 219
aprobar á</w> 219
criti c 219
criti cado</w> 219
acompañ ada</w> 219
riguro so</w> 219
parci almente</w> 219
médi ca</w> 219
Yugoslavi a,</w> 219
sucesiv amente.</w> 219
adquir ido</w> 219
adquisi ción</w> 219
derrum be</w> 219
xenofo bia</w> 219
panor ama</w> 219
rapport eur 219
(CEE )</w> 219
M organ 218
h orm 218
h aré</w> 218
- lo</w> 218
des ventaja</w> 218
el l</w> 218
gi endo</w> 218
propi edades</w> 218
particip e</w> 218
cos m 218
priv ado.</w> 218
elev adas</w> 218
peligro ,</w> 218
comprome tida</w> 218
viaj eros</w> 218
diri jo</w> 218
supon dría</w> 218
design ación</w> 218
testi gos</w> 218
Mil enio</w> 218
sient an</w> 218
comet er</w> 218
Verhof stad 218
M ir 217
C anc 217
N eg 217
un an</w> 217
ac a 217
end a.</w> 217
dic es</w> 217
ag res 217
oper ativo</w> 217
actu almente.</w> 217
ing enu 217
Trat ados.</w> 217
efici ente.</w> 217
cl ausura</w> 217
benefici ado</w> 217
comunic ar</w> 217
anim al,</w> 217
refer irse</w> 217
alg od 217
parlament ario,</w> 217
orient ada</w> 217
priv atiz 217
arm as.</w> 217
recibi mos</w> 217
cerr ado</w> 217
aport a</w> 217
justific ado</w> 217
Cas h 217
chi prio 217
revi t 217
accesi ble</w> 217
cár cel</w> 217
divi siones</w> 217
a de</w> 216
g ación</w> 216
P on 216
k a,</w> 216
3 4 216
F orm 216
di os</w> 216
ist a.</w> 216
cion amiento</w> 216
nacion alidad</w> 216
obje tiva</w> 216
sal e</w> 216
sent irse</w> 216
declar ación.</w> 216
celebr ados</w> 216
observ amos</w> 216
abord an</w> 216
dé ci 216
perman ente,</w> 216
desgraci adamente,</w> 216
cubr en</w> 216
Pl at 216
Regi ones</w> 216
equit ativa</w> 216
orgull osos</w> 216
hici era</w> 216
Schul z,</w> 216
plur alismo</w> 216
Jac ques</w> 216
refier e,</w> 216
telecomunic aciones,</w> 216
alarm ante</w> 216
ési mo</w> 216
¿D ónde</w> 216
Proyec to</w> 216
m ú 215
A ir 215
3 8</w> 215
T A</w> 215
F ern 215
con fec 215
con oz 215
con memor 215
vi eron</w> 215
fin alizar</w> 215
desarrol le</w> 215
cur so.</w> 215
199 2</w> 215
gust o</w> 215
benefici ará</w> 215
concre tas.</w> 215
específic as,</w> 215
correspon d 215
prob ar</w> 215
vincul ación</w> 215
antigu as</w> 215
ocurr idos</w> 215
Itali a.</w> 215
acord ar</w> 215
experiment ando</w> 215
Cro acia,</w> 215
reconoz can</w> 215
emprend ido</w> 215
éndo lo</w> 215
Let onia</w> 215
tos an 215
African a</w> 215
caz a</w> 215
Eco fin</w> 215
Jos é</w> 215
[...]
