e n 1979347
e s 1910390
o s</w> 1887349
d e</w> 1871696
c i 1768185
e r 1459800
l a</w> 1253869
q u 1198247
a r 1184469
o n 1163734
a s</w> 1098759
en t 1077988
e l</w> 1010995
e s</w> 987753
a d 954605
qu e</w> 941785
e n</w> 894812
t i 847834
a n 828045
o r 809603
ó n</w> 790212
i n 776000
r o 745499
r e 714370
es t 713553
i d 667727
c o 665089
a m 662500
a l 646626
u n 612440
a ci 606120
e m 578030
s i 572423
l os</w> 562582
p o 519667
m i 494943
e c 493761
s t 482343
a r</w> 462016
d i 437327
l as</w> 408276
r es 400261
c on 399151
p ar 395176
c u 369730
a b 358331
p ro 354856
d e 353278
a s 348847
t r 330537
o ,</w> 324789
a l</w> 323706
aci ón</w> 322137
d el</w> 320527
s o 316749
s e 305649
l i 298548
p e 297412
ent e</w> 295145
co m 293893
d o</w> 291148
s e</w> 280423
ad o</w> 263956
b r 262838
a c 260887
u n</w> 260826
un a</w> 248785
u ro 247934
a n</w> 246626
o r</w> 245839
par a</w> 244881
p u 244026
b i 241675
an t 240546
p er 234973
r i 230191
n o</w> 227766
a ,</w> 225846
l e 221658
l o</w> 219813
on es</w> 218819
a t 218662
po r</w> 214093
o s 212625
u r 207660
f i 200536
en ci 198310
e ,</w> 195612
co n</w> 190958
a d</w> 188676
C o 188021
t o 185503
uro pe 180781
ti v 180261
or m 179418
v i 179141
t er 177762
e r</w> 177461
a .</w> 177356
g r 175965
s u 172752
n i 172577
t o</w> 170785
ar i 166682
br e</w> 163819
ent o</w> 160487
l u 155724
de b 154620
i m 153832
ó n 152976
e x 151820
f orm 150008
í a</w> 149895
p or 149782
Co mi 147612
ad os</w> 147395
ci ón</w> 146364
c a</w> 143832
d es 141166
id ad</w> 140656
em os</w> 140028
E st 138342
h a</w> 136705
o .</w> 135761
si ón</w> 134929
t u 133584
e d 131582
n u 130834
g u 128041
am bi 126796
p res 125384
E urope 125014
so bre</w> 122763
p a 120320
l am 119204
est a</w> 118506
m á 117573
u c 117213
e l 116123
am os</w> 111717
res id 111360
est r 111216
ent e,</w> 110781
com o</w> 108772
P resid 107806
t en 107199
g i 106197
p r 105689
qu i 105592
ec h 104285
es ,</w> 103486
est e</w> 102865
por t 100500
má s</w> 99933
p re 99469
p l 99423
al es</w> 98938
id o</w> 98572
s u</w> 98145
l í 96200
m e 95072
p on 94640
am ente</w> 94531
d os</w> 93232
a y 93216
os ,</w> 92443
e ñ 91657
er a</w> 91570
ent r 90843
an do</w> 90482
c o</w> 89624
U ni 88806
a j 87969
é n</w> 87399
in form 87316
Comi sión</w> 86480
enci a</w> 85944
b l 84728
as ,</w> 83174
ad a</w> 82876
C on 82391
s ti 82384
re c 82195
o b 82108
ambi én</w> 81846
P ar 81716
aci ones</w> 81459
S eñ 81405
Uni ón</w> 81354
t a</w> 81284
ant e</w> 80941
es ti 80543
t os</w> 80153
m u 79295
u d 79018
lí ti 78664
es .</w> 78544
ón ,</w> 77710
f u 77535
ab l 77107
pu est 76240
o m 75982
p li 75818
p i 75600
c re 75362
po líti 75166
i z 74286
e g 73979
id ad 73672
er o</w> 73590
l ar 73061
in ter 71623
al m 70905
s er 70731
i st 70696
e v 70493
os .</w> 70341
L a</w> 69855
se ñ 69572
E l</w> 69171
u m 69057
nu estr 68284
po si 67453
an ci 66452
a v 66365
Par lam 65935
con tr 65515
t ambién</w> 65487
E n</w> 65326
en d 65305
g un 65259
m o</w> 64998
fi c 64640
aci on 64051
pa í 63951
m in 62881
S r 61900
or a</w> 61897
a tiv 61792
v o 61752
or es</w> 61681
a ñ 61020
im port 60755
de ci 60171
d er 60077
h a 59747
v er 59619
ón .</w> 59153
t ur 59142
f in 59122
ec es 58962
p ec 58750
mi em 58231
h ac 58063
Est ados</w> 58016
d em 57966
se j 57731
Presid ente,</w> 57446
t e</w> 57262
Con sej 56483
as .</w> 56342
m o 56267
p ri 55858
ci ones</w> 55758
n eces 55411
alm ente</w> 55379
per o</w> 55309
Señ or</w> 55121
á n</w> 55095
i t 54896
o c 54892
P or</w> 54827
e urope 54776
h an</w> 54465
s ,</w> 53941
f r 53229
Parlam ento</w> 53216
ti en 52908
s o</w> 52794
di c 52332
g o</w> 51859
e .</w> 51522
f er 51497
ab aj 50862
Europe a</w> 50540
n os</w> 49775
ci on 49770
E uro 49343
tr abaj 49259
a z 49244
c lu 49055
con s 48481
cu er 48415
a u 48109
su s</w> 48106
p o</w> 48045
paí s 48025
en do</w> 47679
cu l 47597
y a</w> 47269
inform e</w> 47099
c e 47075
o l 46995
se r</w> 46874
re l 46717
ad as</w> 46581
0 0 46288
le g 46161
me di 45614
so n</w> 45428
b u 45011
m er 44947
di s 44939
Euro p 44472
o tr 44359
ro l 44169
nu ev 44140
ent es</w> 44050
o p 44032
ech o</w> 43807
t ant 43806
c ri 43757
par ti 43714
mu y</w> 43691
g ar 43658
t ar</w> 43121
s i</w> 42990
entr e</w> 42603
u l 42543
en er 42534
po d 42452
m ar 42353
Consej o</w> 42352
u st 42160
d uc 42112
miem br 41931
to d 41861
o ci 41540
a cuer 41428
e j 41327
n acion 41316
Sr .</w> 41155
t or 41150
pres ent 41127
to dos</w> 40628
al ,</w> 40516
m e</w> 40368
r u 40266
sti tu 40193
políti ca</w> 40047
an d 40036
so ci 40017
est á</w> 40008
ari o</w> 39985
tr an 39862
qu e,</w> 39688
pu e 39437
c ar 39081
mi s 38861
i r</w> 38495
uc h 38478
cu esti 38438
mi ento</w> 38342
pu esta</w> 38310
a po 38076
ec on 38038
em a</w> 38016
per s 37957
país es</w> 37746
ent os</w> 37623
c as</w> 37514
b ar 37166
f un 36951
ar rol 36913
j e 36887
in i 36862
fi ci 36820
con t 36627
al iz 36543
id as</w> 36536
st r 36527
o y</w> 36498
in t 36395
c es 36148
m en 36140
h ab 36109
idad es</w> 36056
m an 36000
ú n</w> 35679
i s 35638
c as 35508
y ,</w> 35466
miembr os</w> 35423
or d 35420
m ed 35274
señ or</w> 35261
ech os</w> 35243
se g 34913
o cu 34796
t ado</w> 34785
v e 34728
apo y 34724
m os</w> 34681
c a 34395
m uch 34375
m i</w> 34329
am i 34211
an os</w> 34081
in ci 34049
un i 34049
b er 33646
m ay 33513
ant es</w> 33332
des arrol 33298
st a</w> 33288
a si 33277
tran s 33074
pri m 32834
pli c 32782
in o</w> 32669
al .</w> 32631
ó lo</w> 32567
ob je 32557
2 00 32502
t ar 32471
id a</w> 32409
l o 32408
l idad</w> 32383
tr at 32374
s ab 32100
me j 32060
pers on 31782
deb e</w> 31592
deb at 31503
n o 31494
f ec 31416
c os</w> 31204
em ente</w> 31000
ó mi 30965
g o,</w> 30667
p en 30633
c h 30593
pro bl 30574
i r 30512
m un 30454
tien e</w> 30407
in clu 30359
seg ur 30298
Europe o</w> 30261
é s</w> 30133
ec u 30132
res pon 30114
acuer do</w> 30007
ha y</w> 30002
Comi s 29809
deb er 29767
p as 29735
un to</w> 29734
l ti 29676
N o</w> 29644
z ar</w> 29604
Europ a</w> 29575
em bar 29381
S i 29361
s ólo</w> 29315
cons id 29246
p le 29235
a g 29114
a pro 29080
pr inci 29019
mer c 28966
fin anci 28954
am ent 28858
b li 28758
si n</w> 28596
aci ón,</w> 28583
hac er</w> 28280
pu ed 28244
j u 28216
d u 28153
fu er 28121
o per 28089
tiv a</w> 28015
s .</w> 27994
pe ci 27886
c or 27803
a ti 27765
ud ad 27694
mi end 27687
pue de</w> 27560
to do</w> 27559
g an 27503
contr a</w> 27433
ac tu 27291
econ ómi 27210
di rec 27209
es peci 27205
embar go,</w> 26974
import ante</w> 26938
h echo</w> 26879
form a</w> 26879
der echos</w> 26879
si st 26864
en miend 26819
I n 26740
res pec 26734
por que</w> 26594
pro duc 26580
ci udad 26529
an ti 26493
U n 26459
re gi 26359
est o</w> 26305
r at 26281
si gu 26155
t ec 26063
z a</w> 25980
par te</w> 25898
o n</w> 25881
er i 25826
l e</w> 25744
bl e</w> 25737
a h 25699
pro puesta</w> 25655
enci ón</w> 25525
Si n</w> 25515
A s 25507
le v 25487
de r</w> 25415
si era</w> 25109
obje tiv 25070
tant o,</w> 24825
e p 24793
es i 24673
d ar</w> 24659
l es</w> 24647
h um 24572
aci ón.</w> 24562
E s</w> 24559
re ci 24555
ti em 24535
si tu 24465
er ci 24431
ay ud 24369
si ones</w> 24360
gr am 24305
est án</w> 24291
d a</w> 24244
r á 24149
ú lti 24132
se gu 24086
ad o,</w> 24046
ent a</w> 24043
ú bli 24041
est ab 24041
or i 24018
ari a</w> 23921
h emos</w> 23766
al gun 23689
res ul 23584
m a</w> 23477
s al 23475
ari os</w> 23439
t as</w> 23425
com un 23246
puest o</w> 23174
b as 23168
le gi 23131
a plic 23005
c lar 22964
s ido</w> 22766
a qu 22674
med idas</w> 22663
l l 22593
gr aci 22506
consid er 22459
v en 22408
s ec 22376
in g 22350
a gr 22302
al es,</w> 22245
s ino</w> 22031
Comi si 21892
ar á</w> 21845
pro gram 21833
abl e</w> 21805
cu ando</w> 21803
c ambi 21768
li ci 21755
bi er 21675
er r 21673
e ci 21642
t ad 21627
g ar</w> 21538
to .</w> 21487
p es 21464
pre gun 21459
Q u 21443
L os</w> 21331
ces o</w> 21328
ar se</w> 21326
enci as</w> 21321
f av 21286
qui ero</w> 21185
est amos</w> 21172
du ci 21149
si g 21093
est os</w> 21030
nuestr a</w> 20971
am pli 20890
est as</w> 20835
í as</w> 20834
d ur 20790
lu gar 20578
e t 20572
com pe 20567
cu r 20526
n eg 20451
un tos</w> 20425
t an</w> 20368
t o,</w> 20325
t ados</w> 20317
debat e</w> 20294
h e</w> 20265
ad op 20245
em as</w> 20161
deb emos</w> 20067
pres u 20066
s l 20064
r az 20051
lu ción</w> 19979
g ener 19963
í an</w> 19880
e b 19857
ter i 19851
n om 19822
em pres 19736
h ay 19707
gr an</w> 19600
n orm 19584
r ía</w> 19579
per mi 19514
fun d 19491
trabaj o</w> 19404
ari o,</w> 19373
G ru 19337
desarrol lo</w> 19317
ocu p 19247
deb en</w> 19227
o bier 19220
anci a</w> 19203
nuestr o</w> 19198
dic h 19145
b le 19144
re g 19136
c ab 19092
Sr a.</w> 19083
li ber 19078
co oper 19068
al es.</w> 19067
c an 19050
ad i 19013
d ad</w> 18998
segur idad</w> 18991
tur a</w> 18965
ar ía</w> 18943
fi r 18915
t amente</w> 18912
ini ci 18844
cre o</w> 18826
ten er</w> 18823
ej em 18823
legi sl 18745
pre ci 18671
ab or 18665
l lev 18658
situ ación</w> 18629
al idad</w> 18627
u ti 18589
pro puest 18570
lugar ,</w> 18557
ex ist 18523
ami ento</w> 18522
p úbli 18451
person as</w> 18449
m bi 18432
con su 18415
g a</w> 18399
ist r 18350
ativ a</w> 18348
ve z</w> 18298
as í</w> 18230
merc ado</w> 18195
com pro 18051
ser vi 18033
em ple 18032
á n 17977
ad ores</w> 17965
aci a</w> 17937
r á</w> 17885
cuesti ón</w> 17851
al i 17842
id os</w> 17812
c ti 17735
t or</w> 17703
e a</w> 17689
eg ur 17673
dem oc 17643
ten emos</w> 17624
apro b 17608
b ro 17579
se a</w> 17554
t é 17468
v er</w> 17454
li g 17445
Presid ente</w> 17433
may or</w> 17420
in stitu 17417
ec e</w> 17406
1 9 17323
x im 17318
i lidad</w> 17306
or gan 17285
posi ción</w> 17266
pro pi 17257
s a</w> 17221
ac ep 17212
Gru po</w> 17201
ener g 17190
ad o.</w> 17161
Presid ent 17145
princi pi 17098
ni v 17074
a st 17049
p al 16946
di pu 16933
to m 16877
f or 16845
ciudad anos</w> 16787
ten d 16777
tien en</w> 16666
servi ci 16643
nuestr os</w> 16623
U E</w> 16622
mis mo</w> 16618
nom bre</w> 16560
op ini 16551
inter nacion 16529
lam ent 16524
y ec 16516
prim er</w> 16505
b re 16500
tod as</w> 16469
qui siera</w> 16440
deci r</w> 16429
pro ce 16420
d ad 16398
T ambién</w> 16358
com erci 16357
miem bro 16300
des de</w> 16295
uti li 16287
lu gar</w> 16282
S e</w> 16213
ah ora</w> 16158
d ec 16138
h abl 16134
c er 16111
pro yec 16020
dur ante</w> 15970
qu er 15892
deber ía</w> 15859
se gun 15858
v a</w> 15841
Est o</w> 15830
idad ,</w> 15799
i bu 15698
pro tec 15694
á mbi 15681
T rat 15672
c a,</w> 15650
v al 15643
apoy o</w> 15607
graci as</w> 15581
j er 15568
D i 15559
p unto</w> 15530
c ada</w> 15475
t ación</w> 15454
ac tiv 15418
au tor 15416
con di 15400
otr os</w> 15394
neg oci 15374
t al</w> 15362
Señ ora</w> 15356
rel ación</w> 15346
res o 15343
e fec 15320
ci er 15281
s os</w> 15279
a um 15235
t ores</w> 15228
á s</w> 15177
President a,</w> 15165
h i 15158
e fici 15155
ter min 15147
al l 15139
t í 15131
r a 15118
mej or 15109
es per 15108
ust ri 15104
c entr 15085
gr u 15040
cooper ación</w> 15038
cu m 15012
co l 15010
co leg 14926
cu enta</w> 14898
e qui 14848
m om 14825
o port 14815
estr uc 14811
v esti 14783
L as</w> 14781
hum an 14781
x i 14754
c r 14751
C re 14722
re present 14699
el ec 14672
ca p 14669
ent e.</w> 14649
pl ant 14596
ent o,</w> 14585
e gi 14535
fuer z 14535
oport un 14501
mi ll 14472
hac e</w> 14444
re con 14442
men os</w> 14432
pod emos</w> 14409
í amos</w> 14404
m o,</w> 14361
re aliz 14359
e gr 14349
m ant 14343
añ o</w> 14343
mar co</w> 14341
es a</w> 14322
Europe a.</w> 14303
fav or</w> 14268
t ro 14185
añ os</w> 14180
el l 14148
contr ibu 14141
pre ocup 14137
fer encia</w> 14126
parti ci 14122
est ar</w> 14120
S i</w> 14118
in d 14105
m on 14099
fund ament 14092
co ,</w> 14050
protec ción</w> 14049
señ ora</w> 14019
con stitu 13972
nuev o</w> 13942
co mi 13930
sist ema</w> 13925
pa ñ 13919
sig ni 13917
y o</w> 13845
ec er</w> 13822
neces it 13772
vesti g 13770
tant o</w> 13722
i gu 13689
sigu i 13655
ent ar</w> 13654
pued en</w> 13651
er e</w> 13626
as egur 13592
qu é</w> 13586
ac ción</w> 13577
Qu i 13574
much o</w> 13533
s ent 13503
en i 13485
ativ as</w> 13481
ú ni 13476
proce di 13476
par t 13474
no so 13471
z on 13440
hay a</w> 13437
E s 13432
gar anti 13388
Europe a,</w> 13384
compe t 13377
bi en</w> 13358
norm as</w> 13324
m at 13323
algun os</w> 13293
ex pres 13291
es e</w> 13279
ari as</w> 13261
comun it 13246
ti n 13240
c am 13233
pro ceso</w> 13228
í a,</w> 13184
D e</w> 13172
deci r 13117
2 0 13038
organ iz 13034
á cti 13018
c l 13017
t ad</w> 12999
partici p 12997
niv el</w> 12953
respon sab 12937
cu lo</w> 12891
lo gr 12883
dich o</w> 12829
idad .</w> 12784
mill ones</w> 12783
l leg 12769
est abl 12751
der echo</w> 12734
paí s</w> 12729
f í 12721
fir m 12679
tiem po</w> 12657
pr ácti 12645
propuest as</w> 12640
des e 12637
estr at 12636
enmiend as</w> 12633
enci on 12601
per i 12565
em an 12538
Co mo</w> 12518
h oy</w> 12511
a p 12507
fi ca</w> 12489
si s</w> 12484
probl ema</w> 12453
especi almente</w> 12446
b en 12433
sec tor</w> 12426
19 9 12424
ser v 12408
posi ble</w> 12404
cas o</w> 12393
n e 12372
ed ad</w> 12360
f on 12351
estab le 12345
cuesti ones</w> 12338
c a.</w> 12251
m id 12238
res pe 12219
bi lidad</w> 12219
est oy</w> 12215
in vestig 12212
obier no</w> 12190
medi o</w> 12187
agr ad 12181
e d</w> 12146
f e 12107
ab r 12106
lam ento</w> 12104
t am 12084
bu en 12081
ser i 12071
min istr 12061
ar tí 12055
fu e</w> 12048
Presid encia</w> 12042
program a</w> 12038
m as</w> 12037
un que</w> 12035
D es 12034
probl emas</w> 12023
desarrol l 12017
v id 12002
di fer 12000
at ur 11997
man era</w> 11981
Cre o</w> 11958
h ech 11955
ha sta</w> 11955
ind ustri 11939
n ing 11882
vi st 11871
ejem pl 11863
inter es 11810
Comisi ón,</w> 11791
inform ación</w> 11776
p os</w> 11763
al can 11742
re cur 11725
políti cas</w> 11722
pl az 11718
princi p 11717
em pr 11679
entr o</w> 11679
pr ó 11663
tr i 11645
Est ado</w> 11625
en ,</w> 11621
dec lar 11615
much os</w> 11567
C u 11562
ad ecu 11558
neces idad</w> 11556
Di rec 11555
mu jer 11535
n i</w> 11515
esi ón</w> 11513
Trat ado</w> 11507
ayud a</w> 11505
or ía</w> 11499
aplic ación</w> 11478
t é</w> 11469
servici os</w> 11461
Comis ario,</w> 11451
es o</w> 11440
e fic 11410
al qui 11410
é n 11396
fu tur 11387
f en 11382
ti do</w> 11374
fi n</w> 11360
ci o</w> 11356
so lu 11333
é ti 11327
fr on 11319
al u 11303
m í 11283
ex i 11280
nuestr as</w> 11277
d on 11269
an c 11207
ver s 11207
si m 11201
U E 11195
cu lar 11146
empres as</w> 11138
b o 11122
trat a</w> 11108
tr os</w> 11057
com ún</w> 11051
segu ir</w> 11034
co .</w> 11008
objetiv o</w> 11004
alm ente,</w> 10994
europe a</w> 10976
con clu 10946
de j 10936
ur í 10934
financi er 10927
y e</w> 10921
pró xim 10921
al go</w> 10912
Comis ario</w> 10910
uni c 10896
pal abr 10893
otr as</w> 10889
respec to</w> 10889
b aj 10868
M e</w> 10864
ab a</w> 10828
á s,</w> 10820
ámbi to</w> 10805
Est e</w> 10799
de termin 10795
li c 10794
pon er</w> 10787
at os</w> 10782
abl es</w> 10771
di ci 10766
d o 10762
es cri 10756
gu st 10741
tor i 10737
qu ed 10735
bas e</w> 10728
i l 10724
as pec 10705
es pec 10647
em pe 10643
ter r 10639
c ha</w> 10636
int egr 10634
enmiend a</w> 10633
mat eri 10629
er ,</w> 10619
parti cular 10605
i endo</w> 10601
aqu í</w> 10598
p id 10575
t ema</w> 10563
cu alqui 10563
le br 10560
cons ecu 10558
c ed 10549
dipu tados</w> 10534
f al 10521
tr es</w> 10499
re fi 10461
co s 10431
de fin 10420
trans port 10400
ser á</w> 10385
reso lución</w> 10374
ar ,</w> 10373
consu mid 10367
objetiv os</w> 10358
co st 10357
ant e,</w> 10348
es fuerz 10344
an za</w> 10336
í as,</w> 10322
c el 10314
P o 10311
artí culo</w> 10308
condi ciones</w> 10303
n ú 10299
A l 10296
t al 10295
tiv o</w> 10295
l lam 10269
ci ón,</w> 10265
import ancia</w> 10265
pri or 10264
ti r</w> 10255
mej or</w> 10254
e di 10251
l id 10243
pu és</w> 10235
R e 10228
vo l 10209
o g 10197
fic ación</w> 10192
c amente</w> 10191
pon ente</w> 10191
utili z 10183
un o</w> 10172
at ención</w> 10158
mi entos</w> 10156
ce lebr 10148
m encion 10131
egi a</w> 10130
rá ti 10121
su b 10094
ben efici 10074
o f 10070
f le 10063
d ud 10054
g n 10051
ex to</w> 10035
po co</w> 10025
fun cion 10012
plant e 10001
ob lig 10000
d entro</w> 9998
Señ or 9962
econ om 9952
presu puest 9951
estruc tur 9942
ri cul 9927
pod ría</w> 9921
segun do</w> 9899
enci a,</w> 9886
so lici 9879
p el</w> 9874
e z 9872
cualqui er</w> 9848
presu puesto</w> 9845
and es</w> 9820
ten ido</w> 9804
ent emente</w> 9799
duci r</w> 9787
pa pel</w> 9772
am in 9769
is mo</w> 9769
ti r 9765
or es,</w> 9761
tod a</w> 9757
legisl ación</w> 9755
ust ed</w> 9754
Est a</w> 9745
li br 9739
ent o.</w> 9732
ejempl o,</w> 9730
v ención</w> 9728
g res 9704
cambi o</w> 9635
produc tos</w> 9617
señ al 9615
re almente</w> 9600
int ro 9592
a ún</w> 9575
fron ter 9567
com unic 9562
gr andes</w> 9551
deci sión</w> 9540
hum anos</w> 9513
ativ o</w> 9504
vi sión</w> 9491
ati s 9477
qu e 9439
pro t 9425
estable ci 9416
u so</w> 9410
a tr 9408
ri c 9403
m ero</w> 9396
g esti 9388
c ó 9387
inclu so</w> 9383
co h 9371
cre ci 9339
ord in 9329
D eb 9328
fe lici 9326
qu eñ 9315
an i 9280
R eg 9272
prim era</w> 9268
o do</w> 9262
pe queñ 9261
a par 9256
a unque</w> 9245
otr o</w> 9222
vi sta</w> 9197
vi ol 9190
su per 9186
ci ón.</w> 9184
cri sis</w> 9184
pres i 9157
est u 9156
esti m 9141
P ro 9137
tu d</w> 9134
gust aría</w> 9134
pon e</w> 9123
respec ta</w> 9123
soci al</w> 9116
H a 9114
in str 9102
algun as</w> 9097
cont ro 9094
j urí 9084
pl en 9082
f ac 9070
democ r 9055
s atis 9038
nuev os</w> 9038
c es</w> 9033
hab er</w> 9031
a fec 9024
est ado</w> 9021
com ple 9015
co s,</w> 9002
ver dad 9001
compro mi 8998
h ora</w> 8991
nú mero</w> 8988
sti n 8983
es enci 8976
cab o</w> 8971
bl es</w> 8958
L i 8941
con j 8931
ce p 8917
Comi té</w> 8916
n atur 8907
d o,</w> 8901
pro por 8900
mom ento</w> 8890
su fici 8878
al im 8871
nuev a</w> 8870
bi l 8855
con cre 8838
ad amente</w> 8836
ci n 8821
empr e</w> 8814
to t 8799
í ti 8793
in ver 8769
v enci 8766
pr en 8766
h acia</w> 8763
futur o</w> 8748
re uni 8747
neces ario</w> 8747
té r 8738
am ble 8732
am ente,</w> 8729
instr um 8727
e vi 8724
si on 8717
principi o</w> 8710
puest os</w> 8707
pen s 8704
en contr 8699
h or 8691
Consej o,</w> 8690
may oría</w> 8685
proyec to</w> 8670
or ,</w> 8657
Direc tiva</w> 8656
P ero</w> 8646
tr av 8639
ac to</w> 8639
d en 8623
Par a</w> 8607
di stin 8606
europe os</w> 8604
A dem 8599
pro gres 8598
autor idades</w> 8593
ev alu 8591
tér min 8584
ú n 8583
mo di 8559
d in 8557
mi gr 8557
si endo</w> 8543
As untos</w> 8537
m é 8534
con ti 8533
trav és</w> 8531
t e 8529
em i 8518
s c 8510
v o</w> 8509
nacion ales</w> 8505
Qui siera</w> 8489
institu ciones</w> 8479
ob serv 8472
mant en 8470
t em 8467
democ ráti 8464
po bl 8456
In ter 8451
d ado</w> 8439
ad os,</w> 8426
M in 8420
noso tros</w> 8405
D er 8401
G obierno</w> 8389
po ,</w> 8387
an z 8382
As amble 8381
Comisi ón.</w> 8358
des pués</w> 8349
duc ción</w> 8343
h in 8330
lu cha</w> 8329
par ece</w> 8310
recur sos</w> 8307
u estr 8298
pu l 8292
hac er 8272
oportun idad</w> 8270
conti nu 8268
st anci 8261
hech o,</w> 8249
g l 8248
ó gi 8245
Un id 8230
pe di 8226
fí ci 8221
res puesta</w> 8213
di fíci 8199
pregun ta</w> 8195
pre par 8174
ri es 8170
cap aci 8169
c au 8154
a gu 8150
t re 8145
si empre</w> 8122
í ,</w> 8116
h o 8111
aliz ación</w> 8110
ag ricul 8091
mujer es</w> 8091
espec í 8091
ur g 8081
responsab ilidad</w> 8077
aj e</w> 8072
u eb 8047
b un 8036
ju sti 8031
vo tado</w> 8028
garanti zar</w> 8024
direc tiva</w> 8021
u d</w> 8013
decir ,</w> 8005
propor cion 8003
re gu 7996
f ri 7987
ent i 7986
ciudad an 7984
ob st 7983
j o</w> 7974
económi ca</w> 7969
nuev as</w> 7936
europe o</w> 7925
much as</w> 7903
asegur ar</w> 7882
e ur 7862
terr or 7855
ambi ent 7843
necesit amos</w> 7843
mun di 7839
ar án</w> 7826
ar on</w> 7821
rel acion 7819
n ol 7811
ej erci 7810
h u 7804
g an</w> 7802
ser ía</w> 7801
mun do</w> 7801
sigu e</w> 7800
compromi so</w> 7794
ari a,</w> 7779
ca pi 7776
al ist 7760
so lo</w> 7759
ad os.</w> 7737
es cu 7718
cul ar</w> 7711
Europ a.</w> 7691
Co mun 7688
má ti 7684
el los</w> 7673
so st 7662
investig ación</w> 7654
don de</w> 7645
m es 7635
medi ante</w> 7628
c al 7623
é r 7617
mejor ar</w> 7614
quer emos</w> 7608
c er</w> 7599
Señor ías,</w> 7595
emple o</w> 7590
an im 7589
resul tado</w> 7586
su puest 7582
L o</w> 7551
ti po</w> 7548
re qui 7539
de pen 7536
r án</w> 7527
so lid 7524
í a.</w> 7513
otr a</w> 7503
raz ón</w> 7487
estrat egia</w> 7486
equi libr 7458
cum pli 7456
sal ud</w> 7448
regi on 7444
acep t 7442
man i 7436
ac er 7435
pa z</w> 7435
g os</w> 7421
de fen 7413
Adem ás,</w> 7399
opini ón</w> 7382
ocu m 7372
ci a</w> 7368
ex cel 7365
transport e</w> 7363
po der</w> 7360
per í 7355
com pl 7350
tec nol 7341
re fer 7311
regi ones</w> 7310
T ur 7306
ab le 7303
r en 7301
on i 7300
c li 7299
C á 7298
c alidad</w> 7290
j ust 7289
id ente</w> 7285
ac ceso</w> 7278
á lo 7264
an a</w> 7263
fon dos</w> 7262
trans par 7256
f o 7249
re mos</w> 7249
R u 7224
rec ha 7223
procedi miento</w> 7223
miembro s,</w> 7206
con st 7203
g en 7184
li mi 7182
ad a.</w> 7177
str uc 7165
H e</w> 7163
gesti ón</w> 7162
términ os</w> 7161
có mo</w> 7142
tot almente</w> 7140
ar .</w> 7134
ri g 7132
contro l</w> 7126
as oci 7122
pro mo 7120
c e</w> 7105
pued a</w> 7067
d ocum 7064
rel aciones</w> 7058
deci siones</w> 7049
s eman 7042
dem o 7033
cre ar</w> 7014
negoci aciones</w> 7012
vo tación</w> 7008
d o.</w> 6988
tom ar</w> 6985
ni ñ 6980
signi fic 6973
v í 6972
estu di 6959
ad a,</w> 6956
con ver 6950
T en 6949
pes ar</w> 6942
Europ a,</w> 6931
ejem p 6928
Ha y</w> 6926
materi a</w> 6920
sost eni 6920
ci r 6917
ativ os</w> 6913
ab ord 6912
al g 6908
supuest o,</w> 6907
gru po</w> 6899
entr as</w> 6897
in di 6895
re d 6893
energ ía</w> 6888
cre ación</w> 6882
ning una</w> 6881
tiv as</w> 6876
e li 6874
import antes</w> 6869
parti cular</w> 6867
l abor 6859
u s 6846
l an 6836
compet encia</w> 6834
gr av 6828
a pli 6824
ad ministr 6824
di álo 6813
posi ciones</w> 6812
especi al</w> 6809
v ida</w> 6805
L is 6803
E n 6800
inter és</w> 6793
f om 6792
in dic 6790
M edi 6778
ed uc 6774
Lis bo 6771
dem asi 6767
F on 6763
pued an</w> 6753
abl emente</w> 6751
ci vi 6748
signi fica</w> 6741
fle xi 6730
ex teri 6728
at ori 6727
of rec 6715
D E 6713
actu al</w> 6713
o so 6709
so lución</w> 6708
miembro s.</w> 6708
inici ativa</w> 6701
el abor 6695
liber tad</w> 6682
program as</w> 6681
últi mos</w> 6678
t es</w> 6675
bi en 6675
acuer dos</w> 6675
Cá mar 6666
cor rec 6652
energ éti 6649
vi s 6632
vo t 6618
co ordin 6604
igu al 6594
prot eg 6593
ad h 6592
i er 6587
con fi 6585
pas o</w> 6583
rec ord 6577
el lo</w> 6576
T ri 6556
un os</w> 6552
Tur qu 6545
ac e</w> 6541
establ ecer</w> 6533
Est oy</w> 6522
enci a.</w> 6515
miembr o</w> 6507
ar nos</w> 6506
d ía</w> 6495
pr ueb 6494
bun al</w> 6494
trabaj adores</w> 6488
00 0</w> 6483
qui er 6479
en fr 6475
inform e.</w> 6475
con f 6474
é xi 6472
l ec 6471
en cu 6471
econom ía</w> 6470
agr í 6463
S u 6462
min u 6457
esfuerz os</w> 6456
nacion al</w> 6455
h om 6451
en fo 6451
E x 6450
import ant 6449
cri min 6444
ent on 6435
di st 6424
ant eri 6423
b an 6417
se an</w> 6417
gl ob 6413
fal ta</w> 6409
ed ad 6404
t exto</w> 6401
compe ti 6396
Parlam ento,</w> 6392
industri a</w> 6389
exist e</w> 6384
tad es</w> 6362
form as</w> 6358
ter ri 6353
m añ 6348
ant o</w> 6347
ex tre 6347
o v 6342
ar emos</w> 6339
baj o</w> 6337
fic ar</w> 6336
m ente</w> 6335
g en</w> 6334
av ía</w> 6334
tiv os</w> 6329
inform e,</w> 6318
ci d 6312
em ente,</w> 6312
empe ñ 6302
err a</w> 6300
refi ere</w> 6295
últi mo,</w> 6287
mi s</w> 6281
com end 6278
ac ciones</w> 6274
cul tur 6272
sim pl 6268
n ada</w> 6263
perí odo</w> 6262
er os</w> 6261
apoy ar</w> 6256
internacion al</w> 6255
institu cion 6250
br ay 6246
Min istr 6242
defin i 6227
20 1 6226
pue do</w> 6207
zon a</w> 6203
ament e.</w> 6201
soci edad</w> 6196
at o</w> 6195
co s.</w> 6194
reci b 6187
or .</w> 6180
N aciones</w> 6176
F r 6175
ab solu 6175
su bray 6174
cont rol 6164
ami li 6164
jurí di 6159
as e</w> 6146
fr ente</w> 6142
g ast 6136
un t 6130
u el 6124
Europe o,</w> 6116
tod o,</w> 6116
habl ar</w> 6116
0 0</w> 6111
h aci 6108
ejerci cio</w> 6105
comerci o</w> 6102
Reg lamento</w> 6101
interes es</w> 6099
probl em 6098
in migr 6095
ad or</w> 6094
adop t 6083
e uro 6082
ent es,</w> 6068
clar amente</w> 6063
com b 6061
pl an</w> 6057
medi os</w> 6053
p aci 6049
obje to</w> 6047
/ 200 6044
inter i 6032
escri to.</w> 6028
pon ente,</w> 6018
Un idos</w> 6015
A l</w> 6013
d est 6012
mo vi 6011
P er 5992
l oc 5991
com pañ 5991
fi j 5984
Ru si 5983
fu t 5974
adi cion 5957
f amili 5956
- 0 5951
c and 5949
diálo go</w> 5946
depen di 5942
gener al</w> 5937
e z</w> 5933
s en 5928
or es.</w> 5924
lar go</w> 5916
aum ento</w> 5913
particular ,</w> 5902
c ni 5899
demo str 5897
í sti 5887
des empeñ 5886
l ar</w> 5884
ces i 5884
est ric 5881
h ist 5875
vi si 5873
produc ción</w> 5866
aspec tos</w> 5866
p untos</w> 5865
v ent 5863
Un a</w> 5863
fut uro 5862
Deb emos</w> 5860
t on 5856
gru pos</w> 5849
a :</w> 5844
financi ación</w> 5841
constitu ye</w> 5825
Tri bunal</w> 5817
manten er</w> 5816
té cni 5809
buen a</w> 5807
os o</w> 5806
cu los</w> 5805
re comend 5804
ah or 5804
z ación</w> 5799
di fi 5794
en z 5793
ord en</w> 5788
excel ente</w> 5788
ejemp lo</w> 5781
principi os</w> 5778
á r 5772
vi g 5772
ex amin 5767
med ida</w> 5737
deber íamos</w> 5734
á ci 5724
ex clu 5720
D e 5718
T o 5716
clar o</w> 5714
a vi 5708
con oci 5705
s id 5700
as unto</w> 5699
activ idades</w> 5698
posi bilidad</w> 5697
políti co</w> 5695
resul tados</w> 5685
f aci 5679
añ os,</w> 5679
enfo que</w> 5677
M i 5656
iz ación</w> 5656
presi ón</w> 5655
Asamble a</w> 5651
ampli ación</w> 5649
for tal 5643
creci miento</w> 5643
á ni 5635
A g 5630
tiem po,</w> 5629
tend rá</w> 5627
con struc 5626
mi entras</w> 5624
B ar 5623
logr ar</w> 5623
v in 5622
tecnol og 5622
ad em 5621
eci miento</w> 5620
respon s 5618
un ci 5615
medi o 5613
d atos</w> 5612
ari o.</w> 5608
ent es.</w> 5604
in f 5600
escu ch 5593
c le 5584
G r 5584
mis ma</w> 5584
D em 5579
H emos</w> 5572
fu era</w> 5570
asi st 5565
l ,</w> 5552
p end 5550
re ducir</w> 5542
c rat 5540
conf lic 5539
V er 5538
dest ac 5537
políti cos</w> 5533
un as</w> 5532
zon as</w> 5529
fav or 5522
n a</w> 5521
el em 5521
es pero</w> 5515
cri teri 5509
s an 5503
pas ado</w> 5499
vist o</w> 5494
c at 5492
d ido</w> 5488
re forma</w> 5484
pers pec 5483
tod avía</w> 5480
recon oci 5479
aprob ación</w> 5468
sist emas</w> 5467
i o</w> 5459
l and 5459
li bre</w> 5456
dud a</w> 5455
des a 5453
pres ente</w> 5434
pl an 5428
tr a 5420
S ch 5412
Der echos</w> 5407
( C 5397
A c 5395
v e</w> 5385
cu anto</w> 5385
no v 5385
ec en</w> 5376
llev ar</w> 5366
dis pon 5364
A n 5362
pod r 5358
evi tar</w> 5352
in fr 5349
difi cul 5347
acion es,</w> 5345
er on</w> 5336
at er 5336
id o,</w> 5320
F in 5319
re cu 5317
ust ed 5313
proyec tos</w> 5310
par lament 5309
opini ón,</w> 5307
c as,</w> 5295
especí fic 5293
co g 5291
po st 5281
ten go</w> 5274
fi co</w> 5270
medio ambient 5269
ó crat 5264
úbli ca</w> 5263
haci endo</w> 5263
consecu encias</w> 5247
hab ía</w> 5243
aci ón 5238
in st 5236
ex pl 5234
esenci al</w> 5233
ter n 5227
er os,</w> 5226
A hora</w> 5224
fin al</w> 5222
part es</w> 5222
difer entes</w> 5219
alim ent 5219
Co n</w> 5216
seri e</w> 5214
present ado</w> 5212
recha z 5210
ori ent 5194
segun da</w> 5193
est rec 5181
o :</w> 5180
sent ido</w> 5179
pro f 5174
mo do</w> 5165
y en</w> 5164
ble .</w> 5164
é st 5163
pobl ación</w> 5162
en orm 5160
tr as 5154
d é 5142
fi sc 5133
con form 5132
est é</w> 5128
á si 5114
dis posiciones</w> 5111
organiz aciones</w> 5111
id ea</w> 5106
á ti 5095
pri v 5091
exi g 5091
s in 5090
l ab 5088
br es</w> 5078
S oci 5073
an u 5073
t a,</w> 5065
faci li 5063
particip ación</w> 5060
T r 5055
tro s,</w> 5054
os a</w> 5050
demasi ado</w> 5047
T )</w> 5039
coleg as,</w> 5032
difíci l</w> 5032
t os,</w> 5027
igual dad</w> 5026
acion es.</w> 5018
O M 5014
po t 5006
din ero</w> 5002
d am 4997
m ec 4995
des tin 4994
cos as</w> 4983
r é 4978
recon oc 4978
capaci dad</w> 4978
mi li 4977
qued a</w> 4960
com ent 4958
eg o</w> 4958
mu er 4955
dese o</w> 4949
z ,</w> 4945
en es</w> 4943
enfr ent 4940
deb ido</w> 4932
comunic ación</w> 4932
com ún 4931
v an</w> 4930
respe to</w> 4927
d as</w> 4924
soci ales</w> 4924
( P 4915
preci s 4915
M ar 4913
dem ás</w> 4913
g obier 4909
v amos</w> 4909
democr acia</w> 4908
de pend 4905
es os</w> 4904
fundament al</w> 4898
ning ún</w> 4896
cu al</w> 4894
ari a.</w> 4888
solid ar 4882
enton ces</w> 4877
lleg ar</w> 4873
er n 4870
nu cle 4870
felici tar</w> 4870
in dependi 4860
reso lu 4860
J u 4856
um bre</w> 4852
os os</w> 4850
eli min 4850
deber ían</w> 4841
ati r</w> 4833
consumid ores</w> 4833
p ido</w> 4824
am en 4823
form ul 4823
mec an 4819
L )</w> 4818
E so</w> 4804
com par 4801
a cu 4799
económi co</w> 4793
simpl emente</w> 4793
ocu r 4792
pro hi 4788
añ ad 4787
declar ación</w> 4785
cau s 4784
un d 4783
dis crimin 4780
- y</w> 4778
úni co</w> 4775
prácti ca</w> 4772
Par tido</w> 4771
evalu ación</w> 4768
a z</w> 4762
bu en</w> 4759
Cu ando</w> 4758
dic e</w> 4757
reuni ón</w> 4752
s í</w> 4748
b ási 4743
ter cer 4741
t en</w> 4740
integr ación</w> 4737
lab or</w> 4730
t a.</w> 4728
cas os</w> 4720
extre m 4716
en s 4712
Es pero</w> 4712
( E 4709
regi ón</w> 4709
procedi mientos</w> 4700
v ech 4696
( F 4694
encu entr 4687
di vers 4685
es :</w> 4683
in nov 4681
v ec 4672
señal ar</w> 4666
l .</w> 4664
b ast 4663
Co m 4663
terri tori 4653
re ducción</w> 4646
s on 4644
con sigui 4644
amen az 4644
obst ante,</w> 4643
europe as</w> 4640
asist encia</w> 4633
satis fac 4631
e ti 4630
i s</w> 4622
g im 4622
agrí co 4619
im p 4618
ó ven 4614
id e 4614
pregun tas</w> 4613
plaz o</w> 4613
es as</w> 4611
is mos</w> 4611
mo str 4608
P u 4606
en fer 4597
cab all 4597
j óven 4595
propi o</w> 4588
ar mon 4585
form ación</w> 4582
reg lamento</w> 4580
Con stitu 4570
ble ,</w> 4558
inform es</w> 4553
eur os</w> 4553
pr on 4548
coleg as</w> 4540
Comun idad</w> 4535
consu l 4530
Ten emos</w> 4530
M on 4524
ten ga</w> 4524
b ur 4519
ayud ar</w> 4518
ví cti 4518
per man 4511
ab ier 4510
regu l 4508
pu er 4499
res ol 4497
ré gim 4497
cuer do</w> 4494
j os</w> 4492
S er 4486
UE .</w> 4481
t an 4480
er an</w> 4480
cor respon 4478
tr as</w> 4471
cli máti 4466
Consej o.</w> 4463
J un</w> 4460
ter cer</w> 4453
realiz ado</w> 4448
g amos</w> 4444
ab ilidad</w> 4443
merc ados</w> 4441
ex per 4436
cand id 4430
rel ativa</w> 4414
últi ma</w> 4413
apro vech 4405
cier to</w> 4399
o fici 4392
t os.</w> 4391
C hin 4385
cr íti 4383
ó r 4382
adh esión</w> 4378
extrem adamente</w> 4377
sigu en</w> 4374
Con ferencia</w> 4372
S o 4365
Cámar a</w> 4365
t ales</w> 4361
añ os.</w> 4358
tien do</w> 4358
Re ino</w> 4353
ac es</w> 4352
c as.</w> 4349
pro duci 4345
aum ent 4339
Parlam ento.</w> 4338
competi tiv 4338
pue b 4336
pequeñ as</w> 4332
2 0</w> 4329
expres ar</w> 4329
vid u 4321
cl av 4319
qui enes</w> 4318
indi vidu 4318
vi r 4314
esi on 4312
l o.</w> 4309
ries go</w> 4305
im os</w> 4304
proteg er</w> 4304
part e,</w> 4302
éxi to</w> 4299
g in 4297
a ;</w> 4296
pr end 4296
pu bli 4287
tr á 4284
encontr ar</w> 4281
modi fic 4280
ad as,</w> 4277
públi co</w> 4276
di rig 4273
present ar</w> 4271
requi si 4267
actu almente</w> 4260
U n</w> 4257
in medi 4250
hay an</w> 4250
l ado,</w> 4248
fom entar</w> 4241
re alidad</w> 4235
criteri os</w> 4233
dem uestr 4232
- ,</w> 4231
os as</w> 4225
neces i 4224
qui z 4222
m ent 4221
( A 4221
ac ab 4218
Turqu ía</w> 4216
ad as.</w> 4214
caball eros,</w> 4211
trabaj ar</w> 4208
ju dici 4205
pro b 4203
régim en</w> 4202
Est amos</w> 4198
j unto</w> 4197
cambi os</w> 4197
vo c 4195
elec ciones</w> 4195
princip ales</w> 4195
DE )</w> 4194
efic az</w> 4191
á re 4171
col abor 4171
tercer os</w> 4170
segu ir 4169
al tern 4166
atr o</w> 4166
compl ace</w> 4163
m o.</w> 4159
po bre 4159
ev idente</w> 4158
( DE)</w> 4156
satis f 4149
alcan zar</w> 4146
fronter iz 4146
u do</w> 4145
ex peri 4144
pod amos</w> 4144
adop tar</w> 4143
niñ os</w> 4142
aplic ar</w> 4141
ar m 4140
mo de 4138
mu lti 4132
vo lu 4132
c err 4131
con tin 4128
acep tar</w> 4122
instrum entos</w> 4122
C umbre</w> 4121
estab ilidad</w> 4118
estim ados</w> 4115
i leg 4107
ac lar 4107
Fon do</w> 4105
ab ri 4092
pro ces 4091
a ?</w> 4090
ri s 4088
mani f 4088
niv el 4080
S egur 4078
B an 4078
resul ta</w> 4078
pe ti 4077
ber n 4075
ur a</w> 4074
er g 4057
h on 4056
un ca</w> 4056
reci bi 4052
V i 4046
pe li 4046
e za</w> 4041
cas o,</w> 4039
ar é</w> 4038
mi r 4029
peli gr 4028
ex plic 4019
con ven 4016
bast ante</w> 4014
o t 4013
dis cu 4013
cin co</w> 4013
bern ament 4013
conj un 4010
europe a.</w> 4009
able .</w> 4008
em bre</w> 4005
si v 4005
cas i</w> 4002
fundament ales</w> 4002
ar a</w> 4000
val or</w> 3999
ad u 3998
gu bernament 3996
est o,</w> 3995
cu atro</w> 3995
re ferencia</w> 3991
c ru 3987
alcan z 3984
) ,</w> 3979
su s 3978
cons ci 3978
su stanci 3976
a firm 3966
progres os</w> 3963
ad el 3956
est ad 3955
tr ó 3954
con ci 3953
financi era</w> 3953
deci di 3951
ser án</w> 3949
plen amente</w> 3949
prohi bi 3945
conj unto</w> 3937
As í</w> 3930
N uestr 3929
u su 3925
inici ativas</w> 3925
re for 3919
sigui ente</w> 3916
ri t 3915
end a</w> 3911
gar ant 3911
enfer med 3911
trat ar</w> 3909
er se</w> 3907
men udo</w> 3906
des graci 3905
C ar 3904
ú ti 3904
Des de</w> 3899
prior idad</w> 3895
val ores</w> 3893
oc asi 3891
re duci 3881
igu al</w> 3881
R ep 3878
lí n 3876
es ca 3875
h í 3873
vi gi 3871
1 4 3870
conform idad</w> 3867
responsab il 3866
pres id 3864
0 ,</w> 3860
A si 3860
cur so</w> 3856
instrum ento</w> 3855
ari os,</w> 3853
permi tir</w> 3851
consigui ente,</w> 3850
v arios</w> 3849
Ex teri 3848
necesi ta</w> 3848
ent í 3846
ent as</w> 3844
raz ones</w> 3844
mí ni 3843
M i</w> 3842
rá pid 3841
últi mo</w> 3838
ell o,</w> 3838
in cre 3836
con ce 3831
ex cep 3830
palabr a</w> 3829
P a 3828
res puest 3825
propi a</w> 3824
er v 3823
A cuerdo</w> 3822
lam entos</w> 3822
adi c 3822
Europe o.</w> 3817
úni ca</w> 3817
pedi r</w> 3814
Qui ero</w> 3810
en so</w> 3807
preocup ación</w> 3807
o ?</w> 3802
g obierno</w> 3801
2 ,</w> 3800
as untos</w> 3800
efec to</w> 3800
ter rá 3796
pre v 3794
dej ar</w> 3794
A C 3788
ac ti 3785
an ,</w> 3783
Rep ública</w> 3780
pro pon 3776
am b 3774
vec es</w> 3774
permi ti 3773
mí tam 3773
e lev 3769
de leg 3767
confi anza</w> 3767
si ón,</w> 3764
públi ca</w> 3761
dispon i 3761
efec tos</w> 3758
distin tos</w> 3757
Ministr o</w> 3757
asi gn 3756
ambi ente</w> 3752
ej ecu 3751
hin capi 3750
f áci 3747
raz on 3743
id o.</w> 3741
de t 3735
Dem ócrat 3733
de ,</w> 3731
compro mis 3728
l o,</w> 3726
nu mer 3726
v arias</w> 3720
P ri 3716
e :</w> 3715
t as 3714
an as</w> 3714
br o</w> 3714
t er</w> 3712
con den 3711
pro ced 3710
os :</w> 3705
vo tar</w> 3704
utili zar</w> 3704
g as</w> 3700
men s 3699
vol un 3699
c an</w> 3698
preci os</w> 3697
I r 3695
im pul 3689
pr est 3685
R )</w> 3683
país es,</w> 3683
posi tiv 3682
lig ro 3677
pe ligro 3675
trabaj o.</w> 3674
j a</w> 3672
precis amente</w> 3670
lu ch 3661
in a</w> 3657
raz ón,</w> 3655
re li 3652
M uch 3648
cont amin 3647
at u 3646
/ 9 3643
solidar idad</w> 3643
í .</w> 3640
mítam e</w> 3640
princip al</w> 3639
se p 3638
qui ere</w> 3637
qu es</w> 3635
establ ece</w> 3634
coh er 3631
é re 3626
debat e.</w> 3626
v uel 3620
ez co</w> 3620
compro me 3616
I s 3614
palabr as</w> 3611
cost es</w> 3610
Ir land 3607
prof esion 3604
lí mi 3601
respon der</w> 3601
estab a</w> 3601
mej ora</w> 3599
Des arrol 3599
Un idas</w> 3597
Ju sti 3590
rel ativas</w> 3588
ex port 3585
hincapi é</w> 3584
clar a</w> 3582
1 ,</w> 3576
t ando</w> 3570
cor por 3570
Gr aci 3569
t ex 3567
E con 3562
lam ente</w> 3552
gobier nos</w> 3552
con cep 3551
po .</w> 3544
(F R)</w> 3539
sal ud 3538
inmedi at 3538
mañ ana</w> 3537
a port 3535
transpar encia</w> 3534
O r 3531
fr an 3531
ci entí 3530
fu gi 3526
Rusi a</w> 3520
in s 3519
ren ov 3519
ten gan</w> 3518
re tir 3517
mo der 3516
dam as</w> 3511
contribu ción</w> 3503
a la</w> 3501
der es</w> 3500
coh esión</w> 3500
al to</w> 3494
dis minu 3493
ad or 3489
A m 3486
Po líti 3480
pro pone</w> 3476
en e</w> 3474
com pren 3473
cir c 3473
rel ativo</w> 3467
v en</w> 3458
om in 3451
lar es</w> 3449
adem ás</w> 3447
educ ación</w> 3446
posi bil 3444
ar le</w> 3440
5 ,</w> 3439
ad ap 3438
interi or</w> 3436
esca la</w> 3435
en vi 3430
fuer on</w> 3428
aum entar</w> 3428
ist as</w> 3427
comun idad</w> 3426
represent antes</w> 3423
infr a 3422
a cont 3421
coordin ación</w> 3421
imp acto</w> 3421
cum pl 3416
prim ero</w> 3415
consid era</w> 3415
estruc tura</w> 3415
pi de</w> 3412
inter vención</w> 3410
absolu tamente</w> 3407
pa que 3405
vin cul 3404
con oc 3401
sab er</w> 3400
cont exto</w> 3399
circ un 3395
3 ,</w> 3392
au to 3392
Á fri 3390
em ent 3387
ten iendo</w> 3387
l ado</w> 3379
al idad,</w> 3376
paque te</w> 3372
Econ ómi 3369
venci ones</w> 3367
represent a</w> 3366
consid ero</w> 3360
n oc 3358
hist ori 3358
volun tad</w> 3354
a ére 3353
1 0</w> 3352
exteri or</w> 3349
peligr o</w> 3345
aspec to</w> 3343
se x 3341
neces idades</w> 3341
trabaj o,</w> 3339
L e</w> 3336
debat es</w> 3334
equilibr io</w> 3333
C or 3330
fronter as</w> 3330
o ;</w> 3327
próxim o</w> 3327
P or 3325
terrá ne 3322
pot enci 3321
habl ando</w> 3320
quier en</w> 3319
democr aci 3318
n unca</w> 3314
bre ,</w> 3314
UE ,</w> 3314
má s,</w> 3311
r ati 3306
anti gu 3305
sec tores</w> 3304
N or 3303
mes es</w> 3303
av anc 3298
de li 3297
ed er 3295
á c 3291
reg lament 3290
de l 3286
pes ca</w> 3286
cuesti on 3284
vi vi 3282
vent aj 3280
er as</w> 3279
Políti ca</w> 3277
estim adas</w> 3274
in corpor 3264
es paci 3260
y endo</w> 3259
é gi 3257
ol vid 3257
estrec h 3255
P res 3254
hac en</w> 3253
S ólo</w> 3252
cu ales</w> 3252
viol encia</w> 3251
so mos</w> 3248
subray ar</w> 3247
segu ido</w> 3245
acer ca</w> 3245
jóven es</w> 3245
import ante,</w> 3243
emi siones</w> 3242
re fugi 3241
dist ri 3240
t ali 3238
parti r</w> 3238
s esi 3236
r se</w> 3235
er o 3235
má xim 3235
hab ría</w> 3233
dificul tades</w> 3233
mode lo</w> 3231
M un 3230
) .</w> 3230
li sta</w> 3226
país es.</w> 3224
9 ,</w> 3223
con vi 3223
human it 3223
intro ducción</w> 3223
futuro .</w> 3221
to tal</w> 3207
D ec 3206
regi str 3206
ci fr 3204
Con vención</w> 3204
Pu e 3204
c anti 3203
internacion ales</w> 3202
p at 3201
ha ga</w> 3199
paí s,</w> 3197
re t 3196
ju i 3195
as es 3193
financier os</w> 3193
Lisbo a</w> 3191
san it 3191
br it 3190
prior idades</w> 3190
brit áni 3189
seman a</w> 3188
con seguir</w> 3185
ó ri 3180
y .</w> 3179
o z 3179
d es</w> 3178
apar tado</w> 3177
estableci miento</w> 3176
l en 3173
mis mo,</w> 3169
estrat égi 3168
desarroll ar</w> 3167
s anci 3163
abord ar</w> 3162
resol ver</w> 3162
ad mi 3159
Qu é</w> 3159
re fle 3158
O ri 3157
Segur idad</w> 3157
clav e</w> 3156
6 ,</w> 3155
en car 3153
sim pli 3151
sufici ente</w> 3150
demostr ado</w> 3147
m and 3146
v ac 3146
sen si 3146
vícti mas</w> 3139
int ent 3138
princip almente</w> 3137
lín ea</w> 3137
dad es</w> 3134
pri mer 3133
docum ento</w> 3131
per o,</w> 3129
1 5</w> 3127
el las</w> 3127
in acept 3126
Uni ón,</w> 3126
j uni 3124
nivel es</w> 3122
cam ino</w> 3119
i gn 3118
fer ro 3116
relacion adas</w> 3114
se .</w> 3113
particular mente</w> 3109
Ban co</w> 3108
coleg a</w> 3106
fuer te</w> 3105
human os,</w> 3103
in ten 3102
C E 3101
económi cas</w> 3099
prácti cas</w> 3099
pres idente</w> 3096
en .</w> 3094
Desarrol lo</w> 3091
d en</w> 3090
cion es,</w> 3088
Medi o</w> 3088
mej ores</w> 3084
ing res 3084
mundi al</w> 3084
pon entes</w> 3083
ec er 3082
re formas</w> 3076
europe a,</w> 3074
podr ían</w> 3074
í n 3070
Dec lar 3067
próxim os</w> 3065
aliz ar</w> 3064
di men 3063
tiv a,</w> 3062
consider ar</w> 3062
re visión</w> 3060
t ,</w> 3059
gu erra</w> 3056
le y</w> 3055
garanti z 3055
inver siones</w> 3053
um an 3050
necesit an</w> 3050
comb atir</w> 3049
ari os.</w> 3046
hu bi 3045
m or 3043
te le 3043
ac aba</w> 3041
a i 3036
depend encia</w> 3036
G ener 3033
sab emos</w> 3033
sab er,</w> 3033
di a</w> 3032
fuer za</w> 3032
recu per 3031
re tras 3029
person al</w> 3025
seg ún</w> 3024
ampli a</w> 3023
Al eman 3023
soci edad 3022
soci al,</w> 3021
ampli o</w> 3021
5 0</w> 3020
s or 3018
dic os</w> 3018
¿ Qué</w> 3016
alg una</w> 3013
usted es</w> 3013
important e.</w> 3012
O N 3010
im plic 3006
i v 2998
propi os</w> 2998
á li 2994
B ru 2994
se is</w> 2992
perspec tiva</w> 2992
agrad ezco</w> 2991
Est as</w> 2990
oportun idades</w> 2990
lan des 2990
adi e</w> 2989
cumpli r</w> 2989
record ar</w> 2988
3 0</w> 2986
Y o</w> 2984
añ o,</w> 2984
servici o</w> 2982
habl ado</w> 2981
N eces 2979
Li ber 2979
o tro 2978
dem and 2978
aprob ado</w> 2978
ani a</w> 2978
st as</w> 2977
europe o.</w> 2977
ra f 2977
agríco la</w> 2976
acont eci 2975
con duc 2971
inf lu 2969
di go</w> 2964
dipu tad 2963
" .</w> 2961
distri bu 2959
Uni ón.</w> 2958
A li 2953
organiz ación</w> 2952
asoci ación</w> 2951
m al 2948
eur o</w> 2947
respec to,</w> 2946
L e 2944
ant es,</w> 2943
gener al,</w> 2941
ho y,</w> 2940
contr ario,</w> 2938
compromis os</w> 2938
promo ver</w> 2937
7 ,</w> 2936
actu ar</w> 2936
const ru 2936
lí ne 2935
n e</w> 2934
aprob ar</w> 2934
cir cul 2933
conclu siones</w> 2931
ab an</w> 2930
h iz 2928
con venci 2928
comerci ales</w> 2928
comunit ario</w> 2926
noso tros,</w> 2924
direc ción</w> 2920
mis m 2918
inmigr ación</w> 2918
alg ún</w> 2916
fun ción</w> 2914
em os,</w> 2912
si ón.</w> 2911
neces aria</w> 2911
Reg lament 2911
defen sa</w> 2910
Justi cia</w> 2909
comi sión</w> 2908
Neces it 2907
li z 2905
Aleman i 2903
in e 2900
8 ,</w> 2899
pañ a</w> 2898
in vi 2895
lleg ado</w> 2893
posibil idades</w> 2891
sal v 2889
t ada</w> 2888
so lamente</w> 2888
experi encia</w> 2888
d ía,</w> 2885
deb ati 2885
cier tas</w> 2884
to :</w> 2883
aqu ellos</w> 2883
Est r 2882
do se</w> 2879
ven ir</w> 2878
estructur as</w> 2878
reli gi 2875
ve hí 2871
permi te</w> 2868
u g 2866
Bru se 2866
and o,</w> 2865
pueb lo</w> 2864
ten gamos</w> 2858
To dos</w> 2856
agricul tores</w> 2855
g er 2853
sosteni ble</w> 2853
el la</w> 2851
est o.</w> 2848
exist en</w> 2848
emple o,</w> 2848
ca paz</w> 2846
c ar</w> 2843
v ías</w> 2842
ac tos</w> 2842
p ó 2841
c ado</w> 2839
so .</w> 2838
determin ados</w> 2838
reconoci miento</w> 2838
vi aj 2837
in volu 2836
fuerz as</w> 2835
abl emente,</w> 2834
agrad ecimiento</w> 2833
solu ciones</w> 2833
ambi én 2831
ev id 2830
mon ed 2830
an áli 2829
natur al 2829
involu cr 2828
Est os</w> 2827
verdad era</w> 2826
alist a</w> 2824
pi r 2822
d ol 2819
so me 2817
ad ores,</w> 2816
su ministr 2816
mom ento,</w> 2816
di ver 2815
respons able</w> 2812
financi ero</w> 2811
K oso 2810
t e,</w> 2809
com enz 2808
cion es.</w> 2807
jurídi ca</w> 2807
tar ea</w> 2806
an o</w> 2805
gu i 2804
direc tamente</w> 2804
qui en</w> 2803
pu es</w> 2801
ar gu 2800
cap aces</w> 2800
» .</w> 2799
apli car 2798
ocur r 2797
I tali 2796
es pañ 2796
on ar</w> 2796
C h 2793
plan es</w> 2790
A unque</w> 2789
en di 2788
au di 2787
a f 2786
o í 2785
constitu yen</w> 2784
pa g 2783
segur o</w> 2783
agricul tura</w> 2782
mañ an 2781
deb o</w> 2780
desgraci a,</w> 2780
5 -0 2778
Is ra 2774
Mun di 2773
st er 2771
esfuerz o</w> 2771
elem entos</w> 2764
red es</w> 2763
cre emos</w> 2761
cr é 2757
hiz o</w> 2757
se ,</w> 2756
min or 2756
r ur 2753
Necesit amos</w> 2751
condi ción</w> 2750
per fec 2746
declar aciones</w> 2743
es p 2741
adop ción</w> 2738
satisf acción</w> 2738
cid ent 2737
G reci 2735
in g</w> 2735
opini ones</w> 2735
ad r 2734
C i 2732
vig or</w> 2731
N os</w> 2728
preocup aciones</w> 2728
able ,</w> 2725
bien ven 2723
mi r</w> 2722
preci o</w> 2720
Pri m 2720
p un 2718
Est rat 2718
am ento</w> 2715
fon do</w> 2715
expl o 2714
tend rán</w> 2711
v el 2709
G u 2709
actu ales</w> 2708
económi cos</w> 2708
P E 2707
cumpli miento</w> 2706
s ac 2705
tur a,</w> 2704
activ idad</w> 2704
ar es</w> 2703
cré di 2703
d ías</w> 2702
all á</w> 2702
bi en,</w> 2701
et ap 2700
es cas 2697
adop tado</w> 2697
just o</w> 2697
mens aje</w> 2696
ali fic 2695
id i 2694
efic az 2691
ab and 2690
ori gin 2690
car ac 2688
construc ción</w> 2688
con serv 2686
ant e.</w> 2685
si mi 2684
enfermed ad 2684
enorm e</w> 2681
aprovech ar</w> 2681
ar mas</w> 2678
ist a</w> 2678
med id 2676
re ter 2672
cuesti ón.</w> 2672
sub sid 2672
( S 2670
tiv a.</w> 2670
direc tri 2670
Fin almente,</w> 2669
er en</w> 2667
human os.</w> 2667
carac ter 2664
quiz á</w> 2663
s ur 2662
gi r</w> 2662
car reter 2662
tam ente,</w> 2662
gu e</w> 2661
competitiv idad</w> 2660
ambi ci 2659
mun do.</w> 2658
su fr 2655
ísti cas</w> 2655
con ced 2654
r estric 2648
cu á 2648
se par 2648
com en 2647
país .</w> 2643
mi ento,</w> 2642
fortal ecer</w> 2642
inclu ir</w> 2639
A mbi 2636
mi sión</w> 2634
circun stanci 2632
e leg 2628
o u 2627
h e 2624
desa fí 2623
trans fronteriz 2622
trá fico</w> 2622
br i 2621
al ta</w> 2620
t ambién 2619
car ác 2618
requisi tos</w> 2615
am eri 2611
alist as</w> 2611
er o,</w> 2609
re vis 2609
ru p 2609
4 ,</w> 2607
Estrat egia</w> 2605
id amente</w> 2600
mo tivo</w> 2599
int ención</w> 2599
p ár 2598
der ech 2596
desarroll o,</w> 2596
mencion ado</w> 2596
( I 2594
realiz ar</w> 2594
Pres u 2594
vigi l 2593
subsid i 2593
neces arias</w> 2592
Chin a</w> 2590
terror ismo</w> 2588
ob tener</w> 2587
demuestr a</w> 2587
carác ter</w> 2586
k ,</w> 2584
l ater 2580
vo tar 2580
in c 2579
may ores</w> 2579
pod ido</w> 2578
Comis aria,</w> 2578
hab rá</w> 2576
am entos</w> 2574
fr u 2574
ex tra 2572
comen zar</w> 2571
am os,</w> 2570
anim ales</w> 2568
mili tar 2568
res erv 2562
por que,</w> 2562
dipu tado</w> 2560
pár raf 2560
d r 2558
apro pi 2557
europe os.</w> 2553
n o,</w> 2552
europe os,</w> 2552
funcion amiento</w> 2552
di ez</w> 2551
ciudadan os.</w> 2551
ahor a,</w> 2551
es c 2549
es ;</w> 2549
si sti 2549
justi cia</w> 2549
pens ar</w> 2548
s esión</w> 2547
z ca</w> 2546
con sist 2546
tran si 2546
dici embre</w> 2546
Mon et 2542
con firm 2541
inter pre 2540
a sión</w> 2537
europe o,</w> 2536
tar se</w> 2536
en a</w> 2533
cu ent 2533
O b 2532
cu ya</w> 2531
solici tud</w> 2528
tiv amente</w> 2526
t emas</w> 2525
co jo</w> 2524
gr á 2522
bu sc 2522
ofrec er</w> 2522
E E 2520
j er</w> 2520
intro ducir</w> 2519
apo ya</w> 2518
justi fic 2511
ent end 2509
a cog 2504
concep to</w> 2502
er .</w> 2501
sist em 2501
son ,</w> 2501
cri si 2500
fir ma</w> 2500
av anz 2498
E se</w> 2497
prueb a</w> 2497
comunit aria</w> 2495
plante amiento</w> 2495
g ri 2494
posi ble.</w> 2494
medi anas</w> 2493
cer ca</w> 2490
análi sis</w> 2489
á ,</w> 2488
aconteci mientos</w> 2488
f ab 2487
mar z 2486
n or 2485
promo ción</w> 2484
qui era</w> 2482
gast os</w> 2482
deleg ación</w> 2479
espaci o</w> 2478
pen a</w> 2477
satisfac tori 2477
elec tor 2476
an .</w> 2475
glob al</w> 2474
proporcion ar</w> 2472
vist as</w> 2469
a per 2467
energéti ca</w> 2466
. . 2465
liber alización</w> 2465
est én</w> 2463
Y a</w> 2460
C hi 2459
comun es</w> 2459
g e 2458
mu estr 2458
mé ri 2458
sep tiem 2458
id enti 2455
su stitu 2454
bre v 2454
Der echo</w> 2454
Demócrat as</w> 2454
mecan ismo</w> 2452
es o,</w> 2451
idad es.</w> 2451
pal esti 2450
mu tu 2449
ob ern 2445
r um 2444
discrimin ación</w> 2444
án ,</w> 2443
trat ando</w> 2441
dimen sión</w> 2441
hom bres</w> 2440
ent emente,</w> 2438
h er 2436
mencion ar</w> 2436
civi l</w> 2436
cul tura</w> 2431
particip ar</w> 2429
tom ado</w> 2428
benefici os</w> 2427
desarroll o.</w> 2426
adecu ada</w> 2425
D ur 2424
Bar ro 2422
l a 2420
mi les</w> 2420
E l 2417
s o,</w> 2414
difer encias</w> 2413
I ra 2411
to mar 2411
prohibi ción</w> 2411
expres i 2409
llev a</w> 2408
conflic to</w> 2408
os ;</w> 2407
jurídi co</w> 2407
C entr 2406
ayud as</w> 2404
dis posición</w> 2403
ob vi 2400
con tenido</w> 2399
comi enz 2398
incre m 2398
o pon 2397
mis mos</w> 2395
B el 2394
pr estar</w> 2394
o -</w> 2392
Y M 2392
de dic 2391
verdad ero</w> 2390
ci al</w> 2389
con centr 2389
pas aj 2387
pes quer 2387
a k 2384
vo y</w> 2384
a m</w> 2383
t adas</w> 2382
le ,</w> 2382
le jos</w> 2380
posi tivo</w> 2380
qu í 2379
é l</w> 2378
ori gen</w> 2378
aqu í,</w> 2378
esp í 2378
di ri 2376
ex ten 2376
áre as</w> 2375
S eg 2373
organ ismos</w> 2372
Much as</w> 2371
reconoc er</w> 2369
pobre za</w> 2367
2 5</w> 2364
In teri 2363
n adie</w> 2361
soci al.</w> 2361
vo to</w> 2360
Unid os,</w> 2360
ci dad</w> 2359
tant es</w> 2357
ten ía</w> 2356
próxim a</w> 2353
examin ar</w> 2353
b res 2352
so l 2352
g obern 2350
merc anc 2348
tecnolog ía</w> 2348
ex ac 2347
R es 2344
ari amente</w> 2343
oblig aciones</w> 2343
alim entos</w> 2343
pro puesto</w> 2342
oni a</w> 2342
S u</w> 2340
mon et 2340
me dic 2339
res pal 2336
recib ido</w> 2336
re d</w> 2335
ant es.</w> 2335
mant eni 2335
común .</w> 2333
1 0 2332
respons ables</w> 2332
rá p 2331
colabor ación</w> 2331
dich o,</w> 2330
C ó 2328
Un ido</w> 2328
consider amos</w> 2328
L u 2327
M er 2326
B er 2324
sion es,</w> 2324
re per 2323
terror is 2323
úni camente</w> 2322
to ma</w> 2321
de ud 2316
compet encias</w> 2312
ar les</w> 2310
c es,</w> 2309
form e</w> 2307
parti dos</w> 2307
plant ea</w> 2307
prev é</w> 2306
en der</w> 2305
tend remos</w> 2303
l es,</w> 2301
efici encia</w> 2301
su ce 2300
exper im 2299
circul ación</w> 2299
cre di 2298
segu i 2297
su ger 2296
fec ha</w> 2296
reper cu 2296
as un 2295
grav e</w> 2292
fran ces 2292
directri ces</w> 2292
Irland a</w> 2291
pro fund 2289
efec to,</w> 2289
defini ción</w> 2288
ar lo</w> 2287
sex u 2287
H oy</w> 2285
cul p 2284
hist óri 2284
com pr 2281
buen as</w> 2281
des cri 2280
abl es.</w> 2280
conver tir 2280
histori a</w> 2280
idad es,</w> 2279
conclu sión</w> 2276
P YM 2275
señ or 2275
firm emente</w> 2275
n er 2272
pul ar</w> 2272
ir ,</w> 2271
re form 2270
anci a,</w> 2269
centr al</w> 2269
acti tud</w> 2268
obst á 2267
(P T)</w> 2267
terr en 2266
contribu ir</w> 2264
debat e,</w> 2261
pu es,</w> 2260
Con sid 2260
Or gan 2259
pre visto</w> 2258
super visión</w> 2257
Inter nacional</w> 2257
le y 2256
im ag 2255
aj ust 2255
posi bles</w> 2254
lec tura</w> 2253
im pli 2252
dud a,</w> 2252
l er 2249
con tiene</w> 2249
mun do,</w> 2249
emple o.</w> 2248
ac ord 2247
C E</w> 2242
ac cid 2242
oblig atori 2242
destac ar</w> 2239
ries gos</w> 2237
mar íti 2236
det all 2236
per ten 2235
esper amos</w> 2235
Pro gram 2235
Prim er</w> 2235
ac as 2234
cam in 2234
sanci ones</w> 2234
argu m 2234
consu mo</w> 2232
Li bro</w> 2231
futuro ,</w> 2231
car ga</w> 2230
an s 2229
as :</w> 2228
t un 2227
posi ble,</w> 2227
adecu ado</w> 2227
cat eg 2226
esper ar</w> 2224
utiliz ación</w> 2224
Am ster 2224
amenaz a</w> 2223
añad ir</w> 2222
re flexi 2221
vir tud</w> 2220
Dur ante</w> 2220
pron to</w> 2219
añ o.</w> 2218
grav es</w> 2218
So bre</w> 2218
á usu 2217
bl o 2217
ej er 2217
mand ato</w> 2217
li zación</w> 2216
tam poco</w> 2214
fab ric 2214
S )</w> 2213
no vi 2213
contribu y 2213
pre vención</w> 2210
T A 2209
natural eza</w> 2209
manif est 2208
as u 2206
bas a</w> 2204
sec tor 2203
docum entos</w> 2203
Medi terráne 2203
coment arios</w> 2203
f es</w> 2202
b a</w> 2202
post eri 2201
ro ,</w> 2200
ir á</w> 2198
jurí dic 2198
s mo</w> 2197
pó si 2196
requi ere</w> 2194
anu al</w> 2194
eti que 2193
n ,</w> 2192
pu di 2192
labor al</w> 2192
trat o</w> 2191
adicion ales</w> 2190
ev o 2189
H a</w> 2188
pas ado,</w> 2188
elem ento</w> 2188
su fri 2187
trat ado</w> 2187
vehí culos</w> 2187
s ó 2186
internacion al.</w> 2186
é s,</w> 2185
líne as</w> 2184
nacion ales.</w> 2182
vol unt 2181
cambi ar</w> 2180
rit u</w> 2178
Ministr os</w> 2176
col ógi 2174
di o</w> 2173
prueb as</w> 2173
ér d 2172
apro xim 2171
S ab 2168
to co 2168
plen o</w> 2168
espí ritu</w> 2168
t ab 2166
mecan ismos</w> 2166
juni o</w> 2165
agrad eci 2164
cesi v 2164
Gener al</w> 2164
a -</w> 2163
ar l 2162
dis puesta</w> 2162
A po 2161
su pone</w> 2161
al egr 2159
Constitu ción</w> 2159
rel ativos</w> 2158
acu s 2158
fu entes</w> 2157
Mundi al</w> 2154
pro fun 2153
tecnolog ías</w> 2153
region al</w> 2152
S E 2149
produc tores</w> 2149
ciudadan os,</w> 2149
rápid amente</w> 2149
am en</w> 2148
Fon dos</w> 2148
au s 2147
respec to.</w> 2146
com pa 2145
común ,</w> 2145
it ali 2143
lam os</w> 2142
oblig ación</w> 2142
armon ización</w> 2141
f recu 2140
ari as,</w> 2140
autor idad</w> 2140
reci ente</w> 2139
Program a</w> 2139
co sa</w> 2137
uni vers 2137
inclu idos</w> 2134
ámbi tos</w> 2133
respe tar</w> 2133
1 1</w> 2132
br a</w> 2132
bre .</w> 2131
candid atos</w> 2129
T i 2128
mi ento.</w> 2128
con solid 2128
oc tu 2128
adem ás,</w> 2128
financier as</w> 2126
b uro 2124
pre vi 2124
agu a</w> 2124
m es</w> 2123
t as.</w> 2123
cion al</w> 2123
agrad ecer</w> 2123
recomend aciones</w> 2123
P ol 2122
comerci al</w> 2122
G obier 2121
fi g 2121
a - 2119
a ero 2119
res uel 2117
m pi 2116
noso tro 2114
so ber 2113
con seguido</w> 2111
reg res 2109
m ar</w> 2108
trans mi 2108
reci entemente</w> 2107
z .</w> 2104
fr au 2104
d ro 2103
hubi era</w> 2103
preci so</w> 2102
im puesto</w> 2096
un id 2095
os ?</w> 2095
mu l 2095
Co mer 2092
empres as,</w> 2092
refor zar</w> 2092
A r 2088
inclu ye</w> 2087
tró ni 2085
Ac ta</w> 2084
bienven ida</w> 2084
trabaj ando</w> 2083
an unci 2082
anz as</w> 2082
divers idad</w> 2082
s es</w> 2081
v ul 2080
a pren 2079
U cr 2078
no ti 2078
no ta</w> 2078
elec tróni 2078
sion es.</w> 2077
pre ten 2076
inclu ida</w> 2075
" ,</w> 2074
párraf o</w> 2073
llev ado</w> 2071
0 .</w> 2070
ad amente,</w> 2069
de fici 2069
des empleo</w> 2069
ar ían</w> 2067
públi cos</w> 2066
institucion al</w> 2066
úti l</w> 2065
Por tu 2064
cl áusu 2063
pre fer 2060
observ aciones</w> 2058
en ero</w> 2057
bas ada</w> 2056
pro voc 2055
Vi ce 2055
sesi ones</w> 2055
armon iz 2054
» ,</w> 2050
re i 2047
tiem po.</w> 2046
continu ar</w> 2045
control es</w> 2045
ingres os</w> 2045
elimin ar</w> 2044
ad qui 2042
di jo</w> 2042
fr acas 2042
comb in 2042
gr ado</w> 2041
Car ta</w> 2040
políti ca.</w> 2038
efic acia</w> 2038
d an</w> 2037
A d 2036
inter cambio</w> 2036
ex amen</w> 2035
tu lo</w> 2035
etap a</w> 2035
p érd 2034
ex tran 2034
hab ido</w> 2033
abl es,</w> 2032
políti ca,</w> 2032
qued ado</w> 2032
cau sa</w> 2032
es ?</w> 2031
ar reg 2031
g ente</w> 2030
z can</w> 2030
recibi r</w> 2030
ofrec e</w> 2028
segur idad,</w> 2027
estudi o</w> 2027
moned a</w> 2027
on es,</w> 2025
men es</w> 2025
er a,</w> 2024
ti pos</w> 2024
oc asión</w> 2024
facili tar</w> 2024
adel ante</w> 2024
proce de</w> 2022
señal ado</w> 2020
bi o 2019
intro duci 2019
im pl 2018
im puestos</w> 2018
(I T)</w> 2018
desempeñ ar</w> 2017
Áfri ca</w> 2017
re cog 2016
pe dido</w> 2016
per tin 2016
ari as.</w> 2016
col ec 2016
tem por 2016
inst al 2016
sig a</w> 2014
tu vi 2013
tu des</w> 2013
len gu 2012
fáci l</w> 2011
De fen 2010
cu yo</w> 2009
Organ ización</w> 2009
recomend ación</w> 2007
reg lamentos</w> 2006
Sch en 2005
com prend 2003
mo tiv 2002
de tal 2001
t aciones</w> 2000
aper tura</w> 2000
conoci miento</w> 1999
mí tan 1997
des apar 1996
sent ido,</w> 1995
H ab 1994
de ten 1994
t ú 1993
gr an 1993
nucle ar</w> 1993
consider ación</w> 1991
perspec tivas</w> 1991
s enci 1990
Al gun 1990
e i 1988
P acto</w> 1988
1 5 1987
b ol 1986
nacion ales,</w> 1986
relacion ados</w> 1986
comple tamente</w> 1984
d os,</w> 1983
palabr as,</w> 1983
Tr ans 1982
qu en</w> 1981
afec ta</w> 1981
1 2</w> 1980
1 2 1979
uc ha</w> 1978
apli ca</w> 1977
to ler 1976
vol ver</w> 1976
in sisti 1975
asi lo</w> 1975
toco lo</w> 1975
v ay 1973
cu ar 1973
dic tam 1973
ami entos</w> 1972
potenci al</w> 1972
er o.</w> 1971
extra ordin 1971
internacion al,</w> 1969
l án 1968
ativ amente</w> 1968
apoy amos</w> 1968
Ag encia</w> 1968
Portu g 1968
Pa í 1967
canti dad</w> 1967
fin ales</w> 1966
cuesti ón,</w> 1966
ell o.</w> 1964
b o</w> 1963
qu in 1963
ter c 1963
dic ha</w> 1963
ambi ente,</w> 1962
( artículo</w> 1960
cu y 1960
r esto</w> 1959
B aj 1959
cu br 1959
Ten go</w> 1959
po lic 1958
am a</w> 1956
graci as,</w> 1955
podr íamos</w> 1955
fir me</w> 1954
sufici entemente</w> 1954
cu o 1953
soci os</w> 1952
s per 1950
pro du 1949
judici al</w> 1949
r adi 1948
á mi 1947
as es</w> 1947
empres a</w> 1945
ci li 1944
capi tal</w> 1944
pres encia</w> 1940
C O 1939
fin almente</w> 1939
ve z,</w> 1939
s é</w> 1938
de d 1937
o li 1936
Ori ente</w> 1936
P al 1935
luch ar</w> 1935
Centr al</w> 1935
pas ar</w> 1934
pro pósi 1933
benefici o</w> 1933
tar á</w> 1931
Graci as,</w> 1931
con vers 1930
entr ada</w> 1930
S alu 1928
ón :</w> 1928
ju li 1928
f e</w> 1926
Lisbo a,</w> 1926
s em 1925
estableci do</w> 1925
er amente</w> 1924
mis mas</w> 1923
encuentr a</w> 1923
ol ógi 1922
acuer do,</w> 1922
red ac 1922
Declar aciones</w> 1922
et c 1920
también ,</w> 1920
ó vi 1919
preocup a</w> 1918
ci os</w> 1916
ameri can 1916
Min ist 1913
inclu ido</w> 1910
m í</w> 1909
l ógi 1909
ent os,</w> 1909
propi as</w> 1907
estrat egi 1907
estrec ha</w> 1907
ad ores.</w> 1906
at a 1906
so r</w> 1905
per mítame</w> 1905
económi ca,</w> 1905
permi tir 1905
rec or 1904
cost e</w> 1904
mítan me</w> 1904
in dependencia</w> 1903
territori o</w> 1903
últi mas</w> 1902
alcanz ado</w> 1902
encuentr an</w> 1901
A méri 1899
p ac 1898
pes qu 1897
econom ías</w> 1897
lán ti 1897
Comis aria</w> 1896
mé todos</w> 1896
den omin 1895
si l 1894
con ten 1894
de .</w> 1894
ac el 1894
innov ación</w> 1894
present adas</w> 1893
t ado,</w> 1892
inter n 1892
mé todo</w> 1892
di ferencia</w> 1891
decir le</w> 1891
autor iz 1890
defen der</w> 1890
rei ter 1890
hor as</w> 1889
consci entes</w> 1889
- 00 1887
inclu sión</w> 1887
conven i 1887
ases in 1887
1 3 1886
au t 1886
Des pués</w> 1886
exist entes</w> 1885
bu sti 1884
f eder 1883
contamin ación</w> 1883
loc ales</w> 1880
com busti 1878
M u 1877
ar me</w> 1876
ge o 1876
l le 1874
aband on 1873
s as</w> 1872
pod rá</w> 1872
bil ater 1872
comi té</w> 1871
fin ,</w> 1870
garant ías</w> 1870
enfermedad es</w> 1870
desa str 1869
di pl 1866
hacer lo</w> 1865
refugi ados</w> 1863
bi li 1862
sustanci as</w> 1862
mi tad</w> 1861
Salu d</w> 1861
k i 1860
por tu 1860
cont ex 1860
cri sti 1858
c ent 1856
ir landes 1856
liber tad 1856
escri to</w> 1856
ráp ida</w> 1856
E m 1854
est ados</w> 1854
ben e 1853
re to</w> 1851
acuer do.</w> 1851
refle j 1851
pi en 1850
p an 1849
g anos</w> 1849
divers as</w> 1845
er emos</w> 1844
agrí col 1844
cultur al</w> 1844
cu alific 1843
dich os</w> 1843
(P L)</w> 1842
H o 1841
P i 1841
inci d 1841
exist encia</w> 1841
ést e</w> 1840
exac tamente</w> 1840
so y</w> 1839
tar e 1839
di endo</w> 1838
A L 1837
es o.</w> 1837
po deres</w> 1837
em erg 1835
ley es</w> 1835
nosotro s.</w> 1834
V an</w> 1833
t a 1832
De ber 1832
cientí fic 1832
conci li 1829
pl áci 1828
Ag ricul 1828
bene pláci 1827
ér amos</w> 1826
usted ,</w> 1826
nacion al,</w> 1825
Po pular</w> 1825
atu to</w> 1825
agu ar 1823
b el 1821
mar cha</w> 1821
cer ti 1821
muer te</w> 1821
seguir á</w> 1821
posi tiva</w> 1820
r aci 1818
situ aciones</w> 1818
aqu í.</w> 1816
subsidi ari 1816
dici endo</w> 1814
ve cin 1813
d ando</w> 1812
n º</w> 1812
g én 1811
so bre 1811
er á</w> 1810
progres o</w> 1810
administr ación</w> 1810
ferro vi 1810
suministr o</w> 1809
m a 1808
prob ablemente</w> 1808
J e 1804
án dose</w> 1803
Fr ancia</w> 1803
neces arios</w> 1802
tor no</w> 1802
S ec 1801
4 -0 1801
vi tal</w> 1800
deb idamente</w> 1800
proced entes</w> 1800
bi a</w> 1799
t as,</w> 1798
climáti co</w> 1798
permiti rá</w> 1798
má s.</w> 1797
ir se</w> 1797
for tun 1795
Asi mismo,</w> 1795
tar de</w> 1794
n av 1793
al idad.</w> 1793
su pon 1793
e cológi 1792
N i 1792
ay er</w> 1792
dad ,</w> 1792
ins pec 1792
medioambient ales</w> 1791
j untos</w> 1790
produc to</w> 1788
ar an</w> 1787
re al</w> 1787
exclu siv 1787
í as.</w> 1785
Bel ar 1785
con ferencia</w> 1784
o posición</w> 1782
impul s 1782
t e.</w> 1781
re an 1781
person a</w> 1780
mani fi 1780
responsabil idades</w> 1780
diputad os,</w> 1780
pid iendo</w> 1779
region ales</w> 1779
numer osas</w> 1779
flexi bilidad</w> 1778
problem a.</w> 1778
ide as</w> 1778
M a 1777
dictam en</w> 1776
b e</w> 1775
Isra el</w> 1775
com parti 1772
car b 1772
coleg a,</w> 1772
llam ar</w> 1772
tr o</w> 1771
int e 1769
sus pen 1768
alm ente.</w> 1767
m ucha</w> 1766
U st 1766
empe zar</w> 1766
bur go</w> 1765
experim ent 1765
e te</w> 1764
A u 1762
ent or 1761
pa gos</w> 1761
públi cas</w> 1761
su ced 1760
ti tu 1759
Belar ú 1759
lu ego</w> 1758
leg ales</w> 1758
dej ado</w> 1757
mili tar</w> 1757
Paí ses</w> 1756
esper a</w> 1755
tu ris 1753
estructur ales</w> 1753
específic as</w> 1753
legisl ativ 1750
t amos</w> 1746
mostr ar</w> 1746
correspon di 1746
m en</w> 1745
bl es.</w> 1745
c en</w> 1744
de tr 1743
ver dad</w> 1743
J urí 1742
ul g 1742
apro bar 1742
benepláci to</w> 1741
elec ción</w> 1739
acel er 1739
produci do</w> 1738
logr ado</w> 1737
f era</w> 1736
direc tivas</w> 1736
Per mítame</w> 1735
com port 1734
ent e:</w> 1733
pro me 1733
deb atir</w> 1733
O TA 1732
cons enso</w> 1732
person as,</w> 1732
escuch ado</w> 1732
end o,</w> 1730
fisc al</w> 1730
s a,</w> 1729
re tos</w> 1729
ón de</w> 1729
pes c 1728
exi sti 1728
re ac 1726
dé fici 1726
fu tura</w> 1724
garant ía</w> 1724
v é 1722
nacion al.</w> 1722
regu lar 1722
vi ven</w> 1720
ho y.</w> 1720
tecnol ógi 1719
elabor ar</w> 1719
deci dido</w> 1718
contin ú 1718
rean ud 1718
P l 1717
v emos</w> 1716
ci o,</w> 1716
resid u 1716
elabor ación</w> 1716
reuni ones</w> 1715
avanc es</w> 1715
cifr as</w> 1715
liber tades</w> 1713
funcion arios</w> 1713
salv aguar 1713
t ni 1712
l ación</w> 1712
al ismo</w> 1710
consci ente</w> 1710
mercanc ías</w> 1710
Có mo</w> 1710
f lu 1709
inver sión</w> 1708
n o.</w> 1707
present ada</w> 1707
determin ar</w> 1707
democráti co</w> 1707
ign or 1707
R egi 1706
B alcan 1706
x em 1705
si quiera</w> 1705
S ol 1704
cos as,</w> 1703
ór ganos</w> 1703
esper anza</w> 1702
adicion al</w> 1702
compl ement 1701
conflic tos</w> 1701
ocur ri 1701
hon or 1701
ejecu ción</w> 1701
pl ani 1700
plante ado</w> 1700
po cos</w> 1699
entr ar</w> 1698
trat amiento</w> 1698
pregun tar 1698
empe z 1698
re pi 1697
Ali anza</w> 1697
vul ner 1697
segur a</w> 1694
regul ación</w> 1692
fic ado</w> 1691
institu ción</w> 1691
est at 1690
tur a.</w> 1690
convertir se</w> 1690
ex tr 1689
buen o</w> 1687
so la</w> 1686
estad o 1686
h ar 1685
su m 1685
sab e</w> 1684
refi ero</w> 1684
cerr ado.</w> 1684
po bres</w> 1683
tró le 1683
ambi ente.</w> 1682
En erg 1682
cont em 1681
gen éti 1680
m asi 1679
oc h 1679
pequeñ os</w> 1679
amb os</w> 1679
di r</w> 1678
cri ti 1678
as í,</w> 1676
peti ción</w> 1675
disminu ción</w> 1675
re alidad,</w> 1674
t ó</w> 1673
E sa</w> 1673
lu z</w> 1673
igu almente</w> 1673
an zar</w> 1672
val or 1672
Mi em 1671
tas a</w> 1671
convi er 1671
sober an 1671
circunstanci as</w> 1669
estado unid 1669
po l 1668
As un 1668
cier ta</w> 1668
escuch ar</w> 1668
decidi r</w> 1667
con cesi 1666
A ustri 1665
cor rup 1665
Ambi ente,</w> 1665
á l 1664
P re 1663
dis curso</w> 1663
En ton 1663
a compañ 1662
¿ Cómo</w> 1662
pe tróle 1662
po cas</w> 1661
Asun to:</w> 1661
vé ase</w> 1660
int ento</w> 1659
r a</w> 1658
medic amentos</w> 1658
di gn 1657
cor to</w> 1657
permi ta</w> 1657
200 0</w> 1656
respuest as</w> 1656
n ti 1654
lí deres</w> 1654
as ;</w> 1653
llev ando</w> 1652
cam ente,</w> 1652
Su eci 1650
anteri orm 1650
¿ Por</w> 1649
B ulg 1649
segu imos</w> 1649
distribu ción</w> 1649
su peri 1646
0 %</w> 1644
ver si 1644
f é 1643
señ al</w> 1643
agríco las</w> 1642
con tar</w> 1641
so s.</w> 1641
and o.</w> 1640
cam paña</w> 1640
amb as</w> 1640
d amos</w> 1639
cre ado</w> 1639
expresi ón</w> 1639
h echos</w> 1638
ti m 1638
refor z 1637
m ag 1636
par lamentos</w> 1636
án d 1636
presupuest aria</w> 1635
P PE 1634
er ro 1634
lími tes</w> 1634
bas ado</w> 1633
represent an</w> 1633
agu as</w> 1633
b ú 1632
sin cer 1632
C ro 1631
re co 1631
hab ían</w> 1631
bu ques</w> 1630
contr at 1629
is l 1629
ab st 1628
segur idad.</w> 1628
inici ativ 1628
llam amiento</w> 1628
inte lig 1628
al eman 1627
des plaz 1627
au té 1627
so s,</w> 1626
auté nti 1626
may o</w> 1625
oper ación</w> 1625
Po d 1625
compa ti 1625
exig encias</w> 1624
evalu ar</w> 1623
pobre z 1623
d os.</w> 1622
a tiendo</w> 1622
Nuestr o</w> 1622
ventaj as</w> 1622
( N 1621
dec ep 1620
Graci as</w> 1620
ist án</w> 1619
E U 1618
T odo</w> 1618
ab u 1617
o l</w> 1616
S r</w> 1614
estrech amente</w> 1614
consecu encia</w> 1612
ocasi ones</w> 1612
demand a</w> 1612
constru ir</w> 1612
marz o</w> 1612
á b 1611
hay amos</w> 1611
N atur 1610
seri o</w> 1609
N oso 1608
mo tivos</w> 1608
é tni 1607
asu mir</w> 1606
blo que 1604
enti v 1603
o po 1599
convers aciones</w> 1599
bl emente</w> 1598
im poner</w> 1597
adop te</w> 1597
vi v 1596
apoy ado</w> 1596
As í,</w> 1596
des ea</w> 1595
extran jer 1595
vigil ancia</w> 1594
si va</w> 1593
Inter gubernament 1593
S e 1592
urg ente</w> 1592
anci a.</w> 1591
exig e</w> 1591
I I 1590
resolu ciones</w> 1590
g o.</w> 1589
1 8</w> 1589
mu jer</w> 1589
present ación</w> 1584
centr o</w> 1584
h err 1580
pon ente.</w> 1579
movi lidad</w> 1579
present a</w> 1578
adh esi 1578
anteri or</w> 1578
inmigr antes</w> 1577
é l 1576
ad ora</w> 1576
v encion 1574
po der 1574
post ura</w> 1574
leg íti 1570
M c 1569
¿ qué</w> 1568
pac í 1568
S on</w> 1566
é sta</w> 1566
M ac 1565
gu err 1565
R uman 1564
res i 1564
ahor r 1564
car go</w> 1563
car ne</w> 1563
lo g 1563
í es</w> 1562
natur almente,</w> 1561
perfec tamente</w> 1560
fu sión</w> 1559
A qu 1558
In vestig 1558
democráti ca</w> 1558
septiem bre</w> 1558
herr ami 1558
T am 1557
nom br 1557
si ete</w> 1556
cu án 1556
% .</w> 1555
Exteri ores</w> 1554
f lo 1553
P ueb 1553
mundi al.</w> 1553
propuest a.</w> 1552
gast o</w> 1552
determin ación</w> 1550
í menes</w> 1549
ampli ar</w> 1548
ó ni 1547
de port 1547
deb atiendo</w> 1547
democraci a,</w> 1547
oper aciones</w> 1545
gui en</w> 1544
men or</w> 1543
creci ente</w> 1543
di ó</w> 1542
Greci a</w> 1542
viol aciones</w> 1541
ant emente</w> 1540
man o</w> 1540
ocu par 1540
Es per 1540
Seg ún</w> 1540
ra í 1539
bar r 1538
asi mismo</w> 1538
ord en 1537
lími te</w> 1537
impli ca</w> 1536
1 4</w> 1535
europe as,</w> 1535
comple j 1535
deb er</w> 1534
F und 1533
B o 1533
consul ta</w> 1533
is ra 1532
S ud 1530
eci do</w> 1530
ne t</w> 1530
terc era</w> 1530
uni ón</w> 1529
int entar</w> 1528
compañ ías</w> 1528
exper tos</w> 1528
ug os 1528
for z 1527
lam i 1526
Améri ca</w> 1526
Co pen 1525
europe as.</w> 1525
cion ar</w> 1524
man os</w> 1524
comienz o</w> 1523
isra el 1522
compro b 1521
bien estar</w> 1521
st ro 1519
consider able</w> 1519
elabor ado</w> 1519
Dem oc 1519
pu so</w> 1518
In d 1518
t el 1517
A f 1517
H ace</w> 1517
pro poner</w> 1516
sub venciones</w> 1516
o tros,</w> 1515
bl es,</w> 1515
aprob ó</w> 1514
impul so</w> 1513
Presu puest 1512
mujer es,</w> 1511
Estr as 1511
desafí os</w> 1510
só l 1510
Sab emos</w> 1510
i lu 1509
v ali 1509
4 0</w> 1509
estr u 1509
celebr ar</w> 1508
manteni miento</w> 1508
segur os</w> 1507
Pueb lo</w> 1507
Copen ha 1507
tu vo</w> 1506
negoci ación</w> 1506
estab an</w> 1505
t ari 1504
qui én</w> 1504
ugos l 1503
mer ece</w> 1502
Alemani a</w> 1502
c ad 1501
A soci 1501
propuest a,</w> 1501
2 7</w> 1500
un anim 1500
fr anc 1500
(N L)</w> 1500
d ada</w> 1499
v ari 1498
1 3</w> 1497
A cojo</w> 1496
estab i 1496
.. .</w> 1496
e lo</w> 1495
de f 1495
In forme</w> 1495
fac tor</w> 1495
modi ficar</w> 1495
recuper ación</w> 1494
s indic 1493
re estructur 1493
consecu encia,</w> 1491
labor ales</w> 1490
a ud 1489
míni mo</w> 1489
Ind ustri 1489
olvid ar</w> 1487
re ,</w> 1486
resul tad 1486
G e 1485
ri sti 1485
vi endo</w> 1485
señor as</w> 1485
numer osos</w> 1484
P ública</w> 1483
OM C</w> 1483
idi om 1483
co ch 1482
oc cident 1482
reserv as</w> 1482
L ament 1481
medioambient al</w> 1481
d a,</w> 1479
¿ Cu 1479
en de</w> 1479
hac emos</w> 1479
influ encia</w> 1479
puer tos</w> 1478
av anzar</w> 1477
prior it 1477
cuá l</w> 1477
Comer cio</w> 1477
jui cio</w> 1476
at aqu 1475
resolu ción,</w> 1475
reci entes</w> 1473
comunic aciones</w> 1473
Ser ía</w> 1473
Agricul tura</w> 1473
er ía</w> 1472
pueb los</w> 1472
evo lución</w> 1472
at os,</w> 1471
m al</w> 1470
disponi bles</w> 1470
9 .</w> 1469
re ded 1468
unt os.</w> 1467
Ver de</w> 1466
explo tación</w> 1466
tr e</w> 1465
situ ación.</w> 1465
Trans port 1465
N )</w> 1464
C as 1464
ro man 1464
soci ales,</w> 1464
may or 1463
d estru 1461
ci a,</w> 1461
viol ación</w> 1461
o )</w> 1459
peri o 1459
prepar ación</w> 1458
inacept able</w> 1458
O c 1456
en g 1456
am os.</w> 1454
inform ación,</w> 1454
Af gan 1454
independi entemente</w> 1453
restric ciones</w> 1453
so s 1452
empres as.</w> 1452
Económi cos</w> 1452
portu gu 1452
entor no</w> 1452
cre e</w> 1451
comunit arias</w> 1451
comun idades</w> 1450
pasaj eros</w> 1450
ac o</w> 1449
re quer 1448
all í</w> 1448
mes es,</w> 1448
défici t</w> 1448
der iv 1447
gener ales</w> 1447
infra estructura</w> 1447
plaz o,</w> 1446
famili as</w> 1446
novi embre</w> 1446
p e</w> 1445
com pens 1445
car ta</w> 1445
contex to,</w> 1445
es fer 1443
OM C 1443
or gi 1442
ell os.</w> 1442
ni zación</w> 1441
seman as</w> 1441
r on 1440
tec ción</w> 1440
legisl ativo</w> 1439
energ ía,</w> 1438
expres ado</w> 1438
Bruse las</w> 1438
19 8 1437
perman ente</w> 1437
n aciones</w> 1436
dis cur 1436
inclu idas</w> 1436
e o</w> 1435
al reded 1435
Apo yo</w> 1435
diver sos</w> 1432
Ust ed</w> 1432
present ó</w> 1431
ju ego</w> 1431
fen ó 1431
al idades</w> 1430
Cu entas</w> 1430
Ho y,</w> 1430
C an 1429
Y ugosl 1429
com plic 1429
españ ol 1429
o la</w> 1428
Con ven 1428
Unid os.</w> 1428
parti do</w> 1427
inici ar</w> 1427
- como</w> 1426
Nuestr a</w> 1426
preten de</w> 1426
des ,</w> 1425
pa gar</w> 1425
in cu 1424
cam po</w> 1424
Pue do</w> 1424
v ía</w> 1423
mejor as</w> 1423
defin ir</w> 1423
hacer se</w> 1423
exclusiv amente</w> 1423
pro ve 1422
Parlam ent 1422
án .</w> 1422
conver g 1422
refer ir 1421
(E N)</w> 1421
si ,</w> 1420
presupuest ario</w> 1420
Pue de</w> 1420
Bruse l 1420
hab la</w> 1419
represent ante</w> 1419
consumid ores.</w> 1419
Asamble a,</w> 1419
mo d 1418
Inter net</w> 1418
segui miento</w> 1418
dich as</w> 1417
inclu yendo</w> 1416
utiliz ando</w> 1416
d estruc 1415
eg o,</w> 1415
t s 1414
gobern anza</w> 1414
l ing 1413
otro ,</w> 1413
R o 1412
Lisbo a.</w> 1412
( El</w> 1411
su je 1409
contr adic 1409
aproxim adamente</w> 1409
frau de</w> 1409
credi bilidad</w> 1408
p ar</w> 1407
merc ado.</w> 1407
consumid or</w> 1407
principi o,</w> 1406
acion al</w> 1405
Es lo 1405
crédi tos</w> 1404
ent u 1403
Ag enda</w> 1403
P I 1402
oni a,</w> 1401
ent e 1400
d an 1399
h ará</w> 1398
asegur arnos</w> 1397
sigui entes</w> 1396
muestr a</w> 1396
2 .</w> 1395
hab lamos</w> 1395
In clu 1395
concre to</w> 1394
car ri 1393
propi edad</w> 1393
a preci 1392
1 7 1392
le .</w> 1392
futur as</w> 1392
def end 1392
S al 1391
tar ía</w> 1391
fe br 1391
Deb e</w> 1391
ser es</w> 1390
afec tan</w> 1390
den unci 1390
trabaj ado</w> 1389
Lu xem 1389
sufici entes</w> 1388
modi ficación</w> 1388
pon iendo</w> 1387
asi sti 1387
d omin 1386
s í 1386
2 )</w> 1386
quier da</w> 1386
l ocu 1385
em ente.</w> 1385
políti cos,</w> 1385
vo z</w> 1385
gener al.</w> 1385
eg a</w> 1384
trabaj os</w> 1384
encar g 1383
o h 1382
en camin 1382
ve ci 1382
rig uro 1382
li mpi 1381
inform ar</w> 1381
ve o</w> 1381
vot ación.</w> 1381
d um 1380
ent os.</w> 1379
si r 1379
financi ar</w> 1379
observ ación</w> 1379
adopt adas</w> 1378
quer ía</w> 1377
ad ver 1376
cu id 1376
rec lam 1376
ani a,</w> 1376
verdad eramente</w> 1376
mañan a,</w> 1376
nuev o,</w> 1375
lev ant 1375
on es.</w> 1374
emple ados</w> 1374
Cre emos</w> 1373
conclu ir</w> 1372
máxim o</w> 1372
1 .</w> 1371
mo ción</w> 1371
depen de</w> 1371
d am</w> 1370
es cand 1370
hab i 1370
salud ,</w> 1370
arreg lo</w> 1370
% ,</w> 1369
cas os,</w> 1369
pobl aciones</w> 1369
d ónde</w> 1368
mu ev 1368
p ti 1367
or o</w> 1367
dis capaci 1367
person as.</w> 1367
ún gar 1367
1 6</w> 1365
Europe os</w> 1365
Unid as,</w> 1365
requisi to</w> 1365
obstá culos</w> 1365
pro sper 1364
su puesto</w> 1364
li zar</w> 1363
pod remos</w> 1363
lid er 1363
proces os</w> 1363
cru cial</w> 1363
Nor te</w> 1362
Koso v 1362
octu bre</w> 1362
técni cas</w> 1361
U U 1360
cab e</w> 1360
investig ación,</w> 1360
Estr uc 1360
n et 1359
ha gan</w> 1359
multi later 1359
ec a</w> 1358
aliment aria</w> 1357
consist e</w> 1357
ti dos</w> 1356
pren sa</w> 1356
tas as</w> 1356
á stro 1354
V )</w> 1353
ab ar 1353
iz a</w> 1353
consumid ores,</w> 1352
asun to.</w> 1352
ar r 1351
trabaj an</w> 1351
tor es,</w> 1351
Koso vo</w> 1351
im presión</w> 1350
o st 1349
compañ eros</w> 1349
clar idad</w> 1348
fac tores</w> 1348
En tre</w> 1348
r ían</w> 1347
es fera</w> 1346
enci as,</w> 1346
pedi mos</w> 1346
just a</w> 1346
conver tido</w> 1346
cat ástro 1346
inmediat amente</w> 1346
cu idad 1345
ob li 1345
(E S)</w> 1345
3 .</w> 1344
B u 1344
cu bier 1344
gr adu 1344
pod rán</w> 1344
humanit aria</w> 1344
cláusu la</w> 1344
alreded or</w> 1344
empres ari 1343
minor ías</w> 1343
é ,</w> 1342
bre ve</w> 1341
inten si 1341
fig ur 1341
pa go</w> 1340
refer én 1340
ban cos</w> 1340
ileg al</w> 1340
adu an 1340
im oni 1339
dis fru 1339
ci to</w> 1338
inter locu 1338
Re present 1338
del incu 1338
im puest 1337
clar as</w> 1337
juli o</w> 1337
di señ 1336
Estruc tur 1336
ac tiva</w> 1335
f ase</w> 1334
pro vi 1334
ve in 1334
trans fer 1334
r ,</w> 1333
o máti 1333
esenci ales</w> 1333
abier to</w> 1333
c av 1332
T al</w> 1332
ex pec 1332
1 6 1331
an os,</w> 1331
gu ar 1331
un idad</w> 1330
el ,</w> 1330
acep tado</w> 1329
cier tos</w> 1329
específic amente</w> 1329
h úngar 1328
P es 1327
' .</w> 1327
in dem 1327
ví n 1326
Asoci ación</w> 1325
R om 1324
mom ento.</w> 1323
su st 1321
res um 1320
enci ones</w> 1319
lament able</w> 1319
ataqu es</w> 1319
hab it 1318
co inci 1317
fij ar</w> 1317
Qu eremos</w> 1316
of reci 1316
ación )</w> 1316
important es.</w> 1315
d oc 1314
ci ón 1313
or al</w> 1313
im posible</w> 1313
d ó 1311
recha zar</w> 1311
propósi to</w> 1311
consider ablemente</w> 1310
encontr amos</w> 1310
pesqu era</w> 1310
enci as.</w> 1309
centr os</w> 1309
determin adas</w> 1309
Defen sor</w> 1309
d oy</w> 1307
ir ía</w> 1307
aprob ada</w> 1307
increm entar</w> 1306
expec t 1306
su l 1305
peri ó 1305
edi fici 1305
polic ía</w> 1305
oí do</w> 1304
deud a</w> 1304
Algun os</w> 1304
terror istas</w> 1303
Rusi a,</w> 1303
fortal ecimiento</w> 1303
terren o</w> 1303
en en</w> 1301
deber á</w> 1301
dad .</w> 1301
publi c 1301
permi tido</w> 1300
á lti 1299
on al</w> 1299
correspon de</w> 1299
par ecen</w> 1298
ell a.</w> 1298
cier tamente</w> 1297
ferro carri 1297
a fron 1296
señ ores,</w> 1296
5 .</w> 1295
or adores</w> 1295
Ac tu 1295
i a</w> 1294
1 7</w> 1294
su r</w> 1294
especí fica</w> 1294
Pal esti 1294
posi tivos</w> 1293
cor az 1293
Inclu so</w> 1293
d om 1292
D u 1292
as ?</w> 1292
cum bre</w> 1292
s a.</w> 1291
di vid 1290
de liber 1290
PYM E</w> 1289
ejer cer</w> 1289
L am 1288
al guien</w> 1288
pas ado.</w> 1288
d años</w> 1286
a )</w> 1286
T u 1286
tare as</w> 1286
abri r</w> 1285
Conven io</w> 1285
re duc 1284
neces ario,</w> 1284
merc ado,</w> 1284
i ó</w> 1283
m esa</w> 1282
pre ced 1282
cont acto</w> 1282
críti cas</w> 1282
altern ativ 1282
par ci 1281
Euro pa 1281
direc ta</w> 1281
críti ca</w> 1281
a ir 1280
peri odo</w> 1280
exclu sión</w> 1277
EE . 1277
lar ,</w> 1276
fri can 1276
r adic 1275
am ar 1275
seri as</w> 1275
M ás</w> 1274
concre tas</w> 1274
ador as</w> 1274
Itali a</w> 1274
dipl omáti 1274
conce der</w> 1272
H um 1271
super ar</w> 1271
Ha sta</w> 1271
e legi 1270
mundi al,</w> 1270
cal end 1270
const antemente</w> 1270
Ex ist 1270
R E 1269
ó ,</w> 1269
geo grá 1269
n os,</w> 1268
ab il 1268
regi ón.</w> 1268
diri gi 1268
le j 1266
gr ad 1266
deci d 1266
aliz ado</w> 1266
estudi os</w> 1266
id ent 1265
seg uro 1264
1 00</w> 1263
ent re 1263
vivi r</w> 1263
Est á</w> 1261
utiliz an</w> 1261
PPE - 1261
200 7 1260
El los</w> 1260
quí mi 1260
sum amente</w> 1260
políti co,</w> 1259
soci al 1259
bas es</w> 1259
evi t 1259
Com unic 1259
os amente</w> 1258
ex cesiv 1258
dem ócrat 1258
Mi entras</w> 1258
t és</w> 1257
( H 1257
B r 1257
pen siones</w> 1257
I gu 1256
fu ente</w> 1255
do ble</w> 1255
llam ado</w> 1255
aplicar se</w> 1254
ar se.</w> 1253
at enci 1253
prácti camente</w> 1253
movi miento</w> 1253
as um 1252
independi ente</w> 1252
demuestr an</w> 1252
cuo tas</w> 1252
ver sión</w> 1251
F is 1250
an a,</w> 1250
at lánti 1250
ju dic 1250
primer os</w> 1250
mañan a.</w> 1249
venci ón,</w> 1248
envi ar</w> 1248
con sej 1247
pa z,</w> 1246
contr atos</w> 1246
hab iendo</w> 1246
activ o</w> 1246
ol og 1245
solici tudes</w> 1245
aclar ar</w> 1245
cli ma</w> 1244
eleg ido</w> 1244
EE. UU 1244
S é</w> 1243
estable zca</w> 1243
e k 1242
H uman 1242
au tom 1242
indi ca</w> 1242
reconoc e</w> 1242
so cav 1241
natur almente</w> 1241
inver tir</w> 1241
t ent 1240
l es.</w> 1239
caus as</w> 1239
Liber tades</w> 1238
crisi s,</w> 1238
ar ti 1237
R O 1236
f l 1236
sab en</w> 1236
enmiend as,</w> 1236
cambi o,</w> 1236
escand al 1236
consecu ción</w> 1235
sistem áti 1234
repercu siones</w> 1234
cas ti 1233
efic aces</w> 1233
pérd ida</w> 1233
O fici 1232
cu entas</w> 1232
cap í 1232
ahor a.</w> 1232
Ge orgi 1232
ci erra</w> 1231
registr o</w> 1231
ag enda</w> 1230
re par 1229
si ento</w> 1229
Es paña</w> 1227
enfermed ad</w> 1227
adecu adas</w> 1226
asoci aciones</w> 1226
económi ca.</w> 1225
for est 1225
alcan ce</w> 1225
demostr ar</w> 1225
pas os</w> 1224
Cámar a,</w> 1224
l ob 1223
seri amente</w> 1223
coher ente</w> 1223
individu ales</w> 1222
explic ar</w> 1222
trans ferencia</w> 1220
Pro tocolo</w> 1220
di j 1219
deli to</w> 1219
Jurí dicos</w> 1219
transi ción</w> 1218
or gu 1217
ami ento,</w> 1217
Em ple 1217
Fund ament 1217
. 000</w> 1216
Pro tección</w> 1216
ci entos</w> 1215
pre venir</w> 1215
pon en</w> 1215
sig lo</w> 1215
estrategi as</w> 1215
a sta</w> 1214
comunit arios</w> 1214
estu vi 1214
rechaz o</w> 1214
deli tos</w> 1213
g ol 1212
pres erv 1212
control ar</w> 1212
turis mo</w> 1212
- que</w> 1211
tend ría</w> 1211
mar gen</w> 1210
est ará</w> 1209
embar go</w> 1209
económi co,</w> 1208
especi ales</w> 1207
efec tiv 1207
l anz 1206
5 00</w> 1206
situ ación,</w> 1206
recon struc 1206
civi les</w> 1206
Deber íamos</w> 1206
ven ido</w> 1205
contribu ido</w> 1205
aument ado</w> 1205
Ucr ania</w> 1205
I V 1204
ex pli 1203
no t 1203
tiem pos</w> 1203
caracter ísticas</w> 1203
en as</w> 1202
pa tr 1202
vuel to</w> 1202
máxim a</w> 1202
en señ 1201
sociedad es</w> 1201
erro r</w> 1201
hor a,</w> 1200
Adem ás</w> 1199
enorm es</w> 1198
re pe 1197
In stitu 1197
(S V)</w> 1196
g en,</w> 1195
20 20 1195
coment ario</w> 1195
ar la</w> 1194
Turqu ía,</w> 1194
199 9</w> 1193
libertad ,</w> 1193
á .</w> 1192
id a.</w> 1192
de lic 1192
se lec 1192
peri fé 1192
8 .</w> 1191
br u 1191
car a</w> 1191
coher encia</w> 1191
áb amos</w> 1191
inter rum 1190
estad ísticas</w> 1189
form ar</w> 1188
cel on 1188
c ro 1187
mo do,</w> 1187
Trat ado,</w> 1187
Bar celon 1187
t al,</w> 1186
dist or 1186
os )</w> 1185
señ ala</w> 1185
noc he</w> 1185
sor prend 1185
Je fes</w> 1185
on ,</w> 1184
plante ar</w> 1184
Miem bro</w> 1184
Investig ación</w> 1184
. 00</w> 1183
ac tú 1183
energ ía.</w> 1183
prepar ados</w> 1183
enton ces,</w> 1183
Per o,</w> 1183
añad ido</w> 1183
ell os,</w> 1182
afec tados</w> 1182
pesc adores</w> 1182
m ac 1181
id a,</w> 1181
am as</w> 1181
próxim as</w> 1181
resol ver 1181
cumpl en</w> 1181
o tor 1180
tr ag 1180
ton el 1180
An tes</w> 1180
Gobier nos</w> 1180
och o</w> 1180
a ur 1179
im peri 1179
cl ase</w> 1179
difer ente</w> 1179
i n</w> 1178
(E L)</w> 1178
Asamble a.</w> 1176
inter venciones</w> 1175
exteri ores</w> 1175
elimin ación</w> 1175
k a</w> 1174
6 .</w> 1174
exist a</w> 1174
human a</w> 1174
d ía.</w> 1173
fund amento</w> 1173
pequeñ o</w> 1173
aus encia</w> 1173
u ev 1172
autom óvi 1172
in dis 1171
D A 1169
lar ga</w> 1169
import aciones</w> 1169
pron unci 1169
terroris mo,</w> 1169
lami ento</w> 1169
b or 1168
H er 1168
edad ,</w> 1168
soberan ía</w> 1167
n ad 1166
est atuto</w> 1166
apoy o.</w> 1166
distin tas</w> 1166
hu bo</w> 1166
Mac ed 1166
busc ar</w> 1164
at os.</w> 1162
adopt ada</w> 1162
raí z</w> 1162
D eci 1161
rá pido</w> 1161
comi tés</w> 1161
plen a</w> 1161
s urg 1160
trat ados</w> 1160
acep tar 1160
educ ación,</w> 1160
sal ir</w> 1159
consider an</w> 1159
consider ando</w> 1159
democraci a.</w> 1159
id os,</w> 1158
problem as.</w> 1158
infra estructuras</w> 1158
ret ario</w> 1158
aliz ación,</w> 1157
in sist 1156
op ción</w> 1155
men os,</w> 1155
Tr abaj 1155
militar es</w> 1155
sab en,</w> 1154
ch i 1154
sigui endo</w> 1154
euro s.</w> 1154
M ar</w> 1153
Es pañ 1153
Con tro 1152
exi gir</w> 1152
pedi r 1152
re lev 1151
mon t 1151
Unid o,</w> 1151
tr adi 1150
plaz o.</w> 1150
adopt en</w> 1150
im pedir</w> 1149
tri bun 1149
parlament aria</w> 1149
OM ( 1149
b al 1148
equi val 1148
fisc ales</w> 1148
compren si 1148
petróle o</w> 1148
ri r</w> 1147
ejemp los</w> 1147
Soci al</w> 1147
escas ez</w> 1146
trag edi 1146
h am 1145
L an 1145
en c 1145
actu alidad</w> 1145
correc ta</w> 1145
Fr ancia,</w> 1145
Consid ero</w> 1145
su el 1144
ampli ación,</w> 1144
ámbi to.</w> 1144
destin adas</w> 1144
respuest a.</w> 1144
contr ario</w> 1143
sigui ente:</w> 1143
resolu ción.</w> 1143
Contro l</w> 1143
l on 1142
E ,</w> 1141
P r 1141
mant ener 1141
cuá les</w> 1141
é s.</w> 1140
Est abilidad</w> 1140
ed ores</w> 1140
oper adores</w> 1140
ampli ación.</w> 1140
organ ismo</w> 1140
particip ado</w> 1140
l in 1139
Noso tros</w> 1139
H un 1138
B ro 1138
etique tado</w> 1138
Ti ene</w> 1138
escri tas</w> 1137
D in 1136
ar los</w> 1135
profesion al</w> 1135
hacer .</w> 1134
veci nos</w> 1134
B os 1133
end o.</w> 1133
edad .</w> 1133
orient ación</w> 1133
suce de</w> 1133
F eder 1132
res ist 1132
medi a</w> 1132
ciudad es</w> 1132
ministr os</w> 1132
r .</w> 1131
en v 1131
residu os</w> 1131
recon oz 1130
d ará</w> 1129
vi ene</w> 1129
aére o</w> 1129
imag in 1129
s at 1128
c ráti 1128
re em 1128
por cent 1128
felici to</w> 1127
euro ,</w> 1127
Amster dam 1126
b om 1125
um br 1125
compren der</w> 1125
( B 1124
lament ablemente,</w> 1124
E )</w> 1123
di a,</w> 1123
DE .</w> 1123
etc .</w> 1123
destruc ción</w> 1122
Hun gr 1122
pr ud 1121
lider az 1121
expl ot 1120
Much os</w> 1120
/ 0 1119
le r</w> 1119
pre vist 1119
Au tor 1119
detr ás</w> 1119
equi po</w> 1118
cultur ales</w> 1118
Bulg aria</w> 1118
ti err 1117
abri l</w> 1117
Hum anos</w> 1117
Sr a</w> 1116
person almente</w> 1116
mes es.</w> 1116
Soci alista</w> 1116
in gun 1115
concre tamente</w> 1115
ver g 1112
industri as</w> 1112
interes ante</w> 1112
Mediterráne o</w> 1112
A t 1111
tem a.</w> 1111
cor r 1110
quiz ás</w> 1110
bres ,</w> 1110
modi fica</w> 1109
v idas</w> 1108
h ol 1108
b os 1108
si vo</w> 1108
Exteri ores,</w> 1108
Balcan es</w> 1108
e x</w> 1106
t .</w> 1106
inter venir</w> 1106
inclu ya</w> 1106
ocup a</w> 1106
fenó men 1106
' ,</w> 1105
elec tri 1105
ór gan 1105
tr a</w> 1104
su gi 1104
problem a,</w> 1104
p la</w> 1103
m ad 1103
fom ento</w> 1103
Fin lan 1103
as pir 1102
min ist 1102
uni later 1102
í do</w> 1101
ó li 1101
ag entes</w> 1101
de bili 1100
des ti 1100
pien sa</w> 1100
ent ender</w> 1099
to n</w> 1099
reg las</w> 1099
internacion ales,</w> 1099
ísti ca</w> 1099
formul ada</w> 1099
defici encias</w> 1099
important es,</w> 1098
Amster dam</w> 1098
cubr ir</w> 1098
Presid enta</w> 1097
200 0,</w> 1097
pequeñ a</w> 1097
escu e 1097
B álti 1096
mujer es.</w> 1096
presi on 1096
interlocu tores</w> 1096
r est 1095
S om 1095
refle ja</w> 1095
al es 1094
end en</w> 1094
c í 1093
contro versi 1093
profund amente</w> 1093
t u</w> 1092
satisfac er</w> 1092
carb on 1092
id os.</w> 1091
bi r</w> 1091
conclu ir,</w> 1091
super vis 1091
Aqu í</w> 1090
unt os,</w> 1089
legi tim 1088
a prueb 1087
C I 1087
añ a</w> 1087
regi ón,</w> 1087
llev an</w> 1087
decep cion 1087
al lí 1086
par ec 1086
sent ido.</w> 1085
simpl e</w> 1085
Per mítanme</w> 1085
crisi s.</w> 1085
Comis ario.</w> 1084
cum plan</w> 1084
elec tu 1084
Tr as</w> 1084
revis ar</w> 1084
manifi esto</w> 1084
b urg 1083
in evit 1083
debat e 1083
buro cráti 1083
afec tad 1082
famili a</w> 1082
argum entos</w> 1082
s ecu 1081
1 8 1081
sanit aria</w> 1081
o fer 1080
gener ación</w> 1080
din ámi 1080
difíci les</w> 1080
favor eci 1080
judici ales</w> 1080
activ amente</w> 1079
perí o 1079
v a 1078
4 .</w> 1078
B lan 1078
K y 1078
tend encia</w> 1077
avanc e</w> 1077
Sec retario</w> 1077
C ul 1076
ar íamos</w> 1076
and a</w> 1075
Din amar 1075
acab ar</w> 1074
instal aciones</w> 1073
bú s 1073
– ,</w> 1072
pr ést 1072
dic tad 1072
Señor ías</w> 1072
comple ta</w> 1072
o br 1071
términ o</w> 1071
limi tar</w> 1071
origin al</w> 1070
cuar to</w> 1070
Esper amos</w> 1070
categ or 1069
com eti 1068
ex ha 1068
dej a</w> 1068
cuy as</w> 1068
l ech 1067
acept able</w> 1067
adr es</w> 1067
apropi ado</w> 1067
alegr o</w> 1067
c ero</w> 1066
ec ha</w> 1066
públi ca,</w> 1066
equi t 1066
destin ados</w> 1066
Comunic ación</w> 1066
conjun tamente</w> 1065
presupuest os</w> 1064
Inter net 1064
ciudadan o</w> 1064
ventaj a</w> 1064
accid entes</w> 1064
F u 1063
S I 1063
re un 1063
int electu 1063
Al to</w> 1063
sosteni ble.</w> 1063
é c 1062
tod os.</w> 1062
absolu to</w> 1062
ata que</w> 1061
transport e,</w> 1060
ón om 1059
ci a.</w> 1058
Euro po 1058
atori o</w> 1058
Vice presidente</w> 1058
R el 1057
– y</w> 1057
Trat ado.</w> 1057
(A 5-0 1057
tex ti 1057
E .</w> 1056
pro ducir</w> 1056
des ign 1056
tod os,</w> 1056
éxi to.</w> 1056
Ali ment 1056
F l 1055
1 9</w> 1055
b et 1055
represent ación</w> 1055
conci encia</w> 1055
L es</w> 1054
ti ó</w> 1054
po lici 1054
hacer lo.</w> 1054
Schen gen</w> 1054
inclu y 1053
fom ent 1053
enfrent amos</w> 1053
su ma</w> 1052
M an 1051
al tamente</w> 1051
di z 1051
estableci dos</w> 1051
Ac ción</w> 1051
/ CE 1050
mon opo 1050
exha us 1050
ah í</w> 1049
bur go,</w> 1049
carreter a</w> 1049
d arle</w> 1048
rati ficación</w> 1048
nor te</w> 1048
inform ación.</w> 1047
s amente</w> 1046
activ os</w> 1046
actu al,</w> 1045
industri al</w> 1045
Autor idad</w> 1045
n a,</w> 1044
h os 1044
ab oli 1044
políti co.</w> 1044
man tiene</w> 1044
utiliz arse</w> 1044
ar lo.</w> 1043
tr ist 1043
efec tu 1043
él gi 1043
m em 1042
gén ero</w> 1042
d ,</w> 1041
mom entos</w> 1041
enfr enta</w> 1041
éc tri 1041
m as 1040
al coh 1040
os -</w> 1040
el éctri 1040
dur ad 1040
- B 1039
bl an 1039
dign idad</w> 1039
terror ist 1038
N uev 1037
b rec 1037
én dose</w> 1037
profesion ales</w> 1037
brev emente</w> 1037
6 0</w> 1036
lleg ó</w> 1036
oblig ados</w> 1036
prest ación</w> 1036
export ación</w> 1036
cifr a</w> 1036
pun to,</w> 1036
form a,</w> 1035
fun ciones</w> 1035
tom ando</w> 1035
celebr ado</w> 1035
barr eras</w> 1035
A hora,</w> 1034
ver i 1034
Transport es</w> 1034
em os.</w> 1033
equi voc 1033
espec ul 1033
Mer cado</w> 1033
mi l 1032
áre a</w> 1032
J ap 1031
B élgi 1031
con exi 1031
pr e</w> 1031
pi enso</w> 1031
ju ris 1031
fundament ales.</w> 1031
plani ficación</w> 1031
converg encia</w> 1031
2 1</w> 1030
A z 1030
ir land 1030
hech as</w> 1030
al em 1029
mé di 1029
qu et 1028
ur ban 1028
internacion ales.</w> 1028
mir as</w> 1028
signific ativo</w> 1027
noc h 1027
í ci 1026
I rán</w> 1026
Interi or</w> 1026
g a,</w> 1025
refi eren</w> 1025
interi or,</w> 1025
Ori ent 1025
concesi ón</w> 1025
at ent 1024
Comisi ón 1024
U no</w> 1023
pregun to</w> 1023
efec tivamente</w> 1023
tí tulo</w> 1022
gru po,</w> 1021
o vi 1020
em bre,</w> 1020
fij ado</w> 1020
in ,</w> 1019
re cuer 1019
compet encia,</w> 1019
atori a</w> 1019
formul ar</w> 1019
f ech 1018
a gi 1017
di gi 1017
ri ch 1017
Bos ni 1017
D o 1016
vi ej 1016
leg al</w> 1016
actu ación</w> 1016
có digo</w> 1016
niñ os,</w> 1016
compar ación</w> 1016
Com ún</w> 1015
climáti co,</w> 1015
desastr e</w> 1015
referir me</w> 1015
ñ o</w> 1014
políti cas,</w> 1014
Chin a,</w> 1014
Ira q</w> 1014
2 4</w> 1013
R i 1012
R ur 1012
V I 1012
in und 1012
especi e</w> 1012
buen os</w> 1012
regu lar</w> 1012
ocurr e</w> 1012
re peti 1011
ami ento.</w> 1011
comunit ario.</w> 1011
cl asi 1011
enfrent an</w> 1010
ON G</w> 1010
Qu iz 1008
contribu ciones</w> 1008
paci entes</w> 1008
salud .</w> 1008
T er 1007
artí culos</w> 1007
Emple o</w> 1007
direc tiva,</w> 1006
publi cidad</w> 1006
Alemani a,</w> 1006
sac ar</w> 1006
s k 1005
pre tend 1005
natur ales</w> 1005
contin ente</w> 1005
simpli ficación</w> 1005
pres entes</w> 1004
pue bl 1004
hech o.</w> 1004
vi legi 1003
pes e</w> 1003
efici ente</w> 1003
seri a</w> 1003
proces o.</w> 1003
Reglament o,</w> 1003
fí si 1002
Pa k 1002
tab aco</w> 1002
bús queda</w> 1002
op ciones</w> 1001
pas ada</w> 1001
libr es</w> 1001
nucle ares</w> 1001
det ención</w> 1001
er a.</w> 1000
sig an</w> 1000
realiz ados</w> 1000
comple to</w> 1000
Ser vi 1000
cuestion es.</w> 1000
o posi 999
su er 999
form an</w> 999
mis mo.</w> 999
urg entemente</w> 999
trá gi 999
interpre tación</w> 999
euro s,</w> 998
monet aria</w> 998
pro muev 997
dese aría</w> 997
específic os</w> 997
esper ando</w> 996
Rusi a.</w> 996
G ar 995
provi sion 995
d a.</w> 994
a cojo</w> 994
al ent 994
pro lon 994
cor ri 994
(C OM( 994
OTA N</w> 994
un ta</w> 993
utili ce</w> 993
Su s</w> 993
ar se,</w> 992
abier ta</w> 992
Ci udad 992
Lament ablemente,</w> 992
L A 991
pri vilegi 991
ren di 991
Chi pre</w> 991
trabaj adores,</w> 990
cooper ación.</w> 990
sent i 990
presupuest arias</w> 990
antigu a</w> 990
a pl 989
reg ímenes</w> 989
servici os,</w> 989
anteri ores</w> 989
a firma</w> 988
t h 988
c ali 988
se urope 988
pe r</w> 988
ling ü 988
ab og 987
tar de,</w> 987
t esti 986
dis puestos</w> 986
Natur almente,</w> 986
ce der</w> 985
declar ado</w> 985
pro vo 984
fuer tes</w> 984
consider ado</w> 984
natur al</w> 984
tem a,</w> 984
dé c 984
categ oría</w> 984
p a</w> 983
B us 983
ro .</w> 983
razon able</w> 983
¿Cu á 983
P en 982
ti da</w> 982
lugar es</w> 982
dificul tad 982
convenci da</w> 982
Ruman ía</w> 982
S ur 981
coh esi 981
Turqu ía.</w> 981
técni ca</w> 981
po ca</w> 980
dur ación</w> 980
permi tan</w> 980
investig aciones</w> 980
dud as</w> 980
defini tivamente</w> 979
C am 978
pre val 978
cru ci 978
AC P 978
d i</w> 977
fr en 977
In st 977
agrad ecer 977
urg encia</w> 977
Asi a</w> 977
aut ónom 977
EE.UU .</w> 977
si ti 976
as h 976
fic ados</w> 976
decidi ó</w> 976
canti dades</w> 976
sincer amente</w> 976
expect ativas</w> 976
indis pens 976
r estr 975
pe or</w> 975
intro duc 975
estadounid ens 975
Deci sión</w> 975
an ex 974
re vi 974
enmiend as.</w> 974
continu ación</w> 974
Gr an</w> 974
bási cos</w> 974
altern ativa</w> 974
p lu 973
fal si 973
export aciones</w> 973
ingun o</w> 973
cion ales</w> 972
m ala</w> 971
per dido</w> 971
inf anti 971
contribuy entes</w> 971
calend ario</w> 971
an o,</w> 970
pro cur 970
az ú 970
ér gi 970
apren der</w> 970
Tu ris 970
e do</w> 969
Con su 969
garanti ce</w> 969
impuls ar</w> 969
superi or</w> 969
consider aciones</w> 968
ast rich 968
interi or.</w> 968
y o,</w> 967
g ases</w> 967
b anc 967
señ ores</w> 967
consider arse</w> 967
par cial</w> 966
des ast 966
dol e</w> 966
entend ido</w> 966
Ma astrich 966
unanim idad</w> 966
organiz ar</w> 965
vist a,</w> 965
sufici ente.</w> 965
proporcion a</w> 965
relacion ado</w> 965
correc to</w> 965
Cor ea</w> 965
eficaz .</w> 965
aceler ar</w> 965
C A 964
L ati 964
direc tiva.</w> 964
comerci alización</w> 964
destac a</w> 964
compar to</w> 964
O tro</w> 963
fin es</w> 963
Al b 963
conce de</w> 963
inc entiv 962
alm ac 961
soci ales.</w> 961
favor able</w> 961
Pl an</w> 961
lí der</w> 960
dese amos</w> 960
ación ?</w> 960
lideraz go</w> 960
H el 959
conoci mientos</w> 959
orient aciones</w> 959
Portug al</w> 959
c án 958
S ar 958
neces ariamente</w> 958
men ores</w> 958
2 2</w> 957
tor es.</w> 957
científic os</w> 957
norm ativa</w> 956
permi ten</w> 956
ofici al</w> 956
entu si 956
Fis ch 956
conjun ta</w> 955
establ ecen</w> 954
prepar ar</w> 954
air e</w> 954
des mant 953
As h 953
públi co,</w> 953
equilibr ado</w> 953
antigu o</w> 953
Belarú s</w> 953
contem pl 953
eng añ 953
reconstruc ción</w> 953
i j 952
m a,</w> 952
ac cesi 952
In dia</w> 952
tad o.</w> 952
tom ó</w> 952
vay a</w> 952
(C E)</w> 951
in as</w> 950
Cro acia</w> 950
T E 949
tran seurope 949
ati zación</w> 949
bien .</w> 949
terroris mo.</w> 949
imoni o</w> 949
op ti 948
particip an</w> 948
Deb o</w> 947
ident idad</w> 946
Y ,</w> 945
bu s 945
llam ada</w> 945
r é</w> 944
pen di 944
sosteni bilidad</w> 944
Declar ación</w> 944
fabric antes</w> 944
fortun adamente,</w> 944
dic en</w> 943
dis par 943
direc to</w> 943
alim enti 943
ofrec en</w> 943
desempeñ a</w> 943
Reglament o)</w> 943
insisti r</w> 943
R ot 942
C ada</w> 942
du m</w> 942
elector al</w> 942
v ino</w> 941
Z im 941
ud ad</w> 941
cas o.</w> 941
pi er 940
ej ér 939
I rá 938
bilater ales</w> 938
honor able</w> 938
n as</w> 937
tur no</w> 937
err ón 937
inver nad 937
apli quen</w> 937
glob alización</w> 937
Sueci a</w> 937
5 -00 936
es cal 936
ci as</w> 936
aliz ada</w> 936
200 6</w> 936
capaci dades</w> 936
re .</w> 935
pen as</w> 935
pid ió</w> 935
o col 934
inclu yen</w> 934
orgu ll 934
es es</w> 933
medi terráne 933
cooper ación,</w> 933
ell a,</w> 933
A y 932
G az 932
apoy ando</w> 932
trans atlánti 932
recon cili 932
vigi lar</w> 932
obvi amente</w> 932
P len 931
V al 931
aplic an</w> 931
Di ch 931
determin ado</w> 931
euro .</w> 931
delincu encia</w> 931
legisl ativa</w> 930
cier on</w> 930
visi ta</w> 930
AC P</w> 930
Tam poco</w> 930
aj es</w> 929
gen .</w> 929
cre a</w> 928
materi as</w> 928
elegi r</w> 928
on ancia</w> 927
res .</w> 927
aliz ación.</w> 927
Barro so,</w> 927
Pod emos</w> 927
so f 926
comunit ario,</w> 926
administr ativ 926
me tros</w> 925
ag encias</w> 925
legisl ativas</w> 925
públi ca.</w> 925
transpar ente</w> 925
fracas o</w> 925
tari f 925
2 3</w> 924
str ö 924
consider e</w> 924
ra pid 924
sufr en</w> 924
nor te 924
sil enci 924
c ár 923
í si 923
qui e 923
compet encia.</w> 923
modific aciones</w> 923
admi si 923
S impl 922
pu r 922
cam pañ 922
hom bre</w> 922
v u 921
¿ cómo</w> 921
concre to,</w> 921
relacion ada</w> 921
afirm ar</w> 921
asign ación</w> 921
reestructur ación</w> 921
debate )</w> 921
ist án,</w> 920
(A 4-0 920
Chi pre 920
Oc cident 920
sec re 919
garanti za</w> 919
const at 919
201 0</w> 919
reduci do</w> 919
P ac 918
eg os</w> 918
concre tos</w> 918
loc al</w> 918
pon ga</w> 917
rel ativamente</w> 917
transpar encia,</w> 917
P at 916
pid en</w> 916
inc endi 916
argum ento</w> 915
sos p 915
é x 914
su pl 914
se l 913
pi e</w> 913
President e.</w> 913
parlament ario</w> 913
preguntar le</w> 913
c ál 912
9 )</w> 912
con duci 912
tr am 912
ar ro 911
an alizar</w> 911
un áni 911
dem ás,</w> 911
firm ado</w> 911
sac ri 911
imag en</w> 911
20 0</w> 910
ación :</w> 910
profun da</w> 910
a parte</w> 909
ci pl 909
re fuerz 909
lament ablemente</w> 909
human o</w> 909
manten ido</w> 909
estratégi ca</w> 909
monopo li 909
D ado</w> 908
establ ec 908
a is 907
g ama</w> 907
( debate)</w> 907
ro m 907
200 8</w> 907
futur os</w> 907
financier a,</w> 907
const ante</w> 907
prof es 907
qu ej 906
excep ción</w> 906
corrup ción</w> 906
Yugosl avi 906
almac en 906
su cesiv 905
ampli amente</w> 905
conduc ta</w> 905
Ira q 905
Vice presid 905
pobrez a,</w> 905
coraz ón</w> 905
al e 904
as ci 904
norm a</w> 904
públi co.</w> 904
esfer as</w> 904
( La</w> 903
é uti 903
as )</w> 903
me z 903
negoci ar</w> 903
Barro so</w> 903
v end 902
in stanci 902
solici tantes</w> 902
F e 901
autor ización</w> 901
centr ales</w> 901
parlament arios</w> 901
m os,</w> 900
b e 900
M il 900
P E</w> 900
lu ego,</w> 900
gubernament ales</w> 900
vel oci 900
pes o</w> 899
g o 898
dr am 898
produc tiv 897
mill ón</w> 897
cerr ar</w> 897
Ofici na</w> 897
fronter a</w> 896
n os.</w> 895
cre o,</w> 895
fav or,</w> 895
nav eg 895
Rel aciones</w> 895
2 5 894
cons onancia</w> 894
pas a</w> 894
estable zcan</w> 894
convi c 894
r í 893
I ,</w> 893
est aría</w> 893
dis cipl 893
tran qui 893
caus ado</w> 893
porcent aje</w> 893
ac er</w> 892
Presid encia,</w> 892
Cámar a.</w> 892
climáti co.</w> 892
comport amiento</w> 892
fenómen o</w> 892
d año</w> 891
ul tra 891
200 7</w> 891
vot ación)</w> 891
Ci vi 891
consolid ación</w> 891
referén dum</w> 891
ad o 890
an os)</w> 890
condi cion 890
enorm emente</w> 890
convenci do</w> 890
febr ero</w> 890
pi lar</w> 889
liber ación</w> 889
felici tar 889
tex tos</w> 889
1 )</w> 888
conver tir</w> 888
sexu al</w> 888
re ales</w> 887
per der</w> 887
equilibr i 887
Consid er 887
d ías,</w> 886
D amas</w> 886
est ánd 886
pa z.</w> 886
fir mar 886
ambient al</w> 886
dirig idas</w> 886
usu arios</w> 886
Enton ces,</w> 886
políti cos.</w> 885
tem o</w> 885
cuy os</w> 885
su pri 884
esti mu 884
mo l 884
reconoci do</w> 884
es cap 883
lar .</w> 883
vícti m 883
suced ido</w> 883
enci ma</w> 882
pon entes,</w> 882
soci o 882
orient al</w> 882
m an</w> 881
err ores</w> 881
realiz ación</w> 881
contribu ye</w> 881
solici tar</w> 881
tele visión</w> 881
8 0</w> 880
ar las</w> 880
fundament ales,</w> 880
manif estar</w> 880
r íamos</w> 879
democráti cas</w> 879
To d 879
debati do</w> 879
suspen sión</w> 879
D E</w> 878
ent endi 878
retir ada</w> 878
increm ento</w> 878
ir án</w> 877
Comun idad.</w> 877
sen o</w> 877
Por que</w> 876
quí vo 876
d rá</w> 875
n .</w> 875
Comun idad,</w> 875
er va</w> 874
in just 874
199 9,</w> 874
energéti co</w> 874
conoc er</w> 874
d arse</w> 873
expl íci 873
O S 872
en érgi 872
on z 872
políti cas.</w> 872
ami gos</w> 872
solici tado</w> 872
ases or 872
I I</w> 871
fin al,</w> 871
con cer 870
qui si 870
parti d 870
sab emos,</w> 870
transi tori 870
a pe 869
ci p 869
pro mes 869
pren de</w> 869
vi c 868
deci sión.</w> 868
ju ev 868
ing ,</w> 868
inici al</w> 868
present ará</w> 867
err e</w> 867
intent ado</w> 867
a plaz 866
com e 866
pi ens 866
Mu jer</w> 866
Consu mid 866
a prend 865
s h 865
celebr ó</w> 865
empr end 864
Itali a,</w> 864
Res o 864
T om 863
cor regi 863
partici par 863
problem as,</w> 863
1 1 862
ex it 862
200 9</w> 862
adecu ados</w> 862
Mar ru 862
Industri a,</w> 862
e co 861
g e</w> 861
M al 861
Trat ados</w> 861
celebr ación</w> 861
conoc e</w> 861
l ad 860
B i 860
terri ble</w> 860
Ob vi 860
motiv o,</w> 860
( votación)</w> 859
ecu s</w> 859
Intergubernament al</w> 859
sosp ech 859
ci udad</w> 858
ab e</w> 858
simi lar</w> 858
aplic ado</w> 857
cier to,</w> 857
E C 856
po se 856
ju z 856
Baj os</w> 856
W al 855
an aliz 855
al ;</w> 855
st eri 855
di ,</w> 855
tr án 855
hi ci 855
plant as</w> 855
é l.</w> 854
prob able</w> 854
altern ativas</w> 854
cumpl ido</w> 854
( RO 853
al tos</w> 853
mi edo</w> 853
ac tores</w> 853
trat an</w> 853
demo grá 853
os a.</w> 852
pregun ta,</w> 852
pregun ta.</w> 852
gen es</w> 852
volu men</w> 852
Tod avía</w> 852
(RO )</w> 852
A ún</w> 851
200 6,</w> 851
pas ando</w> 851
actu al.</w> 851
puer to</w> 851
desastr es</w> 851
perio dist 851
adopt ó</w> 850
materi al</w> 849
signific ativ 849
correc ta.</w> 849
fer i 848
prácti ca,</w> 848
celebr ará</w> 848
venci ón.</w> 848
Unid as.</w> 848
refer ido</w> 848
cumpl e</w> 848
r ent 847
200 9,</w> 847
apren diz 847
ad or,</w> 846
pa tri 846
económi co.</w> 846
P A 845
ad ad 845
lógi ca</w> 845
trán si 845
er os.</w> 844
lí n</w> 844
deci siv 844
ati z 844
evalu aciones</w> 844
subray a</w> 844
Económi ca</w> 844
primer as</w> 844
Pol onia</w> 844
ec os</w> 843
to tal 843
19 7 843
mostr ado</w> 843
bres .</w> 843
l la</w> 842
I z 842
on al,</w> 842
re vel 842
investig ación.</w> 842
concili ación</w> 842
neces ario.</w> 841
ez ca</w> 841
comunic ación,</w> 841
Li tu 841
requi eren</w> 841
anu ales</w> 841
ins pir 841
rati fic 841
habi tu 841
aqu ellas</w> 840
independi entes</w> 840
3 1</w> 839
de por 839
dis cre 839
hor as.</w> 839
e ta</w> 838
- en</w> 838
res ,</w> 838
cas a</w> 838
Zim b 838
orm ente,</w> 837
oso .</w> 837
é pti 836
es -</w> 836
des igual 836
ejempl o.</w> 836
mac ro 836
r acion 835
in os</w> 835
energ ías</w> 835
g ado</w> 834
S ant 834
mi cro 834
ex cesi 834
ust e 834
sosteni ble,</w> 834
simpli fic 834
t án 833
Gru po,</w> 833
baj a</w> 833
baj os</w> 833
confirm ar</w> 833
legitim idad</w> 833
p ad 832
c anos</w> 832
L on 832
sal arios</w> 832
conform e</w> 832
tom adas</w> 831
apli que</w> 831
civi l,</w> 831
adap tación</w> 831
cre en</w> 830
apoy e</w> 830
jer on</w> 830
atr ibu 830
avi ación</w> 830
sus ci 830
crédi to</w> 830
dro gas</w> 830
tempor al</w> 830
Can ad 830
Simpl emente</w> 830
os o,</w> 829
trans acciones</w> 829
plaz os</w> 829
encontr ado</w> 829
ine quívo 829
ilu str 829
prove edores</w> 829
ne u 828
gen era</w> 828
ést as</w> 828
disponi ble</w> 828
al :</w> 827
ur o</w> 827
inter na</w> 827
import e</w> 827
soci o</w> 827
ciudadan ía</w> 827
Le y</w> 827
t al.</w> 826
¿ por</w> 826
G o 826
ri cos</w> 826
gr af 826
asoci ados</w> 826
anteriorm ente</w> 826
a frican 825
- 201 825
G ine 825
de teri 825
200 0.</w> 825
agricul tura,</w> 825
masi v 825
Nuev a</w> 825
e ;</w> 824
iz on 824
democráti cos</w> 824
medid as,</w> 824
) )</w> 823
os a,</w> 823
detal les</w> 823
pr acti 822
estab il 822
adop tar 822
Mar co</w> 822
PI B</w> 822
com parte</w> 821
Fr an 821
Soci alistas</w> 821
conden a</w> 821
desti no</w> 821
m uni 820
pro pag 820
hac er,</w> 820
adecu adamente</w> 820
e y 819
é mi 819
tr adicion 819
resul tado,</w> 819
prácti ca.</w> 819
cos as.</w> 819
hor izon 819
per mítanme</w> 818
inter gubernament 818
mag n 818
g el 817
M E 817
gr atu 817
ex pedi 817
200 4</w> 817
recib en</w> 817
criteri o</w> 817
Greci a,</w> 817
com entar</w> 816
aprob adas</w> 816
esper an</w> 816
Res ul 816
prosper idad</w> 816
d amente</w> 815
ri qu 815
minu to</w> 815
manif estado</w> 815
o cul 814
hacer lo,</w> 814
Represent ante</w> 814
re acción</w> 813
pe d 813
vis ados</w> 813
propon emos</w> 813
Irland a,</w> 813
inmediat a</w> 813
Energ ía</w> 813
cu ant 812
as ent 812
is mo,</w> 812
200 3</w> 812
tar je 812
labor al,</w> 812
institucion es,</w> 812
agradeci da</w> 812
frecu encia</w> 812
M ad 811
Co h 811
l mente</w> 810
ar anc 810
pon er 810
tar de.</w> 810
proce der</w> 810
miembro ,</w> 810
limi tado</w> 810
ton ,</w> 810
simi lares</w> 810
2 8</w> 809
des .</w> 809
des echos</w> 809
cre í 809
dese an</w> 809
capí tulo</w> 809
in vesti 808
Europe os,</w> 808
peti ciones</w> 808
retras o</w> 808
2 6</w> 807
institucion es.</w> 807
o bra</w> 806
ent iendo</w> 806
mi l</w> 806
I )</w> 805
deber án</w> 805
llev arse</w> 805
antigu os</w> 805
S í,</w> 804
distin gu 804
red acción</w> 804
seguir án</w> 804
B ret 803
ent reg 803
import ancia.</w> 803
formul ación</w> 803
simpli ficar</w> 803
Monet arios</w> 803
ust r 802
demócrat as</w> 802
ad uc 801
cre ando</w> 801
hab erse</w> 801
indic adores</w> 801
ultra perifé 801
órgan o</w> 800
C reci 799
deci sión,</w> 799
acer vo</w> 799
emerg encia</w> 799
k ur 798
- la</w> 798
200 0 798
propuest as,</w> 798
interes ados</w> 798
vol ver 798
p adres</w> 797
v enta</w> 797
c alific 797
tur as</w> 797
sab e,</w> 797
sin cero</w> 797
feder al</w> 797
mer ecen</w> 796
comi siones</w> 796
técni cos</w> 796
genéti camente</w> 796
G ali 795
Co operación</w> 795
mar ca</w> 795
200 5,</w> 795
ayud ará</w> 795
financier os,</w> 795
herrami enta</w> 795
comprob ar</w> 795
especi es</w> 794
20 20</w> 794
desarroll ado</w> 794
prepar ado</w> 794
prohi b 794
cu bre</w> 793
ex tern 793
áti ca</w> 793
ens ay 793
Ser bia</w> 793
Estructur ales</w> 793
person ales</w> 792
lec tura.</w> 792
M ol 791
L a 791
bil idad,</w> 791
sensi ble</w> 791
res erva</w> 790
actu alidad,</w> 790
destac ado</w> 790
correspondi entes</w> 790
p as</w> 789
H ar 789
inter ven 789
int entos</w> 789
Gru pos</w> 789
compromis o,</w> 789
éx it 789
c ens 788
intro du 788
C hech 787
deb ía</w> 787
equi pos</w> 787
utiliz ado</w> 787
auto máti 787
inacept able.</w> 787
im posición</w> 786
acer tad 786
abord a</w> 786
Reglament o.</w> 786
aband onar</w> 786
desafí o</w> 786
g ,</w> 785
po pu 785
ki ,</w> 785
tribun ales</w> 785
perío dos</w> 785
b at 784
/ AL 784
bi a,</w> 784
cont actos</w> 784
económi cos,</w> 784
empe or 784
Sch ul 784
ec o</w> 783
inform ado</w> 783
cul tiv 783
permi so</w> 783
cooper ar</w> 783
utili za</w> 783
Ob je 783
Minist ro,</w> 783
vín culos</w> 783
po s 782
vo tos</w> 782
exi gi 782
cuent a,</w> 782
re mun 781
di visión</w> 781
cu ri 781
ac ción.</w> 781
institucion ales</w> 781
/9 7 781
cambi ado</w> 780
tonel adas</w> 780
o to 779
est arán</w> 779
comerci o,</w> 779
negoci aciones,</w> 779
ell as.</w> 779
Españ a,</w> 779
a prueba</w> 778
S A 778
re mi 778
negoci aciones.</w> 778
docum ent 778
aranc el 778
I sl 777
V amos</w> 777
in mun 777
cab ez 777
deport e</w> 777
¿ No</w> 776
pregun tar</w> 776
propuest as.</w> 776
ren unci 776
reac cion 776
Enton ces</w> 776
s s 775
O C 775
P SE 775
vi éti 775
sem ej 775
Blan co</w> 775
k .</w> 774
o mi 774
reiter ar</w> 774
ron da</w> 774
in certi 773
produc e</w> 773
afec tadas</w> 773
explic ación</w> 773
remun er 773
200 7,</w> 772
ámbi to,</w> 772
signific ativa</w> 772
cad ena</w> 772
ni z 771
uni rse</w> 771
migr ación</w> 771
sól ida</w> 771
as í.</w> 770
propi et 770
termin ar</w> 770
especí fico</w> 770
Copenha gu 770
Servi cio</w> 770
p á 769
v an 769
gi p 769
av a</w> 769
aplic ando</w> 769
neg ativ 769
Su r</w> 769
n aci 768
L amento</w> 768
po s,</w> 768
gan ado</w> 768
plan o</w> 768
dirig ido</w> 768
y n 767
( Demócrat 767
200 4,</w> 767
objetiv o.</w> 767
exi gen</w> 767
presupuest o,</w> 767
pa pe 766
territori os</w> 766
al ej 765
hi po 765
Fin anci 765
ación ;</w> 765
lengu as</w> 765
f a 764
E gip 764
co sta</w> 764
ten ían</w> 764
competi tiva</w> 764
dirig ida</w> 764
estad ísti 764
infra estructur 764
sufr ido</w> 764
o - 763
fuer an</w> 763
mutu o</w> 763
C risti 762
tr aduc 762
puest as</w> 762
dese os</w> 762
empr ender</w> 762
conclu sión,</w> 762
de fi 761
servi r</w> 761
tom en</w> 761
vid a,</w> 761
ir regular 760
conserv ación</w> 760
campañ as</w> 760
p acto</w> 759
parti da</w> 759
ing l 759
logr ados</w> 759
conven cer</w> 759
incre ment 759
in feri 758
mi o</w> 758
pro v 758
Par ece</w> 758
ir a</w> 758
In ver 758
amenaz as</w> 758
aprendiz aje</w> 758
K in 757
li fer 757
contr a 757
min oría</w> 757
vid a.</w> 757
presupuest o.</w> 757
discu ti 757
medid a,</w> 757
al er 756
pi lo 756
logr o</w> 756
comprome tido</w> 756
intent ando</w> 756
dro g 756
2 9</w> 755
f all 755
ab sur 755
pro tocolo</w> 755
efec tiva</w> 755
UE / 755
indic ar</w> 755
minu tos</w> 755
subsidiari edad</w> 755
re ali 754
aliz ados</w> 754
aplic able</w> 754
estructur al</w> 754
lec tura,</w> 754
desempeñ ado</w> 754
legisl ación.</w> 753
edad es</w> 753
v ast 752
U )</w> 752
destin ado</w> 752
elev ar</w> 752
rur al</w> 752
sector ,</w> 752
ú ne 751
com o,</w> 751
iz quierda</w> 751
ag encia</w> 751
mundi ales</w> 751
vein te</w> 751
e los</w> 750
H on 750
G lob 750
le y,</w> 750
conjun to.</w> 750
n inguno</w> 749
Señ oría</w> 749
cal idad,</w> 749
responsabil idad.</w> 749
afron tar</w> 749
Human os,</w> 749
f arm 748
l lo</w> 748
ab uso</w> 748
cri p 748
asegur arse</w> 748
patr imonio</w> 748
tragedi a</w> 748
a "</w> 747
T úne 747
cu la</w> 747
im pres 747
exteri or,</w> 747
ev e</w> 746
recur so</w> 746
Ver ts 746
fig ura</w> 746
li st 745
anz a.</w> 745
indispens able</w> 745
Rot h 745
pe t 744
pl á 744
200 2</w> 744
coordin ar</w> 744
jóven es,</w> 744
puer ta</w> 744
asun to,</w> 744
¿ Hay</w> 743
moder nización</w> 743
dó lares</w> 743
ejér cito</w> 743
d .</w> 742
N unca</w> 742
ali vi 742
servici os.</w> 742
bil idad.</w> 742
Verts /AL 742
  %</w> 741
com partir</w> 741
trabaj adores.</w> 741
trans form 741
din ero.</w> 741
rechaz ado</w> 741
Seg un 741
accid ente</w> 741
e -</w> 740
in v 740
at ac 740
produc en</w> 740
miembro .</w> 740
miembro s 740
ani a.</w> 740
anim al</w> 740
conjun to,</w> 740
i ción</w> 739
ocasi on 739
adhesi ón.</w> 739
Brusel as,</w> 739
n ada.</w> 738
t es 738
E duc 738
X X 738
des favoreci 738
realiz ada</w> 738
industri ales</w> 738
prohibi r</w> 738
p ing</w> 737
a co 737
so port 737
enci ales</w> 737
apoy an</w> 737
person al,</w> 737
atur a</w> 737
e - 736
ent idades</w> 736
di eron</w> 736
celebr amos</w> 736
sociedad .</w> 736
I F 735
en l 735
anz a,</w> 735
Áfri ca,</w> 735
vi enen</w> 734
val e</w> 734
materi ales</w> 734
Chech eni 734
t i</w> 733
ser ían</w> 733
bas arse</w> 733
cam pos</w> 733
hon or</w> 733
Ambi ente</w> 733
labor al.</w> 732
frances a</w> 732
ti erra</w> 731
re alidad.</w> 731
program a.</w> 731
excep cion 731
eficaz ,</w> 731
detal le</w> 731
Igu al 731
con fer 730
con vir 730
as o</w> 730
ri cas</w> 730
palesti nos</w> 730
en za</w> 729
ac ción,</w> 729
correc tamente</w> 729
bási cas</w> 729
CO 2</w> 729
i ,</w> 728
d ados</w> 728
S oy</w> 728
des esper 728
dé bi 728
armoniz ar</w> 728
Resul ta</w> 728
di ría</w> 727
per judic 727
mencion a</w> 727
sub vencion 727
jurí dicos</w> 727
tot alidad</w> 727
hom en 727
discu tir</w> 727
Copenha gue</w> 727
supl ement 727
L í 726
financier a.</w> 726
especí fi 726
sector .</w> 726
recor tes</w> 726
va qui 726
m os 725
fuer t 725
part es.</w> 725
bien es</w> 725
altern ativos</w> 725
e ?</w> 724
N .</w> 724
O LA 724
B ur 724
Presid entes</w> 724
om ía</w> 724
nuev e</w> 724
especi al,</w> 724
experi encias</w> 724
/9 8 724
cuestion es,</w> 724
discur sos</w> 724
(H U)</w> 724
aboli ción</w> 724
r ar 723
or ador</w> 723
orm ente</w> 723
pl acer</w> 723
import ación</w> 723
Po steri 723
depend en</w> 723
culp a</w> 723
combusti bles</w> 723
habit antes</w> 723
incentiv os</w> 723
com uni 722
des pu 722
lleg a</w> 722
Presu puestos</w> 722
Br asi 722
B E 721
Comis arios</w> 721
Per son 721
b eb 720
S w 720
6 -0 720
in toler 720
rec ep 720
celebr a</w> 720
estric tas</w> 720
des per 719
pen al</w> 719
dur o</w> 719
inici o</w> 719
esper anzas</w> 719
presupuest arios</w> 719
Austri a</w> 719
plu ri 719
o gi 718
cier tamente,</w> 718
aport ar</w> 718
in vers 717
199 8</w> 717
felici tando</w> 717
P u</w> 716
preocup ados</w> 716
desarroll ando</w> 716
evid entemente</w> 716
electri cidad</w> 716
T im 715
ex ención</w> 715
ver se</w> 715
construc tiva</w> 715
Pi enso</w> 715
¿ Es</w> 714
pl ur 714
dis puesto</w> 714
us ar</w> 714
m óvi 713
b ac 713
objetiv os,</w> 713
adqui r 713
é s 712
pu si 712
gu en</w> 712
int enciones</w> 712
económi cas,</w> 712
part e.</w> 712
estudi antes</w> 712
acab o</w> 712
rur ales</w> 712
identi fic 712
t empr 711
o j 711
O D 711
vot aciones</w> 711
Ar g 711
Portug al,</w> 711
coch es</w> 711
Luxem burgo</w> 711
enc ant 711
al la</w> 710
estudi ar</w> 710
buro cr 710
burg o.</w> 710
m os.</w> 709
bi ll 709
tant a</w> 709
niñ os.</w> 709
n a.</w> 708
h ,</w> 708
Co l 708
200 5</w> 708
egr o</w> 708
diputad os.</w> 708
Fundament ales</w> 708
Ky o 708
d os 707
7 0</w> 707
3 00</w> 707
in quie 707
constitu ción</w> 707
audi tor 707
IV A</w> 707
p untos.</w> 706
i va</w> 706
ro s 706
mejor ado</w> 706
flo ta</w> 706
co decisión</w> 705
desarrol lar 705
respon der 705
comi té 705
Ver he 705
conden ar</w> 705
británi cos</w> 705
eficaz mente</w> 705
convier ta</w> 705
Reso lución</w> 705
E vid 704
con sig 704
pres os</w> 704
err adic 704
llev e</w> 704
funcion a</w> 704
ani vers 704
adel ant 704
cuid ado</w> 704
d é</w> 703
tr ibu 703
ac ceder</w> 703
mejor .</w> 703
Pro di</w> 703
elev ado</w> 703
compati ble</w> 703
Pes ca</w> 703
escue las</w> 703
d arnos</w> 702
car r 702
confi ar</w> 702
consul tas</w> 702
E A 701
pro lifer 701
ll en 701
gener almente</w> 701
hu bier 701
n ada,</w> 700
t amente.</w> 700
B ir 700
ay er,</w> 700
ser ,</w> 700
ún ,</w> 700
proces o,</w> 700
g ur 699
B on 699
tiv o.</w> 699
(Demócrat a- 699
n oci 698
. ,</w> 698
/ CE</w> 698
desempeñ an</w> 698
prést amos</w> 698
is mo.</w> 697
priv ado</w> 697
pá gin 697
n °</w> 696
R ed 696
mor al</w> 696
c amente.</w> 695
3 0 695
fi l 695
ari z 695
Kosov o,</w> 695
resist encia</w> 695
c á 694
re alist 694
em pi 694
estadounid en 694
contrat ación</w> 694
franc és</w> 694
re tro 693
pregun tas.</w> 693
transport e.</w> 693
ameri canos</w> 693
pudi era</w> 693
li bre 692
ha go</w> 692
solici tu 692
que za</w> 692
ambici oso</w> 692
É st 691
es lo 691
se a,</w> 691
apoy o,</w> 691
hi cieron</w> 691
respe tu 691
Cu alqui 691
adecu ada.</w> 691
esenci almente</w> 691
candid ato</w> 691
eni endo</w> 690
gesti on 690
excep ciones</w> 690
magn í 690
c rec 689
ci o.</w> 689
200 1</w> 689
trat e</w> 689
Si empre</w> 689
UE - 689
seman as,</w> 689
ofici na</w> 689
ileg ales</w> 689
el .</w> 688
Económi co</w> 688
reflexi ón</w> 688
evo lu 688
noti cias</w> 688
w e 687
es forz 687
al ?</w> 687
ex pul 687
pon erse</w> 687
fin anzas</w> 687
rat s 687
eni o</w> 687
permiti ría</w> 687
reli eve</w> 687
concentr ación</w> 687
resi de</w> 687
Igual dad</w> 687
r establecer</w> 686
l un 686
ex posición</w> 686
observ ar</w> 686
estratégi co</w> 686
Pre gun 686
figur an</w> 686
geográ fic 686
categor ías</w> 686
di fusión</w> 685
fin al.</w> 685
fin almente,</w> 685
au ton 685
legisl ación,</w> 685
incorpor ación</w> 685
manteni endo</w> 685
rest aur 685
lech e</w> 685
corregi r</w> 685
ci c 684
le er</w> 684
Es as</w> 684
limi taciones</w> 684
flexi ble</w> 684
cientí fica</w> 684
come tido</w> 684
r me</w> 683
a penas</w> 683
o jos</w> 683
K ar 683
viaj es</w> 683
OMC ,</w> 683
particular .</w> 682
continu a</w> 682
Fr on 682
renov ables</w> 682
pérd idas</w> 682
Lí ban 682
si em 681
ac éuti 681
cer e 681
conver ti 681
á s.</w> 680
d or 680
x en 680
to me</w> 680
Cu ar 680
pobl ación,</w> 680
nucle ar 680
exten der</w> 680
adqui si 680
al ar 679
cum pla</w> 679
ejerci cio,</w> 679
abord ado</w> 679
caus ados</w> 679
eleg idos</w> 679
7 .</w> 678
B 5-0 678
nuev o.</w> 678
cor re 678
objetiv os.</w> 678
exist ente</w> 678
exist an</w> 678
tam año</w> 678
C ier 677
re ún 677
tr adu 677
ir .</w> 677
of o 677
administr ativa</w> 677
evid entemente,</w> 677
Estras burgo</w> 677
Eslo vaqui 677
ob ten 676
comi sión,</w> 676
tri bunal</w> 676
equilibr ada</w> 676
respal do</w> 676
norte american 676
a t</w> 675
ar bi 675
acep ta</w> 675
oportun o</w> 675
compet entes</w> 675
don os</w> 675
pun to.</w> 675
Dich o</w> 675
farm acéuti 675
m ,</w> 674
vi aje</w> 674
Con cili 674
mar gin 674
sent encia</w> 674
bási co</w> 674
españ ola</w> 674
s í,</w> 673
ent es:</w> 673
celebr ada</w> 673
refer encias</w> 673
recha za</w> 673
británi co</w> 673
mism a,</w> 673
esc en 673
consolid ar</w> 673
introduci do</w> 673
entendi miento</w> 673
l a.</w> 672
cu anti 672
particip en</w> 672
super fici 672
propor ción</w> 672
defen s 672
áti cos</w> 672
adver t 672
B la 671
es co 671
so m 671
fin landes 671
14 2)</w> 671
míni mas</w> 671
isl ámi 671
resum en,</w> 671
b and 670
posi blemente</w> 670
consider ables</w> 670
integr ar</w> 670
refer ente</w> 670
indem nización</w> 670
atenci ón.</w> 670
ofer ta</w> 670
refuerz o</w> 670
signific ado</w> 669
absolu ta</w> 669
otro s.</w> 669
combin ación</w> 669
O I 668
B ol 668
fundament al.</w> 668
hor as,</w> 668
aci a,</w> 667
conce b 667
si ent 666
vo lución</w> 666
Algun as</w> 666
R ecu 665
al ter 665
ten ,</w> 665
car gas</w> 665
prim as</w> 665
sal vo</w> 665
preci sa</w> 665
constitu cion 665
A grad 664
pro hí 664
posi tivas</w> 664
for o</w> 664
del ante</w> 664
I .</w> 663
id ar 663
des vi 663
Direc tiva.</w> 663
efic ac 663
civi l.</w> 663
sustanci al</w> 663
adhesi ón,</w> 663
reem bol 663
t he</w> 662
R eci 662
h r 662
at a</w> 662
objetiv o,</w> 662
Qu e</w> 662
ocasi ones,</w> 662
gran de</w> 662
exteri or.</w> 661
tab a 661
encamin adas</w> 661
irland és</w> 661
homen aje</w> 661
siem pre 661
N ,</w> 660
mi siones</w> 660
aplic ables</w> 660
cláusu las</w> 660
ahorr o</w> 660
env ej 660
T eniendo</w> 659
re vist 659
Afgan istán</w> 659
Kin noc 659
m a.</w> 658
5 %</w> 658
acep tación</w> 658
Deb ido</w> 658
prepar ando</w> 658
pat ente</w> 658
Apo y 658
n e,</w> 657
N acional</w> 657
fi que</w> 657
ocup ación</w> 657
Es co 657
Du b 657
an d</w> 656
as -</w> 656
financier os.</w> 656
ON U</w> 656
pertin entes</w> 656
olog ía</w> 656
G i 655
W at 655
de vast 655
tiv o,</w> 655
pa quet 655
anci as</w> 655
ez can</w> 655
difíci l.</w> 655
f am 654
G UE/ 654
vi abilidad</w> 654
sec tori 654
sen s 654
  000</w> 653
Est atuto</w> 653
bas adas</w> 653
recur rir</w> 653
atr a 653
region al,</w> 653
transfronteriz a</w> 653
identi ficar</w> 653
Sol idar 653
pur amente</w> 653
Obvi amente,</w> 653
bas an</w> 652
minu ci 652
adr e</w> 652
lle gue</w> 652
abst en 652
estabi lización</w> 652
repe tir</w> 652
pedir le</w> 652
i cid 651
d rá 651
a fi 651
t aria</w> 651
1 /200 651
B ö 651
loc ales,</w> 651
visi ón,</w> 651
reflexi onar</w> 651
comunit aria.</w> 650
econom ía,</w> 650
distin ción</w> 650
famili ar</w> 650
continú a</w> 650
Europo l</w> 650
i ba</w> 649
in oc 649
ju g 649
pobl ación.</w> 649
/9 6 649
diver si 649
repercu sión</w> 649
acord ado</w> 649
pací fic 649
bos ques</w> 649
centr a</w> 648
creci miento,</w> 648
Gu erra</w> 648
herrami entas</w> 648
Amsterdam ,</w> 648
explot aciones</w> 648
Posteri ormente,</w> 648
á fri 647
R um 647
ver ti 647
centr arse</w> 647
regres ar</w> 647
Palesti na</w> 647
At lánti 647
éxit o,</w> 647
arbi tr 647
N G 646
integr al</w> 646
presi ones</w> 646
ho gar 646
movi mientos</w> 646
comenz ado</w> 646
segui remos</w> 646
instanci a,</w> 646
t ante</w> 645
S ,</w> 645
ó x 645
pro puso</w> 645
tant os</w> 645
encu entro</w> 645
ocurr ido</w> 645
cuo ta</w> 645
i k 644
c k 644
ad or.</w> 644
bi ológi 644
le y.</w> 644
deb id 644
tant as</w> 644
200 3,</w> 644
refi ri 644
compromi so.</w> 644
administr ativos</w> 644
desigual dades</w> 644
a un</w> 643
P eti 643
organiz ado</w> 643
cualqui era</w> 643
atr ás</w> 643
enfrent arse</w> 643
razon es,</w> 643
juris dic 643
¿Cuá l</w> 643
2 3 642
h id 642
ci tar</w> 642
au tor</w> 642
dis poner</w> 642
expres a</w> 642
cin di 642
oz co</w> 642
Fe lici 642
í o</w> 641
é l,</w> 641
logr os</w> 641
energéti ca,</w> 641
an n 640
re di 640
inter nos</w> 640
man ej 640
verdad eros</w> 640
conduc tores</w> 640
Actu almente</w> 640
aero puertos</w> 639
senci llam 639
neu tr 639
- no</w> 638
4 0 638
to log 638
ir an 638
ori a</w> 638
modific ados</w> 638
r e</w> 637
r as 637
m ente,</w> 637
R ,</w> 637
program a,</w> 637
dificul tad</w> 637
Chin a.</w> 637
Maced onia</w> 637
anivers ario</w> 637
v ál 636
co ti 636
deci siones.</w> 636
dis pone</w> 636
difer ente.</w> 636
observ adores</w> 636
respuest a,</w> 636
ecer á</w> 636
Sud áfri 636
anex o</w> 636
di g 635
políti camente</w> 635
cab o,</w> 635
benefici arse</w> 635
sust ancia</w> 635
Iz quierda</w> 635
o d 634
G ol 634
an des 634
Pro di,</w> 634
capi tal 634
vis ado</w> 634
innov ación,</w> 634
Ad ap 634
c é 633
¿ Puede</w> 633
al o</w> 633
distin to</w> 633
Eslo ven 633
ó .</w> 632
201 0,</w> 632
rit mo</w> 632
provoc ar</w> 632
Georgi a</w> 632
azú car</w> 632
de tec 631
per der 631
produc ción,</w> 631
col oc 631
din ero,</w> 631
subray ado</w> 631
bási camente</w> 631
mag ni 631
Her z 631
s mo,</w> 630
M .</w> 630
ab ast 630
ag a</w> 630
pes ca,</w> 630
reglament ación</w> 630
ocupar se</w> 630
Barcelon a</w> 630
S ist 629
re cuerdo</w> 629
tar on</w> 629
ag ost 629
Des eo</w> 629
concre ta</w> 629
proporcion ado</w> 629
busc ando</w> 629
conveni ente</w> 629
bill ones</w> 629
d ría</w> 628
é sti 628
200 2,</w> 628
constitu cional</w> 628
sost en 628
To da</w> 628
conoci do</w> 628
resultad os.</w> 628
Som os</w> 628
hos pi 628
N adie</w> 627
ro de 627
ch e 627
neg ativa</w> 627
inici ado</w> 627
ofici ales</w> 627
Ad ministr 627
quin to</w> 627
opti mi 627
pi ed 626
otr a,</w> 626
mí ,</w> 626
estadounidens es</w> 626
pre vistas</w> 625
inter no</w> 625
Ver des 625
tras lad 625
propon go</w> 625
irlandes a</w> 625
promes as</w> 625
GUE/ NG 625
n er</w> 624
g eri 624
( L 624
in fec 624
mu sul 624
ud ,</w> 624
reci cl 624
justi cia,</w> 624
Interi or,</w> 624
existi r</w> 624
conexi ón</w> 624
Adap tación</w> 624
gan ar</w> 623
peligr os</w> 623
explic aciones</w> 623
Pol onia,</w> 623
vay an</w> 623
tránsi to</w> 623
miend a</w> 622
enmiend a,</w> 622
preci pi 622
quer ido</w> 622
pens ando</w> 622
record arle</w> 622
pesquer as</w> 622
posteri or</w> 622
Cristi anos)</w> 622
200 8,</w> 621
particip antes</w> 621
Re almente</w> 621
estableci ó</w> 621
priv ados</w> 621
Quiz á</w> 621
rapid ez</w> 621
ar á,</w> 620
id ez</w> 620
em bre.</w> 620
ri queza</w> 620
sal ido</w> 620
tro pas</w> 620
tori a</w> 620
qued an</w> 620
utiliz ados</w> 620
otro .</w> 620
sustitu ir</w> 620
id as.</w> 619
fin alidad</w> 619
bar cos</w> 619
Si ri 619
part es,</w> 619
seman a,</w> 619
adopt ando</w> 619
(F I)</w> 619
nombr amiento</w> 619
man tienen</w> 618
compren sión</w> 618
deten idos</w> 618
raci smo</w> 618
impres cindi 618
d añ 617
é li 617
au str 617
glob al.</w> 617
favor ablemente</w> 617
vulner ables</w> 617
deriv ados</w> 617
ad ul 616
re p 616
gr ati 616
comprend ido</w> 616
in a,</w> 615
re alista</w> 615
vo n</w> 615
deci sivo</w> 615
car g 615
anc e</w> 615
nucle ar.</w> 615
mism a.</w> 615
hubier an</w> 615
C entro</w> 614
id as,</w> 614
at re 614
ayud a,</w> 614
integr idad</w> 614
To das</w> 614
recuper ar</w> 614
per sist 613
des empleo,</w> 613
neg ativo</w> 613
comi tolog 613
vot ación,</w> 613
encuentr en</w> 613
correspondi ente</w> 613
auténti ca</w> 613
A b 612
M o 612
en um 612
des centr 612
posi ción,</w> 612
én do 612
combusti ble</w> 612
periodist as</w> 612
A ,</w> 611
est able</w> 611
est aremos</w> 611
at e</w> 611
lar es.</w> 611
ind ud 611
compl em 611
diri gir</w> 611
R ec 610
Europe a 610
199 6</w> 610
ries g 610
agu a,</w> 610
OMC .</w> 610
on .</w> 609
inter institucional</w> 609
man era,</w> 609
uni form 609
justi ficar</w> 609
estric tamente</w> 609
viaj ar</w> 609
derech os,</w> 609
experiment ado</w> 609
f asi 608
res u 608
fe li 608
demasi adas</w> 608
técni co</w> 608
inmedi ato</w> 608
sociedad ,</w> 608
El lo</w> 608
risti an</w> 608
sí m 608
Exist e</w> 608
ci erre</w> 607
pa gar 607
cep ti 607
prev entiv 607
Pod ría</w> 607
dom ésti 607
Pen al</w> 607
¿ Qui 606
es con 606
Est ado,</w> 606
asi lo,</w> 606
én fasi 606
construc tivo</w> 606
suje tos</w> 606
allí .</w> 606
estimu lar</w> 606
0 , 605
posi ción.</w> 605
cons agr 605
ayud a.</w> 605
anteri or,</w> 605
tan gi 605
úti les</w> 605
M esa</w> 604
ar d</w> 604
ac a</w> 604
200 1,</w> 604
recur sos.</w> 604
Pr ó 604
1 . 603
ro s,</w> 603
li stas</w> 603
Est ocol 603
cor aje</w> 603
aum enta</w> 603
constitu y 603
difíci l,</w> 603
dirig entes</w> 603
caracter iz 603
aleman a</w> 603
hab ilidad</w> 602
negoci os</w> 602
oblig ado</w> 602
felici taciones</w> 602
territori al</w> 602
Pró xim 602
d umbre</w> 601
R econ 601
gener ales,</w> 601
realiz adas</w> 601
comunic ación.</w> 601
infr acción</w> 601
tomar se</w> 601
Ciudad anos,</w> 601
c lam 600
Es peci 600
firm ar</w> 600
(C S)</w> 600
carreter as</w> 600
cán cer</w> 600
C 5-0 599
K )</w> 599
pon gan</w> 599
apoy en</w> 599
Cá uc 599
V oy</w> 598
re patri 598
im pide</w> 598
públi cos,</w> 598
fundament almente</w> 598
envi ado</w> 598
vel ar</w> 598
Finlan dia</w> 598
h all 597
empres arios</w> 597
Ob serv 597
gri eg 597
Bosni a</w> 597
di ca</w> 596
di stanci 596
protec cion 596
administr ativas</w> 596
So lo</w> 596
fáci lmente</w> 596
edifici os</w> 596
S E</w> 595
aci a.</w> 595
fi co,</w> 595
pre texto</w> 595
cul tivos</w> 595
cuent a.</w> 595
Kosov o.</w> 595
doc e</w> 595
Mol do 595
9 /200 594
min as</w> 594
ne er 594
positiv amente</w> 594
acus aciones</w> 594
asesor amiento</w> 594
Evid entemente,</w> 594
1 , 593
E ri 593
tiv as,</w> 593
lar es,</w> 593
trans posición</w> 593
transpar encia.</w> 593
adel ante.</w> 593
some ter 593
posteri ormente</w> 593
Actu almente,</w> 593
br in 592
cri men</w> 592
oper an</w> 592
admi tir</w> 592
bri ca</w> 592
a isl 591
M ed 591
ti ni 591
ampli as</w> 591
destin ada</w> 591
solidar idad,</w> 591
comenz ó</w> 591
(S K)</w> 591
ferrovi ario</w> 591
honor ables</w> 591
Zimb ab 591
a pi 590
t ó 590
H ay 590
mi entos,</w> 590
pod ía</w> 590
Direc tiva,</w> 590
defini tiva</w> 590
vac un 590
retras os</w> 590
dipl om 590
abu sos</w> 590
Parlament aria</w> 590
n ación</w> 589
I N 589
pr ag 589
inter cambios</w> 589
resul tan</w> 589
dej ando</w> 589
consumid or,</w> 589
vec es,</w> 589
frances es</w> 589
Energ ía,</w> 589
pobrez a.</w> 589
M at 588
at o,</w> 588
respon de</w> 588
199 7</w> 588
ministr o</w> 588
obst acu 588
positiv o.</w> 588
/CE E</w> 588
suer te</w> 588
J oh 587
car gos</w> 587
tar d 587
raz ón.</w> 587
crimin ales</w> 587
vig ente</w> 587
compens ación</w> 587
drá sti 587
3 5</w> 586
or g 586
su ces 586
ambi ción</w> 586
fic aciones</w> 586
car á</w> 586
direc ción.</w> 586
integr ado</w> 586
peligro sas</w> 586
luch ando</w> 586
reform ar</w> 586
perten ecen</w> 586
ar lo,</w> 585
financi ación.</w> 585
In gl 585
hi jos</w> 585
contribu irá</w> 585
prepar ativos</w> 585
2 7 584
res al 584
signific ativamente</w> 584
inmigr ación,</w> 584
exig encia</w> 584
tuvi mos</w> 584
desmant e 584
al es:</w> 583
per pe 583
pre ver</w> 583
pre vista</w> 583
cre er</w> 583
ca í 583
prim av 583
conj unt 583
medid as.</w> 583
conced ido</w> 583
obstá culo</w> 583
pesqu ero</w> 583
vein ti 583
óx ido</w> 583
C ,</w> 582
si mul 582
ón ;</w> 582
200 9.</w> 582
compe tir</w> 582
gener ar</w> 582
fí o</w> 582
lec ciones</w> 582
mode los</w> 582
cuán do</w> 582
tiv amente,</w> 581
ten íamos</w> 581
energéti ca.</w> 581
esc ánd 581
Brusel as.</w> 581
dum ping</w> 581
empresari al</w> 581
R espec 580
B rit 580
su presión</w> 580
el or 580
renov ación</w> 580
desapar eci 580
Trabaj o</w> 580
an a.</w> 579
199 8,</w> 579
plante an</w> 579
jui cio,</w> 579
comprensi ble</w> 579
Hungr ía</w> 579
A ño</w> 578
M or 578
ru ta</w> 578
respe ten</w> 578
incre í 578
dedic ado</w> 578
Sist ema</w> 578
Respec to</w> 578
T end 577
B CE</w> 577
per d 577
deci siones,</w> 577
quin ce</w> 577
Baj os,</w> 577
abil idad,</w> 577
pre c 576
ord en.</w> 576
favor ecer</w> 576
(C h 576
sur gi 576
Exist en</w> 576
Ingl at 576
t esi 575
E sos</w> 575
cu ando,</w> 575
des p 575
mant end 575
Direc ción</w> 575
sub y 575
recib an</w> 575
vincul ante</w> 575
pet rol 575
cic lo</w> 575
E ur 574
re mo 574
est emos</w> 574
li qu 574
br os</w> 574
im per 574
ex ced 574
mat ern 574
lleg an</w> 574
limi tar 574
extre ma</w> 574
Nuestr os</w> 574
detr im 574
almacen amiento</w> 574
estánd ares</w> 574
co la</w> 573
con seguir 573
ob tenido</w> 573
presi onar</w> 573
comple jo</w> 573
anim ales.</w> 573
region es,</w> 573
oni a.</w> 573
bási ca</w> 573
Pri mer 573
detall ada</w> 573
univers al</w> 573
2007 -201 573
d arles</w> 572
di vi 572
hab er 572
tend encias</w> 572
benefici arios</w> 572
ez a,</w> 572
comprome ter 572
Nor te,</w> 572
primer o,</w> 572
ín dole</w> 572
Democ rats 572
Ést e</w> 572
énfasi s</w> 572
(Ch ristian</w> 572
2 /200 571
h á 571
N I 571
di ga</w> 571
ter in 571
pre fi 571
int encion 571
person al.</w> 571
qued ar</w> 571
excel entes</w> 571
oso s,</w> 571
examin ado</w> 571
An d 571
separ ación</w> 571
sufri endo</w> 571
transmi tir</w> 571
mantener se</w> 571
cé lu 571
u bi 570
P N 570
P ,</w> 570
em o 570
tiv as.</w> 570
sir ve</w> 570
Zimbab w 570
t a:</w> 569
un cia</w> 569
com posición</w> 569
form ación,</w> 569
soci alistas</w> 569
ju bil 569
recur sos,</w> 569
suger encias</w> 569
Institu to</w> 569
f ór 568
b as</w> 568
clar os</w> 568
desarroll ados</w> 568
oí r</w> 568
carbon o</w> 568
Hel sin 568
d atos,</w> 567
vi mos</w> 567
norm almente</w> 567
preocup an</w> 567
iniciativ a,</w> 567
juev es</w> 567
t - 566
- el</w> 566
car se</w> 566
comun es,</w> 566
liber ales</w> 566
hi j 566
econom ía.</w> 566
cultur al,</w> 566
adap tarse</w> 566
Tam per 566
restr in 566
V o 565
fr ag 565
mer idi 565
liber al</w> 565
contribu yen</w> 565
expres adas</w> 565
hor as)</w> 565
acab amos</w> 565
históri co</w> 565
pací fica</w> 565
Bir mani 565
feli z</w> 565
o pone</w> 564
ar ra 564
án do 564
opini ón.</w> 564
dici embre,</w> 564
minist eri 564
i s,</w> 563
par lamento</w> 563
se amos</w> 563
per ci 563
el ogi 563
solu cionar</w> 563
movi lización</w> 563
discu tiendo</w> 563
británi ca</w> 563
propiet arios</w> 563
Verdes / 563
al a 562
con firma</w> 562
ag on 562
agr av 562
cab eza</w> 562
Comun idades</w> 562
region al.</w> 562
aliment ación</w> 562
Mediterráne o,</w> 562
cometi dos</w> 562
Des graci 561
estableci das</w> 561
fisc alidad</w> 561
resuel to</w> 561
idiom a</w> 561
Á r 560
in o,</w> 560
pl ata 560
pec es</w> 560
mo tor</w> 560
mencion ó</w> 560
201 0.</w> 560
á sti 559
A cuer 559
li min 559
Con federal</w> 559
ist án.</w> 559
end as</w> 559
cul tivo</w> 559
constitu ir</w> 559
reconcili ación</w> 559
piens an</w> 559
u p 558
N iza</w> 558
M éxi 558
or di 558
tr adicionales</w> 558
difer enci 558
solu ción.</w> 558
grav edad</w> 558
vot amos</w> 558
septiem bre,</w> 558
H am 557
G ,</w> 557
con mi 557
aj o</w> 557
trans curso</w> 557
sec und 557
estructur ales,</w> 557
gres o</w> 557
manifest aciones</w> 557
entusi as 557
Gali le 557
c ami 556
B al 556
im plant 556
der rum 556
principi o.</w> 556
equi vo 556
realiz ado.</w> 556
propon en</w> 556
guerr a,</w> 556
brec ha</w> 556
co di 555
import ancia,</w> 555
car ece</w> 555
dej e</w> 555
mé dicos</w> 555
también .</w> 555
obligatori a</w> 555
Jap ón</w> 555
in ti 554
est atu 554
tr az 554
Cu ent 554
justi cia.</w> 554
sanit arios</w> 554
masi va</w> 554
hol andes 554
Irá n,</w> 554
der ro 553
fr ase</w> 553
expres amente</w> 553
funcion ar</w> 553
avi ones</w> 553
marz o,</w> 553
ovi su 553
n er,</w> 552
S h 552
ci encia</w> 552
anti cip 552
human a.</w> 552
declar ar</w> 552
emi sión</w> 552
energéti cos</w> 552
cultur a,</w> 552
estric ta</w> 552
aére as</w> 552
demand as</w> 552
derech o,</w> 552
Có digo</w> 552
ex cu 551
esi a</w> 551
convic ción</w> 551
L et 550
ent emente.</w> 550
em bri 550
mi entos.</w> 550
aj e,</w> 550
men ud 550
ju gu 550
civi liz 550
nucle ar,</w> 550
afirm ación</w> 550
convenci dos</w> 550
debati mos</w> 550
conserv ar</w> 550
Regi onal,</w> 550
Dinamar ca</w> 550
ú t 549
de grad 549
cr ímenes</w> 549
organiz ada</w> 549
cal idad.</w> 549
favor ece</w> 549
sor prende</w> 549
PPE- DE.</w> 549
2020 ,</w> 549
magni tud</w> 549
C F 548
J ac 548
en o,</w> 548
ac h 548
fic ación,</w> 548
clar o,</w> 548
fav or.</w> 548
norm al</w> 548
verdad eras</w> 548
administr aciones</w> 548
individu os</w> 548
an o.</w> 547
est ábamos</w> 547
conclu ye</w> 547
democráti co.</w> 547
atori os</w> 547
elev ados</w> 547
disponi bilidad</w> 547
asisti r</w> 547
veloci dad</w> 547
dos si 547
mar c 546
ch ,</w> 546
realiz a</w> 546
priv adas</w> 546
juni o,</w> 546
incerti dumbre</w> 546
9 0</w> 545
ex ter 545
pers ecu 545
financi ación,</w> 545
respe tando</w> 545
pens amos</w> 545
anteri ores,</w> 545
Cor te</w> 545
tele comunicaciones</w> 545
alegr a</w> 545
Agrad ezco</w> 545
r id 544
V ol 544
re presión</w> 544
al es;</w> 544
rec ti 544
ileg al,</w> 544
incorpor ar</w> 544
arti fici 544
verg ü 544
tarif as</w> 544
auton omía</w> 544
con fusión</w> 543
des ech 543
eg ov 543
actu ando</w> 543
ell as,</w> 543
sím bo 543
d ' 542
6 /200 542
H ol 542
demasi ada</w> 542
famili ares</w> 542
inst o</w> 542
sus cri 542
sus pend 542
tex to,</w> 542
ajust e</w> 542
estat ales</w> 542
sugi ere</w> 542
uste des,</w> 542
g as 541
en ví 541
es s</w> 541
to ?</w> 541
enti miento</w> 541
satisf echo</w> 541
de fec 540
tur co</w> 540
zon a.</w> 540
audi ovisu 540
roman íes</w> 540
Herz egov 540
austr í 540
detrim ento</w> 540
c emos</w> 539
com part 539
gr e</w> 539
prim ordi 539
particip a</w> 539
Unid o.</w> 539
(C OD 539
proced ente</w> 539
lengu a</w> 539
efectiv amente,</w> 539
der ,</w> 538
trans formación</w> 538
sal ari 538
difer entes.</w> 538
ambient ales</w> 538
jurídic a,</w> 538
alem án</w> 538
(Demócrata- Cristianos)</w> 538
ó ti 537
al it 537
ex pan 537
compet ente</w> 537
control .</w> 537
inst ar</w> 537
identi ficación</w> 537
idiom as</w> 537
gradu al</w> 537
mem or 537
Inst o</w> 537
E L 536
Y or 536
S .</w> 536
di mos</w> 536
pi rat 536
dem or 536
gan ad 536
hi pó 536
ier on</w> 536
Ver des</w> 536
1 / 535
C e 535
5 0 535
4 00</w> 535
er gi 535
pas aport 535
et es</w> 535
199 5</w> 535
ést os</w> 535
responsabil idad,</w> 535
adap tar</w> 535
israel íes</w> 535
senti miento</w> 535
fór mu 535
des car 534
Ju vent 534
jui ci 534
Civi les,</w> 534
prolifer ación</w> 534
o f</w> 533
N S 533
N iz 533
pr esta</w> 533
resul tantes</w> 533
llev ó</w> 533
cer can 533
financier as,</w> 533
(A 5-00 533
Asi mismo</w> 533
agrícol a,</w> 533
Austri a,</w> 533
iniciativ a.</w> 533
tierr as</w> 533
dinámi ca</w> 533
Bol k 533
d as,</w> 532
h echa</w> 532
3 )</w> 532
est án 532
con tienen</w> 532
vi ern 532
ár ab 532
radi o 532
b asta</w> 531
en k 531
sab ido</w> 531
indic ado</w> 531
regres o</w> 531
i a,</w> 530
C at 530
en - 530
con gel 530
Presid encia.</w> 530
199 6,</w> 530
respe te</w> 530
social demócratas</w> 530
secu estr 530
naveg ación</w> 530
supri mir</w> 530
n at 529
po s.</w> 529
av es</w> 529
ativ a.</w> 529
negoci o</w> 529
fundament al,</w> 529
llam a</w> 529
reduci endo</w> 529
tex to.</w> 529
maríti mo</w> 529
electróni co</w> 529
excesiv amente</w> 529
2020 .</w> 529
k il 528
2 4 528
A parte</w> 528
en riqu 528
al ban 528
Europe a?</w> 528
Parlam entos</w> 528
terror ista</w> 528
adh er 528
Pal aci 528
2 / 527
si tú 527
po bres,</w> 527
deci siva</w> 527
algun o</w> 527
comun es.</w> 527
199 9.</w> 527
Des e 527
integr ada</w> 527
cost os</w> 527
comple tar</w> 527
anteriorm ente,</w> 527
tradi ción</w> 527
Feder ación</w> 527
vu elos</w> 527
incendi os</w> 527
c end 526
mar avi 526
aument ando</w> 526
cristi anos</w> 526
alimenti cios</w> 526
GUE/NG L 526
musul man 526
di a.</w> 525
asesin ato</w> 525
estat al</w> 525
h aría</w> 524
in ta</w> 524
uni forme</w> 524
respon dido</w> 524
bas ados</w> 524
aqu í 524
estableci endo</w> 524
argu ment 524
despu és,</w> 524
er án</w> 523
qu err 523
pl agu 523
iz quier 523
centr arnos</w> 523
úni co,</w> 523
escu el 523
aliment os,</w> 523
mir ar</w> 523
extraordin ariamente</w> 523
subsidiari edad.</w> 523
catástro fe</w> 523
Plen o</w> 523
D im 522
200 6.</w> 522
program ación</w> 522
gesti onar</w> 522
continu idad</w> 522
pat entes</w> 522
suger encia</w> 522
reduc ciones</w> 522
errón e 522
á gi 521
a un 521
- .</w> 521
A h 521
al ine 521
bi a.</w> 521
estr e</w> 521
ativ o,</w> 521
ver ,</w> 521
actu ado</w> 521
ON U 521
auténti co</w> 521
prud encia</w> 521
cár cel 521
mar co,</w> 520
direc tos</w> 520
sig no</w> 520
comunit aria,</w> 520
glob al,</w> 520
terri bles</w> 520
umbr al</w> 520
f em 519
j untos,</w> 519
un idades</w> 519
nu tri 519
defini tiva,</w> 519
compañ ía</w> 519
ai w 519
célu las</w> 519
F i 518
in e</w> 518
os as.</w> 518
Áfri ca.</w> 518
sesi ón,</w> 518
e la</w> 517
N e 517
es a,</w> 517
bi om 517
vo tantes</w> 517
preocup ante</w> 517
gen oci 517
solidar idad.</w> 517
individu al</w> 517
retir ar</w> 517
rendi miento</w> 517
cohesi ón,</w> 517
s :</w> 516
R .</w> 516
O tra</w> 516
aplic ación.</w> 516
sim b 516
qued arse</w> 516
formul ado</w> 516
Com par 516
españ ol</w> 516
só lid 516
produ zca</w> 516
est ando</w> 515
am o</w> 515
res cat 515
nom bres</w> 515
llev ará</w> 515
uti lidad</w> 515
esenci al.</w> 515
oso s.</w> 515
cultur as</w> 515
discu sión</w> 515
cali ficación</w> 515
há bi 515
segur amente</w> 514
don antes</w> 514
alist a,</w> 514
limi tación</w> 514
satisfac e</w> 514
ofici nas</w> 514
muestr an</w> 514
impl ement 514
cubier to</w> 514
o u</w> 513
exist entes.</w> 513
ren dir</w> 513
asign ado</w> 513
votar emos</w> 513
F rat 512
ti das</w> 512
co - 512
st as,</w> 512
os as,</w> 512
Est ados,</w> 512
inform es,</w> 512
sec ción</w> 512
norm as,</w> 512
decir les</w> 512
sensi bles</w> 512
mism os.</w> 512
ambici osos</w> 512
bel ga</w> 512
al tas</w> 511
vi o</w> 511
ami go</w> 511
asegur arle</w> 511
colabor ar</w> 511
derech os.</w> 511
jurídic a.</w> 511
inmun idad</w> 511
plagu icid 511
d ías.</w> 510
G M 510
pot encia</w> 510
vivi endo</w> 510
religi ón</w> 510
pudi eran</w> 510
inspec ciones</w> 510
tarje ta</w> 510
xen ofo 510
rid í 510
están dar</w> 510
mi ent 509
di co</w> 509
deb a</w> 509
ver á</w> 509
trat arse</w> 509
ag n 509
mejor ,</w> 509
vuel va</w> 509
medic ament 509
compr ar</w> 509
provision al</w> 509
6 / 508
ev entos</w> 508
aliment aria,</w> 508
candid atos.</w> 508
catástro fes</w> 508
not able</w> 508
E S 507
K on 507
pro clam 507
com et 507
resid encia</w> 507
rec al 507
ju vent 507
199 7,</w> 507
inst ancia</w> 507
correspon den</w> 507
recibi endo</w> 507
Isra el,</w> 507
anunci ado</w> 507
n un 506
t os 506
N o,</w> 506
du plic 506
represent ar</w> 506
llam adas</w> 506
funcion e</w> 506
repi to</w> 506
vín culo</w> 506
l ác 505
di ré</w> 505
at o.</w> 505
im pone</w> 505
au tores</w> 505
dis capacidad</w> 505
ej as</w> 505
condi ciones,</w> 505
nú cle 505
explic ado</w> 505
desgraci a</w> 505
CE ,</w> 505
salv ar</w> 505
obvi o</w> 505
f út 504
av es 504
hab íamos</w> 504
hab rían</w> 504
produc tos,</w> 504
indic ación</w> 504
Mi ch 504
deleg aciones</w> 504
profun do</w> 504
permitir án</w> 504
obli ga</w> 504
atenci ón,</w> 504
alcoh ol</w> 504
aprend ido</w> 504
mar ch 503
inf lación</w> 503
dé cada</w> 503
Sw ob 503
r ú 502
V el 502
an gu 502
con ec 502
com pensar</w> 502
pu gn 502
industri a,</w> 502
ez ,</w> 502
control ,</w> 502
visi ón.</w> 502
mens ajes</w> 502
senci ll 502
Bélgi ca</w> 502
Alb ania</w> 502
m últi 501
N i</w> 501
ó sti 501
8 /200 501
K i 501
si go</w> 501
fr aud 501
llev aron</w> 501
exist entes,</w> 501
financier o,</w> 501
verdad ,</w> 501
institucion al.</w> 501
encarg ados</w> 501
prolon g 501
Iraq ,</w> 501
Obje tivo</w> 501
a »</w> 500
b on 500
habl an</w> 500
DE ,</w> 500
Constitu cion 500
Le h 500
Hab iendo</w> 500
estuvi era</w> 500
Turis mo,</w> 500
PSE .</w> 500
sencillam ente</w> 500
C res 499
A SE 499
P e 499
j untos.</w> 499
ec a,</w> 499
ri ca</w> 499
des em 499
cuer po</w> 499
loc ales.</w> 499
fij ación</w> 499
ide ológi 499
respal dar</w> 499
unáni me</w> 499
noci v 499
o –</w> 498
F M 498
É sta</w> 498
mi ér 498
im presion 498
it aria</w> 498
az o</w> 498
ru tas</w> 498
tar ,</w> 498
lugar .</w> 498
fal lo</w> 498
discu siones</w> 498
obligatori o</w> 498
intern as</w> 498
l as.</w> 497
un ida</w> 497
form a.</w> 497
afec tado</w> 497
Constitu ción,</w> 497
peligro so</w> 497
circunstanci as,</w> 497
credi ti 497
surg ido</w> 497
obr as</w> 497
defens ores</w> 497
kil ó 497
er b 496
deb ían</w> 496
ve a</w> 496
tom an</w> 496
jóven es.</w> 496
tele comunic 496
empez ando</w> 496
enseñ anza</w> 496
desmante lamiento</w> 496
a fortunadamente,</w> 495
in su 495
fi co.</w> 495
neces aria.</w> 495
et ter 495
limi tad 495
adel ante,</w> 495
involucr ados</w> 495
avanz ando</w> 495
históri ca</w> 495
maríti ma</w> 495
extraordin ario</w> 495
noch e,</w> 495
E j 494
ci dad,</w> 494
ar te</w> 494
ón ?</w> 494
pr estado</w> 494
it or 494
fr ustr 494
hab ida</w> 494
produc tos.</w> 494
Po etter 494
mencion ado,</w> 494
dist ancia</w> 494
vent as</w> 494
multi nacionales</w> 494
rati ficado</w> 494
inspec ción</w> 494
preserv ar</w> 494
Pak istán</w> 494
Desgraci adamente,</w> 494
Bolk est 494
g ü 493
é poca</w> 493
min i 493
present an</w> 493
gener aciones</w> 493
comi sión.</w> 493
lle r</w> 493
AL DE.</w> 493
lej os.</w> 493
tradi ciones</w> 493
tán e 493
deteri oro</w> 493
Tim or</w> 493
ant e 492
vi able</w> 492
Con greso</w> 492
import a</w> 492
deci mos</w> 492
éti ca</w> 492
financier as.</w> 492
promo viendo</w> 492
vig entes</w> 492
revist e</w> 492
m ención</w> 491
2 9 491
N av 491
l os.</w> 491
as s 491
can cel 491
tom amos</w> 491
viol encia,</w> 491
democráti ca.</w> 491
descri to</w> 491
cí r 491
Internet ,</w> 491
Fu e</w> 491
Arg eli 491
A R 490
j an</w> 490
par ale 490
agricul tores,</w> 490
itali ano</w> 490
ad o;</w> 489
di óxido</w> 489
de part 489
form u 489
it ario</w> 489
pen sion 489
Cul tura</w> 489
Chipre ,</w> 489
Felici to</w> 489
S an</w> 488
re du 488
medioambient al.</w> 488
míni mos</w> 488
Liber ales</w> 488
Pregun ta</w> 488
Apoy amos</w> 488
f á 487
in adecu 487
se ver 487
tu los</w> 487
entr ó</w> 487
ser bi 487
Inter nacional,</w> 487
Mon ten 487
rápid amente.</w> 487
Fl or 487
inund aciones</w> 487
M os 486
con ducir</w> 486
per fi 486
gu sta</w> 486
ru ego</w> 486
neg ativas</w> 486
llam ados</w> 486
agricul tura.</w> 486
anim ales,</w> 486
sufri miento</w> 486
Consider amos</w> 486
excesi va</w> 486
comerci ales,</w> 485
sent encias</w> 485
Der ech 485
us ando</w> 485
atori as</w> 485
Soci ales</w> 485
aport ación</w> 485
invi er 485
comienz os</w> 485
Schen gen,</w> 485
Sueci a,</w> 485
Bo w 485
trist e</w> 485
Cualqui er</w> 485
F err 484
enmiend a.</w> 484
elec ciones,</w> 484
region ales,</w> 484
formul adas</w> 484
PYM E,</w> 484
univers idades</w> 484
abar ca</w> 484
recuer da</w> 484
discipl ina</w> 484
Canad á</w> 484
Col om 484
m atr 483
st ri 483
ac os</w> 483
contr a.</w> 483
vot ando</w> 483
dol es</w> 483
Gu in 483
perten eci 483
mont ón</w> 483
p in 482
a –</w> 482
k i</w> 482
3 /200 482
5 /200 482
re y 482
des can 482
200 4.</w> 482
clar o.</w> 482
medioambient ales,</w> 482
candid atos,</w> 482
ofici almente</w> 482
avanz ado</w> 482
sol dados</w> 482
tuvi era</w> 482
ignor ar</w> 482
) 0 481
in sufici 481
su eñ 481
lí sti 481
is las</w> 481
palabr a,</w> 481
democr atización</w> 481
correc ta,</w> 481
Mi s</w> 481
modific ado</w> 481
recog ida</w> 481
distor sion 481
Swob o 481
p si 480
fin .</w> 480
In don 480
fronter as,</w> 480
previ a</w> 480
Se gu 480
Presupuest os,</w> 480
Administr ación</w> 480
Cáuc aso</w> 480
t á 479
í cola</w> 479
pre limin 479
ist as,</w> 479
comerci ales.</w> 479
capi tales</w> 479
conci enci 479
produ jo</w> 479
Minist eri 479
encarg ado</w> 479
Orient al</w> 479
org áni 479
a !</w> 478
t s</w> 478
F or 478
T aiw 478
P PE</w> 478
deb ida</w> 478
enti vo</w> 478
cal cul 478
indic aciones</w> 478
dé bil 478
acu mul 478
profun di 478
Ni geri 478
impuest as</w> 478
ofreci endo</w> 478
lác te 478
s í.</w> 477
c amos</w> 477
co ber 477
des cu 477
contr ato</w> 477
int enta</w> 477
legisl ativos</w> 477
institucion al,</w> 477
áti co</w> 477
incid encia</w> 477
public ación</w> 477
libre mente</w> 477
t ación,</w> 476
limi ta</w> 476
moned as</w> 476
diver g 476
pun tu 476
irlandes es</w> 476
e lu 475
D A</w> 475
- 9 475
par o</w> 475
des emple 475
termin ar,</w> 475
realiz ando</w> 475
Li bre</w> 475
jui cios</w> 475
conserv adores</w> 475
subsidiari edad,</w> 475
m ente.</w> 474
al arm 474
em baj 474
ec ed 474
justi ficación</w> 474
toler ancia</w> 474
agradecer le</w> 474
fuert emente</w> 474
ti po.</w> 473
con vencion 473
fr uc 473
man ,</w> 473
cal ent 473
gradu almente</w> 473
tent ri 473
a er 472
o -,</w> 472
O om 472
G A 472
co mis 472
com ponente</w> 472
su pr 472
inter esa</w> 472
is la</w> 472
consumid or.</w> 472
ez as</w> 472
emi tir</w> 472
vot ó</w> 472
úti l.</w> 472
conoc en</w> 472
reco mienda</w> 472
escap ar</w> 472
t alidad</w> 471
t aba</w> 471
f as 471
ayud ado</w> 471
dec enas</w> 471
ne o 471
refi er 471
atr aves 471
lec ción</w> 471
loc al,</w> 471
acab an</w> 471
arl a.</w> 471
gol pe</w> 471
previst os</w> 471
C anci 470
4 5</w> 470
ver de</w> 470
contribu yendo</w> 470
D ar 469
J ar 469
su mas</w> 469
ni ci 469
ni ega</w> 469
resid entes</w> 469
mo dos</w> 469
indic an</w> 469
fech a,</w> 469
coti di 469
4 /200 468
idad ;</w> 468
je fes</w> 468
sal ida</w> 468
viol encia.</w> 468
Exteri or</w> 468
conoc emos</w> 468
escas a</w> 468
confirm ado</w> 468
pesquer os</w> 468
Ber lín</w> 468
Ucr ania,</w> 468
Yugosl ava</w> 468
/97 )</w> 468
carr era</w> 468
suby ac 468
l a,</w> 467
ad o:</w> 467
re torno</w> 467
señ ales</w> 467
comb ati 467
prest ando</w> 467
vincul antes</w> 467
compr a</w> 467
produ zcan</w> 467
comparti mos</w> 467
salvaguar dia</w> 467
Pre mio</w> 467
Verdes/ Alianza</w> 467
Euro st 466
tar án</w> 466
ast e</w> 466
medioambient ales.</w> 466
publi cado</w> 466
positiv a.</w> 466
octu bre,</w> 466
provoc ado</w> 466
Noso tros,</w> 466
Internet .</w> 466
introduc e</w> 466
abast ecimiento</w> 466
s esion 465
ru ido</w> 465
financi amiento</w> 465
comerci o.</w> 465
gesti ón,</w> 465
asign ados</w> 465
satisfactori a</w> 465
terren o.</w> 465
perten ece</w> 465
frag ment 465
maravi ll 465
j i 464
é si 464
es en</w> 464
inter oper 464
ag o 464
adop ta</w> 464
region es.</w> 464
defini tivo</w> 464
2007 .</w> 464
graf ía</w> 464
simb óli 464
ad amente.</w> 463
pri sion 463
económi cos.</w> 463
esper o,</w> 463
preocup ado</w> 463
conf id 463
implic ados</w> 463
sindic atos</w> 463
invernad ero</w> 463
núcle o</w> 463
co ali 462
fi lo 462
económi camente</w> 462
fir me 462
san gre</w> 462
olvid emos</w> 462
sistem a,</w> 462
irregular idades</w> 462
(L T)</w> 462
T anto</w> 461
D ía</w> 461
li ter 461
vi ve</w> 461
reg la</w> 461
centr ar</w> 461
compl ac 461
14 2</w> 461
jurídic amente</w> 461
B a</w> 460
mi stas</w> 460
le tra</w> 460
consider en</w> 460
neg ativos</w> 460
interes adas</w> 460
esenci al,</w> 460
observ ado</w> 460
extranjer os</w> 460
Rur al</w> 460
P os 459
W i 459
qu es,</w> 459
di agn 459
mer curi 459
200 3.</w> 459
influ ir</w> 459
Gobier no,</w> 459
redac tar</w> 459
estabi liz 459
invers ores</w> 459
cuanti t 459
inti mid 459
o "</w> 458
en cabez 458
mar ,</w> 458
Monet ario</w> 458
Democrats )</w> 458
c al</w> 457
er as,</w> 457
am ist 457
tu ve</w> 457
of re 457
seman as.</w> 457
positiv o,</w> 457
convier te</w> 457
intensi ficar</w> 457
intelectu al</w> 457
polici al</w> 457
enérgi camente</w> 457
tó xi 457
C um 456
le ído</w> 456
ay u 456
sen sat 456
14 9</w> 456
sensi bilidad</w> 456
garantiz ando</w> 456
carb ón</w> 456
ocurri r</w> 456
Gine bra</w> 456
Verts/AL E.</w> 456
tesi s</w> 456
fruc tí 456
¿ no</w> 455
in men 455
Con vención,</w> 455
pas ó</w> 455
Si ,</w> 455
hacer le</w> 455
puer tas</w> 455
novi embre,</w> 455
Democ ráti 455
Feder al</w> 455
Maastrich t</w> 455
Segun da</w> 455
compart en</w> 455
b en</w> 454
D G</w> 454
) :</w> 454
an un 454
esi ones</w> 454
mencion ados</w> 454
innov ación.</w> 454
convi ene</w> 454
votar on</w> 454
extraordin aria</w> 454
EU R</w> 454
Afgan istán,</w> 454
escen ario</w> 454
o fen 453
w s 453
ab sor 453
im pon 453
cre an</w> 453
ag resi 453
propuest os</w> 453
procedi miento.</w> 453
infanti l</w> 453
estabil idad,</w> 453
F oro</w> 452
M alta</w> 452
per judicial</w> 452
ativ a,</w> 452
ativ as,</w> 452
tien de</w> 452
resul tar</w> 452
conden ado</w> 452
renov able</w> 452
ou ,</w> 452
pertin ente</w> 452
indem niz 452
auditor ía</w> 452
a -,</w> 451
A frican 451
G én 451
par ecer</w> 451
dec ía</w> 451
aspec tos,</w> 451
discrimin ación,</w> 451
ins cri 451
audi encia</w> 451
imprescindi ble</w> 451
Oom en- 451
e k</w> 450
n ea</w> 450
l las</w> 450
in admisi 450
pri o 450
ve z.</w> 450
pas ada,</w> 450
económi cas.</w> 450
sal en</w> 450
norm as.</w> 450
públi cos.</w> 450
quer er</w> 450
fabric ación</w> 450
asu mi 450
Bu eno,</w> 450
h aremos</w> 449
T í 449
st ru 449
muer tes</w> 449
discrimin ación.</w> 449
flu jos</w> 449
complej idad</w> 449
referén dum 449
Ash ton,</w> 449
Oomen- Ru 449
m end 448
es encia</w> 448
per mis 448
ri tu 448
éxi tos</w> 448
satisf echos</w> 448
concesi ones</w> 448
multilater al</w> 448
(COM( 9 448
acertad amente</w> 448
¿Qui én</w> 448
t ed 447
é .</w> 447
ad judic 447
inter vención,</w> 447
and o 447
especi almente,</w> 447
cur r 447
urg entes</w> 447
estudi ando</w> 447
críti co</w> 447
afirm ado</w> 447
colec tiva</w> 447
ci ento</w> 446
ant án 446
aqu el</w> 446
aprob amos</w> 446
cultur al.</w> 446
¿Cu án 446
siti o</w> 446
4 -00 445
P reci 445
an os.</w> 445
me tas</w> 445
neces arias.</w> 445
son .</w> 445
cientí fico</w> 445
caí da</w> 445
Compar to</w> 445
p ida</w> 444
h al 444
ent a,</w> 444
contr aria</w> 444
200 5.</w> 444
ep id 444
En tiendo</w> 444
priv ada</w> 444
sin ergi 444
retir o</w> 444
Isl an 444
d as.</w> 443
o le 443
gu a</w> 443
ve an</w> 443
equi p 443
expres ada</w> 443
mani pul 443
vícti ma</w> 443
comprome tidos</w> 443
intelig ente</w> 443
E ra</w> 442
pres ente,</w> 442
rec í 442
direc tas</w> 442
In formación</w> 442
nom in 442
inici almente</w> 442
sim ple 442
continu o</w> 442
recib e</w> 442
perman ecer</w> 442
hubi ese</w> 442
magní fico</w> 442
t w 441
H u 441
su y 441
lí mpi 441
Comis ari 441
permi tiendo</w> 441
tend rían</w> 441
úni co.</w> 441
tre inta</w> 441
excep cional</w> 441
terrá nea</w> 441
propon iendo</w> 441
expli car 441
con voc 440
pa gan</w> 440
pod ían</w> 440
produc ción.</w> 440
pes ca.</w> 440
te za</w> 440
muer te,</w> 440
aument ará</w> 440
responsabil idades.</w> 440
incorpor ado</w> 440
consist ente</w> 440
DA )</w> 440
noch e.</w> 440
absten ido</w> 440
enum er 440
ambi ciones</w> 439
oc ar 439
aplic ación,</w> 439
human a,</w> 439
manten ga</w> 439
democráti co,</w> 439
profesion al,</w> 439
suministr os</w> 439
contradic tori 439
obli gar</w> 439
transeurope as</w> 439
Gaz a</w> 439
mez c 439
e le 438
C .</w> 438
pro mesa</w> 438
ag ro 438
Cu b 438
estructur ales.</w> 438
fronter as.</w> 438
red und 438
aliment aria.</w> 438
estrech o</w> 438
mont añ 438
prov inci 438
Oomen-Ru ij 438
n adi 437
t es,</w> 437
- por</w> 437
" no 437
ro g 437
st a,</w> 437
di su 437
de z</w> 437
az os</w> 437
clar a.</w> 437
adi ción</w> 437
centr ado</w> 437
cau tel 437
vig or,</w> 437
An te</w> 437
14 9)</w> 437
acog ida</w> 437
mutu a</w> 437
extran j 437
habi li 437
Lati na</w> 437
Marru ecos</w> 437
pilo to</w> 437
tradu ci 437
agost o</w> 437
filo sof 437
D .</w> 436
form al</w> 436
In dia,</w> 436
all strö 436
comunit ari 436
cl on 436
Cu ba</w> 436
míni ma</w> 436
estrech os</w> 436
sexu ales</w> 436
Mediterráne o.</w> 436
reco pi 436
e u 435
1 0,</w> 435
M y 435
3 8 435
B lo 435
in estabilidad</w> 435
ha gamos</w> 435
ve terin 435
ca :</w> 435
Soci ales,</w> 435
acog er</w> 435
bilater al</w> 435
contradic ción</w> 435
se de</w> 434
ter cio</w> 434
deb ajo</w> 434
pi lares</w> 434
aprob ados</w> 434
plan e 434
Cor bet 434
sistem a.</w> 434
ei n</w> 434
lun es</w> 434
ti ,</w> 433
or ador 433
ocup an</w> 433
decir se</w> 433
emi gr 433
ban co</w> 433
competitiv idad,</w> 433
desplaz amiento</w> 433
occident ales</w> 433
explíci tamente</w> 433
s idad</w> 432
S res.</w> 432
en f 432
200 8.</w> 432
progres iv 432
defen sa,</w> 432
Monet arios,</w> 432
Sur ,</w> 432
EC H 432
ayu de</w> 432
b an</w> 431
efici entes</w> 431
prot agon 431
concre tamente,</w> 431
movi lizar</w> 431
pien sos</w> 431
agrícol a.</w> 431
vecin dad</w> 431
rom per</w> 431
Pos sel 431
recí pro 431
o !</w> 430
al es?</w> 430
fr ági 430
200 2.</w> 430
palabr a.</w> 430
lic encias</w> 430
recibi ó</w> 430
ecer ía</w> 430
satisfactori amente</w> 430
Ber lín 430
portugu esa</w> 430
a y</w> 429
c az 429
públi cas,</w> 429
val u 429
industri a.</w> 429
exclu ir</w> 429
muer te.</w> 429
palesti no</w> 429
etique ta</w> 429
cuán to</w> 429
epid emi 429
m adre</w> 428
t h</w> 428
ur as</w> 428
aliz adas</w> 428
preocup ación.</w> 428
transport es</w> 428
Bar ni 428
fronteriz os</w> 428
ileg al.</w> 428
Bálti co</w> 428
d atos.</w> 427
a str 427
n egr 427
C l 427
V en 427
qu ía</w> 427
ent abl 427
si s,</w> 427
di jeron</w> 427
cons entimiento</w> 427
Po dr 427
te la</w> 427
mostr ó</w> 427
acog e</w> 427
reflexi on 427
desast ro 427
Vicepresid enta</w> 427
investi gar</w> 427
BE I</w> 427
anun cio</w> 427
a precio</w> 426
S ala</w> 426
inter medi 426
ser va</w> 426
ing eni 426
cer teza</w> 426
financier o.</w> 426
hu el 426
detall ado</w> 426
Luxem burgo,</w> 426
equilibri os</w> 426
múlti pl 426
é fon 425
ent al</w> 425
at ro 425
pl au 425
leg almente</w> 425
tom ada</w> 425
celebr ando</w> 425
dispon emos</w> 425
parlament arias</w> 425
reglament o,</w> 425
instal ación</w> 425
flo tas</w> 425
abil idad.</w> 425
ash ing 425
Inver siones</w> 425
cober tura</w> 425
m .</w> 424
c aj 424
W ashing 424
K o 424
des pi 424
pre d 424
limi tada</w> 424
cru z 424
derech o.</w> 424
.. . 424
prefer encias</w> 424
Estras burgo,</w> 424
grati tud</w> 424
í gen 423
T ,</w> 423
er nos</w> 423
al tura</w> 423
inform es.</w> 423
sal ario</w> 423
comi sion 423
lleg amos</w> 423
én ti 423
señal ó</w> 423
que de</w> 423
apar ece</w> 423
signific aría</w> 423
la gun 423
aero líneas</w> 423
conten idas</w> 423
tel éfon 423
Rur al,</w> 423
Litu ania</w> 423
Bret aña</w> 423
c es.</w> 422
) ).</w> 422
re presi 422
con cier 422
fi quen</w> 422
pres a</w> 422
Pu es</w> 422
produci rá</w> 422
Exteri or,</w> 422
prest aciones</w> 422
Irland a.</w> 422
arl os.</w> 422
reflej an</w> 422
har d 422
ferrocarri l</w> 422
Marru e 422
/98 )</w> 422
estadouniden se</w> 422
T ec 421
D ,</w> 421
M alm 421
ar ía,</w> 421
ac cion 421
Par í 421
cambi o.</w> 421
et n 421
fon dos,</w> 421
movi liz 421
disfru tar</w> 421
bom bar 421
t ación.</w> 420
9 / 420
ori gen,</w> 420
tad os,</w> 420
fon do,</w> 420
UE M</w> 420
democráti ca,</w> 420
Ch eca</w> 420
supon en</w> 420
Sud án</w> 420
semej ante</w> 420
r am 419
g al 419
S ad 419
en u 419
po bres.</w> 419
con fu 419
tod o.</w> 419
dipu tado,</w> 419
Ha it 419
acont ecimiento</w> 419
vehí cul 419
ambici osa</w> 419
sistemáti camente</w> 419
Aliment aria</w> 419
Bélgi ca,</w> 419
Creci miento</w> 419
inferi or</w> 419
converti rá</w> 419
Solidar idad</w> 419
k o 418
F ,</w> 418
0 )</w> 418
b os</w> 418
P as 418
in capacidad</w> 418
fun dir</w> 418
je fe</w> 418
termin ado</w> 418
zon a,</w> 418
correc to.</w> 418
sesi ón:</w> 418
opon emos</w> 418
mayor ía,</w> 418
destru ir</w> 418
lingü ísti 418
menud o,</w> 418
l er,</w> 417
P ido</w> 417
re h 417
mi ti 417
ir a,</w> 417
ju eg 417
realiz an</w> 417
preocup ada</w> 417
nú mer 417
prot e 417
proporcion e</w> 417
us ado</w> 417
estric tos</w> 417
medioambient al,</w> 417
presid entes</w> 417
ero - 417
escas as</w> 417
Miem bros</w> 417
RE AC 417
Verhe u 417
o duc 416
l os,</w> 416
D is 416
G ra 416
V e 416
ad mir 416
ab i 416
des empleo.</w> 416
rec a 416
may o,</w> 416
oper ar</w> 416
An ti 416
asign ar</w> 416
quími cos</w> 416
ham bre</w> 416
Glob alización</w> 416
calent amiento</w> 416
Tec nol 416
7 /200 415
Est ado.</w> 415
az u 415
obje ciones</w> 415
200 4 415
trat aba</w> 415
199 5,</w> 415
que o</w> 415
cumpli endo</w> 415
aliment os.</w> 415
controversi a</w> 415
2 6 414
in seguridad</w> 414
in cumplimiento</w> 414
pro stitu 414
ac ei 414
contr arr 414
ver emos</w> 414
soci alista</w> 414
defin e</w> 414
migr antes</w> 414
abier tamente</w> 414
Jurí di 414
pendi entes</w> 414
acei te</w> 414
c h</w> 413
par al 413
com ponentes</w> 413
Europe as</w> 413
resul te</w> 413
infr acciones</w> 413
cuidad osamente</w> 413
primav era</w> 413
solu cion 412
bo l</w> 412
gust ado</w> 412
coordin ada</w> 412
vig or.</w> 412
Pu esto</w> 412
fru tas</w> 412
jurídic as</w> 412
resultad o.</w> 412
gol pe 412
Cier tamente,</w> 412
supr an 412
confid enci 412
Malm strö 412
i lí 411
R on 411
H au 411
uc r 411
pre visi 411
cont est 411
negoci ado</w> 411
efec tivo</w> 411
oportun idad.</w> 411
adecu ado.</w> 411
ov en</w> 411
Mi lo 411
refugi ados,</w> 411
unilater al</w> 411
quisi éramos</w> 411
enl ace</w> 411
siempre ,</w> 411
1 00 410
H an</w> 410
P H 410
ten siones</w> 410
inform ados</w> 410
ver ano</w> 410
actu ales,</w> 410
consider ada</w> 410
respe ta</w> 410
presupuest aria,</w> 410
ret óri 410
preserv ación</w> 410
reconoz ca</w> 410
dictad ura</w> 410
víctim as,</w> 410
e gue</w> 409
7 5</w> 409
ti po,</w> 409
par eci 409
activ as</w> 409
minor ías,</w> 409
inc entivo</w> 409
partid arios</w> 409
r nos</w> 408
er as.</w> 408
in sul 408
re al.</w> 408
fu ego</w> 408
tur ísti 408
respec tivos</w> 408
emple os</w> 408
inmigr ación.</w> 408
C 4-0 407
j oven</w> 407
in k 407
pre ferencia</w> 407
contr ario.</w> 407
col oni 407
investig adores</w> 407
benefici a</w> 407
super viv 407
cuent an</w> 407
redac tado</w> 407
Deber ía</w> 407
Wal d 407
Túne z</w> 407
i ble</w> 406
t es.</w> 406
h ec 406
E co 406
¿ Se</w> 406
as om 406
ten erse</w> 406
entr a</w> 406
nuev amente</w> 406
mostr ando</w> 406
admi sión</w> 406
guerr as</w> 406
perió dic 406
consej o</w> 406
allí ,</w> 406
dificultad es.</w> 406
Recu er 406
5 0%</w> 405
( DA)</w> 405
¿ podría</w> 405
B ,</w> 405
con segu 405
su elo</w> 405
inform aciones</w> 405
fic ación.</w> 405
merc ados,</w> 405
rá ,</w> 405
dur a</w> 405
abr e</w> 405
emi ti 405
plan et 405
Or den</w> 405
Nor te.</w> 405
sat éli 405
1 50</w> 404
P .</w> 404
in suficiente</w> 404
ativ as.</w> 404
igu ales</w> 404
expres ando</w> 404
ap un 404
declar ó</w> 404
mujer ,</w> 404
ric anos</w> 404
transpar entes</w> 404
niñ o</w> 404
energéti cas</w> 404
dimen siones</w> 404
Cul tura,</w> 404
hos ti 404
sk i</w> 404
Pat ten</w> 404
prag máti 404
b y</w> 403
or adores,</w> 403
ro ga</w> 403
so viéti 403
dej emos</w> 403
cli entes</w> 403
inf l 403
favor ables</w> 403
concep tos</w> 403
víctim as.</w> 403
Ce lebr 403
1 %</w> 402
R A 402
h arán</w> 402
Ú ni 402
par á 402
as en</w> 402
br ind 402
pu la</w> 402
ur a,</w> 402
tiv os,</w> 402
ex ceso</w> 402
ex tend 402
des le 402
clar a,</w> 402
estu vo</w> 402
enti ende</w> 402
rig en</w> 402
encu entre</w> 402
fisc al,</w> 402
reglament o.</w> 402
af ricanos</w> 402
agrícol as,</w> 402
reac cionar</w> 402
guerr a.</w> 402
vic toria</w> 402
Lon d 402
fórmu la</w> 402
i g 401
a pa 401
1 1,</w> 401
E fec 401
j as</w> 401
im á 401
comunit arias,</w> 401
lid i 401
selec ción</w> 401
aspir aciones</w> 401
persecu ción</w> 401
J os 400
W allströ 400
est e,</w> 400
20 %</w> 400
alist as,</w> 400
imperi o</w> 400
R ü 399
ri endo</w> 399
tad os.</w> 399
ocup e</w> 399
record ado</w> 399
áti cas</w> 399
produci endo</w> 399
auto movi 399
dr es</w> 399
satisfactori o</w> 399
adqui rir</w> 399
occident al</w> 399
veri ficar</w> 399
Atlánti co</w> 399
ucr ani 399
ec emos</w> 398
der echa</w> 398
trans misión</w> 398
ch in 398
consider ados</w> 398
inst aur 398
expl or 398
Is las</w> 398
denomin ado</w> 398
conveni os</w> 398
reanud ación</w> 398
deliber aciones</w> 398
corri entes</w> 398
N o 397
j unta</w> 397
su poner</w> 397
ex ag 397
inter fer 397
responsab le.</w> 397
vir tu 397
Lon dres</w> 397
e t</w> 396
I m 396
si ente</w> 396
di sta</w> 396
cu alit 396
as ti 396
se t 396
import ar</w> 396
neces aria,</w> 396
oportun idad,</w> 396
prev én</w> 396
estratégi cas</w> 396
Monet aria</w> 396
opon en</w> 396
tuvi eron</w> 396
bal ance</w> 396
PA C</w> 396
La ek 396
A gr 395
con venciones</w> 395
car tas</w> 395
car ecen</w> 395
ag reg 395
preci os,</w> 395
comple ja</w> 395
region ales.</w> 395
limi tarse</w> 395
indi gn 395
mili tari 395
presid encia</w> 395
encar cel 395
dol or 395
lógi co</w> 395
abandon o</w> 395
Amsterdam .</w> 395
épti mo</w> 395
Preci samente</w> 395
W e 394
ci ón:</w> 394
ti gi 394
ro s.</w> 394
flexi bles</w> 394
hom o 394
dependi entes</w> 394
consigui ente</w> 394
deten idamente</w> 394
ais lamiento</w> 394
fa cul 394
reali ce</w> 394
3 / 393
in sostenible</w> 393
st as.</w> 393
tr adicional</w> 393
lu c 393
ativ o.</w> 393
vo to.</w> 393
habl ó</w> 393
human idad</w> 393
comunit arias.</w> 393
encontr arse</w> 393
comprome ti 393
implic ación</w> 393
repe tir 393
automóvi les</w> 393
durad era</w> 393
t ej 392
cons en 392
reci pro 392
eci endo</w> 392
proyec to.</w> 392
decir lo</w> 392
logr amos</w> 392
éti cos</w> 392
ez a.</w> 392
continu amente</w> 392
De leg 392
peligro s 392
circun s 392
lanz amiento</w> 392
Bro k</w> 392
bat alla</w> 392
Eslovaqui a</w> 392
liqu id 392
s ín 391
– como</w> 391
ri b 391
ni zar</w> 391
ex poner</w> 391
cre encia</w> 391
vo te</w> 391
pri sión</w> 391
tin i</w> 391
20 ,</w> 391
funcion an</w> 391
acer c 391
enfo ques</w> 391
absolu to.</w> 391
Gener ales</w> 391
Ferr ero- 391
L ul 390
bi ó</w> 390
des proporcion 390
ir re 390
pregun tas,</w> 390
cab o.</w> 390
proyec to,</w> 390
elec ciones.</w> 390
difer entes,</w> 390
sim pat 390
libr o</w> 390
estableci da</w> 390
estric to</w> 390
conced a</w> 390
Schen gen.</w> 390
coinci de</w> 390
escue la</w> 390
texti l</w> 390
pretend en</w> 390
Consumid or,</w> 390
OLA F</w> 390
t ales,</w> 389
g a.</w> 389
C lar 389
fin aliz 389
pas o,</w> 389
lig eramente</w> 389
ún .</w> 389
proporcion an</w> 389
conoci da</w> 389
priv atización</w> 389
PPE- DE</w> 389
in sta</w> 388
est er 388
present en</w> 388
19 5 388
mejor ando</w> 388
creci miento.</w> 388
apar tados</w> 388
inver siones,</w> 388
sustitu ción</w> 388
bio diversidad</w> 388
israel í</w> 388
defend ido</w> 388
VI H 388
Egip to</w> 388
S a 387
ar á.</w> 387
an g 387
re volución</w> 387
un ir</w> 387
ob er 387
esti mul 387
determin ada</w> 387
individu ales.</w> 387
reform a,</w> 387
Belarú s,</w> 387
verg onz 387
aprueb e</w> 387
inevit ablemente</w> 387
Do ha</w> 387
restr ing 387
ultraperifé ricas</w> 387
Hon g</w> 387
débi les</w> 387
bombar de 387
o i 386
em bo 386
pe ores</w> 386
ur ,</w> 386
asi lo.</w> 386
gener an</w> 386
ocup ado</w> 386
tend ríamos</w> 386
ric as,</w> 386
votar á</w> 386
bloque o</w> 386
II ,</w> 386
vari edad</w> 386
mod alidades</w> 386
escandal oso</w> 386
ísi mo</w> 386
alivi ar</w> 386
Brasi l</w> 386
Ferrero- Wald 386
6 0 385
an si 385
trat a,</w> 385
procedi miento,</w> 385
sosteni bles</w> 385
anteri or.</w> 385
adicion ales.</w> 385
(C NS 385
transfer encias</w> 385
digi tal</w> 385
perteneci entes</w> 385
j a 384
di vis 384
con vención</w> 384
sigui entes:</w> 384
clav e.</w> 384
imagin ar</w> 384
bus ca</w> 384
r ast 383
a cost 383
I nici 383
ó pti 383
an ul 383
li s</w> 383
abl emente.</w> 383
trat amos</w> 383
educ ación.</w> 383
201 1</w> 383
elev ada</w> 383
peligro .</w> 383
minor it 383
reform a.</w> 383
flu jo</w> 383
casti g 383
Hungr ía,</w> 383
reun ir</w> 383
Milo se 383
s en</w> 382
b ord 382
O ,</w> 382
es casos</w> 382
in .</w> 382
in depend 382
am pl 382
cu al,</w> 382
de tener</w> 382
as ust 382
Est án</w> 382
esti pula</w> 382
dem ás.</w> 382
contem pla</w> 382
Rum ania</w> 382
pied ra</w> 382
simul táne 382
s t</w> 381
¿ cuál</w> 381
ad o?</w> 381
ab o 381
acept amos</w> 381
tecnolog ía,</w> 381
Constitu cional</w> 381
Ser á</w> 381
Gu antán 381
denunci ar</w> 381
crip ción</w> 381
evolu cion 381
D entro</w> 380
5 / 380
per segu 380
lu s 380
ativ os,</w> 380
can ales</w> 380
Cre o,</w> 380
comunit arios.</w> 380
dese able</w> 380
Le on 380
resi sti 380
incluy an</w> 380
conmi go</w> 380
e gu 379
t emos</w> 379
1 2,</w> 379
al entar</w> 379
em pu 379
mi x 379
con sisti 379
tu ber 379
ener o,</w> 379
legisl aciones</w> 379
fon dos.</w> 379
Direc tor</w> 379
reconoc emos</w> 379
salvaguar dar</w> 379
mayor ía.</w> 379
repeti damente</w> 379
hici mos</w> 379
burocr acia</w> 379
we b</w> 379
filosof ía</w> 379
F er 378
s a 378
s pec 378
des acuerdo</w> 378
hab lo</w> 378
cl ari 378
Al ta</w> 378
presupuest ario,</w> 378
afirm an</w> 378
Demócrat a</w> 378
rup ción</w> 378
Ber è 378
libertad .</w> 378
Yugoslavi a</w> 378
suces os</w> 378
restrin gir</w> 378
exag er 378
t anos</w> 377
F E 377
g as,</w> 377
l ados</w> 377
D anu 377
A .</w> 377
B .</w> 377
re al 377
ed a</w> 377
esti ma</w> 377
medi cin 377
anti - 377
cap tura</w> 377
comunit arios,</w> 377
responsab le,</w> 377
benefici an</w> 377
solici ta</w> 377
gast ar</w> 377
Constitu ción.</w> 377
agradeci endo</w> 377
frecu entemente</w> 377
incid entes</w> 377
diseñ o</w> 377
Rom a</w> 377
aer on 377
diagn ósti 377
c res 376
V itor 376
con vin 376
dich o.</w> 376
19 6 376
lic encia</w> 376
defen sa.</w> 376
gobier no,</w> 376
some tidos</w> 376
exten der 376
lengu aje</w> 376
conten idos</w> 376
especul ación</w> 376
déc adas</w> 376
dificultad es,</w> 376
productiv idad</w> 376
superviv encia</w> 376
v ido</w> 375
en t</w> 375
su av 375
por no 375
des cont 375
mar in 375
hab il 375
dese en</w> 375
instr uc 375
bur gu 375
Ban g 375
ingres o</w> 375
some tido</w> 375
cuar ta</w> 375
ferrocarri les</w> 375
corr e</w> 375
Turis mo</w> 375
N ing 374
M ul 374
G ro 374
V ol</w> 374
K ir 374
in justific 374
co financiación</w> 374
po bre</w> 374
úni cos</w> 374
interes antes</w> 374
hacer nos</w> 374
produci dos</w> 374
introduci endo</w> 374
opo ul 374
fem en 374
r acional</w> 373
N U 373
C ari 373
fu i</w> 373
der og 373
án donos</w> 373
comerci al,</w> 373
cap turas</w> 373
ez .</w> 373
exclu siva</w> 373
Nor u 373
mutu amente</w> 373
ahorr ar</w> 373
reduc e</w> 373
Sar k 373
hipo cres 373
Mos c 373
G )</w> 372
si les</w> 372
mi zar</w> 372
Co sta</w> 372
im pedi 372
Est o,</w> 372
pre mi 372
hab ríamos</w> 372
much o,</w> 372
agr up 372
firm es</w> 372
adecu ada,</w> 372
oblig ada</w> 372
signific a,</w> 372
orient al,</w> 372
fáci l.</w> 372
PYM E.</w> 372
bú l 372
constat ar</w> 372
asci ende</w> 372
ensay os</w> 372
co :</w> 371
im parci 371
dis puestas</w> 371
consider adas</w> 371
dej an</w> 371
prepar ada</w> 371
rechaz amos</w> 371
judici al,</w> 371
peligro sos</w> 371
Regi onal</w> 371
bor do</w> 371
Bus h</w> 371
pose e</w> 371
plata forma</w> 371
permis os</w> 371
Sark oz 371
a fortun 370
v ar 370
s end 370
s mo.</w> 370
O tros</w> 370
ac ad 370
to mo</w> 370
Uni vers 370
ist a,</w> 370
just amente</w> 370
glob alización,</w> 370
jurídi co,</w> 370
rechaz ó</w> 370
facili ta</w> 370
So viéti 370
competitiv idad.</w> 370
restric ción</w> 370
itali ana</w> 370
previ o</w> 370
permitir nos</w> 370
Mu jer 370
Finlan dia,</w> 370
supervis ar</w> 370
/96 )</w> 370
jurisdic ción</w> 370
v a,</w> 369
x ,</w> 369
es a.</w> 369
ex pir 369
des igualdad</w> 369
má r 369
tri pul 369
espec tro</w> 369
ries go,</w> 369
rur al,</w> 369
juli o,</w> 369
compati bles</w> 369
Canci ller</w> 369
ó gen 368
w it 368
j un 368
j ud 368
L ag 368
in justa</w> 368
ur a.</w> 368
ob serva</w> 368
idad :</w> 368
um ento</w> 368
ali anza</w> 368
dici embre.</w> 368
aspec tos.</w> 368
pid o,</w> 368
prior idad.</w> 368
afec tar</w> 368
reuni rse</w> 368
signific ativos</w> 368
garantiz ará</w> 368
profund as</w> 368
recog e</w> 368
existi endo</w> 368
perió dicos</w> 368
Gine br 368
remuner ación</w> 368
envej ecimiento</w> 368
resal tar</w> 368
lidi ar</w> 368
v as</w> 367
. 30</w> 367
3 5 367
par a 367
ant el 367
per su 367
per juicio</w> 367
ur b 367
Europe a;</w> 367
dis culp 367
tor tura</w> 367
ca ;</w> 367
defin ido</w> 367
estratégi cos</w> 367
suce dió</w> 367
descri p 367
orden ación</w> 367
Copenhagu e.</w> 367
a ".</w> 366
J er 366
re acciones</w> 366
respon da</w> 366
próxim o.</w> 366
particular es</w> 366
cin cuenta</w> 366
lan zar</w> 366
fij ados</w> 366
sustanci almente</w> 366
acog emos</w> 366
legislativ o.</w> 366
reem plaz 366
erb ai 366
Ron da</w> 366
imá genes</w> 366
f ases</w> 365
B or 365
co br 365
cu ot 365
eg et 365
fic ada</w> 365
fuer te,</w> 365
coment ari 365
aero puerto</w> 365
Copenhagu e,</w> 365
Peti ciones</w> 365
Efec tivamente,</w> 365
z i 364
O límpi 364
ó s 364
3 %</w> 364
al eg 364
cont abilidad</w> 364
natur ales,</w> 364
distin ta</w> 364
15 .00</w> 364
ecológi ca</w> 364
dij e</w> 364
l ati 363
P uti 363
ac ces 363
ru so</w> 363
verdad .</w> 363
observ aciones.</w> 363
grav emente</w> 363
volunt aria</w> 363
cualific ada</w> 363
Dinamar ca,</w> 363
sacri fici 363
Har bo 363
diplom acia</w> 363
Democráti ca</w> 363
t os:</w> 362
an - 362
con ozco</w> 362
pr o</w> 362
neces arios.</w> 362
gru po.</w> 362
examin ando</w> 362
tan o</w> 362
Justi cia,</w> 362
edifici o</w> 362
monopoli os</w> 362
g e,</w> 361
v eget 361
f ,</w> 361
G re 361
po pular</w> 361
Comisi on 361
dur as</w> 361
realiz arse</w> 361
palabr as.</w> 361
do :</w> 361
manten gan</w> 361
seman a.</w> 361
enfr entar</w> 361
Bar ón</w> 361
usted .</w> 361
pot encias</w> 361
abri l,</w> 361
democraci as</w> 361
incid ente</w> 361
sens ación</w> 361
mezc la</w> 361
pred eces 361
erbai y 361
G .</w> 360
ä n 360
re fuerza</w> 360
cu esta</w> 360
to ;</w> 360
ex puesto</w> 360
bas ándose</w> 360
labor ales,</w> 360
Medi os</w> 360
involucr ar</w> 360
brev e.</w> 360
Mer idi 360
Belarú s.</w> 360
valor ación</w> 360
Estras burgo.</w> 360
Quiz ás</w> 360
desmant el 360
Chipre .</w> 360
neer landes 360
brin da</w> 360
automovi lísti 360
Deleg ación</w> 360
rast re 360
2 8 359
T AC 359
pro xim 359
ac ciones.</w> 359
gr as 359
entr an</w> 359
au l 359
reci entemente,</w> 359
comi endo</w> 359
có di 359
pens ado</w> 359
agricul tores.</w> 359
exteri ores,</w> 359
fij a</w> 359
conflic to.</w> 359
vecin os,</w> 359
abst ener 359
Ruman ía,</w> 359
sól ido</w> 359
dispar idades</w> 359
eslo ven 359
firme za</w> 359
J un 358
or as</w> 358
co ;</w> 358
em e</w> 358
po co,</w> 358
medi terránea</w> 358
ej a</w> 358
sec reto</w> 358
activ istas</w> 358
ra p 358
ár amos</w> 358
gobier nos,</w> 358
imp ac 358
cientí fi 358
CE .</w> 358
invi tación</w> 358
aplicar á</w> 358
manifest ación</w> 358
desapar ición</w> 358
Sol ana,</w> 358
Pes ca,</w> 358
intergubernament al</w> 358
convin c 358
T h 357
, 5</w> 357
3 7 357
en emi 357
en ce</w> 357
en juici 357
mar co.</w> 357
eci n 357
prot estas</w> 357
justi fica</w> 357
confi anza.</w> 357
Isra el.</w> 357
carreter a,</w> 357
prefer ido</w> 357
denomin ada</w> 357
gén ero,</w> 357
complic ado</w> 357
apl au 357
Jar z 357
3 2</w> 356
es cl 356
ad ,</w> 356
aj e.</w> 356
end a,</w> 356
actu alidad.</w> 356
proyec tos,</w> 356
úni ca,</w> 356
contamin antes</w> 356
falsi ficación</w> 356
pluri anual</w> 356
vergü enza</w> 356
Jarz embo 356
m era</w> 355
C C 355
D el</w> 355
A fortunadamente,</w> 355
ci dad.</w> 355
ar qui 355
in vent 355
po li 355
mi ed 355
esti lo</w> 355
inter venido</w> 355
condi ciones.</w> 355
nú m 355
abier tos</w> 355
texti les</w> 355
terrorist as.</w> 355
fren o</w> 355
expul s 355
Moldo va</w> 355
S á 354
U N 354
st ancia</w> 354
ri st 354
at ún</w> 354
pon go</w> 354
cre ativ 354
aplic adas</w> 354
agr aria</w> 354
Comun ista</w> 354
acept able.</w> 354
vuel ve</w> 354
profund idad</w> 354
resultad os,</w> 354
public ó</w> 354
senti mientos</w> 354
establec erse</w> 354
kiló metros</w> 354
7 00</w> 353
W og 353
ad ó 353
su prim 353
Europe a:</w> 353
idad ?</w> 353
emple ar</w> 353
garanti cen</w> 353
prior idades.</w> 353
Li ik 353
consul tar</w> 353
registr os</w> 353
noti cia</w> 353
tecnológi co</w> 353
clasi ficación</w> 353
indud ablemente</w> 353
u li 352
b oc 352
S en 352
M it 352
M ug 352
L om 352
ö r 352
ar re 352
di ario</w> 352
con ducción</w> 352
os idad</w> 352
pre mat 352
Si l 352
te or 352
muer to</w> 352
eti quet 352
arm as,</w> 352
afirm ó</w> 352
humanit aria,</w> 352
registr ado</w> 352
cuent as,</w> 352
obvi amente,</w> 352
Ucr ania.</w> 352
comparti da</w> 352
Mc Car 352
ocupar nos</w> 352
fl agr 352
Líban o</w> 352
coali ción</w> 352
c ha 351
par ar</w> 351
Comi té 351
ve la</w> 351
logr arse</w> 351
prácti co</w> 351
Re for 351
Su iza</w> 351
moder na</w> 351
mism os,</w> 351
Mundi al,</w> 351
suger ido</w> 351
criti car</w> 351
dan és</w> 351
geográ fica</w> 351
SI S</w> 351
Az erbaiy 351
Sudáfri ca</w> 351
rú brica</w> 351
t ún 350
f or</w> 350
est í 350
cul o 350
present ando</w> 350
ven der</w> 350
prot esta</w> 350
anim ar</w> 350
fisc al.</w> 350
úti l,</w> 350
encar eci 350
Liber al</w> 350
busc an</w> 350
permitir se</w> 350
automóvi l</w> 350
equival ente</w> 350
sient en</w> 350
excu sa</w> 350
querr ía</w> 350
núm s.</w> 350
r o</w> 349
an al 349
re al,</w> 349
di lig 349
as amble 349
des empleados</w> 349
ambi gü 349
Sr i</w> 349
ord en,</w> 349
ori gen.</w> 349
pregun ta:</w> 349
199 8.</w> 349
seri o.</w> 349
agu a.</w> 349
supuest amente</w> 349
diálo go,</w> 349
Pue bl 349
Presu puesto</w> 349
certi ficación</w> 349
socav ar</w> 349
blan queo</w> 349
atent amente</w> 349
arra str 349
c alm 348
R os 348
- a</w> 348
res titu 348
mar .</w> 348
ca er</w> 348
Trat ados,</w> 348
il las</w> 348
Re h 348
loc al.</w> 348
vincul adas</w> 348
ACP ,</w> 348
creí ble</w> 348
genoci dio</w> 348
Bang eman 348
y ó</w> 347
4 8</w> 347
H e 347
re produc 347
tiv os.</w> 347
su minist 347
gru pos,</w> 347
pró r 347
ho ja</w> 347
docum ento,</w> 347
ide al</w> 347
etc .,</w> 347
OTA N,</w> 347
Oc cid 347
monopoli o</w> 347
Educ ación</w> 347
perpe tr 347
Ár ti 347
símbo lo</w> 347
Juvent ud,</w> 347
id énti 346
de posi 346
des equilibrios</w> 346
inter vencion 346
buen o,</w> 346
vist a.</w> 346
esfuerz os,</w> 346
esfuerz os.</w> 346
famili ar 346
facili tación</w> 346
coment arios.</w> 346
científic as</w> 346
distor siones</w> 346
pusi eron</w> 346
Dub lín</w> 346
Acuer dos</w> 346
jugu etes</w> 346
hec t 346
con gratu 345
as equi 345
des c 345
ru sos</w> 345
ali ce</w> 345
Di am 345
centr arme</w> 345
Des afortunadamente,</w> 345
sc h</w> 345
rati ficar</w> 345
párraf os</w> 345
arl as.</w> 345
ocurri ó</w> 345
bloque ar</w> 345
radic al</w> 345
expli ca</w> 345
siti os</w> 345
erradic ación</w> 345
expan sión</w> 345
r enta</w> 344
d aré</w> 344
D os</w> 344
J o 344
S t 344
co pi 344
present ados</w> 344
pen sab 344
Comisi ón:</w> 344
tad as.</w> 344
solu ción,</w> 344
emi tido</w> 344
reconoc en</w> 344
histori a,</w> 344
religi osas</w> 344
Intergubernament al.</w> 344
denunci as</w> 344
preced entes</w> 344
oposi ción,</w> 344
Coh n 344
págin a</w> 344
m e,</w> 343
l ásti 343
j am 343
to -</w> 343
Est ados.</w> 343
me .</w> 343
públi camente</w> 343
ali a</w> 343
acep te</w> 343
val ores,</w> 343
escri ta</w> 343
pens as</w> 343
ries go.</w> 343
tra fic 343
presid enciales</w> 343
caracter ística</w> 343
militar ,</w> 343
juris prudencia</w> 343
advert encia</w> 343
sitú a</w> 343
ca ?</w> 342
ber ,</w> 342
200 1.</w> 342
utili cen</w> 342
ámbi tos,</w> 342
plant a</w> 342
civi les,</w> 342
individu ales,</w> 342
volunt ario</w> 342
agrícol as.</w> 342
Intergubernament al,</w> 342
febr ero,</w> 342
eficac es.</w> 342
Estocol mo</w> 342
s ;</w> 341
pr erro 341
pre cau 341
vo ces</w> 341
tien e,</w> 341
present amos</w> 341
present aron</w> 341
apoy ará</w> 341
legi o</w> 341
respe tan</w> 341
aclar arlo</w> 341
circun stancia</w> 341
aero puer 341
roman í 341
-B endi 341
profes or</w> 341
prohí be</w> 341
atra er</w> 341
entusias mo</w> 341
recti fic 341
GUE/NGL .</w> 341
Ej ecu 341
M ,</w> 340
K al 340
re ver 340
trabaj a</w> 340
car ,</w> 340
apoy ada</w> 340
ampli o,</w> 340
aum ente</w> 340
pid i 340
independi ente,</w> 340
sensi bi 340
dedic ar</w> 340
camin o.</w> 340
Sol ana</w> 340
II I</w> 340
vali osa</w> 340
reclam aciones</w> 340
exit osa</w> 340
confer encias</w> 340
Esloven ia</w> 340
Galile o</w> 340
Cohn -Bendi 340
a ».</w> 339
est anc 339
ed es</w> 339
pen ales</w> 339
pren sa,</w> 339
ofrec er 339
vin os</w> 339
Mer k 339
frau de,</w> 339
continú an</w> 339
salvaguar di 339
parec er,</w> 339
Aliment aria,</w> 339
silenci o</w> 339
OS CE</w> 339
Eur at 339
aun que,</w> 339
prerro g 339
e hr 338
2 2 338
8 / 338
on al.</w> 338
di era</w> 338
leg ales,</w> 338
cont amos</w> 338
bas e,</w> 338
emple adores</w> 338
hi gi 338
pens amiento</w> 338
muer tos</w> 338
modific ada</w> 338
cualific aciones</w> 338
prome tido</w> 338
Bulg aria,</w> 338
Palesti na,</w> 338
atent ados</w> 338
demográ fic 338
Person almente,</w> 338
d aría</w> 337
o x 337
E P 337
an o 337
ro t 337
at añ 337
dis pu 337
apar entemente</w> 337
Medi o,</w> 337
Medi o.</w> 337
Bar on 337
Mar íti 337
vuel ta</w> 337
reflej ar</w> 337
cuid ar</w> 337
exhaus tiva</w> 337
promuev e</w> 337
profes ores</w> 337
Verheu gen</w> 337
g .</w> 336
. )</w> 336
J unta</w> 336
6 00</w> 336
qu e.</w> 336
Co ton 336
Est aba</w> 336
me tod 336
ev entu 336
much o.</w> 336
legisl ar</w> 336
difer ente,</w> 336
Po si 336
sub vención</w> 336
continu ará</w> 336
hom bres,</w> 336
avi ón</w> 336
vincul ados</w> 336
aére o,</w> 336
ei j 336
suspen dió</w> 336
estabi lizar</w> 336
bor r 336
aler ta</w> 336
bac ala 336
ubi c 336
A un 335
re alidades</w> 335
per diendo</w> 335
el es</w> 335
mu ri 335
au ster 335
norm ativas</w> 335
val idez</w> 335
pid ieron</w> 335
utiliz adas</w> 335
proteg idos</w> 335
Fr ente</w> 335
reanud a</w> 335
legíti mo</w> 335
transfer ir</w> 335
Fisch ler</w> 335
excesi vo</w> 335
descu bri 335
m es,</w> 334
t aliz 334
í n</w> 334
P ari 334
in direc 334
im piden</w> 334
cre ará</w> 334
medi o,</w> 334
man n</w> 334
tad a.</w> 334
sent imos</w> 334
Tri bun 334
visi tar</w> 334
hon est 334
Vi etn 334
comenz ando</w> 334
acompañ ado</w> 334
fren ar</w> 334
entreg a</w> 334
finlandes a</w> 334
n ar 333
f o</w> 333
D ada</w> 333
est o?</w> 333
ir é</w> 333
plante adas</w> 333
proteg e</w> 333
sustanci ales</w> 333
razon ables</w> 333
vivi enda</w> 333
juni o.</w> 333
carreter a.</w> 333
posteri ores</w> 333
suspen der</w> 333
seguro ,</w> 333
controversi as</w> 333
defi ende</w> 333
Podr íamos</w> 333
1 5,</w> 332
f ant 332
A cog 332
P ens 332
fi ables</w> 332
su eca</w> 332
aqu él 332
ing .</w> 332
neg ar</w> 332
llev ada</w> 332
quer ían</w> 332
tí pi 332
afec tada</w> 332
bil le 332
enfrent arnos</w> 332
Am bos</w> 332
reanud ó</w> 332
priorit ario</w> 332
español ,</w> 332
participar on</w> 332
m b 331
b ek 331
es pal 331
ar e</w> 331
inter és.</w> 331
cul min 331
condi cional</w> 331
anteri ores.</w> 331
críti cos</w> 331
ocasi ón,</w> 331
sep an</w> 331
religi osa</w> 331
medid a.</w> 331
aproxim ación</w> 331
EU - 331
franc és,</w> 331
cubier tos</w> 331
Mil eni 331
escánd alo</w> 331
lus con 331
T a 330
est aríamos</w> 330
cu adr 330
agr ado</w> 330
autor .</w> 330
mant u 330
comi enza</w> 330
Señor ía,</w> 330
aclar a</w> 330
moder nizar</w> 330
retras ar</w> 330
elector ales</w> 330
Ber luscon 330
acord ó</w> 330
físi ca</w> 330
cohesi ón.</w> 330
Educ ación,</w> 330
taba co,</w> 330
Siri a</w> 330
c era</w> 329
E D 329
le z</w> 329
su d 329
des echo</w> 329
Con vención.</w> 329
mer ec 329
present é</w> 329
ven i 329
sig nos</w> 329
preci sión</w> 329
públi cas.</w> 329
rechaz ada</w> 329
aére os</w> 329
Alemani a.</w> 329
bri ll 329
legislativ o,</w> 329
repar to</w> 329
parec ía</w> 329
tram it 329
discipl in 329
adad adad 329
Bret añ 329
adó ji 329
C ap 328
T .</w> 328
5 5</w> 328
ad ir</w> 328
ex pensas</w> 328
inter cambi 328
av eri 328
sec ciones</w> 328
llam amos</w> 328
razon es.</w> 328
Lu k 328
ajust es</w> 328
decep ción</w> 328
corr en</w> 328
automáti camente</w> 328
superfici e</w> 328
acad émi 328
t ácti 327
N apo 327
D avi 327
S ep 327
j or 327
in útil</w> 327
con fío</w> 327
vi al</w> 327
des en 327
el lo 327
trabaj en</w> 327
especi al.</w> 327
et ,</w> 327
protec ción,</w> 327
mencion adas</w> 327
apar ición</w> 327
evi tar 327
Fr ancia.</w> 327
Ju egos</w> 327
positiv os,</w> 327
garantiz an</w> 327
combin ar</w> 327
roman í</w> 327
reconoz co</w> 327
viej os</w> 327
Jer u 327
estí mu 327
1 3,</w> 326
3 6 326
re ti 326
el h 326
ev al 326
neces arias,</w> 326
clar amente,</w> 326
empres a,</w> 326
termin e</w> 326
sufici ente,</w> 326
te x</w> 326
examin ará</w> 326
PE S 326
corrup ción,</w> 326
quej as</w> 326
desarrollar se</w> 326
consig naciones</w> 326
D on 325
at ender</w> 325
Europe an</w> 325
financi ado</w> 325
protec ción.</w> 325
human as</w> 325
human o.</w> 325
natur al,</w> 325
civi lización</w> 325
recomend ar</w> 325
apropi ada</w> 325
esc épti 325
recog er</w> 325
óni ca</w> 325
relev ante</w> 325
terrorist as,</w> 325
débi l</w> 325
cami ones</w> 325
Jeru sal 325
present ado,</w> 324
ju ec 324
progres os.</w> 324
regu la</w> 324
acept ada</w> 324
escuch ando</w> 324
terren o,</w> 324
Defen sa</w> 324
Balcan es,</w> 324
forest al</w> 324
insist e</w> 324
¿Cuá les</w> 324
vu elo</w> 324
propag ación</w> 324
é tri 323
ci ta</w> 323
er s</w> 323
ist as.</w> 323
gesti ón.</w> 323
So lamente</w> 323
Sur .</w> 323
Iraq .</w> 323
som br 323
obstacu liz 323
eval ú 323
r es</w> 322
g est 322
2 50</w> 322
S P 322
V ar 322
qu é,</w> 322
rec esión</w> 322
man n,</w> 322
person almente,</w> 322
pes cado</w> 322
fund amentos</w> 322
199 0</w> 322
interes es.</w> 322
Re comend 322
prot est 322
itali anos</w> 322
vali oso</w> 322
lej os,</w> 322
capí tulos</w> 322
mad era</w> 322
habitu al</w> 322
Kyo to</w> 322
viern es</w> 322
arqui tec 322
G ros 321
per cep 321
per judiciales</w> 321
at ,</w> 321
pres ento</w> 321
cont enta</w> 321
cas os.</w> 321
Comis arios,</w> 321
In str 321
ra k 321
integr ación.</w> 321
ens o,</w> 321
contin ente.</w> 321
compren de</w> 321
delic ado</w> 321
Checheni a</w> 321
Fron tex</w> 321
ehr end 321
y r 320
o »</w> 320
l as,</w> 320
es col 320
cas as</w> 320
lo v 320
ayud ando</w> 320
lleg ada</w> 320
demasi ados</w> 320
glob alización.</w> 320
orient al.</w> 320
independi ente.</w> 320
reduci rá</w> 320
rápid amente,</w> 320
resum en</w> 320
sistemáti ca</w> 320
testi go</w> 320
estabil idad.</w> 320
renunci ar</w> 320
TAC I 320
entr ado</w> 319
dis cul 319
acuer dos,</w> 319
desarrol lo 319
ing redi 319
realiz ado,</w> 319
contribu ya</w> 319
expres ó</w> 319
conclu ido</w> 319
desa fi 319
aclar ación</w> 319
transfronteriz o</w> 319
obstá cul 319
encamin ada</w> 319
impuest os,</w> 319
forest ales</w> 319
médi co</w> 319
suer te,</w> 319
primordi al</w> 319
concier ne</w> 319
encareci damente</w> 319
M au 318
ci en</w> 318
cre ó</w> 318
direc tor</w> 318
mom entos,</w> 318
cap tur 318
199 4</w> 318
buen o.</w> 318
estim ado</w> 318
alist a.</w> 318
sex to</w> 318
del ante.</w> 318
compati bilidad</w> 318
Concili ación</w> 318
Especi al</w> 318
desp leg 318
g oz 317
í an,</w> 317
f ó 317
l lo 317
ci gar 317
ti bet 317
al ismo,</w> 317
ativ os.</w> 317
deci de</w> 317
merc ados.</w> 317
Pro gres 317
recib a</w> 317
perman entes</w> 317
sanit arias</w> 317
hubi éramos</w> 317
transfronteriz os</w> 317
riguro sa</w> 317
ofreci do</w> 317
actú a</w> 317
cens ura</w> 317
comuni car 317
l ac 316
est á,</w> 316
lu xem 316
pr este</w> 316
inter cambiar</w> 316
posi bili 316
dic e,</w> 316
prácti cos</w> 316
atr ap 316
acept adas</w> 316
quier an</w> 316
movi l 316
famili ariz 316
conoci miento,</w> 316
vay amos</w> 316
poder ,</w> 316
inevit able</w> 316
Do y 316
deteri or 316
Schul z</w> 316
My an 316
e k,</w> 315
t ales.</w> 315
í a:</w> 315
D ej 315
G onz 315
medi ados</w> 315
pas ará</w> 315
ocup ar</w> 315
quer íamos</w> 315
flexi bilidad,</w> 315
defini ciones</w> 315
adopt amos</w> 315
coher entes</w> 315
implic adas</w> 315
cad en 315
español es</w> 315
limpi eza</w> 315
Igu almente,</w> 315
Irá n.</w> 315
distingu ir</w> 315
reembol so</w> 315
Segu imos</w> 315
p h 314
i gl 314
o dio</w> 314
9 0 314
E s,</w> 314
– que</w> 314
in her 314
po co.</w> 314
cu las</w> 314
inter rog 314
au stri 314
mar cos</w> 314
resul tante</w> 314
tí culo</w> 314
necesit ará</w> 314
signific ativas</w> 314
competi d 314
específic as.</w> 314
dirig idos</w> 314
acti tudes</w> 314
sep tentri 314
repi to,</w> 314
(H -0 314
band era</w> 314
Kinnoc k</w> 314
n ór 313
- W 313
é ri 313
fi able</w> 313
ten .</w> 313
port av 313
pre vención,</w> 313
inform ó</w> 313
actu ales.</w> 313
Re pi 313
plen aria</w> 313
signific ar</w> 313
lan d</w> 313
hon r 313
peligro sa</w> 313
olvid ado</w> 313
pasaj eros.</w> 313
monet aria,</w> 313
noti ficación</w> 313
decid ida</w> 313
ASE A 313
prision eros</w> 313
lagun as</w> 313
Agr ícola</w> 313
T he 312
in min 312
ed or</w> 312
pon der 312
inter és,</w> 312
financi ados</w> 312
activ idades.</w> 312
esper ado</w> 312
mundi ales.</w> 312
defen diendo</w> 312
educ ativo</w> 312
famili a,</w> 312
desa fortun 312
An g 312
áre as,</w> 312
Desarrol lo,</w> 312
conduc e</w> 312
equival e</w> 312
ministeri al</w> 312
psi cológi 312
luxem burgu 312
¿ Está</w> 311
P edi 311
un ido</w> 311
de pl 311
vi ru 311
inter vención.</w> 311
embar az 311
abr um 311
industri al,</w> 311
do tación</w> 311
gri pe</w> 311
expresi ón,</w> 311
inspec tores</w> 311
ción ;</w> 311
alternativ os,</w> 311
mas ac 311
felicitar le</w> 311
Roth -B 311
Esco cia</w> 311
debid amente.</w> 311
cigar ri 311
- de</w> 310
" la</w> 310
P ap 310
ent idad</w> 310
est arían</w> 310
vi en 310
des pli 310
ob t 310
der iva</w> 310
neces ari 310
esi ón,</w> 310
segu ida</w> 310
democráti camente</w> 310
difíci les.</w> 310
cultur ales,</w> 310
positiv a,</w> 310
disminu ir</w> 310
some ter</w> 310
titu lares</w> 310
israel í 310
consej os</w> 310
mem oria</w> 310
diversi ficación</w> 310
Danu bi 310
V as 309
ad os 309
Co oper 309
llev adas</w> 309
segun do,</w> 309
fon do.</w> 309
fortal eza</w> 309
satisf ech 309
14 ,</w> 309
simi lar,</w> 309
méri to</w> 309
pasaj eros,</w> 309
bio divers 309
regular mente</w> 309
fút bol</w> 309
extranj ero</w> 309
contrarr estar</w> 309
simpat ía</w> 309
Roth-B ehrend 309
b anda</w> 308
V ecin 308
re habili 308
con firmar 308
iz ar</w> 308
ul teri 308
ve amos</w> 308
direc ción,</w> 308
respec tivas</w> 308
program as,</w> 308
baj ar</w> 308
confi gur 308
gast ado</w> 308
Sch mid 308
produci rse</w> 308
histori a.</w> 308
septiem bre.</w> 308
exten sión</w> 308
pol acos</w> 308
dirigi rme</w> 308
resolver se</w> 308
exigi endo</w> 308
desper dici 308
Bla ir</w> 308
hogar es</w> 308
Rec u</w> 308
Primer o,</w> 308
Helsin ki</w> 308
Cuent as,</w> 308
e qu 307
oport una</w> 307
prior idades,</w> 307
comunic ado</w> 307
ví sper 307
Nuestr as</w> 307
ador a,</w> 307
vivi mos</w> 307
opon go</w> 307
exhaus tivo</w> 307
provo ca</w> 307
traduc ción</w> 307
paquet es</w> 307
hid ro 307
ras mu 307
tini ,</w> 307
Tamper e</w> 307
ocar bur 307
prote ín 307
tuber culo 307
u ,</w> 306
de volver</w> 306
entr ará</w> 306
it arios</w> 306
tor tur 306
and a,</w> 306
may or.</w> 306
tiem po 306
err or.</w> 306
pregun tado</w> 306
adop tará</w> 306
hi to</w> 306
represent ados</w> 306
cost as</w> 306
abier tas</w> 306
constru yendo</w> 306
arreg los</w> 306
cubr en</w> 306
discur so,</w> 306
fenó menos</w> 306
discre p 306
pará metros</w> 306
z o 305
C abe</w> 305
M A 305
ar as</w> 305
po la 305
st ad 305
enci al</w> 305
des prende</w> 305
cur sos</w> 305
199 7.</w> 305
integr ación,</w> 305
cal cula</w> 305
visi tas</w> 305
rechaz an</w> 305
perman ente.</w> 305
aprovech ando</w> 305
volun tad 305
vincul ada</w> 305
descri bir</w> 305
Represent ante,</w> 305
conexi ones</w> 305
revi se</w> 305
CA P</w> 305
Mad e 305
Instr umento</w> 305
c e,</w> 304
N ór 304
" sí 304
con fron 304
form as,</w> 304
contr apro 304
mé dic 304
signific an</w> 304
razon able.</w> 304
Pres ent 304
implic an</w> 304
perió dico</w> 304
sorprend ente</w> 304
Consider ando</w> 304
cuant ía</w> 304
códi gos</w> 304
m ati 303
c ord 303
f asci 303
al -</w> 303
un idos</w> 303
pi so 303
cas u 303
asi mismo,</w> 303
anti bi 303
reci én</w> 303
recur r 303
creci endo</w> 303
just as</w> 303
asoci ación,</w> 303
luch ado</w> 303
implic ar</w> 303
militar .</w> 303
aleman es</w> 303
Inglat err 303
juvent ud</w> 303
múltipl es</w> 303
a u</w> 302
s ?</w> 302
lar gas</w> 302
car n 302
man u 302
actu almente,</w> 302
gener alizada</w> 302
hech os.</w> 302
proporcion ará</w> 302
visi ble</w> 302
An n 302
intent an</w> 302
mor atoria</w> 302
evid entes</w> 302
separ ado</w> 302
militar es,</w> 302
previ siones</w> 302
Bu i 302
plá tanos</w> 302
recep ción</w> 302
plaguicid as</w> 302
s son</w> 301
R ober 301
D oy</w> 301
( 200 301
8 00</w> 301
en mend 301
re medio</w> 301
co les</w> 301
so le 301
ten sión</w> 301
ud a</w> 301
tur b 301
otr a.</w> 301
op in 301
trat os</w> 301
actu ar.</w> 301
liber ar</w> 301
comerci al.</w> 301
oportun idades,</w> 301
cl ases</w> 301
prácti cas,</w> 301
concre tas.</w> 301
progres os,</w> 301
vin cular</w> 301
prest an</w> 301
refugi ados.</w> 301
distor sión</w> 301
(B 5-0 301
repeti das</w> 301
llen o</w> 301
Brit áni 301
obt ención</w> 301
t ú</w> 300
E rasmu 300
3 4</w> 300
¿ D 300
é ni 300
ro r</w> 300
re pu 300
ac redi 300
rec aud 300
gar á</w> 300
mar cado</w> 300
tad a,</w> 300
norm alización</w> 300
sent ir</w> 300
adecu adas.</w> 300
apar eci 300
rig or</w> 300
dirig e</w> 300
ador a.</w> 300
potenci ales</w> 300
mism as.</w> 300
vigil ando</w> 300
ejer ce</w> 300
sector es,</w> 300
vecin os.</w> 300
dom ini 300
Barcelon a,</w> 300
surg en</w> 300
Pac í 300
aco so</w> 300
depart amentos</w> 300
"no "</w> 300
t egr 299
y a,</w> 299
v ini 299
¿ Y</w> 299
pi ezas</w> 299
car ter 299
ju gar</w> 299
den eg 299
acept ó</w> 299
administr ar</w> 299
record arles</w> 299
envi ando</w> 299
humanit aria.</w> 299
acus ación</w> 299
genéti ca</w> 299
procur ar</w> 299
Concili ación,</w> 299
Tend remos</w> 299
Monten egro</w> 299
Gonz á 299
p untos,</w> 298
v á 298
f res 298
C ast 298
3 4 298
ent er 298
por ti 298
dic e:</w> 298
oper ativa</w> 298
aplic aciones</w> 298
coleg as.</w> 298
prácti cas.</w> 298
presupuest ario.</w> 298
Li bia</w> 298
Cor e 298
manifi esta</w> 298
reforz ada</w> 298
ente ?</w> 298
catástro f 298
afectad os.</w> 298
prov echo</w> 298
antibi óti 298
Bui ten 298
c en 297
f ar 297
B ri 297
vi tales</w> 297
ayud arán</w> 297
din am 297
publi car</w> 297
implic aciones</w> 297
confirm ó</w> 297
entend er,</w> 297
electróni cos</w> 297
preced ente</w> 297
ACP .</w> 297
refiri ó</w> 297
interoper abilidad</w> 297
rap port 297
h of 296
l los</w> 296
l ema</w> 296
3 9 296
in a.</w> 296
un e</w> 296
deb amos</w> 296
des arme</w> 296
el li 296
ampli ado</w> 296
Fon ta 296
judici al.</w> 296
multi plic 296
invi tar</w> 296
gri ego</w> 296
preguntar nos</w> 296
Natur a</w> 296
polici ales</w> 296
Méxi co</w> 296
e f 295
1 6,</w> 295
A le 295
A du 295
V arios</w> 295
em in 295
com pi 295
bi r 295
su mar 295
deb e,</w> 295
pr or 295
Uni taria</w> 295
pi on 295
actu aliz 295
especi fic 295
ayud en</w> 295
preocup ación,</w> 295
asegur ado</w> 295
ador as.</w> 295
Greci a.</w> 295
bri cas</w> 295
revis ado</w> 295
etique tas</w> 295
senci llo</w> 295
tecnológi ca</w> 295
ocurri endo</w> 295
diplomáti cos</w> 295
Jap ón,</w> 295
drog as,</w> 295
drog as.</w> 295
erradic ar</w> 295
Dub lín 295
comprometer se</w> 295
ja pon 295
F I 294
N orm 294
S in 294
P O 294
qu es.</w> 294
re iv 294
re asent 294
con sta</w> 294
Co elh 294
contr ab 294
trans porti 294
pen siones,</w> 294
llev amos</w> 294
benefici ar</w> 294
tem ores</w> 294
cultur a.</w> 294
inmigr antes,</w> 294
disponi bles.</w> 294
renov ables,</w> 294
pat ent 294
caracter iza</w> 294
estrategi a.</w> 294
PPE- DE,</w> 294
suel en</w> 294
Man del 294
Cam bo 294
Maastrich t,</w> 294
Ash ton</w> 294
Luk ash 294
contrapro duc 294
m as,</w> 293
D ocum 293
« la</w> 293
es cru 293
medi os,</w> 293
is .</w> 293
proyec tos.</w> 293
Es paci 293
efic acia.</w> 293
bo t 293
presupuest aria.</w> 293
demostr ación</w> 293
gri ega</w> 293
Fund ación</w> 293
Niz a,</w> 293
orador )</w> 293
retóri ca</w> 293
para í 293
A ustr 292
er lo</w> 292
re considerar</w> 292
at mos 292
enci ón,</w> 292
vi vir 292
form ado</w> 292
des ventajas</w> 292
acion es:</w> 292
medi r</w> 292
inci ner 292
trans curr 292
preci os.</w> 292
dipu tada</w> 292
capi tal,</w> 292
muer en</w> 292
Am b</w> 292
ON G,</w> 292
tomar á</w> 292
sufri r</w> 292
sem illas</w> 292
13 . 292
OTA N.</w> 292
viv ido</w> 292
Estructur ales,</w> 292
oto ño</w> 292
rep ent 292
embri ones</w> 292
miér coles</w> 292
p ant 291
a consej 291
c all 291
6 -00 291
K en 291
pro vech 291
form ación.</w> 291
estr es</w> 291
lament ar</w> 291
ind ígen 291
respe tar 291
progres iva</w> 291
quiz á,</w> 291
natural eza,</w> 291
rur al.</w> 291
culp ables</w> 291
ajust ar</w> 291
Ti enen</w> 291
Sec re 291
seguro s,</w> 291
Human os.</w> 291
comité ,</w> 291
nuclear es,</w> 291
increí ble</w> 291
Zimbabw e</w> 291
búl gar 291
prór roga</w> 291
a ún,</w> 290
H abl 290
on ce</w> 290
ex enciones</w> 290
acion ales</w> 290
bu l 290
car ía</w> 290
uni ficación</w> 290
ati on</w> 290
esper anz 290
human o,</w> 290
fal los</w> 290
ho y 290
álo go</w> 290
exteri ores.</w> 290
conflic tos,</w> 290
Vi ena</w> 290
vuel van</w> 290
mor talidad</w> 290
rur ales.</w> 290
Prim era</w> 290
mercanc ías,</w> 290
cán cer 290
Litu ania,</w> 290
propag anda</w> 290
eficac es,</w> 290
IN D 290
enk o</w> 290
Acog emos</w> 290
averi gu 290
atmos fé 290
r an 289
y an</w> 289
M ovi 289
con tengan</w> 289
pres enci 289
gi g 289
ver án</w> 289
op tado</w> 289
men os 289
uni versi 289
program as.</w> 289
dad es,</w> 289
constitu cionales</w> 289
baj as</w> 289
cos m 289
solici to</w> 289
jurídi co.</w> 289
facili tado</w> 289
opon erse</w> 289
volunt ari 289
agradeci do</w> 289
compa tri 289
anunci ó</w> 289
secre taría</w> 289
Recuer do</w> 289
asti ll 289
descrip ción</w> 289
m ap 288
e o 288
e dic 288
D oh 288
at z 288
ay er.</w> 288
fuer te.</w> 288
recon stru 288
gust o</w> 288
conflic to,</w> 288
sin o,</w> 288
disminu ido</w> 288
humanit ario</w> 288
gén ero.</w> 288
Europa ?</w> 288
Mil enio</w> 288
recopi lación</w> 288
m amente</w> 287
e tas</w> 287
o z</w> 287
3 3</w> 287
bi ocarbur 287
ni eg 287
pre mio</w> 287
asi le 287
actu aciones</w> 287
decir .</w> 287
super vi 287
conj untos</w> 287
sol v 287
raí ces</w> 287
deliber adamente</w> 287
juz gar</w> 287
expedi ente</w> 287
beb idas</w> 287
í os</w> 286
z bek 286
¿ Podría</w> 286
er es</w> 286
pro medio</w> 286
as so 286
ac tor</w> 286
ur e</w> 286
present arse</w> 286
pes ados</w> 286
sub estim 286
asoci ación.</w> 286
desempeñ ando</w> 286
ton o</w> 286
sid o,</w> 286
tecnolog ía.</w> 286
aument ó</w> 286
recibi rán</w> 286
renov ables.</w> 286
vac uno</w> 286
evid ente,</w> 286
suger ir</w> 286
Mu y</w> 286
pan or 286
concili ar</w> 286
Presupuest ario</w> 286
levant ar</w> 286
levant amiento</w> 286
insist encia</w> 286
equit ativo</w> 286
Ter cer</w> 286
rí g 286
Sant er</w> 286
r as</w> 285
- lo</w> 285
A ri 285
) ;</w> 285
¿ El</w> 285
rec lu 285
gar se</w> 285
ch ocol 285
sig amos</w> 285
gener aliz 285
concre tos.</w> 285
administr ativo</w> 285
facili tará</w> 285
desapar ecido</w> 285
suje to</w> 285
rent abilidad</w> 285
sient an</w> 285
(COD ))</w> 285
send ero</w> 285
a »,</w> 284
e bre</w> 284
o v</w> 284
re volu 284
di eci 284
par adóji 284
ur ani 284
leg alidad</w> 284
cont entos</w> 284
debat es.</w> 284
embar c 284
tad as,</w> 284
interes ado</w> 284
señal ar,</w> 284
Pro yec 284
just o.</w> 284
transpar ente,</w> 284
Fin anzas</w> 284
clav e,</w> 284
ug en,</w> 284
volunt arios</w> 284
acus ados</w> 284
abog ados</w> 284
degrad ación</w> 284
empu j 284
már genes</w> 284
E ti 283
M artí 283
ar :</w> 283
ti n</w> 283
in capaz</w> 283
re bel 283
re vela</w> 283
inform al</w> 283
bl emente,</w> 283
Con serv 283
tor ,</w> 283
car .</w> 283
ampli o.</w> 283
inici ales</w> 283
Trat ados.</w> 283
Pro b 283
natur ales.</w> 283
urg encia.</w> 283
plan eta</w> 283
post ales</w> 283
dé ci 283
afirm aciones</w> 283
transfronteriz as</w> 283
sector es.</w> 283
transmi tir 283
Comer cio,</w> 283
titu l 283
étni ca</w> 283
guar dia</w> 283
Maced onia,</w> 283
bom bas</w> 283
Verhe ugen,</w> 283
reún e</w> 283
dossi er</w> 283
mercuri o</w> 283
ws ki,</w> 283
C ambi 282
O l 282
( en</w> 282
K au 282
con memor 282
ri ba</w> 282
Co ll 282
ter cios</w> 282
des loc 282
des ventaja</w> 282
ru sa</w> 282
pue de,</w> 282
ing enu 282
ampli ada</w> 282
adop tan</w> 282
Es cu 282
declar ación.</w> 282
UE N.</w> 282
prior idad,</w> 282
te óri 282
mani obra</w> 282
just o,</w> 282
labor .</w> 282
anteri or 282
competi tivo</w> 282
innov adoras</w> 282
Itali a.</w> 282
aprobar on</w> 282
continú e</w> 282
empez ado</w> 282
dirigi rse</w> 282
Ciudad anos</w> 282
Schul z,</w> 282
som bra</w> 282
And re 282
EL D 282
implement ación</w> 282
a ",</w> 281
k ov 281
F orm 281
s ah 281
S ak 281
G eb 281
in adecuado</w> 281
un an</w> 281
tr en</w> 281
pon emos</w> 281
fu ese</w> 281
cor ta</w> 281
ali ados</w> 281
lament amos</w> 281
benefici ará</w> 281
plante ada</w> 281
estim aciones</w> 281
vot en</w> 281
ment al</w> 281
mal entend 281
monet aria.</w> 281
Ar men 281
accesi ble</w> 281
móvi les</w> 281
Jos é</w> 281
escl avi 281
S an 280
M us 280
6 5</w> 280
co existencia</w> 280
st a.</w> 280
con fec 280
to c 280
ón -</w> 280
ámbi tos.</w> 280
determin a</w> 280
observ ancia</w> 280
cal les</w> 280
educ ativos</w> 280
cerr ado</w> 280
positiv os.</w> 280
ín do 280
pag ado</w> 280
frau de.</w> 280
autoriz ar</w> 280
cruci al.</w> 280
pose en</w> 280
divi siones</w> 280
tos an 280
Ministeri o</w> 280
a de</w> 279
n az 279
t ora</w> 279
k er</w> 279
F ern 279
C 6-0 279
T em 279
/ DE 279
re z 279
fi tosan 279
centr al,</w> 279
col ap 279
integr arse</w> 279
crimin al</w> 279
(C EE 279
acu i 279
moder niz 279
cuestion ar</w> 279
diri jo</w> 279
insisti do</w> 279
american o</w> 279
masi vo</w> 279
alem án,</w> 279
alimenti ci 279
orgull osos</w> 279
Europea / 279
concienci ación</w> 279
¿D ónde</w> 279
rapport eur 279
l ent 278
pe lí 278
ev ento</w> 278
pas o.</w> 278
sal e</w> 278
efici ente.</w> 278
esper aba</w> 278
mencion ada</w> 278
libr os</w> 278
señal ando</w> 278
orient ada</w> 278
aport aciones</w> 278
sol em 278
Regi ones</w> 278
petróle o,</w> 278
poder .</w> 278
Esper emos</w> 278
seguro s.</w> 278
entre gar</w> 278
testi gos</w> 278
Marrue cos,</w> 278
acost umbr 278
salvaguardi as</w> 278
o este</w> 277
F o 277
g h 277
s int 277
3 7</w> 277
es )</w> 277
re alistas</w> 277
est e.</w> 277
aci dad</w> 277
cu en 277
ri d</w> 277
pre dic 277
inter ferencia</w> 277
val ores.</w> 277
negoci ando</w> 277
señal ado,</w> 277
abord an</w> 277
presid enta</w> 277
aport a</w> 277
satisfactori a.</w> 277
deud as</w> 277
sir ven</w> 277
DA ,</w> 277
chi prio 277
(COM( 200 277
ACP - 277
arro j 277
Consumid or</w> 277
telecomunic aciones,</w> 277
huel ga</w> 277
Recomend ación</w> 277
vá lid 277
c el</w> 276
M ir 276
( continu 276
ci tado</w> 276
neces idad,</w> 276
trabaj amos</w> 276
op ina</w> 276
ju ez</w> 276
mejor ará</w> 276
presi ón,</w> 276
extre mistas</w> 276
facili tando</w> 276
prob ar</w> 276
arm as.</w> 276
permiti ó</w> 276
elev adas</w> 276
fáci l,</w> 276
profesion al.</w> 276
inmediat amente.</w> 276
inacept ables</w> 276
esc ena</w> 276
marz o.</w> 276
criti cado</w> 276
legíti ma</w> 276
Presupuest ario,</w> 276
riguro so</w> 276
intensi ficación</w> 276
radic ales</w> 276
suel e</w> 276
hol and 276
Pak istán,</w> 276
cír culo</w> 276
Anti gua</w> 276
h aré</w> 275
b er</w> 275
4 4</w> 275
8 0 275
8 0%</w> 275
P AC 275
es cog 275
in au 275
re afirmar</w> 275
al ber 275
at as</w> 275
to xi 275
vi eron</w> 275
tu ri 275
Consej os</w> 275
mar inos</w> 275
especi aliz 275
propi ci 275
Cre ev 275
firm as</w> 275
esenci ales.</w> 275
reuni ficación</w> 275
acept ables</w> 275
comprome tida</w> 275
inten sidad</w> 275
explo tar</w> 275
justific ado</w> 275
Mc Creev 275
socav a</w> 275
bru to</w> 275
design ación</w> 275
horizon tal</w> 275
éndo lo</w> 275
xenofo bia</w> 275
comet er</w> 275
3 8</w> 274
es "</w> 274
an as,</w> 274
de tenido</w> 274
Presid encias</w> 274
gan ancias</w> 274
adop tarse</w> 274
oportun idades.</w> 274
particip e</w> 274
199 6.</w> 274
il li 274
Señor   274
apar ecen</w> 274
alg o.</w> 274
us o,</w> 274
Mi ll 274
descri be</w> 274
aus ura</w> 274
(continu ación)</w> 274
á s 273
T it 273
É l</w> 273
in discuti 273
ro b 273
con ex 273
con du 273
uro ,</w> 273
ser .</w> 273
fin alizar</w> 273
sab i 273
comun ista</w> 273
lleg aron</w> 273
pró sper 273
sub ordin 273
funcion ario</w> 273
paci encia</w> 273
fij adas</w> 273
gobier no.</w> 273
tempor ales</w> 273
acompañ ada</w> 273
aprueb o</w> 273
sof tw 273
absur do</w> 273
tempr ana</w> 273
cere ales</w> 273
Inglat erra</w> 273
ési mo</w> 273
N eg 272
- los</w> 272
S O 272
B en 272
par ecido</w> 272
fi ebre</w> 272
su eco</w> 272
ob sole 272
car encia</w> 272
obje tiva</w> 272
propi edades</w> 272
úni ca.</w> 272
excel encia</w> 272
depend erá</w> 272
ide ología</w> 272
antigu as</w> 272
involucr ado</w> 272
simi lares.</w> 272
rup tura</w> 272
contex to.</w> 272
aprobar á</w> 272
asum ido</w> 272
exter nos</w> 272
IND /DE 272
Geb hard 272
rapporteur .</w> 272
P M 271
en es,</w> 271
in justo</w> 271
co t 271
de volución</w> 271
ac ciones,</w> 271
gi endo</w> 271
end a.</w> 271
debat es,</w> 271
pen siones.</w> 271
oper ativo</w> 271
celebr o</w> 271
equilibr ar</w> 271
técni ca,</w> 271
específic as,</w> 271
priv ado,</w> 271
trá mi 271
potenci almente</w> 271
Ni el 271
Bo ur 271
Obje tivos</w> 271
págin as</w> 271
Herzegov ina</w> 271
cárcel es</w> 271
refier e,</w> 271
A ir 270
4 6 270
[...]
