e n 3461644
e s</w> 3316933
o n 2986883
t i 2537417
d e</w> 2246108
q u 2225795
o u 2172524
a n 1815708
a i 1578463
e s 1535441
l e</w> 1373361
o n</w> 1363116
l a</w> 1353128
e m 1334964
t r 1287526
e r 1214616
e u 1201481
p r 1179242
en t</w> 1156082
s i 1143698
e t</w> 1073847
p a 1068384
o r 1036365
i s 1019490
l es</w> 1006057
i n 972884
o m 941896
qu e</w> 919226
n e</w> 915869
a ti 870845
l ' 816990
l i 803828
e r</w> 774196
d es</w> 773550
r e</w> 745621
a u 742075
c on 723563
on s</w> 692432
e n</w> 690979
en t 685826
e l 630038
em ent</w> 614409
o p 614226
ou s</w> 611783
c e</w> 601277
o i 594535
r é 582543
d ' 579126
s u 575077
e ,</w> 555362
d é 551834
om m 544439
c i 536717
a v 534546
eu r 518771
t e</w> 515716
a r 499679
d i 473667
p ou 459822
a l 456882
t é</w> 455540
es t</w> 444116
c h 441127
tr e</w> 439577
e .</w> 438961
u ne</w> 438842
an s</w> 432778
r i 408832
d u</w> 402803
u n</w> 401145
p l 394781
ati on</w> 389057
pr o 388119
a t 386589
e t 374134
ti on</w> 367872
p o 358582
d ans</w> 352636
n ous</w> 350780
r a 346417
n i 339723
a c 338356
pou r</w> 336008
t é 334907
qu i</w> 331122
on t</w> 329265
pa r 325944
an t</w> 315566
m e</w> 307587
v i 306229
r e 304386
i l</w> 295313
p or 295209
a u</w> 290009
f i 289582
e x 286575
op é 285198
t u 279154
eu r</w> 271440
c omm 270924
s e</w> 269080
s ,</w> 264305
a b 263494
su r</w> 257178
pa s</w> 252404
ai t</w> 249933
eur opé 242715
c u 241737
si on</w> 241282
r es</w> 240867
a g 236237
a m 236063
pr é 233152
é g 231551
em ent 229879
ai s</w> 227048
i m 224211
on n 215585
e c 213019
t s</w> 209839
au x</w> 209671
pl u 208339
r es 207781
ou v 199742
qu ' 199327
t er 198737
d u 198549
pa r</w> 197881
s .</w> 194599
ai n 193982
europé en 193254
o l 192245
ou r 191886
s s 191685
i l 186855
t en 186173
a p 178121
c es</w> 176697
e v 176645
t ou 176471
g r 175428
j e</w> 173672
C omm 172735
plu s</w> 172514
d r 170604
n o 170154
f or 169908
el le</w> 169425
ai re</w> 168792
l ement</w> 168622
em b 166596
m o 164836
ra p 164694
n é 163492
por t 160690
et te</w> 160523
si d 160453
c om 159291
es ,</w> 157880
c a 156850
es .</w> 152535
è re</w> 148612
Comm is 148555
l ’ 146695
s ou 144133
ati on 144085
s t 143866
ti ons</w> 143162
c er 142992
u r 140953
d ev 138677
c l 138198
i s</w> 137127
en d 136683
s er 136645
p er 134635
av e 134487
ê tre</w> 134383
c ette</w> 134041
J e</w> 133210
eur s</w> 133124
' est</w> 132805
f f 132572
s e 131796
s é 131044
l' U 129810
è s</w> 129484
p u 129448
oi t</w> 128428
ac c 125837
s ont</w> 125178
ati ons</w> 124229
eu x</w> 122274
po li 122126
b i 121136
m es</w> 121022
a d 120936
qu es</w> 119588
é t 117304
poli ti 117248
t es</w> 116395
é r 114846
ave c</w> 114494
par ti 114032
c r 114003
É t 113353
é té</w> 113277
ent ,</w> 112349
g i 111093
ré sid 109699
M on 108682
ni on</w> 107928
P résid 107745
s tr 107504
Mon si 106034
Monsi eur</w> 105683
d ’ 105065
o b 104743
an t 101618
N ous</w> 101603
Commis sion</w> 101494
en ce</w> 100559
m ais</w> 100392
d is 100321
I l</w> 100222
pa y 100210
c o 99186
oi r</w> 98836
al ement</w> 98576
v o 97237
é e</w> 96832
qu es 96174
té s</w> 96033
pr op 94905
at s</w> 94464
C on 94300
P ar 93399
t er</w> 92413
o ci 91295
f in 91126
ai r 91079
prop o 90972
s ti 90970
L a</w> 90780
v e</w> 90526
p é 90488
m ent</w> 90375
s si 90361
m on 89859
s i</w> 88703
a li 88271
b u 87995
b l 87914
m emb 87813
is s 87618
g u 86727
an ce</w> 86111
é l 85870
oi s</w> 85426
j u 85011
européen ne</w> 84694
L e</w> 84059
en s</w> 83891
s ' 83861
por t</w> 83468
or i 83197
en c 83145
im port 82829
ég alement</w> 82784
r ai 82263
E ur 81783
p eu 81769
n ' 81365
é s</w> 81298
v ous</w> 81204
m in 81122
v ou 80947
e l</w> 80940
s es</w> 80434
f ait</w> 80242
el les</w> 79872
tou t</w> 79807
ti on 79453
c es 79344
con tr 78796
an d 78650
v en 78402
in ter 78339
j our 78029
tr av 77589
Présid ent,</w> 77539
comm e</w> 77259
pay s</w> 77092
f on 76964
av ons</w> 76906
p en 76725
s on</w> 76389
i r</w> 76085
qu' il</w> 75937
a t</w> 75916
ement ,</w> 75756
re c 75582
pou r 75074
pré s 74430
politi que</w> 73773
d re</w> 73752
m ê 73570
Con se 73385
l'U nion</w> 73215
Eur op 73037
ai res</w> 72783
m an 72282
au t 72218
a i</w> 72143
d' une</w> 71984
en tr 71476
tr an 71221
Ét ats</w> 71135
a le</w> 70582
Par lement</w> 70566
m i 70376
d em 69955
rap port</w> 69796
m ent 69678
p li 69113
m et 68918
o u</w> 68873
el l 68829
u n 68667
con cer 68620
t ,</w> 68220
m ar 67961
acc or 67304
is e</w> 66937
g n 66836
n ouv 66701
for m 66697
en ti 66412
t e 66303
è me</w> 66266
qu i 65869
p on 65657
si tion</w> 65647
a l</w> 65572
v er 65520
trav ai 65519
o y 65339
om i 65274
au tr 65053
h u 64850
in té 64436
an c 64308
o c 64209
m es 63844
ement s</w> 63753
é con 62993
é es</w> 62860
pr i 62831
n ation 62675
c e 62473
al is 62241
l u 62153
f fi 62120
M .</w> 61786
E n</w> 61771
en tre</w> 61760
européen n 61760
c ri 61661
2 0 61332
écon omi 61251
cer t 61184
ec ti 60906
s omm 60667
tr ès</w> 60329
ol u 60292
no tre</w> 60276
sti tu 60275
s oci 60141
u ni 60139
qu e,</w> 59661
d' un</w> 59108
a s 58860
v ent</w> 58672
du i 58440
d oit</w> 58242
p e</w> 57981
l eur</w> 57956
v e 57789
ouv er 57642
em p 57620
L es</w> 57202
prés ent 56644
Conse il</w> 56252
f aire</w> 56175
mê me</w> 55910
si on 55324
é ri 54772
r em 54748
dé v 54067
n om 54059
li b 53917
ss i</w> 53889
è r 53825
vou dr 53787
ques tion</w> 53766
r el 53675
d on 53538
t ous</w> 53457
memb res</w> 53447
el op 53309
per s 53194
di rec 52970
ag e</w> 52958
g é 52642
dév elop 52628
l ég 52357
dr oi 52304
tran s 52287
dev ons</w> 52155
u l 52074
mes u 52014
voudr ais</w> 51855
e u</w> 51823
ch e</w> 51722
t ant</w> 51496
man i 51451
au ssi</w> 51052
l l 50893
parti cu 50826
cu l 50387
r ait</w> 50202
particu li 50198
s olu 50181
é li 50021
ab le</w> 49746
su i 49706
autr es</w> 49694
b li 49574
an de</w> 49504
l' in 49354
europé en</w> 49226
av oir</w> 49222
dévelop p 49108
fi n</w> 49002
é n 48778
au c 48605
m ati 48382
è g 48372
tr ai 47883
il s</w> 47732
L ' 47722
d er 47502
nom b 47455
ob j 47274
li té</w> 47235
er ci 47233
pro bl 47167
es ti 47093
o i</w> 46803
po in 46780
Europ e</w> 46741
u ti 46632
l or 46554
d am 46528
mar ch 46496
ci t 46443
str u 46390
droi ts</w> 46129
d onn 46117
an g 46085
r en 45945
u e</w> 45942
an ts</w> 45866
con tre</w> 45808
né ces 45807
f ai 45661
c ation</w> 45562
gr ou 45403
no s</w> 45335
ar g 45043
t - 44853
ré gi 44692
cert ain 44662
su r 44568
s eu 44543
20 0 44297
ou r</w> 44277
l is 44168
bi en</w> 44086
em pl 43950
don c</w> 43942
dé ci 43823
il l 43661
rap port 43635
b le</w> 43549
p ec 43500
comm un 43389
c ol 43321
er s</w> 43320
j ' 43273
s y 43016
in ci 42917
pré sid 42562
et ,</w> 42533
ab or 42425
c ré 42350
s - 42071
end re</w> 42040
an ti 42025
d s</w> 42014
pou v 41954
c tion</w> 41855
r èg 41499
pu bli 41447
f r 41338
pr is 41308
pro g 41058
g ar 40980
è res</w> 40938
qu el 40617
m é 40614
C 'est</w> 40598
n u 40383
i e</w> 40379
air e,</w> 40335
po ssi 40172
dé b 40162
c é 40129
m ain 39656
v es</w> 39645
accor d</w> 39544
si tu 39513
ab i 39321
c our 39217
ement .</w> 39136
c 'est</w> 38947
pr inci 38845
cit oy 38737
di re</w> 38704
peu t</w> 38425
obj ecti 38365
d om 38314
i r 38200
d ont</w> 38181
pers onn 38174
i t</w> 38018
sé cu 38001
ti onn 37931
n 'est</w> 37921
is sion</w> 37782
in s</w> 37769
su is</w> 37641
eu x 37527
v is 37480
ai ne</w> 37208
ac tu 37066
s oit</w> 37055
d eux</w> 37041
an né 37010
u v 36934
opé r 36843
s ans</w> 36753
s emb 36750
au jour 36721
f s</w> 36648
an is 36617
er ,</w> 36586
am end 36561
ce la</w> 36554
n on</w> 36447
t emp 36399
M es 36392
té ,</w> 36292
ouver n 36287
propo sition</w> 36275
sécu ri 36220
ad op 35960
ab l 35913
concer ne</w> 35821
J ' 35794
pen se</w> 35749
g ouvern 35682
em i 35661
es s 35595
l' h 35582
ra m 35543
é v 35362
ai ent</w> 35187
com p 35151
po s 35141
res .</w> 35140
dé mo 35110
d oi 35088
si ons</w> 35047
a les</w> 35017
i ti 34993
vi r 34769
t .</w> 34742
e ff 34700
an ci 34626
uti lis 34541
qu e.</w> 34519
f av 34496
d' hu 34396
con n 34392
enc or 34053
ec t 34047
tr i 33870
ar i 33831
qu ’ 33783
ap pro 33684
der ni 33595
pr emi 33377
f a 33322
com pr 33306
res ,</w> 33301
cl u 33266
en n 33153
el lement</w> 33103
d g 33028
a n</w> 33006
eur s,</w> 33006
di ff 32929
con si 32928
prog ram 32917
met tre</w> 32840
al l 32831
démo cr 32799
té .</w> 32753
d e 32608
i n</w> 32501
ent s</w> 32490
entr e 32423
doi vent</w> 32378
ali té</w> 32370
bu dg 32263
en vir 32207
c i</w> 32141
sy st 32115
direc ti 31970
mesu res</w> 31918
nouv e 31801
sou ti 31776
développ ement</w> 31776
par l 31546
s a</w> 31476
ô le</w> 31466
grou pe</w> 31441
col l 31437
comm ission</w> 31320
b a 31314
f ois</w> 31176
mani ère</w> 31050
v oi 31030
is ,</w> 31005
gé né 30778
p end 30765
ap pli 30758
l eurs</w> 30743
es p 30722
res pon 30667
or g 30617
s' ag 30576
au x 30495
C e</w> 30394
ation .</w> 30341
somm es</w> 30331
encor e</w> 30206
t ement</w> 30196
situ ation</w> 30178
ca dre</w> 30154
r o 30128
m il 30109
sécuri té</w> 30105
d er</w> 30098
tu re</w> 30074
ni ve 30036
is l 30024
au t</w> 30006
res s 29969
j ou 29945
ation ,</w> 29892
pro t 29770
d' in 29764
at ten 29747
c et</w> 29658
ser a</w> 29575
ten ir</w> 29561
a fin</w> 29528
diff ér 29440
tr o 29421
néces s 29361
travai l</w> 29298
aujour d'hu 29292
ch ang 29213
n ég 29158
o ù</w> 29148
r ê 29102
ain si</w> 29078
o t 29031
inter nation 28953
march é</w> 28948
an te</w> 28910
su l 28779
f ér 28709
dé j 28675
m on</w> 28658
h é 28647
én er 28645
ser vi 28542
s oi 28518
l'U E</w> 28483
poin t</w> 28397
m a 28201
ca r</w> 28128
on ne</w> 28122
ré pon 28121
envir onn 28120
démocr ati 28001
tion .</w> 27965
pr ès</w> 27923
j et</w> 27827
li g 27812
lég isl 27768
pro dui 27755
fin anci 27696
respon s 27648
m e 27639
ch er 27638
co opér 27611
po si 27550
ai ss 27544
consi dé 27489
et s</w> 27485
pr es 27453
C e 27447
déj à</w> 27347
dem and 27308
ch o 27294
è mes</w> 27280
is t 27273
res pec 27209
Commis sion 27209
M ad 27124
el s</w> 27035
e z</w> 26945
par ce</w> 26899
solu tion</w> 26849
po sition</w> 26809
m en 26766
a me</w> 26763
en g 26742
pé ri 26721
s ect 26666
mati ère</w> 26633
con ti 26605
D ans</w> 26580
a ff 26461
l' ex 26446
U nion</w> 26420
ati ve</w> 26405
import ant</w> 26360
e p 26322
qu oi</w> 26300
at ég 26266
au tre</w> 26259
s o 26253
e ffi 26251
b es 26251
citoy ens</w> 26196
européenn e.</w> 26147
d' autres</w> 26126
dr oit</w> 26087
mil li 26081
er a</w> 26004
pa ss 25909
in stitu 25795
f u 25755
r a</w> 25746
ques tions</w> 25740
é vi 25733
Mad ame</w> 25665
semb le</w> 25609
éli or 25496
ex i 25475
am élior 25429
re présent 25416
ec tion</w> 25314
pris es</w> 25292
pro cé 25195
travai ll 25184
ai n</w> 25159
l on 25112
acc ep 25062
ant ,</w> 25054
politi ques</w> 25050
air e.</w> 25036
ra g 24993
tu r 24986
tion ,</w> 24985
con stitu 24982
t e,</w> 24823
concer n 24803
dev rait</w> 24780
ag ri 24755
en ces</w> 24716
mo ins</w> 24701
g l 24634
er .</w> 24572
su s</w> 24523
nive au</w> 24492
o gi 24478
i bu 24408
contr ibu 24387
a qu 24350
org anis 24326
se in</w> 24249
s'ag it</w> 24249
cour s</w> 24248
tou tes</w> 24235
nomb r 24234
in e</w> 24220
l' A 24197
gar anti 24133
sui v 24095
stru c 23948
ét ait</w> 23903
b e 23818
li gn 23786
di t</w> 23677
propo si 23649
rem erci 23559
d o 23521
sou h 23480
ca s</w> 23452
mé di 23435
m ise</w> 23400
t ex 23393
oi n</w> 23353
eu s 23280
min is 23237
ac ti 23236
personn es</w> 23078
pr im 23053
è m 23021
f aut</w> 22889
auc ou 22824
cl ar 22814
tou te</w> 22810
certain s</w> 22791
abi lité</w> 22777
Ce la</w> 22751
qu' elle</w> 22741
an d</w> 22705
nomb re</w> 22657
a ss 22637
j' ai</w> 22636
’ est</w> 22634
tr ouv 22622
œ uv 22609
seu lement</w> 22577
directi ve</w> 22540
or is 22516
coopér ation</w> 22456
str atég 22413
h eur 22381
1 9 22373
syst ème</w> 22313
souh ai 22309
f er 22293
si m 22275
f l 22264
d ,</w> 22222
sul t 22212
temp s</w> 22202
s pé 22171
ab les</w> 22120
é qui 22100
eu re</w> 22064
be aucou 22039
s an 22002
jour s</w> 21964
pen s 21897
pro ces 21797
ap p 21797
économi que</w> 21781
l' av 21761
emb l 21755
mo y 21704
g ni 21695
lor s 21666
ent e</w> 21622
prot ection</w> 21595
or s</w> 21569
p i 21551
no m</w> 21494
pr endre</w> 21483
sé qu 21480
nég oci 21467
déb at</w> 21458
inté rê 21457
particuli er</w> 21452
c entr 21361
pu is</w> 21361
par t</w> 21322
du ction</w> 21321
fr on 21314
con di 21298
con séqu 21261
am ment</w> 21200
t ent</w> 21157
at eurs</w> 21142
mon di 21133
p e 21102
rai ent</w> 21089
dis cu 21088
bi lité</w> 21035
r u 21034
gr ande</w> 21027
ren for 21027
èr ement</w> 20965
dé pu 20955
ju s 20947
lor s</w> 20937
gu e</w> 20908
procé du 20825
per met 20790
h i 20774
qu el</w> 20762
M me</w> 20760
oc cu 20745
spé ci 20719
lu t 20473
e f 20471
eng ag 20460
m is</w> 20447
v ue</w> 20437
coll è 20396
m al 20371
ai de</w> 20370
concern ant</w> 20353
l' Europe</w> 20301
s or 20259
ment s</w> 20258
T ou 20252
p es</w> 20203
con somm 20176
comm iss 20175
Ét at</w> 20118
commun aut 20113
f em 20102
b les</w> 20100
a y 20089
beaucou p</w> 20084
fav eur</w> 20068
l aqu 20054
ati ves</w> 20024
c or 19947
av ant 19945
ess enti 19917
r is 19915
pour quoi</w> 19911
i ,</w> 19901
ac tion</w> 19885
t able</w> 19855
c ar 19841
al e.</w> 19822
ré alis 19821
ri di 19802
Commis s 19779
ci té</w> 19775
av ant</w> 19742
su b 19736
cr o 19732
du str 19721
qu' ils</w> 19716
ain es</w> 19695
ter r 19693
cl air 19688
v ement</w> 19673
ba se</w> 19668
te ch 19653
ss embl 19640
C h 19630
ori té</w> 19585
c ou 19556
ori tés</w> 19553
proces sus</w> 19493
b onne</w> 19487
dé f 19471
a î 19461
con s 19461
e - 19434
d ou 19420
laqu elle</w> 19382
su p 19378
probl ème</w> 19332
pr om 19306
ent e,</w> 19302
dam ent 19297
at t 19277
ser v 19250
for me</w> 19249
éner gi 19230
com pl 19212
rai son</w> 19139
fon dament 19110
ar ti 19086
l'h omm 19076
dé clar 19075
dam es</w> 19057
tou jours</w> 19050
a ce</w> 19045
européenn e,</w> 19040
ef for 19039
té e</w> 19032
ju ridi 19003
soi ent</w> 18988
ver s</w> 18964
eux i 18945
i d 18905
s avoir</w> 18891
vou l 18885
Ét at 18878
pro ch 18846
par t 18793
di ffi 18771
qu ement</w> 18761
P our</w> 18720
é .</w> 18707
sou lign 18635
i t 18630
l '</w> 18625
r er</w> 18596
c eux</w> 18485
bes oin</w> 18442
qu es,</w> 18415
c el 18410
al e,</w> 18368
pu is 18358
é ,</w> 18348
Mes si 18308
présid ent</w> 18279
m is 18276
u s</w> 18271
œuv re</w> 18263
at u 18233
parti e</w> 18228
comp te</w> 18211
in form 18188
probl èmes</w> 18163
al u 18132
qu er</w> 18108
S i</w> 18048
dem ande</w> 18034
si té</w> 18019
re cher 18012
aujourd'hu i</w> 17996
ol ogi 17960
l le</w> 17951
l e 17945
el on</w> 17904
ri ons</w> 17870
n' a</w> 17867
vo tre</w> 17814
v al 17801
i ci</w> 17800
r e,</w> 17782
ég ar 17766
on ,</w> 17735
sect eur</w> 17708
Mes dames</w> 17659
mesu re</w> 17643
r ôle</w> 17593
pouv ons</w> 17592
qu es.</w> 17529
dom aine</w> 17511
main ten 17457
z - 17422
l' é 17421
peu vent</w> 17418
C ette</w> 17385
li eu</w> 17291
au g 17242
en dr 17222
n or 17221
com pé 17204
t eurs</w> 17196
ré sult 17150
tr e,</w> 17149
ré solution</w> 17128
eur o 17082
proposi tions</w> 17082
c le</w> 17046
l'U E 17045
program me</w> 17044
gouvern ement</w> 16974
souti en</w> 16966
op ul 16949
ser ait</w> 16940
t e.</w> 16916
p opul 16892
re conn 16884
objecti f</w> 16871
servi ces</w> 16839
Conse il 16831
pro pr 16816
é ment</w> 16810
al ,</w> 16808
aug ment 16799
ju sti 16793
in di 16791
v éri 16781
a près</w> 16779
p h 16716
nouv elle</w> 16714
a ,</w> 16692
du c 16684
an ces</w> 16679
is te</w> 16660
inté ri 16649
renfor c 16627
amend ements</w> 16623
ave z</w> 16591
al .</w> 16500
tr a 16495
fin anc 16468
m e,</w> 16447
rai s 16423
r ,</w> 16386
l' en 16360
pr ati 16312
Présid ente,</w> 16312
oi re</w> 16307
si gni 16290
en ne</w> 16287
signi fi 16275
ven tion</w> 16272
Par l 16267
19 9 16203
p ai 16190
ma j 16186
eu ses</w> 16180
in iti 16179
en ir</w> 16149
fon c 16137
a que</w> 16106
collè gu 16097
import ance</w> 16082
parti ci 16042
entre prises</w> 16039
u ssi 16037
ten u</w> 16018
d' ex 16010
objecti fs</w> 15988
princi pa 15969
l' O 15947
n i</w> 15891
lib er 15866
vi ent</w> 15863
ven ir</w> 15854
mon de</w> 15836
i dé 15819
r e.</w> 15782
vo te</w> 15754
fér ence</w> 15719
esp ère</w> 15708
J' ai</w> 15681
trai té</w> 15672
déci sion</w> 15660
Commiss aire,</w> 15637
ce p 15625
p ê 15618
nouve au</w> 15612
as sur 15573
ent es</w> 15550
effi ca 15533
ent .</w> 15523
par ten 15521
dé fin 15517
possi ble</w> 15494
P a 15450
ve ill 15417
de puis</w> 15409
Messi eurs,</w> 15377
f éli 15365
minis tr 15365
di fi 15356
f our 15350
con clu 15346
c ell 15331
géné r 15313
s ’ 15309
con st 15281
ri t 15257
li mi 15256
v ol 15247
régi on 15204
M ais</w> 15189
l s</w> 15185
cro iss 15170
U ni 15118
d' abor 15105
commiss aire</w> 15105
té ri 15100
cu r 15059
hé sion</w> 15049
no t 15029
premi ère</w> 15018
règ lement</w> 14938
p eu</w> 14934
exi g 14923
al ors</w> 14907
é cri 14897
mo i</w> 14870
r et 14797
présid ence</w> 14780
Q u 14773
ré gl 14745
eur ,</w> 14741
f o 14740
stratég ie</w> 14731
Commission ,</w> 14696
v esti 14653
s 'est</w> 14619
d ent</w> 14606
po sé 14580
con fi 14565
é e.</w> 14546
budg et</w> 14503
inté gr 14501
our ces</w> 14469
pr is</w> 14467
vi ol 14459
règ les</w> 14435
qui ,</w> 14420
produi ts</w> 14415
nouve aux</w> 14404
État s- 14394
A ssembl 14383
amend ement</w> 14331
remerci er</w> 14321
milli ons</w> 14311
él ec 14284
mo difi 14279
européen s</w> 14278
tex te</w> 14276
s û 14238
vi e</w> 14226
v oir</w> 14224
san té</w> 14195
so li 14180
an tes</w> 14179
quel ques</w> 14164
pl ace</w> 14152
l o 14131
tr ois</w> 14126
ca pa 14114
ô t</w> 14110
j our</w> 14079
conti nu 14053
dé pend 14050
gr and</w> 14016
ai ll 14014
condi tions</w> 14011
im pli 13993
clair ement</w> 13979
pré c 13978
pouv oir</w> 13963
b é 13943
sui te</w> 13894
spéci fi 13893
auc un</w> 13870
dui re</w> 13868
pe ti 13836
iss ement</w> 13815
m ement</w> 13813
m oi 13759
ser ont</w> 13759
si onn 13724
r ou 13722
vo té</w> 13720
ex am 13714
contr ôle</w> 13712
év alu 13705
cri min 13694
l à</w> 13693
cur r 13653
ex prim 13628
ob lig 13620
r ons</w> 13612
si gn 13592
pr ouv 13590
lut te</w> 13587
nouv elles</w> 13561
comm une</w> 13548
E n 13546
s elon</w> 13543
dépu tés</w> 13541
ti que</w> 13530
at te 13522
a ch 13497
agri cul 13491
b on</w> 13481
pré occu 13476
nécess aire</w> 13462
pro jet</w> 13431
posi ti 13431
s se</w> 13427
form ation</w> 13363
nombr eux</w> 13363
an di 13344
acti vi 13328
législ ation</w> 13323
av i 13322
particuli èrement</w> 13317
f es 13311
con curr 13303
enc e,</w> 13287
fon ds</w> 13279
h omm 13271
mainten ant</w> 13265
l’ Union</w> 13245
oc ca 13212
fem mes</w> 13210
o de</w> 13180
pres sion</w> 13172
fi ci 13140
ex empl 13117
n ’ 13099
s ous</w> 13092
t ot 13089
0 0</w> 13085
m om 13074
l' environn 13040
pour rait</w> 13023
régi ons</w> 13004
o ff 12983
sé ri 12971
t ation</w> 12963
U ne</w> 12941
s en 12916
arti cle</w> 12901
anné e</w> 12897
oi si 12896
pl an</w> 12875
bé né 12865
ch aque</w> 12857
d '</w> 12838
mon tr 12815
en f 12792
m ' 12789
atte in 12766
donn er</w> 12763
rap p 12760
Europ e.</w> 12750
comm uni 12739
princi pe</w> 12719
tran g 12703
é ch 12679
m or 12675
féli ci 12658
pr ise</w> 12657
d euxi 12652
donn é</w> 12646
eur .</w> 12642
z on 12631
d’ une</w> 12596
fin ,</w> 12595
co û 12584
m éri 12571
j et 12567
S u 12538
vo y 12535
D e</w> 12533
Comm e</w> 12527
néces sité</w> 12504
or d 12503
A u 12498
ex iste</w> 12485
régl ement 12484
rapport eur</w> 12483
on .</w> 12471
ai res.</w> 12468
g es 12452
qu' une</w> 12437
not amment</w> 12417
fonc tionn 12414
ter min 12409
lors que</w> 12403
institu tions</w> 12400
é tu 12393
qu’ il</w> 12384
por ts</w> 12367
èr e,</w> 12333
is .</w> 12311
si n 12300
ré e</w> 12288
l' im 12284
m e.</w> 12282
aut orités</w> 12242
vis ant</w> 12236
ex tr 12205
garanti r</w> 12185
èm ement,</w> 12161
diffi ci 12155
pa c 12146
dev raient</w> 12124
l and 12115
voul ons</w> 12110
certain es</w> 12108
ali ment 12104
à - 12101
peu t- 12092
si eurs</w> 12087
qu' un</w> 12081
or dre</w> 12065
su jet</w> 12031
mi gr 12028
négoci ations</w> 12015
é e,</w> 11996
recher che</w> 11990
arg e</w> 11970
cr ise</w> 11966
a ssi 11965
su ff 11958
soulign er</w> 11953
appro che</w> 11927
aux .</w> 11926
t h 11895
é trang 11888
me ill 11881
c li 11863
por te</w> 11854
qu' à</w> 11849
auc une</w> 11839
in f 11825
cho se</w> 11814
c au 11789
pos er</w> 11787
as pec 11777
él arg 11776
atten tion</w> 11775
j eu 11768
an im 11766
enn ent</w> 11759
pl é 11753
m er</w> 11742
sion ,</w> 11741
tro p</w> 11736
l'homm e</w> 11724
avant age</w> 11714
rel ations</w> 11713
comm erci 11704
m a</w> 11702
g er</w> 11698
premi er</w> 11696
r ont</w> 11693
au té</w> 11692
Commission .</w> 11683
E lle</w> 11674
po se</w> 11653
c ap 11652
alis ation</w> 11652
cert ain</w> 11623
Pa r</w> 11613
budg ét 11606
d' accord</w> 11603
gr av 11595
ai res,</w> 11584
fai s 11576
vesti ss 11566
utilis ation</w> 11561
es t- 11534
géné ra 11523
ell e,</w> 11522
memb res.</w> 11512
e in 11509
C es</w> 11507
respec t</w> 11485
sim pl 11463
effor ts</w> 11462
lib re</w> 11446
ag es</w> 11430
é s.</w> 11423
suff is 11420
au ra</w> 11341
européen ,</w> 11340
fi cation</w> 11335
aff aires</w> 11320
procédu re</w> 11312
quel que</w> 11297
énergi e</w> 11289
pro gr 11287
publi que</w> 11287
T ur 11263
v a</w> 11262
fa ç 11262
ex emp 11238
appli cation</w> 11233
aux ,</w> 11223
( E 11206
économi e</w> 11206
l' I 11191
ress ources</w> 11180
struc tu 11178
eur s.</w> 11164
s ouv 11160
n ologi 11146
dev rions</w> 11144
pa uv 11135
import ant 11133
av ait</w> 11127
  -</w> 11124
intérê t</w> 11107
d é</w> 11098
ti ens</w> 11096
lib ér 11093
plu sieurs</w> 11074
pa g 11068
tech nologi 11064
dé c 11036
deuxi ème</w> 11025
d’ un</w> 11021
él ev 11020
pl ac 11017
sou tenir</w> 11002
comm er 10993
ou tre,</w> 10977
l es 10970
s em 10960
n' y</w> 10960
cré ation</w> 10957
amélior er</w> 10955
s er</w> 10952
n on 10945
v rai 10934
semb l 10929
vol on 10923
pend ant</w> 10922
respons abilité</w> 10877
enc ou 10872
s é</w> 10866
acc ès</w> 10861
extr ê 10845
t ons</w> 10837
m enti 10829
ci vi 10824
ati f</w> 10823
in dustr 10820
européen .</w> 10783
ab li 10782
al o 10779
no v 10738
l' on</w> 10715
t our 10696
in stru 10691
a s</w> 10685
at ti 10681
quel s</w> 10675
menti onn 10675
m er 10665
port er</w> 10665
v eu 10664
at ur 10664
l ev 10659
an i 10650
c ac 10648
t ent 10640
actu ellement</w> 10638
ati s 10620
t ôt</w> 10619
fi er</w> 10604
trans par 10584
considé r 10565
ci r 10563
n es</w> 10559
té es</w> 10549
lu i</w> 10531
t abl 10519
encou rag 10514
du ra 10509
ur g 10508
prés ent</w> 10507
qu alité</w> 10501
t aire</w> 10500
te z- 10499
Tou t</w> 10497
qu é</w> 10495
soli d 10495
fo is,</w> 10430
on s,</w> 10428
j ets</w> 10404
pré v 10398
compr is</w> 10388
memb re</w> 10371
ab lement</w> 10368
déb at 10362
effi cac 10338
occa sion</w> 10324
répon se</w> 10318
tion s.</w> 10315
d avantage</w> 10310
té s,</w> 10298
l' empl 10297
res te</w> 10297
Europ e,</w> 10291
in st 10289
ch er</w> 10289
poin ts</w> 10289
cel u 10289
an des</w> 10275
c ti 10269
par t,</w> 10261
c in 10255
A u</w> 10251
contr ô 10249
terr oris 10249
fa ci 10240
progr ès</w> 10213
four ni 10212
c am 10208
ét ant</w> 10196
m ul 10186
ar ri 10185
exempl e,</w> 10184
qu elles</w> 10167
is ation</w> 10166
U n</w> 10164
ré c 10161
ad ministr 10149
soci été</w> 10119
ori ent 10114
Conseil ,</w> 10099
p ecti 10098
nombr euses</w> 10086
con f 10066
posi tions</w> 10060
peut- être</w> 10043
qu a 10040
al es.</w> 10030
travai l 10029
di ver 10021
lon g</w> 10020
pri x</w> 10010
cr ois</w> 10005
t y 10000
pa tion</w> 9988
exam in 9986
compr om 9982
v e.</w> 9976
le quel</w> 9956
qu ant</w> 9941
Tur qui 9938
iss ent</w> 9904
di alo 9901
p le</w> 9890
L is 9876
assur er</w> 9854
Assembl ée</w> 9842
l' a</w> 9831
temp s,</w> 9831
o in 9807
ges tion</w> 9789
ap prouv 9779
croiss ance</w> 9779
tez- moi</w> 9762
do cu 9760
b onn 9759
d ès</w> 9741
enc e.</w> 9726
ain s</w> 9693
en ,</w> 9687
ent en 9674
com pa 9667
bu t</w> 9663
publi c 9663
ord in 9663
extrê mement</w> 9652
import ante</w> 9647
pr eu 9643
ré solu 9642
abi li 9640
su s 9637
re comm 9635
fron ti 9632
ai s,</w> 9631
tion s,</w> 9624
memb res,</w> 9613
péri ode</w> 9609
R ussi 9605
différ ents</w> 9605
simpl ement</w> 9603
ri r</w> 9595
rap id 9595
sion .</w> 9569
eff et</w> 9563
- 0 9543
ac tions</w> 9538
cré er</w> 9513
juridi que</w> 9502
èr e.</w> 9496
jus te</w> 9492
ter mes</w> 9491
eus ement</w> 9471
té s.</w> 9457
m u 9443
c ations</w> 9440
économi ques</w> 9439
règ l 9434
liber té</w> 9434
d .</w> 9433
écri t.</w> 9427
d e.</w> 9426
t s,</w> 9419
parl ement 9412
al es,</w> 9405
a jou 9399
environn ement 9398
accor ds</w> 9396
demand er</w> 9393
ad hésion</w> 9389
éner gé 9379
t s.</w> 9378
program mes</w> 9367
bi li 9362
ir .</w> 9359
pr ê 9358
pro té 9354
En fin,</w> 9351
co le</w> 9350
pay s,</w> 9347
soci ale</w> 9345
a di 9331
bl e.</w> 9331
rem ar 9324
fi x 9295
préc is 9287
é es.</w> 9286
eu se</w> 9279
v e,</w> 9266
s al 9261
con stru 9257
ét abli 9256
N )</w> 9237
for mes</w> 9236
h ér 9230
s atis 9225
d' é 9221
n' ont</w> 9221
fav or 9218
d e,</w> 9217
pro duc 9208
ch i 9200
at eur</w> 9197
anné es</w> 9194
l'UE .</w> 9189
financ ement</w> 9189
anc e,</w> 9170
n ou 9161
él abor 9159
dom aines</w> 9146
(E N)</w> 9144
faç on</w> 9139
su c 9135
o s 9130
t ali 9111
vi sion</w> 9095
déf en 9093
Présid ent</w> 9092
mom ent</w> 9078
ai r</w> 9075
é s,</w> 9069
i gn 9058
béné fici 9056
t elle</w> 9016
pro duction</w> 9007
mi li 9004
Uni s</w> 8998
ra i</w> 8990
fa ce</w> 8981
pro fi 8979
ell e.</w> 8973
possi bilité</w> 8963
sor te</w> 8944
L ’ 8902
souv ent</w> 8882
i .</w> 8873
tri bu 8873
propr e</w> 8868
m es,</w> 8866
plu tôt</w> 8863
appro pri 8850
européenn es</w> 8830
erci ce</w> 8817
communaut aire</w> 8812
compé ti 8810
ori g 8804
l' article</w> 8788
nor mes</w> 8773
t els</w> 8771
renforc er</w> 8767
f am 8754
dé pen 8749
20 1 8746
f ri 8744
signifi e</w> 8741
déci sions</w> 8738
trouv er</w> 8729
pré ci 8725
vrai ment</w> 8716
oi r 8710
a ffi 8709
au rait</w> 8706
États- Unis</w> 8697
U E</w> 8684
qu ali 8684
b il 8681
h ar 8672
Parl ement,</w> 8661
pr en 8658
d' être</w> 8658
donn ées</w> 8657
in i 8647
l' accord</w> 8645
l'in dustr 8645
voi e</w> 8642
intérê ts</w> 8639
a str 8629
commer ce</w> 8624
citoy en 8620
ri en</w> 8617
Comm un 8614
enn es</w> 8609
c ô 8589
travaill eurs</w> 8581
certain ement</w> 8573
mo d 8571
dom ain 8556
exemp le</w> 8553
ex ist 8543
F on 8503
in si 8503
dialo gue</w> 8496
dé t 8492
ti n 8487
concurr ence</w> 8482
ti ques</w> 8472
pers pecti 8471
c è 8468
égar d</w> 8457
compéti ti 8443
sup plé 8420
c at 8416
pré cé 8407
pl oi 8401
j am 8400
t elles</w> 8397
compé ten 8394
conn aiss 8392
seu le</w> 8386
p eux</w> 8385
pê che</w> 8380
P er 8378
t es,</w> 8376
tech ni 8368
ex pli 8366
ab s 8353
ég alité</w> 8336
ari té</w> 8330
pay s.</w> 8326
grou pes</w> 8324
ten tion</w> 8315
an ni 8305
er ait</w> 8305
essenti el</w> 8294
dé termin 8284
résult ats</w> 8281
u nion</w> 8277
in tro 8277
op h 8264
ré forme</w> 8263
maj orité</w> 8263
intégr ation</w> 8252
rapport .</w> 8232
supplé ment 8231
pri v 8227
veill er</w> 8226
régi on</w> 8221
cl é 8213
collègu es</w> 8208
comm enc 8197
ac t 8192
in s 8189
constitu e</w> 8187
conf li 8187
ac cu 8179
E t</w> 8178
trans port</w> 8177
app elle</w> 8172
idé e</w> 8162
g e</w> 8155
C our</w> 8147
am bi 8145
mi eux</w> 8141
hu main 8137
per mettre</w> 8123
pos é</w> 8119
consomm ateurs</w> 8119
considé ra 8118
com b 8108
rap h 8106
pré par 8105
cri t 8100
permet tr 8092
r endre</w> 8079
ass oci 8059
i en</w> 8040
suiv re</w> 8039
ter me</w> 8032
rapport ,</w> 8027
av is</w> 8023
al y 8021
n atur 8015
ation s,</w> 8014
derni ères</w> 8013
V ous</w> 8012
qu' elles</w> 8010
cons ci 8007
t- il</w> 8002
él é 7999
nu clé 7992
I ls</w> 7988
v ain 7987
av anc 7964
el er</w> 7963
syst èmes</w> 7963
conti n 7956
dé ch 7935
N o 7915
recomm and 7896
gr and 7895
L i 7889
véri table</w> 7884
activi tés</w> 7882
c e,</w> 7879
F r 7876
l' aide</w> 7874
démocrati e</w> 7868
o g 7867
es pri 7866
a .</w> 7861
on s- 7854
pro jets</w> 7854
el ,</w> 7851
probl èm 7848
gr é</w> 7846
ex téri 7820
d ois</w> 7811
è te</w> 7805
prom ouv 7805
M al 7804
enti fi 7804
f ont</w> 7799
augment ation</w> 7790
d' euro 7788
N ations</w> 7784
march és</w> 7780
d ang 7776
ju di 7775
in vi 7774
industr i 7774
qu' en</w> 7771
l'en semble</w> 7770
l'U ni 7764
l' inter 7752
v re</w> 7728
er ont</w> 7714
" .</w> 7711
ét aient</w> 7696
d'abor d</w> 7694
dis positions</w> 7693
ré duire</w> 7689
stratég i 7682
cré di 7671
atu re</w> 7666
d' A 7659
fl exi 7651
fr an 7647
chang ement</w> 7640
reconn aiss 7639
ca s,</w> 7622
ation s.</w> 7618
gu er 7616
in dépend 7613
sou ten 7613
é ra 7612
intéri eur</w> 7602
ré s</w> 7599
celu i</w> 7599
i - 7598
J' espère</w> 7594
popul ation</w> 7592
derni ère</w> 7574
souhai te</w> 7573
au v 7572
affi r 7565
o le</w> 7563
in vestiss 7563
con t 7561
ter a</w> 7561
u s 7559
fai t,</w> 7542
moy en</w> 7538
mê mes</w> 7535
dé s 7526
mo in 7525
évalu ation</w> 7517
c elle</w> 7513
cl air</w> 7513
en semble</w> 7511
princi pes</w> 7511
cap it 7505
déclar ation</w> 7504
cr u 7500
b an 7494
d esti 7492
moy ens</w> 7485
m et</w> 7481
st abilité</w> 7478
m ois</w> 7459
partici p 7455
in g 7447
in clu 7443
pl ein 7431
tu de</w> 7429
M . 7415
ré se 7415
me - 7413
m ét 7402
sé e</w> 7399
ati fs</w> 7389
re ç 7382
re v 7381
a x 7376
cho ses</w> 7373
ab solu 7372
ch e,</w> 7366
internation ale</w> 7364
d es 7363
part i</w> 7362
justi ce</w> 7360
ai se</w> 7354
emb re</w> 7352
rais ons</w> 7352
engag ement</w> 7343
inform ations</w> 7341
entre pris 7339
dé l 7334
pac t</w> 7326
év olu 7325
p u</w> 7321
l e,</w> 7317
te fois,</w> 7315
ter rit 7311
preu ve</w> 7309
obj et</w> 7308
vi cti 7304
effica ce</w> 7290
Fon ds</w> 7288
c ' 7276
in qui 7259
jam ais</w> 7258
sur tout</w> 7255
t aux</w> 7253
s e,</w> 7246
rem i 7240
l' utilisation</w> 7235
aut ant</w> 7229
ter n 7222
j ’ 7215
parti es</w> 7204
puis se</w> 7201
P remi 7196
s ci 7195
op ini 7191
ri g 7185
ant s.</w> 7184
pai x</w> 7182
con vain 7181
élarg issement</w> 7181
c andi 7173
candi d 7171
conséqu ent,</w> 7166
s ens</w> 7165
ci d 7156
enf ants</w> 7144
u es</w> 7142
d' avoir</w> 7138
dé e</w> 7136
gl ob 7134
el .</w> 7132
promouv oir</w> 7132
pa rag 7127
l e.</w> 7124
dis crimin 7119
parag raph 7119
t el</w> 7118
sub st 7118
adop ter</w> 7114
C ’est</w> 7111
bl e,</w> 7111
ssi ons</w> 7107
D E 7105
ré duction</w> 7090
répon dre</w> 7088
mul ti 7088
is me</w> 7081
nécess aires</w> 7079
M.   7079
félici ter</w> 7068
c er</w> 7067
comm ent</w> 7067
parl er</w> 7057
meill eure</w> 7055
tr u 7052
effica cité</w> 7050
di t,</w> 7041
ex cell 7037
en .</w> 7032
l' amendement</w> 7032
ré es</w> 7031
pro fes 7027
f is 7025
an aly 7025
lig ne</w> 7022
organis ations</w> 7022
ir ,</w> 7019
con centr 7011
anc e.</w> 7005
â ce</w> 6993
ec tu 6993
D ' 6978
s' il</w> 6972
l' importance</w> 6961
aut oris 6961
é chang 6940
adop tion</w> 6932
eur es</w> 6925
ér er</w> 6923
emp ê 6917
ob serv 6912
O r,</w> 6905
se p 6905
t es.</w> 6903
form ul 6900
ag n 6899
esti me</w> 6897
v é 6894
ét abl 6885
l aiss 6884
rel atives</w> 6884
t ar 6879
é di 6878
on i 6876
I n 6874
seu l</w> 6869
mét h 6869
B ar 6863
l' E 6855
er r 6853
l'industr ie</w> 6850
plein ement</w> 6850
aspec ts</w> 6849
diffici le</w> 6835
s avons</w> 6831
m ent,</w> 6809
institu tionn 6808
G r 6804
ant .</w> 6792
D é 6790
volon té</w> 6785
con cr 6781
comprom is</w> 6779
lon g 6778
ris que</w> 6770
ti tre</w> 6768
en vis 6765
é es,</w> 6762
appli qu 6760
tou t,</w> 6757
capa cité</w> 6752
utilis er</w> 6739
Parl ement.</w> 6733
endr a</w> 6730
con sid 6729
B ien</w> 6719
f au 6716
parten ari 6708
l'av en 6700
somm et</w> 6694
communi cation</w> 6691
conséqu ences</w> 6677
l anc 6670
O n</w> 6665
0 00</w> 6663
Tou tefois,</w> 6660
z ,</w> 6650
milli ar 6645
ré ellement</w> 6644
ex ercice</w> 6644
ai der</w> 6643
est- à- 6634
ré jou 6633
évi ter</w> 6631
ré férence</w> 6630
différ entes</w> 6627
diffi cul 6616
es - 6611
représent e</w> 6611
i té</w> 6610
gr andes</w> 6605
rapid ement</w> 6597
qu ê 6590
l' un</w> 6590
i ons</w> 6588
gouvern ements</w> 6586
re gr 6578
espri t</w> 6576
è le</w> 6572
l arge</w> 6570
dou te</w> 6570
ant s,</w> 6567
con fron 6566
procédu res</w> 6566
né e</w> 6561
S ch 6551
h ist 6549
eus ement,</w> 6530
c ’est</w> 6524
por tu 6521
judi ci 6520
con vient</w> 6519
arg ent</w> 6507
accep ter</w> 6495
l'av enir</w> 6494
aujourd'hu i,</w> 6485
di c 6483
l'environn ement</w> 6479
d a 6475
m es.</w> 6474
es pa 6462
oi ,</w> 6457
peti tes</w> 6448
Turqui e</w> 6448
ti ers</w> 6447
gouvern ement 6447
entr aî 6446
cli mati 6440
adop té</w> 6436
g ens</w> 6432
cor rec 6431
tr es</w> 6427
propr es</w> 6417
ty pe</w> 6417
ad ap 6413
i c 6412
derni er</w> 6411
ar rê 6409
élec tions</w> 6403
amélior ation</w> 6396
mé c 6394
é cu 6391
eux ,</w> 6385
as su 6375
uni que</w> 6374
2 0</w> 6372
mon ét 6372
rap ports</w> 6355
est-à- dire</w> 6354
vi gu 6353
con form 6351
h au 6350
eux .</w> 6340
rit anni 6340
il le</w> 6337
sen si 6331
sé s</w> 6322
co hér 6320
eff ecti 6319
at es</w> 6316
l'UE ,</w> 6313
U E 6309
con ven 6309
dev ant</w> 6309
ch es</w> 6302
d' im 6301
ons- nous</w> 6300
n ’est</w> 6299
l' année</w> 6299
l an 6296
j oin 6296
crit ères</w> 6296
D euxi 6293
respons abili 6289
pers onne</w> 6288
t â 6279
publi c</w> 6279
pa ra 6271
c ès</w> 6262
v u</w> 6258
s te</w> 6257
résult at</w> 6249
sou lev 6235
a dé 6230
h abi 6222
con dui 6217
éri c 6216
am éric 6204
régi me</w> 6204
méc anis 6202
ap porter</w> 6188
particuli er,</w> 6187
ag ir</w> 6186
ob tenir</w> 6180
s e.</w> 6173
généra l</w> 6167
a si 6161
co ordin 6159
minis tre</w> 6158
ré sou 6154
m ission</w> 6150
Conseil .</w> 6147
partici pation</w> 6147
rel ative</w> 6141
ré gu 6130
par venir</w> 6128
em ment</w> 6126
d' empl 6126
d'abor d,</w> 6121
soci é 6115
d’ hu 6107
R é 6103
concer né 6103
par ven 6102
J ’ 6099
con dam 6098
f .</w> 6092
hu mani 6087
D es</w> 6084
fon d 6082
abl e.</w> 6082
ell es,</w> 6074
ét at</w> 6057
h on 6051
m i</w> 6050
ô m 6046
l' objectif</w> 6038
man que</w> 6030
l' agricul 6028
èr ement,</w> 6018
mani fes 6017
b ritanni 6015
iss ant</w> 6012
contribu tion</w> 6010
nation ales</w> 6009
ou ti 6007
st atu 5989
en - 5987
vi té</w> 5984
pens ons</w> 5981
attein dre</w> 5981
comm is 5960
solid arité</w> 5959
ch e 5957
min u 5949
é mis 5945
demand é</w> 5944
confi ance</w> 5944
soci al</w> 5937
ou bli 5929
re fu 5918
nation aux</w> 5910
actu elle</w> 5906
gr âce</w> 5905
ch ôm 5903
Con stitu 5899
val eurs</w> 5892
ten ti 5890
f ,</w> 5887
fronti ères</w> 5887
ap por 5885
l ent</w> 5883
proté ger</w> 5876
a éri 5871
consomm at 5869
profes sionn 5856
é tr 5855
im médi 5845
Russi e</w> 5837
envis ag 5821
r ati 5815
g ence</w> 5814
én or 5807
r é</w> 5802
coû ts</w> 5798
sû r</w> 5791
tr oisi 5788
par ole</w> 5788
c al 5786
- ,</w> 5783
migr ation</w> 5782
ess ay 5779
l'empl oi</w> 5775
vi si 5773
plu s,</w> 5768
sci entifi 5761
is er</w> 5756
in t 5755
const at 5745
ques tion.</w> 5739
év én 5734
cir cul 5733
es se</w> 5729
démocrati que</w> 5728
o li 5725
trouv e</w> 5721
reconn aî 5719
ell es.</w> 5714
rapport eur,</w> 5713
in ten 5708
on s.</w> 5701
financi ère</w> 5695
constru ction</w> 5694
com pli 5691
possi bili 5690
er s.</w> 5685
paragraph e</w> 5682
U n 5677
travaill er</w> 5671
comm ent 5670
zon e</w> 5668
po tenti 5667
Per met 5663
s ol 5659
g en 5658
absolu ment</w> 5655
Deuxi èmement,</w> 5655
assi st 5653
eff et,</w> 5647
an nu 5639
heur eusement,</w> 5636
m at 5634
co hésion</w> 5632
g a 5627
mal adi 5627
Au jour 5618
l' objet</w> 5606
rapp eler</w> 5606
om b 5596
l les</w> 5595
te fois</w> 5587
cat astr 5585
0 ,</w> 5584
L' Union</w> 5582
qua tre</w> 5580
mondi ale</w> 5578
initi ative</w> 5572
è ve</w> 5571
a - 5567
ré union</w> 5564
nou s,</w> 5560
C E 5559
cul tur 5555
sou s- 5552
m and 5551
peu ple</w> 5551
consid ère</w> 5547
mon tre</w> 5545
an s,</w> 5543
veu t</w> 5541
cin q</w> 5540
pend ant,</w> 5534
cul tu 5533
2 ,</w> 5531
défin i 5529
pour raient</w> 5522
jus qu'à</w> 5522
grand s</w> 5507
min im 5505
tou tefois</w> 5504
id enti 5502
servi ce</w> 5491
tot alement</w> 5491
ju st 5490
pri orité</w> 5488
exig ences</w> 5487
è res,</w> 5481
po l 5480
d' action</w> 5479
Commun auté</w> 5469
har mon 5464
ar m 5463
jeu nes</w> 5454
c' est-à-dire</w> 5454
voi sin 5453
re ven 5452
import ants</w> 5445
remerci e</w> 5442
préoccu pa 5442
er ons</w> 5437
o ins</w> 5434
propo s</w> 5431
n er</w> 5429
ré uni 5427
vi t 5421
présent er</w> 5420
su g 5418
ré fér 5412
centr ale</w> 5411
égar d,</w> 5411
esp ér 5405
d' entre</w> 5401
exprim er</w> 5398
l ec 5397
uni quement</w> 5397
pa s,</w> 5396
re ti 5396
du cation</w> 5395
I s 5392
produi t</w> 5387
dé fi 5385
grou p 5373
Permet tez-moi</w> 5371
travail .</w> 5356
l' Europe.</w> 5355
T r 5351
États- Un 5350
té l 5341
eux - 5339
confi r 5339
t aires</w> 5337
présent é</w> 5337
vo s</w> 5336
zon es</w> 5328
l' occasion</w> 5321
inter ven 5321
e au</w> 5319
con texte</w> 5315
s anc 5314
aujour d’hu 5313
coll abor 5312
ell ement,</w> 5310
acc ro 5309
ci ,</w> 5307
l'h eure</w> 5298
cru ci 5298
agri cole</w> 5296
continu er</w> 5295
pa ti 5293
lut ter</w> 5292
commun auté</w> 5291
guer re</w> 5281
c en 5279
internation al</w> 5279
transpar ence</w> 5278
élé ments</w> 5277
propo sé</w> 5273
" ,</w> 5269
dépen ses</w> 5269
l' économie</w> 5260
No tre</w> 5255
milliar ds</w> 5254
dé lég 5252
conform ément</w> 5248
moi ,</w> 5242
s sion</w> 5241
d i</w> 5239
sé es</w> 5231
oir s</w> 5228
val eur</w> 5227
ex clu 5225
propo se</w> 5225
c elles</w> 5224
c e.</w> 5220
u m</w> 5220
er s,</w> 5220
en quê 5212
gu es</w> 5203
K o 5201
all er</w> 5198
pé n 5195
pu issent</w> 5194
commenc er</w> 5192
anné es,</w> 5188
d û</w> 5183
présent e</w> 5180
dé but</w> 5179
ag it</w> 5179
cul ture</w> 5178
établi r</w> 5178
d'euro s</w> 5178
ac teurs</w> 5174
dem ment</w> 5174
es t,</w> 5173
part ag 5170
î tre</w> 5164
er t 5164
di rig 5160
qu and</w> 5151
heur eux</w> 5150
collègu es,</w> 5143
m auv 5142
partenari at</w> 5141
A C 5139
R oy 5135
prog res 5128
fondament aux</w> 5128
étr oi 5128
vo ter</w> 5127
bu re 5127
développ er</w> 5126
terr an 5126
an n 5125
équi lib 5124
l' ordre</w> 5123
victi mes</w> 5119
de vi 5114
les quels</w> 5112
import antes</w> 5111
souti ens</w> 5111
prom o 5101
financi ères</w> 5100
vi du 5095
budgét aire</w> 5093
trai tement</w> 5090
tra di 5089
3 ,</w> 5076
précis ément</w> 5070
cau se</w> 5068
mod èle</w> 5067
d ons</w> 5066
ré si 5065
L )</w> 5063
eff ets</w> 5058
catastr oph 5056
end s</w> 5048
p les</w> 5038
av is,</w> 5033
ren ouv 5032
1 ,</w> 5028
o ,</w> 5020
str ic 5020
respec ter</w> 5018
énergé tique</w> 5018
pri orités</w> 5010
ré formes</w> 5006
inté g 5000
Roy au 4994
con cep 4987
mê me,</w> 4980
év ent 4973
parten aires</w> 4973
les quelles</w> 4972
statu t</w> 4968
esti ni 4967
organis ation</w> 4964
ch arg 4957
du is 4955
faci li 4952
Lis bonn 4938
prati ques</w> 4937
instru ments</w> 4933
l oc 4924
di men 4924
posé s</w> 4924
eff ectu 4921
ver s 4920
g is 4919
an ,</w> 4919
troisi ème</w> 4915
ex péri 4912
ex er 4908
résou dre</w> 4906
re té</w> 4900
5 ,</w> 4899
j' espère</w> 4896
contrô l 4896
ré dui 4894
évi d 4894
précé d 4890
bi ais</w> 4888
politi que.</w> 4887
plu part</w> 4885
ouver ture</w> 4884
fran ç 4884
è ne</w> 4883
convain c 4880
mes s 4879
aill eurs</w> 4876
européen s.</w> 4875
discu ssion</w> 4875
homm es</w> 4875
ress er</w> 4874
chang ements</w> 4873
I r 4872
ret ar 4870
t ax 4866
con férence</w> 4865
pro b 4862
fourni r</w> 4862
vi s</w> 4861
ét ap 4859
con sult 4856
indi vidu 4856
re li 4852
équi libre</w> 4852
m é</w> 4850
oi res</w> 4848
initi atives</w> 4845
par mi</w> 4843
Is ra 4841
rap i 4838
coordin ation</w> 4836
représent ants</w> 4835
v rai</w> 4832
l' une</w> 4830
suc cès</w> 4827
promo tion</w> 4823
structu res</w> 4822
pag ne</w> 4822
autr es,</w> 4821
moin s,</w> 4821
con struc 4820
ll em 4820
ass ez</w> 4813
P E 4808
er ai</w> 4808
r ant</w> 4806
ai si 4805
in accep 4805
Aujour d'hu 4805
quali fi 4799
structu rel 4797
opini on</w> 4795
è res.</w> 4793
ch e.</w> 4793
l' application</w> 4791
Royau me- 4788
Lis bonne</w> 4786
A l 4784
v ise</w> 4782
appli quer</w> 4781
r ais</w> 4778
dura ble</w> 4777
pass er</w> 4766
ré p 4765
for ce</w> 4764
inf ra 4764
org an 4762
re jet 4760
justi fi 4760
contribu er</w> 4759
orig ine</w> 4759
sou ff 4756
t- elle</w> 4755
n é</w> 4754
renforc ement</w> 4753
possibili tés</w> 4753
Ré publique</w> 4749
accu e 4746
économi que,</w> 4740
ré vision</w> 4734
perspecti ves</w> 4730
pon i 4728
eur o</w> 4726
con serv 4725
dis poni 4724
n' avons</w> 4719
bes oins</w> 4714
iti ative</w> 4712
fron tali 4712
ch oi 4711
él ect 4711
e té</w> 4709
instru ment</w> 4709
dis pos 4705
aut om 4705
pa sse</w> 4702
félici te</w> 4701
n avi 4695
sect eurs</w> 4695
enten du</w> 4693
déclar é</w> 4689
5 0</w> 4686
discu ssions</w> 4685
réglement ation</w> 4677
pa qu 4676
l arg 4666
qu elle</w> 4665
part age</w> 4658
pour suivre</w> 4657
aujourd'hu i.</w> 4651
jou er</w> 4647
d’ autres</w> 4644
politi que,</w> 4643
séri e</w> 4639
é cou 4633
ai gn 4633
ci li 4633
cons ac 4632
cr is 4627
soci alis 4625
B an 4623
comm un</w> 4621
l’ Europe</w> 4620
ex ploi 4615
sub si 4614
vigu eur</w> 4612
o ffi 4611
il lég 4610
ti qu 4602
ré ussi 4602
s ais</w> 4601
qu '</w> 4601
encourag er</w> 4601
évolu tion</w> 4600
pa l 4598
l' adoption</w> 4595
citoyen s.</w> 4594
espa ce</w> 4587
é vo 4586
ant e.</w> 4571
et .</w> 4569
ai mer 4568
s ec 4567
P our 4565
spécifi ques</w> 4560
pe ine</w> 4557
lis te</w> 4553
défen se</w> 4553
cert aine</w> 4551
trai te</w> 4549
B al 4548
e :</w> 4545
chi ff 4538
pass é</w> 4536
ré fu 4534
abs ence</w> 4522
éli min 4521
con cili 4519
ré v 4519
l' énergie</w> 4517
et tre</w> 4517
mon de.</w> 4517
T )</w> 4514
d el 4504
rap hi 4504
ell e- 4504
Eur opé 4502
l oi</w> 4497
or s 4489
oi .</w> 4487
mis es</w> 4487
ro g 4481
impli qu 4481
au - 4473
l'Uni on.</w> 4469
européen s,</w> 4465
ju g 4462
docu ment</w> 4461
parti r</w> 4448
suiv i</w> 4445
ay ant</w> 4445
él ément</w> 4438
lég iti 4433
pol lu 4433
du e</w> 4431
t ations</w> 4430
c y 4429
ouv rir</w> 4429
Aujourd'hu i,</w> 4425
l oin</w> 4418
dé pl 4418
l at 4417
viol ence</w> 4414
permettr a</w> 4413
développ ement.</w> 4412
sim pli 4412
fis ca 4411
T rai 4408
b ri 4407
ré ser 4403
app el 4401
dr a</w> 4396
fav oris 4395
men ac 4391
ch ac 4389
pri ori 4389
s ex 4387
parlement aire</w> 4386
as se</w> 4385
permet tez-moi</w> 4385
l ande</w> 4381
z- vous</w> 4380
é ten 4379
l' accès</w> 4378
Isra ë 4373
si ve</w> 4372
di x</w> 4367
né s</w> 4363
se con 4362
mo der 4361
7 ,</w> 4356
ap pu 4354
ai des</w> 4353
per mis</w> 4352
( P 4350
constitu ent</w> 4350
don ne</w> 4349
fonctionn ement</w> 4349
ali té,</w> 4347
arri v 4347
difficul tés</w> 4346
circul ation</w> 4344
prati que</w> 4342
av enir</w> 4339
préoccupa tions</w> 4338
1 0</w> 4337
n ature</w> 4333
ai s 4332
dang er 4331
for ces</w> 4328
financi er</w> 4327
constitu tionn 4323
b lement</w> 4322
- à- 4320
accor der</w> 4317
lign es</w> 4316
re gis 4315
t or 4313
tou ch 4312
trav aux</w> 4312
en voy 4309
ob st 4306
l'in tention</w> 4305
Con vention</w> 4303
s enti 4302
collè gue</w> 4299
u x</w> 4298
évi demment</w> 4296
dé sor 4295
adé qu 4289
sem aine</w> 4286
R ou 4281
inté ress 4277
suffis amment</w> 4277
ex ac 4275
excell ent</w> 4274
f é 4273
j an 4272
s au 4269
se ign 4269
Ban que</w> 4269
ter .</w> 4267
r ent</w> 4266
g ne</w> 4265
déci dé</w> 4265
av aient</w> 4261
co les</w> 4259
défi s</w> 4257
favor able</w> 4253
vi sionn 4251
ag e,</w> 4251
réfu gi 4250
main tenir</w> 4248
Ce pendant,</w> 4246
compétiti vité</w> 4246
N é 4243
respons ables</w> 4241
ministr es</w> 4240
t ablement</w> 4234
ter ,</w> 4232
sur veill 4230
1 5</w> 4228
en s,</w> 4228
cel a,</w> 4227
air ement</w> 4225
l' État</w> 4224
am i 4221
oc k 4218
obst ac 4217
sup prim 4216
ar mes</w> 4214
trans port 4211
compr endre</w> 4209
-à- vis</w> 4209
f lu 4207
si x</w> 4205
offi ci 4203
o des</w> 4202
uni es</w> 4202
vis -à-vis</w> 4201
b o 4200
direc tement</w> 4199
app el</w> 4197
con ten 4194
per met</w> 4193
signifi c 4193
p ir 4191
dét ai 4191
solu tions</w> 4189
en fin</w> 4183
C O 4181
pa s.</w> 4180
jet .</w> 4180
abl e,</w> 4179
at oire</w> 4178
ement s,</w> 4175
l'agricul ture</w> 4171
h ors</w> 4169
A n 4164
ap par 4164
Constitu tion</w> 4161
an non 4157
terroris me</w> 4156
dev en 4155
l’ homm 4154
derni ers</w> 4154
f aire.</w> 4148
montr é</w> 4147
m al</w> 4145
dimen sion</w> 4143
ag e.</w> 4141
trans ports</w> 4139
compéten ces</w> 4139
en suite</w> 4137
d' autre</w> 4136
l'A ssembl 4135
al ement,</w> 4134
pro cè 4133
mand at</w> 4133
l' Europe,</w> 4131
b our 4125
permet tant</w> 4124
main ti 4123
étu de</w> 4120
considér ation</w> 4115
conclu sions</w> 4114
ré g 4109
élarg iss 4107
vi v 4102
a ï 4101
ru x 4100
x ,</w> 4094
au ssi 4094
possi ble.</w> 4094
ent s.</w> 4092
l' idée</w> 4087
émis sions</w> 4084
con cl 4078
0 .</w> 4077
soulign é</w> 4075
l' ai</w> 4074
1 4 4073
dev enir</w> 4073
an .</w> 4071
ques tion,</w> 4071
e aux</w> 4069
Ko so 4067
reli gi 4067
li és</w> 4065
èr ent</w> 4064
in e,</w> 4062
ap préci 4062
f s.</w> 4056
bl es.</w> 4055
d'in form 4055
ra di 4053
rais onn 4050
dé si 4049
6 ,</w> 4045
ris ques</w> 4043
l' intégration</w> 4041
ch ers</w> 4040
entre prise</w> 4040
activi té</w> 4040
travail ,</w> 4039
bonn es</w> 4036
ins cri 4034
rel ev 4033
ch am 4032
Ch ine</w> 4031
s on 4028
tur e,</w> 4028
B el 4023
b as 4023
pens er</w> 4018
évent u 4018
financi ers</w> 4014
1 2</w> 4013
proch aine</w> 4011
veu lent</w> 4011
ambi ti 4008
paqu et</w> 4004
t ables</w> 4003
per man 4002
condi tion</w> 3998
ré alité</w> 3996
M ar 3995
im porte</w> 3993
uti le</w> 3993
effecti vement</w> 3993
qu' au</w> 3990
B rux 3987
l' efficacité</w> 3986
ain ,</w> 3983
renouv el 3983
l' intérêt</w> 3982
vi ens</w> 3982
respons able</w> 3982
aill eurs,</w> 3982
puis que</w> 3979
f s,</w> 3978
b ou 3975
évén ements</w> 3974
nive aux</w> 3971
investiss ements</w> 3971
abl es.</w> 3966
l'O M 3965
choi x</w> 3965
l’ UE</w> 3960
s’ agit</w> 3960
con se 3957
on c 3956
él ar 3956
discrimin ation</w> 3956
x .</w> 3955
l' attention</w> 3955
nation al</w> 3954
immédi at 3953
adop tée</w> 3952
rec ev 3950
généra le</w> 3950
néces si 3942
ement s.</w> 3941
l' adhésion</w> 3940
ai e</w> 3939
mar iti 3939
fu tu 3937
L ors 3935
del à</w> 3935
avant ages</w> 3933
reç u</w> 3933
en sembl 3932
struc ture</w> 3932
anim aux</w> 3932
s av 3931
l in 3931
di re,</w> 3929
s ter 3927
an s.</w> 3925
soci aux</w> 3925
pro fon 3922
. . 3919
dem ain</w> 3917
ré form 3916
désor mais</w> 3910
développ ement,</w> 3909
appro visionn 3907
posé e</w> 3907
agricul teurs</w> 3906
o s</w> 3901
déclar ations</w> 3898
prév oit</w> 3897
x im 3896
v eux</w> 3894
off re</w> 3893
d' ici</w> 3884
ex cep 3879
analy se</w> 3876
k ,</w> 3875
envir on</w> 3875
intro dui 3871
urg ence</w> 3870
r ation</w> 3868
ten d 3868
hist ori 3864
reconnaiss ance</w> 3863
t ants</w> 3860
pu iss 3860
re fl 3857
mess age</w> 3857
mal gré</w> 3855
3 0</w> 3851
il leur</w> 3849
actu el</w> 3848
Mal heureusement,</w> 3847
9 ,</w> 3846
public s</w> 3845
aspec t</w> 3841
c tions</w> 3839
me illeur</w> 3838
soci ales</w> 3836
ac qu 3834
ver b 3833
réjou is</w> 3831
réc emment</w> 3829
montr er</w> 3828
v ont</w> 3826
pré h 3824
principa lement</w> 3824
qu’ elle</w> 3820
ent s,</w> 3817
trai n</w> 3817
moy ennes</w> 3817
tabl e.</w> 3816
sal ue</w> 3814
an moins,</w> 3811
in er</w> 3809
tex te,</w> 3805
libér alisation</w> 3804
v es.</w> 3803
aff aire</w> 3793
l' égard</w> 3792
di ction</w> 3792
examin er</w> 3790
inter vention</w> 3783
t eur</w> 3780
men er</w> 3780
dirig e 3778
oc tr 3777
op portu 3771
res tri 3771
ren contr 3767
pl e 3764
res ter</w> 3762
( A 3760
tra fi 3760
contin ue</w> 3760
ec i</w> 3759
ré di 3757
ress or 3754
8 ,</w> 3750
juridi ques</w> 3748
pauv reté</w> 3747
communaut aires</w> 3745
ac té 3744
DE )</w> 3743
al tern 3742
s c 3741
principa ux</w> 3739
jan vi 3739
fr u 3736
pu l 3733
cr ati 3730
is se</w> 3729
grav e</w> 3727
non - 3727
liber tés</w> 3724
i re</w> 3720
ain e,</w> 3719
personn el</w> 3717
sim ple</w> 3717
car acté 3716
ex is 3715
lors qu'il</w> 3714
S elon</w> 3713
all em 3713
A près</w> 3712
atti rer</w> 3710
conn aî 3705
im pact</w> 3703
préh en 3703
engag ements</w> 3702
4 -0 3701
5 -0 3701
ain .</w> 3701
dev oir</w> 3699
pour ra</w> 3698
men ace</w> 3698
ir land 3697
sub ven 3697
l' esprit</w> 3695
esti m 3694
ai sse</w> 3693
l'environn ement,</w> 3691
mu tu 3690
concr è 3689
aff ec 3688
produc teurs</w> 3687
mal heur 3682
ri er</w> 3681
accro ître</w> 3681
c atég 3677
ag ne</w> 3673
l'homm e.</w> 3672
pal estini 3670
y n 3669
s es 3668
fr au 3668
étu di 3668
domain e.</w> 3664
ign or 3657
l' ont</w> 3656
empê cher</w> 3655
Su r</w> 3653
empl ois</w> 3651
pouv oirs</w> 3650
b r 3643
au quel</w> 3643
l'aven ir.</w> 3643
catég ori 3642
4 ,</w> 3640
/ 200 3638
l' égalité</w> 3636
el s.</w> 3632
technologi es</w> 3629
Né anmoins,</w> 3626
p tion</w> 3624
for te</w> 3622
cl aire</w> 3622
d' améliorer</w> 3621
confli t</w> 3621
do ssi 3618
h aut</w> 3617
j’ ai</w> 3616
l'in itiative</w> 3614
entr ée</w> 3613
is tes</w> 3610
parl ons</w> 3610
actu elle,</w> 3606
cid ent 3606
N or 3602
ce pendant</w> 3602
ur e,</w> 3600
emb our 3599
économi es</w> 3598
insi st 3598
fri que</w> 3596
2 5</w> 3593
C ert 3591
Rou mani 3587
P M 3586
par fois</w> 3586
candid ats</w> 3582
dev ra</w> 3581
acc ent</w> 3581
grav es</w> 3579
nouv el</w> 3578
sû r,</w> 3578
pr on 3577
pr è 3576
défini tion</w> 3573
M on</w> 3572
pré serv 3571
su jet.</w> 3570
st ati 3566
t i</w> 3561
b at 3558
m onn 3558
inf lu 3558
tâ che</w> 3556
ré ti 3555
par fai 3555
rése aux</w> 3554
h or 3553
in dis 3552
trans frontali 3551
gar der</w> 3551
méri que</w> 3550
délég ation</w> 3549
tél é 3548
ent e.</w> 3547
invi te</w> 3545
dé li 3544
cer ti 3543
l'Assembl ée</w> 3543
étrang ère</w> 3541
v a 3534
ar gu 3533
il li 3533
citoyen s,</w> 3532
D e 3531
lu mi 3529
l' aut 3528
per tin 3527
souhai ter 3526
aimer ais</w> 3526
h y 3524
dé p 3524
z e</w> 3523
for t</w> 3516
qu ent</w> 3515
d ant</w> 3513
g h 3511
O ri 3508
cons en 3508
rapi de</w> 3508
regr et 3506
el s,</w> 3504
préoccu p 3502
dis tribu 3499
dis tin 3499
dr o 3498
comp tes</w> 3497
y ,</w> 3494
atti tude</w> 3494
vé hi 3489
E s 3487
Premi èrement,</w> 3483
a z 3480
sou ligne</w> 3479
supplément aires</w> 3478
f aire,</w> 3477
è n 3475
oblig ation</w> 3475
Con férence</w> 3472
pro ven 3471
l'homm e,</w> 3469
cl ari 3466
réalis ation</w> 3466
étu des</w> 3465
reconnaî tre</w> 3464
particuli ère</w> 3460
po st 3458
s alu 3457
sé ance</w> 3456
f ra 3453
n' ai</w> 3451
sou tenu</w> 3443
li eu 3440
cou rag 3440
administr ation</w> 3440
construc ti 3440
dé g 3437
parti s</w> 3437
v es,</w> 3435
enten du 3435
a r</w> 3434
pré vention</w> 3433
monét aire</w> 3433
économi que.</w> 3430
spécifi que</w> 3427
s- verb 3424
nation ale</w> 3423
sanc tions</w> 3421
in e.</w> 3417
trai ter</w> 3417
anné es.</w> 3416
anné e,</w> 3415
ab il 3411
I ra 3410
qu ot 3406
tran si 3401
procè s-verb 3401
l ogi 3399
B er 3398
tr im 3396
avi ons</w> 3395
V oi 3390
dis position</w> 3388
re j 3387
ad res 3386
pac te</w> 3386
l' élargissement</w> 3385
com préhen 3383
lo ca 3382
ét er</w> 3381
lu i- 3380
bure au 3379
sy n 3377
médi cam 3376
all ons</w> 3375
a s,</w> 3374
espér ons</w> 3374
au- delà</w> 3374
appli c 3373
fl éch 3370
discu ter</w> 3370
collabor ation</w> 3370
t hé 3369
o ti 3368
ati onn 3368
ain e.</w> 3365
C or 3364
r end 3364
ali té.</w> 3359
direc tion</w> 3358
rem plac 3357
au di 3354
concentr er</w> 3351
chac un</w> 3351
P ro 3350
environn ement</w> 3349
élec tri 3349
su per 3346
hu m 3346
ê me</w> 3342
ajou ter</w> 3341
lumi ère</w> 3341
déch ets</w> 3340
caracté ris 3340
popul aire</w> 3338
qu' on</w> 3337
chôm age</w> 3334
déf i</w> 3333
Gr è 3333
c es.</w> 3332
mo ti 3332
élabor ation</w> 3332
c ent 3330
un anim 3329
qu’ ils</w> 3328
dépend ance</w> 3326
l à 3325
échang e</w> 3325
our s</w> 3324
m ais,</w> 3323
P ol 3323
positi f</w> 3321
B u 3320
in ,</w> 3320
prés ence</w> 3317
com ité</w> 3316
end a</w> 3316
O u 3314
N i 3313
conclu sion</w> 3312
r g 3311
c es,</w> 3311
ga z</w> 3310
en du 3309
dé cl 3309
para î 3308
èg e</w> 3307
nov ation</w> 3305
par le</w> 3304
compl è 3300
déc embre</w> 3300
compl ex 3297
qu anti 3295
l ,</w> 3294
responsabili tés</w> 3293
aussi ,</w> 3292
att aqu 3290
indis pens 3288
or tu 3285
étap e</w> 3285
R om 3284
con vi 3283
l'in formation</w> 3281
pres que</w> 3281
r .</w> 3279
s ources</w> 3276
aliment aire</w> 3276
cont ac 3276
inter gouvernement 3275
jour n 3274
œ u 3272
op position</w> 3272
import ant,</w> 3270
ti ss 3268
civi le</w> 3266
con tenu</w> 3263
oc cident 3263
particip er</w> 3262
conti ent</w> 3261
ré fléch 3260
car act 3258
compa gni 3258
voi x</w> 3256
tr ag 3255
prop or 3255
diver sité</w> 3254
) .</w> 3250
pour sui 3250
parl é</w> 3248
souti ent</w> 3247
garanti e</w> 3247
tro duction</w> 3246
ali tés</w> 3245
temp s.</w> 3243
politi ques,</w> 3242
fai ts</w> 3240
ti ent</w> 3239
régu li 3238
mon de,</w> 3235
con nu 3233
M édi 3232
ab ri 3232
c .</w> 3231
tur e.</w> 3231
l'in st 3229
possi ble,</w> 3229
Premi er</w> 3229
ant e,</w> 3228
rel atif</w> 3228
assist ance</w> 3228
européenn es.</w> 3227
stati sti 3227
co or 3225
st ock 3223
k rai 3221
appro fon 3221
tou r</w> 3219
déf endre</w> 3219
empl oy 3216
aujourd’hu i</w> 3213
ti rer</w> 3212
mondi al</w> 3210
béné fi 3210
pa gn 3208
sep t 3207
gar de</w> 3206
cir const 3205
V er 3203
Tr oisi 3203
prob ablement</w> 3202
alis er</w> 3197
dépu té</w> 3197
évi dent</w> 3195
s :</w> 3194
si vement</w> 3194
compéten ce</w> 3194
directi ves</w> 3193
O N 3191
peu ples</w> 3188
b ru 3187
aux quels</w> 3186
e ?</w> 3181
ser aient</w> 3180
d' Europe</w> 3179
pour rons</w> 3176
s our 3173
V i 3172
territ oire</w> 3170
da te</w> 3167
ac compli 3163
trai tés</w> 3163
constat er</w> 3163
représent ent</w> 3162
consomm ation</w> 3161
ê tes</w> 3159
perspecti ve</w> 3159
a de</w> 3157
surveill ance</w> 3157
caract ère</w> 3152
it ali 3151
sy m 3148
demand ons</w> 3148
trav ers</w> 3145
démocr ates</w> 3145
rése au</w> 3145
regis tr 3145
pro s 3143
Bar ro 3143
tri ces</w> 3142
consi ste</w> 3141
C E</w> 3139
pl ans</w> 3139
plé ni 3138
è vement</w> 3136
convainc u</w> 3136
oc t 3135
subsi di 3135
docu ments</w> 3132
ex écu 3130
d omm 3128
prê ts</w> 3127
a k 3126
m ouv 3125
ma xim 3124
impli que</w> 3124
problèm e.</w> 3124
T A 3122
ch arge</w> 3121
l'in troduction</w> 3120
agri col 3120
o - 3119
moi - 3119
larg ement</w> 3119
n ,</w> 3116
prés ent,</w> 3114
confron tés</w> 3113
é do 3112
oblig ations</w> 3112
mécanis me</w> 3112
ent endre</w> 3110
réalis er</w> 3109
iss ons</w> 3108
cell e- 3108
l' amélioration</w> 3107
potenti el</w> 3107
cl au 3105
1 0 3104
) ,</w> 3102
cô té</w> 3101
ol l 3099
h andi 3096
ti que.</w> 3096
fon ction</w> 3094
ç ons</w> 3093
posé es</w> 3092
t u</w> 3090
l' absence</w> 3090
e ons</w> 3089
socié tés</w> 3087
vi ennent</w> 3086
Lors que</w> 3086
di pl 3085
l' argent</w> 3084
pro pri 3082
four n 3082
c entre</w> 3081
si e</w> 3081
milli ers</w> 3081
ac tes</w> 3080
pro vo 3078
enn e,</w> 3078
augment er</w> 3078
important .</w> 3078
contrô les</w> 3076
l our 3075
comp ét 3072
oy ons</w> 3067
Commun au 3066
techni ques</w> 3063
asi le</w> 3063
au ,</w> 3059
principa l</w> 3059
modifi cation</w> 3059
moder n 3058
G u 3057
con ver 3057
sou mis</w> 3055
ar te</w> 3052
an moins</w> 3051
né es</w> 3051
b er 3050
anis ation</w> 3050
/ 9 3049
P lu 3047
x i 3045
industr ie</w> 3045
tr ait</w> 3044
déb ats</w> 3044
fais ant</w> 3044
so ins</w> 3043
entrepris es,</w> 3040
di minu 3039
mainti en</w> 3039
d'in formation</w> 3036
li ées</w> 3034
chang e</w> 3034
bes oin 3034
M er 3033
élar gi 3033
malheur eusement</w> 3032
h aut 3030
législ ati 3028
en s.</w> 3027
fi c 3027
pos ent</w> 3027
bureau crati 3027
né anmoins</w> 3020
ch im 3016
publi ques</w> 3016
pren d</w> 3016
l'en contre</w> 3015
États-Un is,</w> 3015
nuclé aire</w> 3014
a- t-il</w> 3012
ti que,</w> 3011
con texte,</w> 3011
recommand ations</w> 3011
cor respon 3010
ten ce</w> 3009
trafi c</w> 3009
g agn 3008
aisi r</w> 3008
t ab 3007
représent ant</w> 3007
dem andes</w> 3006
bl es,</w> 3005
ac compl 3004
dis pose</w> 3004
P al 3002
bi o 3002
cour s,</w> 3002
struc tur 3002
jeu n 3002
g ur 3001
encor e,</w> 3001
ab and 2999
e ant</w> 2998
élev é</w> 2998
ex port 2996
soci ale.</w> 2996
atten dre</w> 2996
ro vi 2995
ch oisi 2993
ap parti 2991
re z</w> 2988
fer rovi 2987
l'Uni on,</w> 2984
ent am 2982
en vers</w> 2981
ci fi 2980
act eur</w> 2979
sug g 2978
pr u 2976
E lles</w> 2974
terran é 2974
tiqu et 2974
oct ob 2974
cep ti 2973
référ endu 2973
tion ne</w> 2971
coll ecti 2971
mor t</w> 2971
a te</w> 2970
l'aven ir,</w> 2966
A ve 2964
s ouver 2964
in .</w> 2962
élect or 2961
( DE)</w> 2960
or able</w> 2960
occu p 2959
b al 2957
é col 2957
enti èrement</w> 2956
Ch y 2956
M oy 2951
ad hé 2951
con vention</w> 2950
d' énergie</w> 2950
re - 2950
ser ons</w> 2946
o cole</w> 2945
at .</w> 2943
compr en 2943
subst ances</w> 2942
abor der</w> 2941
ch ez</w> 2940
empl oi</w> 2940
l anti 2936
méri te</w> 2936
l'I n 2936
politi ques.</w> 2934
h onn 2933
ju in</w> 2932
pi li 2930
clu sion</w> 2927
monn aie</w> 2927
mentionn é</w> 2925
con join 2920
il les</w> 2920
n' en</w> 2920
méth ode</w> 2917
proch aines</w> 2915
rg anisation</w> 2911
P ortu 2910
méth odes</w> 2910
compl é 2909
sin c 2909
fondament al</w> 2908
au rons</w> 2904
élec tr 2903
R e 2902
sécuri té.</w> 2902
Portu g 2898
ant es.</w> 2897
su ffi 2895
a ér 2890
approvisionn ement</w> 2889
ph a 2888
modifi er</w> 2888
dis ant</w> 2887
ouver t</w> 2886
u e,</w> 2884
pass ag 2882
mo t</w> 2879
l' action</w> 2876
conclu re</w> 2876
car b 2875
ver tu</w> 2871
fer mement</w> 2871
d - 2868
n eu 2867
fai te</w> 2867
l'av is</w> 2866
opportu ni 2865
crimin alité</w> 2864
d'in vestiss 2863
fais ons</w> 2863
mécanis mes</w> 2862
o .</w> 2861
laiss er</w> 2860
C et</w> 2859
alis me</w> 2858
effor t</w> 2858
mon tant</w> 2856
véhi cu 2855
Israë l</w> 2852
at ,</w> 2845
exprim é</w> 2844
entrepris es.</w> 2842
au ront</w> 2840
ce - 2839
communaut aire.</w> 2839
Troisi èmement,</w> 2838
o h 2837
trans fer 2836
o bi 2834
dé rou 2834
ri ch 2832
pé tro 2832
sign al 2832
crédi ts</w> 2831
r om 2830
comment aires</w> 2830
o v 2829
v ais</w> 2828
De puis</w> 2828
Fr ance</w> 2827
t ch 2824
r ur 2818
M ême</w> 2818
si mil 2817
régu l 2817
contr aign 2816
long temps</w> 2816
Moy en- 2813
si è 2812
débat .</w> 2811
bil at 2811
t ant,</w> 2810
f era</w> 2809
dr ait</w> 2809
f abri 2806
d' aide</w> 2806
Bal k 2805
L' ordre</w> 2804
pré al 2803
S tr 2802
dirige ants</w> 2802
b rev 2800
mati que</w> 2798
janvi er</w> 2796
i ci,</w> 2794
ra l</w> 2794
du s</w> 2794
défin iti 2794
budgét aires</w> 2794
Ave c</w> 2794
1 1</w> 2792
puis sions</w> 2792
di s</w> 2791
r av 2788
fri c 2788
s ait</w> 2787
cher ch 2787
s té 2786
p an 2785
pi e 2785
ten us</w> 2783
structurel s</w> 2782
procès-verb al</w> 2782
an dis 2780
internation ales</w> 2780
concep t</w> 2780
Moyen- Ori 2778
B ul 2774
consen sus</w> 2774
dev ront</w> 2773
com port 2772
inter pré 2771
m ster 2770
no te</w> 2770
débat ,</w> 2770
l'environn ement.</w> 2769
viol ations</w> 2768
agri coles</w> 2766
lec ture</w> 2763
parfai tement</w> 2763
appro b 2759
Ét ant</w> 2757
handi cap 2757
expéri ence</w> 2756
d' État</w> 2755
ex ces 2752
cl é</w> 2752
ap pr 2751
propo ser</w> 2751
parl ements</w> 2751
séri eux</w> 2750
ou tre</w> 2747
cham p</w> 2747
in es</w> 2745
ai s.</w> 2743
commun e.</w> 2743
britanni que</w> 2743
sécuri té,</w> 2742
Messi eurs</w> 2740
on d 2738
jour ,</w> 2737
sui te,</w> 2737
positi ve</w> 2736
g é</w> 2735
ré flexi 2735
défin ir</w> 2734
Voi là</w> 2733
mo ts</w> 2731
endr ons</w> 2731
L u 2730
p ér 2730
f gh 2730
lor s,</w> 2729
bl o 2728
dr e.</w> 2727
énergi e,</w> 2727
fai tes</w> 2726
t ol 2725
réfugi és</w> 2725
pa ri 2724
lon gue</w> 2724
ter me,</w> 2720
s ent</w> 2717
S E 2713
abl es,</w> 2713
mo is,</w> 2712
uni té</w> 2712
évalu er</w> 2711
uni ver 2708
H on 2707
ra c 2707
médi terrané 2707
souten ons</w> 2706
em por 2704
gen re</w> 2704
in g</w> 2701
R ap 2700
l' autre</w> 2699
dét aill 2699
mili taire</w> 2698
électr oni 2696
d en 2695
è de</w> 2695
ter mes,</w> 2693
pé s</w> 2688
égar d.</w> 2688
supplément aire</w> 2687
re l</w> 2686
considé rer</w> 2686
in ation</w> 2682
p hé 2680
en registr 2680
soci ale,</w> 2678
esp oir</w> 2678
limi tes</w> 2676
on e</w> 2674
p oi 2672
prot ocole</w> 2671
stratégi que</w> 2671
P ay 2670
démocrati ques</w> 2670
peti ts</w> 2670
dé fici 2669
exig e</w> 2669
t ari 2668
rec ours</w> 2668
u e.</w> 2667
pré ten 2667
déci der</w> 2667
celu i- 2664
l' or 2663
ss ent</w> 2663
d yn 2662
ain tes</w> 2661
procé der</w> 2661
proch ain</w> 2661
hau te</w> 2661
ph éri 2660
confli ts</w> 2659
Bul gar 2658
S er 2657
capa ble</w> 2657
ai son</w> 2656
L' Europe</w> 2656
commun es</w> 2655
coû t</w> 2652
énor me</w> 2651
commun au 2650
l .</w> 2646
tru c 2646
appli que</w> 2645
A llem 2644
fi gur 2644
acc él 2644
essay er</w> 2644
n ation</w> 2643
exac tement</w> 2642
fé dé 2642
al li 2641
og raphi 2641
ci .</w> 2640
n’ a</w> 2639
t es 2638
pl an 2637
idé es</w> 2637
l' approche</w> 2635
dé cou 2635
tr e.</w> 2633
bi en 2632
contr aire,</w> 2632
attein t</w> 2632
l'E s 2632
enquê te</w> 2631
ati vement</w> 2630
médi as</w> 2630
l ac 2628
poin t,</w> 2628
cam pagne</w> 2628
tr ou 2625
situ ations</w> 2625
P PE 2624
che fs</w> 2622
produi re</w> 2621
enn e.</w> 2620
alis tes</w> 2619
utilis é</w> 2618
approfon di 2618
entr er</w> 2617
off rir</w> 2616
considéra blement</w> 2616
dis cours</w> 2615
efficac ement</w> 2614
natur ellement</w> 2614
maladi es</w> 2614
œu r</w> 2614
technologi e</w> 2612
l' accent</w> 2611
senti ment</w> 2611
i ch 2607
orient ations</w> 2607
d' application</w> 2606
règl ements</w> 2606
s ave 2605
pour ront</w> 2605
qu oti 2602
ent - 2602
atten ti 2602
l' augmentation</w> 2600
n '</w> 2599
dé es</w> 2599
moi- même</w> 2598
po ss 2596
établ issement</w> 2595
engag er</w> 2593
E st 2590
avanc er</w> 2590
annu el</w> 2590
u m 2588
Sch eng 2588
Cert ains</w> 2588
C om 2587
cal end 2586
sex u 2586
i e,</w> 2585
bénéfici er</w> 2585
Eur o 2584
tent er</w> 2584
eur e,</w> 2583
ter ont</w> 2580
limi ter</w> 2579
l'im migration</w> 2579
facili ter</w> 2577
a tri 2576
j et,</w> 2576
entraî n 2576
immédiat ement</w> 2576
opér ationn 2575
essenti ellement</w> 2575
i li 2573
ac te</w> 2573
ju ill 2571
tot al</w> 2571
pru d 2571
s '</w> 2570
1 er</w> 2568
réalis és</w> 2567
oubli er</w> 2566
o w 2564
group e,</w> 2564
o is 2562
fon dée</w> 2562
princi p 2562
climati que</w> 2562
dé posé</w> 2560
tradi tionn 2559
ter ons</w> 2557
de hors</w> 2557
F in 2556
rel ation</w> 2556
l'I r 2556
l' euro</w> 2555
st abil 2555
rev ê 2554
quoti di 2552
mo bil 2551
pê ch 2550
et h 2548
ay ons</w> 2547
ri ère</w> 2546
quot as</w> 2546
ai lle</w> 2545
dr e,</w> 2545
s ’est</w> 2544
subven tions</w> 2544
aliment aires</w> 2541
élabor er</w> 2541
fin s</w> 2540
vou s,</w> 2540
S ' 2539
l'h ist 2538
c œur</w> 2537
M a 2536
U ni</w> 2536
utilis és</w> 2535
at tribu 2533
essenti elle</w> 2533
l'é ducation</w> 2532
l "</w> 2531
comm en 2531
au .</w> 2530
recommand ation</w> 2530
ch al 2529
té e.</w> 2528
pa cifi 2527
Royaume- Uni</w> 2527
iss ait</w> 2526
hi er</w> 2526
ci tés</w> 2525
c é</w> 2523
inform ation</w> 2523
3 .</w> 2521
connaiss ance</w> 2521
consommat eurs.</w> 2519
e z-vous</w> 2516
re venir</w> 2514
l'im pact</w> 2514
subst anti 2514
c tu 2513
Chy pr 2512
approuv é</w> 2511
tribu n 2509
2 .</w> 2508
remar ques</w> 2508
dé cri 2506
sur tout,</w> 2506
pauv res</w> 2504
sour ce</w> 2503
Comm ent</w> 2501
bi en- 2500
l'I ra 2500
â ti 2498
dé s</w> 2497
pé ti 2497
a fric 2495
euro s</w> 2494
véhicu les</w> 2494
rapport eurs</w> 2493
tou s,</w> 2491
cl am 2491
inst all 2491
contr e 2490
glob ale</w> 2490
save z,</w> 2486
meill eures</w> 2485
techni que</w> 2485
l' avons</w> 2484
peu pl 2482
gouvern ance</w> 2482
sor ti 2480
just ement</w> 2480
anné e.</w> 2479
budg ets</w> 2479
pha se</w> 2479
pré fér 2478
derni ère,</w> 2478
préoccu pation</w> 2478
mentionn er</w> 2478
prév u</w> 2478
oi r,</w> 2477
di .</w> 2477
J’ ai</w> 2477
européenn es,</w> 2475
ê tres</w> 2473
march andis 2473
sy sté 2473
Assembl ée,</w> 2472
réalis é</w> 2471
l’homm e</w> 2471
ren du</w> 2469
garanti es</w> 2469
féli cit 2469
cri tique</w> 2468
acc r 2466
ai t,</w> 2465
atten dons</w> 2465
dipl om 2465
am en 2464
dev ait</w> 2463
5 .</w> 2462
limi te</w> 2461
souhaiter ais</w> 2461
rou ti 2459
ab outi 2458
obstac les</w> 2458
phé nom 2458
u ,</w> 2457
efficac es</w> 2457
voi re</w> 2456
tour isme</w> 2452
Commiss aire</w> 2449
flexi bilité</w> 2449
associ ation</w> 2448
g ,</w> 2447
uv re</w> 2446
ré serv 2445
principa les</w> 2443
r on 2442
c ouv 2441
au près</w> 2440
p s</w> 2439
situ ation.</w> 2438
l'é ch 2437
chang er</w> 2436
région .</w> 2436
envisag er</w> 2434
compagni es</w> 2434
v aut</w> 2433
re prises</w> 2432
prépar ation</w> 2432
lieu ,</w> 2430
médicam ents</w> 2430
nécess aire.</w> 2429
l’ in 2427
march é.</w> 2425
comp te,</w> 2423
contr adi 2421
compa ti 2421
a prè 2420
mê me.</w> 2419
ma ssi 2419
ali ments</w> 2418
pauv ret 2417
L e 2413
communi c 2413
mat éri 2411
s- B 2410
organ es</w> 2410
lég i 2409
ent es.</w> 2406
ch réti 2406
ses sion</w> 2405
su péri 2404
Lisbonn e.</w> 2404
ch ance</w> 2403
cour t</w> 2403
ment .</w> 2401
t on</w> 2400
dél ai</w> 2400
directi ve.</w> 2399
ex per 2398
sion s,</w> 2397
fam ili 2397
e ;</w> 2396
u s.</w> 2395
dev rons</w> 2395
d'inform ations</w> 2395
9 .</w> 2394
ê te</w> 2393
im possible</w> 2392
sion s.</w> 2391
humani taire</w> 2391
n ations</w> 2390
jour .</w> 2390
approb ation</w> 2390
L' UE</w> 2388
all è 2388
d' adopter</w> 2386
l' opinion</w> 2383
ter ai</w> 2382
d ra 2380
au raient</w> 2380
ouver te</w> 2378
proposi tion.</w> 2378
sus pen 2378
pri me</w> 2376
fis c 2376
4 0</w> 2375
b ar 2375
g ri 2373
fon d</w> 2373
condui te</w> 2372
et tes</w> 2369
v ul 2368
l ois</w> 2367
ét hi 2367
paraî t</w> 2366
regr ette</w> 2365
oi re.</w> 2364
pour rions</w> 2363
habi tu 2362
fem mes,</w> 2361
eth ni 2359
n e,</w> 2357
consult ation</w> 2356
dé plac 2354
fai ble</w> 2354
vi e 2353
pré ven 2353
déb att 2353
qu ée</w> 2352
d' en</w> 2352
autr es.</w> 2352
montr ent</w> 2352
mo bilité</w> 2350
et c.</w> 2347
considéra ble</w> 2347
véri tablement</w> 2346
viol ation</w> 2346
l es,</w> 2344
ch ances</w> 2344
cont es 2344
r y 2343
cu s</w> 2342
s ?</w> 2339
x embour 2339
T ous</w> 2339
accor d.</w> 2337
ag ences</w> 2335
organis mes</w> 2334
Roumani e</w> 2334
ter me.</w> 2333
qui t 2332
att a 2332
jour s,</w> 2331
différ ences</w> 2330
andi s</w> 2330
r ement</w> 2329
consommat eurs,</w> 2328
dépl oy 2328
fondament ales</w> 2327
rais on,</w> 2327
en seign 2325
réser ve</w> 2325
av ri 2324
l’ UE 2324
d an 2323
as bour 2322
rel atifs</w> 2322
Lisbonn e,</w> 2320
trans form 2316
dé m 2314
cri tiques</w> 2314
Str asbour 2314
résolu tion,</w> 2313
inaccep table</w> 2313
s auv 2311
d' utiliser</w> 2310
nécess aire,</w> 2310
trouv ent</w> 2309
consci ence</w> 2309
chiff res</w> 2309
fu ture</w> 2308
ni e</w> 2307
n' existe</w> 2307
il lu 2306
commerci ales</w> 2305
démocrati e,</w> 2304
t an 2302
servi r</w> 2301
exam en</w> 2301
Q ue</w> 2300
chim i 2300
o l</w> 2299
accep té</w> 2299
Li vre</w> 2298
» .</w> 2297
ci te</w> 2297
u .</w> 2296
contr aire</w> 2296
donn ée</w> 2296
cor ru 2296
Dé clar 2296
derni er,</w> 2294
m at</w> 2293
I I 2292
intégr er</w> 2292
conséqu ent</w> 2291
mauv aise</w> 2289
0 0 2288
d' ailleurs</w> 2288
pour suite</w> 2288
.. .</w> 2287
d' intérêt</w> 2286
in comb 2283
all ou 2283
diff u 2282
Europé ens</w> 2282
dispos ons</w> 2281
d' inter 2280
si ,</w> 2278
accor d,</w> 2278
q u</w> 2276
en h 2276
Présid ence</w> 2276
commun e,</w> 2276
bl an 2275
at s.</w> 2274
autr e.</w> 2271
là ,</w> 2271
krai ne</w> 2271
l' état</w> 2270
s pec 2269
contrôl er</w> 2269
ca s.</w> 2267
tabl e,</w> 2267
judici aire</w> 2267
da m</w> 2267
relev er</w> 2266
C ro 2265
financ er</w> 2265
entendu ,</w> 2265
s' ils</w> 2263
peti t</w> 2262
rem pli 2260
négoci ation</w> 2259
moi ti 2258
rég im 2258
complé ment 2257
( F 2256
Royaume- Uni 2256
ré alité,</w> 2255
ten sion</w> 2253
heur es</w> 2253
m' a</w> 2253
por tée</w> 2252
l'O rganisation</w> 2251
étrang ères</w> 2251
cli mat</w> 2251
eur e.</w> 2249
cep tion</w> 2249
pou ve 2248
rapp el 2248
consci ents</w> 2248
pour suiv 2245
f asse</w> 2243
proces su 2243
concl u</w> 2243
C ar 2242
et t 2242
modifi cations</w> 2241
oi re,</w> 2240
suffi t</w> 2240
ré elle</w> 2239
cy cle</w> 2238
écol ogi 2236
m ’ 2235
7 .</w> 2234
l' ag 2233
er t</w> 2232
inté res 2232
législ atif</w> 2232
navi res</w> 2232
qu’ à</w> 2231
on ni 2230
produc ti 2230
b re 2228
l’ O 2228
poli ce</w> 2228
pro duis 2226
200 0</w> 2226
lan gues</w> 2224
étroi te</w> 2224
inten si 2223
déch arge</w> 2221
I tali 2219
opér ations</w> 2219
enh ag 2219
li en</w> 2217
pl ani 2217
d' ac 2216
ci ter</w> 2216
ra s 2216
in vesti 2215
rap proch 2212
internation ale.</w> 2212
v o</w> 2211
san té,</w> 2211
t andis</w> 2210
ç ant</w> 2210
profi t</w> 2207
mi té</w> 2205
p te</w> 2203
diver ses</w> 2203
est- il</w> 2202
scientifi ques</w> 2202
pie d</w> 2202
aband onn 2201
diplom ati 2201
équi p 2200
Pay s-B 2199
d' autant</w> 2198
assur ance</w> 2198
D i 2197
ti tu 2197
sus cepti 2197
domain e,</w> 2197
esp è 2196
l'A u 2196
indi qué</w> 2196
États-Un is.</w> 2194
ant es,</w> 2192
satis fais 2192
av en 2191
seu ls</w> 2191
y eux</w> 2189
t empor 2188
s' en</w> 2186
capa bles</w> 2186
sc and 2186
fondament ale</w> 2185
C op 2184
cho s 2184
celle- ci</w> 2182
A L 2181
tu res</w> 2180
fin alement</w> 2180
Ch arte</w> 2180
tot ale</w> 2180
popul ations</w> 2179
profi ter</w> 2179
d' urgence</w> 2178
compr ends</w> 2178
arrê t</w> 2178
accompl i</w> 2178
li v 2177
bi ens</w> 2177
con sul 2175
po que</w> 2175
m ai</w> 2174
ti s 2173
d' obtenir</w> 2173
s k 2172
ré sul 2171
décl a 2170
o is.</w> 2169
premi ères</w> 2169
correc tement</w> 2168
b y 2167
dé tru 2166
ap i 2166
k ist 2165
mar s</w> 2165
am b 2161
propor tionn 2161
n' était</w> 2160
Trai té</w> 2160
mondi alisation</w> 2159
er land 2158
si ble</w> 2158
aux quelles</w> 2158
mili t 2158
l’ A 2157
rév él 2157
au che</w> 2156
ér é</w> 2156
d'A mster 2156
énergi e.</w> 2155
tend ance</w> 2155
bien ven 2155
h eure</w> 2154
direc trices</w> 2154
ques tions.</w> 2153
lanc er</w> 2152
dou ble</w> 2151
nor m 2151
remar que</w> 2151
en s 2148
pri vi 2148
poin t.</w> 2147
min orités</w> 2146
attaqu er</w> 2146
directi ve,</w> 2145
Médi terran 2144
constru ire</w> 2143
K y 2141
gu re</w> 2141
d' assurer</w> 2140
statisti ques</w> 2139
chal eur 2139
sti mul 2138
région ale</w> 2138
Cop enhag 2138
remar qu 2137
6 .</w> 2132
is ra 2132
té moi 2132
contribu é</w> 2132
principa le</w> 2131
répon ses</w> 2129
souhai tons</w> 2129
logi que</w> 2129
aér op 2129
Rap port</w> 2129
P I 2127
il o 2127
1 8</w> 2126
ob tenu</w> 2126
l' engagement</w> 2125
ex tra 2125
dis poser</w> 2125
res truc 2124
pres se</w> 2124
land e,</w> 2124
ensembl e.</w> 2124
M a</w> 2123
at oires</w> 2123
res tent</w> 2123
soi t,</w> 2123
l'O N 2123
fgh anis 2123
l es.</w> 2121
u ssi</w> 2121
ré ussi</w> 2121
l' évolution</w> 2120
t o 2119
vi ll 2118
program me- 2118
conn u</w> 2117
eus e.</w> 2115
lan gue</w> 2115
sen s,</w> 2114
sign é</w> 2113
pl a 2111
concili ation</w> 2110
l’ on</w> 2109
orient ation</w> 2109
or gi 2108
diver si 2108
Pour quoi</w> 2107
tou s.</w> 2105
ss es</w> 2102
collègu e,</w> 2102
multi lat 2102
parven us</w> 2102
qu’ un</w> 2101
acqu is</w> 2101
l' ouverture</w> 2100
l' élaboration</w> 2100
vi ande</w> 2099
moiti é</w> 2099
écri tes</w> 2096
migr ants</w> 2095
sembl ent</w> 2095
b âti 2094
détermin er</w> 2094
internation al.</w> 2093
in nov 2092
d' asile</w> 2092
Koso vo</w> 2092
pollu tion</w> 2091
am pl 2090
L' objectif</w> 2090
agn e,</w> 2088
ple in</w> 2088
c les</w> 2086
t ement,</w> 2086
in suffis 2086
souver ain 2086
h om 2085
j eu</w> 2084
en trav 2083
1 3</w> 2082
institu tion</w> 2081
au rions</w> 2080
conséqu ence,</w> 2080
f acteur</w> 2079
ch in 2079
l'empl oi.</w> 2079
humain s</w> 2079
institutionn el</w> 2079
Plu s</w> 2079
qu oi,</w> 2078
cruci al</w> 2078
tour is 2076
e "</w> 2075
et s,</w> 2075
com pens 2075
un es</w> 2074
l'empl oi,</w> 2073
tch è 2073
endr ont</w> 2072
emb re,</w> 2071
harmon isation</w> 2071
s té</w> 2070
di vers</w> 2070
internation aux</w> 2070
v ois</w> 2069
di ,</w> 2068
fghanis t 2068
important e.</w> 2067
c ent</w> 2065
bien- être</w> 2065
cultu rel 2064
op ti 2063
at lanti 2063
l'ex ercice</w> 2062
assu mer</w> 2062
inst au 2061
d' éviter</w> 2060
gé ographi 2060
tent ative</w> 2060
rel ève</w> 2059
compl ète</w> 2059
ph y 2059
prépar er</w> 2059
proposi tion,</w> 2058
enti ss 2057
elle- même</w> 2056
l' espace</w> 2054
l' unanim 2054
prog resser</w> 2054
transfer t</w> 2054
restruc tur 2054
o les</w> 2053
su jet,</w> 2053
pré venir</w> 2053
orig in 2053
ploi tation</w> 2051
communau tés</w> 2051
er s 2050
té e,</w> 2050
as te</w> 2050
C I 2048
ou g 2048
du l 2047
d'ex am 2047
Brux elles</w> 2046
favor ables</w> 2045
é duc 2044
me   2044
réuni ons</w> 2044
is ol 2043
fem mes.</w> 2043
o d 2042
l' organisation</w> 2042
bi ent 2042
hon or 2042
n e.</w> 2040
port ant</w> 2040
accor dée</w> 2040
su jets</w> 2039
ra bles</w> 2036
rapp elle</w> 2036
faci le</w> 2036
d' origine</w> 2035
échang es</w> 2034
clau se</w> 2034
1 .</w> 2033
n omm 2033
es ses</w> 2033
détermin ation</w> 2033
l'O TA 2032
appropri é</w> 2032
sau ve 2032
for ê 2031
qu’ une</w> 2031
vi ce- 2030
l'A l 2030
équi table</w> 2030
démocrati e.</w> 2029
concern ent</w> 2029
d'empl ois</w> 2029
ad hér 2028
parlement aires</w> 2028
Nor d</w> 2028
2 7</w> 2027
con que</w> 2027
lib re- 2026
u s,</w> 2025
com par 2025
vi vent</w> 2023
l’ im 2020
v ari 2019
ati ve.</w> 2018
ent es,</w> 2018
recher che,</w> 2018
territ ori 2017
err eur</w> 2017
catastroph e</w> 2017
communaut aire,</w> 2016
dic t 2016
si f</w> 2015
crédi bilité</w> 2015
C eci</w> 2013
ren d</w> 2013
fu tur 2012
l'hist oire</w> 2012
ress our 2010
id entifi 2010
génér al,</w> 2010
sign al</w> 2010
c t 2009
ba s</w> 2009
fran ch 2009
ad resser</w> 2008
et s.</w> 2007
nuclé aires</w> 2007
M me  2005
organis er</w> 2005
indispens able</w> 2005
l ettre</w> 2004
er aient</w> 2004
sup pression</w> 2004
ret our</w> 2004
sep t</w> 2004
écu tion</w> 2004
re qu 2002
march é,</w> 2002
règl ement.</w> 2002
ou ,</w> 2001
com bien</w> 2001
solid ari 2001
appu y 2001
mati ères</w> 2000
mondi ale.</w> 2000
p ,</w> 1999
intro duire</w> 1999
reti re</w> 1999
Mer ci</w> 1999
commenc é</w> 1997
8 0</w> 1995
vul né 1995
hum aine</w> 1994
ur b 1991
co de</w> 1991
condui t</w> 1991
insist er</w> 1990
l ob 1987
M M.</w> 1987
l' élargiss 1987
adop tées</w> 1986
ré ,</w> 1985
pag no 1985
s cri 1984
propo sé 1984
rel ativement</w> 1984
affir m 1984
excep tionn 1984
PM E</w> 1983
nég lig 1982
au par 1981
réglement ations</w> 1981
préserv er</w> 1981
l'ex am 1980
fam ille</w> 1978
économi ques,</w> 1977
f acteurs</w> 1975
passag ers</w> 1974
complè tement</w> 1973
dyn ami 1973
- B 1972
S lo 1971
sept embre</w> 1971
l ati 1970
dem ment,</w> 1970
séri eusement</w> 1970
catastroph es</w> 1970
frau de</w> 1970
du rée</w> 1969
sou l 1969
appor té</w> 1969
c ,</w> 1968
propo sée</w> 1968
s' av 1968
inclu re</w> 1967
envoy er</w> 1965
el lig 1964
v ing 1963
énergi es</w> 1963
l' ab 1962
im poser</w> 1962
compa gn 1962
bi en,</w> 1959
fer me</w> 1959
intéri eur 1959
autr e,</w> 1958
o is,</w> 1957
suc cè 1956
circonst ances</w> 1956
ap porte</w> 1955
os l 1955
es pagno 1954
recev oir</w> 1954
lin gu 1952
m eur 1951
adap ter</w> 1951
di gni 1950
si st 1949
ég alement,</w> 1949
4 .</w> 1948
g e 1948
Mal gré</w> 1948
infra structures</w> 1948
futu r</w> 1948
réfléch ir</w> 1947
a s.</w> 1946
présent ée</w> 1946
estim ons</w> 1946
D an 1944
ai ses</w> 1944
ai der 1944
cré é</w> 1944
fl ot 1944
souhai tent</w> 1943
fonc tionne</w> 1943
calend rier</w> 1943
travaill é</w> 1942
aprè s- 1942
scientifi que</w> 1938
6 0</w> 1937
règ le</w> 1937
nov embre</w> 1937
oug osl 1937
ir a</w> 1936
pouve z</w> 1936
ré ment</w> 1935
mariti me</w> 1935
8 .</w> 1934
l' intérieur</w> 1934
efficac e.</w> 1932
loca les</w> 1929
acti ve</w> 1928
e  -</w> 1926
Assembl ée.</w> 1926
apparti ent</w> 1926
v ant</w> 1925
s'ag issait</w> 1925
secon d</w> 1925
ch au 1924
considér é</w> 1924
â g 1923
con forme</w> 1923
ré action</w> 1923
approuv er</w> 1923
rapport eur.</w> 1922
portu g 1922
cri mes</w> 1921
sur mon 1921
pros péri 1921
c eux- 1920
M ac 1920
amélior ations</w> 1920
L ors</w> 1918
lui- même</w> 1918
l' euro 1917
fix er</w> 1916
re prise</w> 1914
desti nés</w> 1914
mo tion</w> 1912
né erland 1912
environnement ales</w> 1912
tax e</w> 1912
n' ait</w> 1910
isra éli 1910
é ducation</w> 1909
dang er</w> 1908
ti ers.</w> 1907
fau dra</w> 1907
b .</w> 1906
sem aines</w> 1906
fi é</w> 1904
l er</w> 1903
expli quer</w> 1903
reven us</w> 1902
mondi alis 1901
problèm e,</w> 1901
fonctionn aires</w> 1900
établ i</w> 1900
port ent</w> 1899
octob re</w> 1899
poi ds</w> 1899
l' anci 1897
1 2 1896
socialis te</w> 1895
dé part</w> 1894
différ ence</w> 1893
S t 1892
s' applique</w> 1891
l'A llem 1891
ré per 1890
anc es,</w> 1890
pê che.</w> 1890
lanc é</w> 1890
actu elle.</w> 1888
proté g 1888
ch é</w> 1887
approuv e</w> 1887
1 00</w> 1885
ter ait</w> 1885
1 7</w> 1884
génér alement</w> 1884
terroris tes</w> 1884
mili taires</w> 1884
rou te</w> 1883
réser ves</w> 1882
résolu tions</w> 1880
al ement.</w> 1879
% .</w> 1878
mauv ais</w> 1876
P eu 1874
d' adhésion</w> 1874
s' y</w> 1874
h e 1873
den rées</w> 1873
f ré 1870
ty pes</w> 1869
Cro ati 1869
f év 1867
actu elles</w> 1867
cou p</w> 1867
pê che,</w> 1867
Per s 1867
comb at 1867
restri ctions</w> 1867
e   1866
1 4</w> 1866
affir mer</w> 1865
(P T)</w> 1865
voi ent</w> 1864
Koso vo 1864
aérop or 1864
l' obligation</w> 1863
contribu e</w> 1863
trouv é</w> 1863
tiquet age</w> 1863
dépu tés,</w> 1862
sen s.</w> 1862
Russi e,</w> 1862
règl ement,</w> 1862
or ateurs</w> 1861
Ir lande</w> 1861
constitu tion</w> 1859
positi fs</w> 1859
join dre</w> 1857
propo s 1856
dépen d</w> 1856
vi vre</w> 1855
por té</w> 1855
st ad 1855
travaill ent</w> 1855
œuv re.</w> 1855
S ans</w> 1854
pr ennent</w> 1854
l' évaluation</w> 1854
ten ue</w> 1853
déc en 1853
énor mes</w> 1853
acc es 1852
ch api 1851
d’ abor 1851
pay er</w> 1851
influ ence</w> 1850
im ag 1849
proven ance</w> 1849
ré su 1847
considé rons</w> 1847
continu ent</w> 1847
Grè ce</w> 1847
vi e.</w> 1846
th ème</w> 1846
C .</w> 1845
san té.</w> 1845
rési st 1845
Bulgar ie</w> 1844
n ant</w> 1843
vis ent</w> 1841
résolu tion.</w> 1841
pron on 1841
1 3 1840
g raphi 1840
par lement</w> 1840
nou s.</w> 1840
p ur 1838
ré .</w> 1838
maladi e</w> 1838
fin al</w> 1837
min ori 1837
( S 1836
t omb 1834
res t 1833
concrè tes</w> 1833
cl és</w> 1831
insi ,</w> 1831
D u 1830
M c 1830
A insi,</w> 1829
c an 1829
par vi 1829
f all 1826
er re</w> 1825
st ade</w> 1824
anci ens</w> 1824
cohér ence</w> 1824
voisin s</w> 1824
l' entrée</w> 1823
octr oi</w> 1823
rav i</w> 1823
l ement,</w> 1822
fam illes</w> 1822
- cadre</w> 1820
sem ain 1820
ann ex 1820
ten ant</w> 1818
cr oy 1817
ch emi 1816
att ach 1816
ati ve,</w> 1815
car ,</w> 1815
met tr 1812
inci d 1811
reconn u</w> 1810
g rec 1808
disponi bles</w> 1808
d’ être</w> 1807
enf ants,</w> 1807
n our 1806
at s,</w> 1806
re gar 1806
peti te</w> 1806
bl er</w> 1805
ensembl e,</w> 1804
k .</w> 1803
Su d</w> 1803
environnement ale</w> 1803
tâ ches</w> 1803
a h 1802
centr ales</w> 1802
for tement</w> 1801
i ra 1800
aff ai 1799
prê te</w> 1799
adop te</w> 1798
chemi n</w> 1797
nation aux.</w> 1796
inter diction</w> 1795
PPE - 1794
é car 1791
Balk ans</w> 1791
import ations</w> 1789
Déclar ations</w> 1789
s oyons</w> 1788
tar d</w> 1788
C an 1787
d s,</w> 1786
main - 1786
l'A gence</w> 1786
de vient</w> 1785
l'ex péri 1785
ch aî 1784
du rant</w> 1784
der rière</w> 1784
enf ants.</w> 1783
utilis ées</w> 1782
ver t</w> 1781
pi re</w> 1781
ell ement.</w> 1779
mom ent,</w> 1779
b el 1778
inf éri 1778
d' établir</w> 1777
capa cités</w> 1776
commerci aux</w> 1776
té es.</w> 1775
f ac 1774
G é 1774
at eurs,</w> 1773
ban ques</w> 1773
es- ci</w> 1773
us age</w> 1772
supprim er</w> 1772
e d 1771
direc tion.</w> 1770
intéri eur.</w> 1770
propo sés</w> 1768
comp ter</w> 1768
appropri ée</w> 1768
(P L)</w> 1768
ré parti 1767
jou é</w> 1767
étroi tement</w> 1767
I T)</w> 1766
hu it</w> 1766
no c 1765
au tour</w> 1763
ex cu 1762
d' atteindre</w> 1761
suiv ante</w> 1761
dé bu 1760
ecti onn 1760
che f</w> 1760
interven tions</w> 1759
l'OM C</w> 1759
mo is.</w> 1758
rati fication</w> 1758
anc er</w> 1757
D ès</w> 1756
at es- 1756
pai ements</w> 1756
Russi e.</w> 1756
courag e</w> 1755
bient ôt</w> 1754
dura ble.</w> 1753
B os 1752
E ,</w> 1752
C omi 1751
at eur 1751
extéri eure</w> 1750
o eu 1749
L A 1749
Fr ance,</w> 1749
élimin er</w> 1749
réper cu 1749
H er 1748
sec ré 1748
propri été</w> 1748
dossi er</w> 1747
h o 1746
tr ap 1746
Dé pu 1746
hist oire</w> 1745
C ,</w> 1744
Turqui e,</w> 1744
jou e</w> 1743
marchandis es</w> 1743
c eci</w> 1741
( Le</w> 1741
qu és</w> 1741
su édo 1741
l'in novation</w> 1741
fisca le</w> 1741
introdui t</w> 1741
refl ète</w> 1741
régim es</w> 1740
possi bles</w> 1738
syst èm 1738
ang l 1737
heur es.</w> 1737
juill et</w> 1736
li ens</w> 1735
fau drait</w> 1735
Peu t- 1735
dé pass 1734
incomb e</w> 1733
citoy en</w> 1731
ba ses</w> 1731
indi que</w> 1731
pai x,</w> 1731
Gr and 1731
cent aines</w> 1731
ar b 1730
commiss aires</w> 1730
ressor tiss 1730
ter ri 1729
ver sion</w> 1728
démocrati que.</w> 1728
ré vis 1727
cel a.</w> 1726
T ch 1725
P A 1725
con soli 1725
d' argent</w> 1725
re pose</w> 1725
h ou 1724
pres sions</w> 1724
celui- ci</w> 1724
d "</w> 1722
j' aimerais</w> 1722
prê t</w> 1721
glob al</w> 1721
Bel ar 1721
dis pari 1720
extra ordin 1720
P o 1719
région ales</w> 1719
1 6</w> 1718
maj eure</w> 1718
nation ales.</w> 1717
i chi 1715
tex ti 1715
S )</w> 1714
extéri eures</w> 1714
stock s</w> 1714
commis sions</w> 1713
qu in 1709
Ch amb 1708
communi cations</w> 1708
pré f 1707
fem me</w> 1707
1 5 1706
m ai 1706
nécess aires.</w> 1706
prati quement</w> 1706
mu né 1706
eux- mêmes</w> 1706
ambiti eux</w> 1706
univer si 1706
ré muné 1705
sé par 1704
essenti els</w> 1704
urg ent</w> 1704
permettr ait</w> 1704
aut orité</w> 1703
autr ichi 1703
R )</w> 1702
cri ti 1702
considé rée</w> 1701
accr ue</w> 1701
s avez</w> 1700
O b 1700
respec te</w> 1700
Ser bi 1700
C o 1699
l'h on 1699
Pour tant,</w> 1699
r ang 1698
contribu era</w> 1698
voy ag 1698
av ais</w> 1697
l’ Uni 1697
a- t-elle</w> 1697
st es</w> 1696
tran sition</w> 1696
ess e,</w> 1696
acti vement</w> 1696
A lors</w> 1695
er ais</w> 1695
men ée</w> 1695
préal able</w> 1695
permet tent</w> 1694
sal ari 1694
li ée</w> 1693
pré vue</w> 1693
m uni 1692
détai ls</w> 1692
plu s.</w> 1691
conclu sion,</w> 1691
sensi bil 1691
fré qu 1690
profon dé 1689
a ci 1688
co hé 1688
E .</w> 1687
D' autre</w> 1687
soulev é</w> 1687
ré clam 1686
v an</w> 1685
discu tons</w> 1685
commiss aire,</w> 1685
dé mar 1684
l'in form 1684
médi aire</w> 1684
personn es,</w> 1683
l'hon orable</w> 1683
m ag 1681
hon gr 1681
retar d</w> 1681
hau sse</w> 1680
Ky ot 1679
él oi 1677
cau ses</w> 1677
trans atlanti 1676
19 8 1676
histori que</w> 1676
chaleur eusement</w> 1676
ell ectu 1675
précé dent</w> 1675
tél évi 1675
m ette</w> 1674
conséqu ence</w> 1674
pai ement</w> 1674
idé ologi 1674
organ e</w> 1674
ent end 1673
éra l</w> 1673
m ac 1672
l' eau</w> 1672
bi ologi 1672
ven u</w> 1672
l'inter diction</w> 1672
réflexi on</w> 1672
dou ani 1671
connaî tre</w> 1671
liber té,</w> 1670
pron onc 1670
Comi té</w> 1670
b ons</w> 1669
problèm es.</w> 1668
Gé orgi 1668
is su 1667
au rais</w> 1667
propo sées</w> 1666
ach ev 1666
exist ent</w> 1666
b or 1665
ex prime</w> 1664
cr ain 1664
d'in tro 1664
ampl eur</w> 1664
dé rog 1663
parten aire</w> 1663
l'im pression</w> 1662
moin dre</w> 1662
f ou 1661
commen cer 1661
d' avis</w> 1660
re vi 1660
législ atives</w> 1660
stratégi es</w> 1660
cohér ente</w> 1660
des tru 1658
identi té</w> 1658
tol ér 1657
oir .</w> 1656
int ellig 1656
adres se</w> 1656
pour quoi,</w> 1654
eus e,</w> 1653
cultur elle</w> 1653
pêch eurs</w> 1653
d oll 1652
ai re 1652
dé posés</w> 1652
contr ain 1652
sinc èrement</w> 1651
ré e.</w> 1650
uni vers 1650
raisonn able</w> 1650
e- B 1649
l'éch elle</w> 1649
i ts</w> 1648
ci dent</w> 1648
génér ale,</w> 1648
di té</w> 1647
situ ation,</w> 1646
int ellectu 1646
visi te</w> 1645
pléni ère</w> 1645
dép it</w> 1644
l' ar 1643
d' y</w> 1643
mes ure,</w> 1643
No s</w> 1643
domm ages</w> 1643
1 7 1642
bri èvement</w> 1642
em pr 1641
fi l 1641
Turqui e.</w> 1641
met tent</w> 1640
internation ale,</w> 1640
è vent</w> 1639
législ ative</w> 1639
meill eurs</w> 1639
commis sion,</w> 1639
N e</w> 1638
l' administration</w> 1638
internation al,</w> 1638
spéci al</w> 1638
public .</w> 1638
d'exam iner</w> 1638
n .</w> 1637
pouv ait</w> 1637
pour tant</w> 1636
s lo 1634
franç ais</w> 1634
lingu is 1633
z .</w> 1632
ar mon 1632
constitu er</w> 1632
endr ait</w> 1632
inst amment</w> 1632
réc ente</w> 1632
ajou tée</w> 1632
l'ex cell 1631
C u 1630
direc te</w> 1630
du es</w> 1629
revê t</w> 1628
lev ée</w> 1627
actu els</w> 1626
terroris me.</w> 1626
comb in 1626
is tence</w> 1625
commerci ale</w> 1625
ét ais</w> 1624
o ise</w> 1623
L am 1623
de gré</w> 1623
t onn 1621
utilis ée</w> 1621
considéra bles</w> 1621
digni té</w> 1621
alis te</w> 1619
région al</w> 1619
est- ce</w> 1619
allem and 1619
pl aisir</w> 1618
per te</w> 1618
dis ent</w> 1618
sym b 1618
Peut- être</w> 1617
T V 1616
ac cid 1616
outi l</w> 1616
argu ments</w> 1616
pétro le</w> 1616
bilat ér 1616
mi di.</w> 1615
mis sions</w> 1615
siè cl 1615
par ol 1613
trag édi 1613
1 , 1612
S ou 1612
mon op 1612
subsidi ari 1612
ré el</w> 1611
pens e,</w> 1611
capit al</w> 1611
rép éter</w> 1611
in uti 1610
a c</w> 1609
ra ss 1609
exig er</w> 1609
discu ssi 1608
conven u</w> 1608
l'h armon 1607
reç oi 1607
par t.</w> 1606
vi g 1605
élev és</w> 1605
uni que.</w> 1604
is es</w> 1603
fai t.</w> 1603
pass é,</w> 1603
élimin ation</w> 1603
ai se,</w> 1602
k r 1601
ai l</w> 1601
per du</w> 1601
dépl or 1601
fr ais</w> 1600
pa trim 1598
pris onni 1598
professionn elle</w> 1598
inform er</w> 1597
vo te.</w> 1596
diver g 1596
phy si 1596
profondé ment</w> 1596
fi gure</w> 1594
dévelop pé 1594
men ées</w> 1594
export ations</w> 1594
souverain eté</w> 1594
discu té</w> 1593
référendu m</w> 1592
humani t 1591
pai x.</w> 1590
hy po 1589
décen ni 1589
re construction</w> 1588
ti ennent</w> 1586
sé v 1586
vo tes</w> 1586
commerci al</w> 1586
g .</w> 1585
is i</w> 1585
pro che</w> 1585
contin ent</w> 1585
trag i 1585
J' aimerais</w> 1584
exempl e.</w> 1584
débat tre</w> 1584
autoris ation</w> 1584
UE - 1584
tou che</w> 1583
vit al</w> 1583
al lég 1581
présid ents</w> 1581
premi ers</w> 1581
o r</w> 1580
premi èrement,</w> 1579
tex tes</w> 1579
beaucou p,</w> 1579
reconnaî t</w> 1579
con fér 1578
coll ec 1578
te z</w> 1577
cho isi</w> 1577
rédui t</w> 1577
Com pte</w> 1577
maj ori 1576
regret table</w> 1574
Lu xembour 1574
l' avez</w> 1573
In tern 1573
harmon is 1573
entam er</w> 1573
défici t</w> 1573
renouvel ables</w> 1572
gn ol 1571
l'I tali 1571
uni que,</w> 1570
atten ds</w> 1570
terroris me,</w> 1570
en fin,</w> 1569
ç u</w> 1568
20 20 1568
â ge</w> 1567
favoris er</w> 1567
ti tre,</w> 1566
C ol 1565
inter ne</w> 1565
tr om 1563
dem ain,</w> 1563
d'intro duire</w> 1563
g éri 1561
Barro so 1561
s h 1560
uni lat 1560
minim um</w> 1560
simpli fication</w> 1560
signific ative</w> 1558
destru ction</w> 1558
ar d</w> 1556
ass assi 1556
cultu res</w> 1556
évid ence</w> 1556
accél érer</w> 1556
sou lig 1554
eus es.</w> 1553
f ais</w> 1551
maj eur</w> 1551
nécessi te</w> 1551
l'exam en</w> 1550
l ai 1549
pou ss 1549
fam ill 1549
d'empl oi</w> 1549
compren d</w> 1549
ter rai 1548
200 4</w> 1548
dél ais</w> 1548
réparti tion</w> 1548
A vant</w> 1546
o ver 1546
in évi 1546
diffici les</w> 1546
important e,</w> 1546
O G 1544
ét ch 1544
t eurs,</w> 1543
spécifi quement</w> 1543
g érer</w> 1542
adhé sion.</w> 1542
5 00</w> 1541
mani ère,</w> 1541
déci sion.</w> 1541
posi tion.</w> 1541
mal heureusement,</w> 1541
re connu 1540
ces se</w> 1540
caractéris tiques</w> 1539
voul oir</w> 1538
th er 1538
habi tants</w> 1538
accue illi 1538
r ar 1537
v aste</w> 1537
li ance</w> 1537
aut on 1537
ac compagn 1536
régi on,</w> 1536
éra le</w> 1536
affir me</w> 1536
d ette</w> 1535
droi t,</w> 1535
vi lles</w> 1534
per dre</w> 1534
l'ex istence</w> 1534
s ation</w> 1533
ti ers,</w> 1533
ch em 1533
main s</w> 1533
concl ure,</w> 1533
» ,</w> 1532
es :</w> 1532
S' il</w> 1532
l' origine</w> 1531
l'or ateur 1529
t ement.</w> 1528
continu era</w> 1528
éch elle</w> 1528
particip é</w> 1528
comport ement</w> 1528
con citoyens</w> 1527
l'in dépendance</w> 1527
og ne</w> 1527
desti nées</w> 1527
enc es.</w> 1526
accep table</w> 1526
fix é</w> 1526
excell ente</w> 1526
agricul ture</w> 1525
pré pa 1524
conse il</w> 1523
appr entiss 1523
mar ge</w> 1522
prot es 1522
Tou tes</w> 1522
pé tr 1521
qua te</w> 1521
adé quate</w> 1521
puiss ance</w> 1521
ques tions,</w> 1520
d'investiss ement</w> 1520
conven tions</w> 1519
consi st 1518
clari fier</w> 1518
" Le</w> 1517
espa gnol 1517
phénom ène</w> 1517
mutu elle</w> 1516
intergouvernement ale</w> 1516
ul téri 1515
inscri t</w> 1515
l'expéri ence</w> 1515
b aisse</w> 1514
ci té,</w> 1514
re trai 1514
200 6</w> 1514
coopér er</w> 1514
pati ents</w> 1514
ferrovi aire</w> 1514
2 1</w> 1513
200 0,</w> 1513
éra les</w> 1512
ré t 1510
exer cer</w> 1510
fourn iss 1510
civi lis 1509
insi ste</w> 1509
rejet er</w> 1509
ON G</w> 1509
lac unes</w> 1508
J us 1507
G en 1507
re vient</w> 1507
connaî t</w> 1506
s cè 1505
b anc 1505
aéri en</w> 1505
mes si 1504
probl é 1504
opportuni té</w> 1504
dé non 1503
po lon 1503
ra le</w> 1503
sou mettre</w> 1503
ru ral</w> 1503
signal er</w> 1503
é co 1502
lib res</w> 1502
programme- cadre</w> 1502
d’ accord</w> 1501
démo graphi 1501
certi tude</w> 1501
a st 1500
n' importe</w> 1500
dom in 1500
cl aires</w> 1499
dis t 1499
l'ex ploitation</w> 1499
è nes</w> 1498
Scheng en</w> 1498
R u 1497
consomm ateur</w> 1497
qu ement,</w> 1496
homm e</w> 1496
si l 1495
pré con 1495
amend ements,</w> 1495
atten dent</w> 1495
Bar cel 1495
autom obi 1495
terrai n</w> 1495
DE .</w> 1494
Au c 1493
pr endra</w> 1492
sou scri 1492
deven u</w> 1492
rét abli 1492
con duire</w> 1491
précis er</w> 1491
v ement,</w> 1490
opini ons</w> 1490
Grand e-B 1490
Grande-B ret 1490
B ro 1489
l’ a</w> 1489
erci ,</w> 1489
proven ant</w> 1489
% ,</w> 1488
cr ains</w> 1488
étrang ères,</w> 1488
socialis tes</w> 1488
sui t</w> 1487
intéri eur,</w> 1487
sorti r</w> 1487
gu e,</w> 1486
i e.</w> 1485
concurr ence.</w> 1485
199 9</w> 1484
distribu tion</w> 1483
pur ement</w> 1483
l’ ensemble</w> 1482
n’ ont</w> 1482
éch ou 1481
exper ts</w> 1481
avri l</w> 1480
1 9</w> 1479
g auche</w> 1478
vi lle</w> 1477
l' établissement</w> 1476
En suite,</w> 1476
s' appliqu 1475
personn ellement</w> 1474
oblig atoire</w> 1474
concerné s</w> 1474
li é</w> 1473
cris e.</w> 1473
citoy enn 1472
s'ag isse</w> 1472
ple ine</w> 1472
f rapp 1471
J' en</w> 1471
ob ten 1470
nation aux,</w> 1470
opér ateurs</w> 1469
suiv ant 1469
inclu s</w> 1469
mouv ement</w> 1469
ressortiss ants</w> 1469
mondi ale,</w> 1468
impli quer</w> 1468
met tant</w> 1467
arti cles</w> 1467
arm ée</w> 1467
vi vement</w> 1466
fin ances</w> 1466
cour s.</w> 1466
vou d 1465
d'in fra 1465
J ap 1464
l' op 1464
li vre</w> 1464
ré duc 1464
o ine</w> 1463
l ou 1463
al co 1463
R i 1462
re prendre</w> 1462
cr oire</w> 1462
j' estime</w> 1462
publi que.</w> 1461
tr ouver 1460
abor dé</w> 1460
Ch ine,</w> 1460
ci té.</w> 1459
l’ aide</w> 1459
véri tables</w> 1459
res tr 1458
un s</w> 1458
coû t 1457
carb ur 1457
const ate</w> 1456
s ac 1455
att aque</w> 1455
f action</w> 1454
ot h 1454
voy ons</w> 1454
qua tri 1454
m ain</w> 1453
l' an</w> 1453
vi a</w> 1453
économi ques.</w> 1453
Bel gi 1453
d' apporter</w> 1452
fi cti 1452
Qu ' 1452
compréhen sion</w> 1452
el li 1451
radi o 1451
S e 1450
s' op 1450
fronti ère</w> 1450
" )</w> 1448
l' union</w> 1448
corru ption</w> 1447
patrim oine</w> 1447
d' agir</w> 1446
ser t</w> 1446
soulev er</w> 1446
conver gence</w> 1446
accor de</w> 1444
condi tionn 1444
catégori e</w> 1444
con for 1443
spé cul 1443
d' intégration</w> 1442
cl and 1442
indi c 1442
pour rai 1441
ba sée</w> 1441
juridi que.</w> 1441
messi eurs,</w> 1441
st abili 1440
pag e</w> 1440
sé pa 1439
rag e</w> 1439
l'A frique</w> 1439
- 201 1438
chiff re</w> 1438
mondi al.</w> 1437
cen di 1437
flu x</w> 1436
v ue,</w> 1434
d' accès</w> 1434
ressor t</w> 1434
A frique</w> 1433
l aisse</w> 1433
ca d 1433
formul ation</w> 1433
p ill 1431
voul ais</w> 1431
ach et 1431
environnement aux</w> 1431
débatt ons</w> 1431
" être</w> 1429
dis po 1429
posi tion,</w> 1429
tour n 1429
son t,</w> 1429
0   1428
per su 1428
l'aut orité</w> 1428
contribu tions</w> 1427
Qu oi</w> 1427
formul er</w> 1427
éten dre</w> 1427
contac t</w> 1427
p er</w> 1426
exemp les</w> 1426
adéqu at 1426
2 4</w> 1425
c ev 1425
in ég 1425
avant ag 1425
futu res</w> 1425
k a</w> 1424
sec r 1424
Bu re 1424
ch u 1423
par oles</w> 1422
qu' aux</w> 1422
ég alement.</w> 1421
const amment</w> 1421
ins pec 1421
dé pens 1420
développ ements</w> 1419
géné ti 1419
si gne</w> 1418
no ci 1418
gu e.</w> 1418
tra dui 1418
budgét aire,</w> 1418
contac ts</w> 1418
d'euro s.</w> 1417
s  -</w> 1415
Royaume-Uni ,</w> 1415
reven u</w> 1414
ceux- ci</w> 1414
l’ accord</w> 1412
cri me</w> 1412
blan c</w> 1412
N e 1411
dé trim 1411
méri tent</w> 1411
s port</w> 1410
n et</w> 1410
esp ère,</w> 1410
deuxi èmement,</w> 1410
dém ant 1410
génér al.</w> 1409
octr oy 1409
respec tent</w> 1408
dynami que</w> 1408
B e 1407
compétiti vi 1407
ri v 1406
déf end 1406
industri es</w> 1406
identi fier</w> 1406
tab ac</w> 1406
install ations</w> 1406
systé mati 1406
c s</w> 1405
di vis 1405
rem ettre</w> 1405
servi ces,</w> 1405
contr over 1404
pass é.</w> 1404
centr es</w> 1404
reconnaiss ant</w> 1404
A méri 1403
t ête</w> 1403
im pati 1403
dem ain.</w> 1403
personn es.</w> 1403
préc ise</w> 1403
e ".</w> 1402
V an</w> 1402
is - 1402
moy enne</w> 1402
détrim ent</w> 1402
post es</w> 1401
libre- échange</w> 1401
anc es.</w> 1400
mainten ant,</w> 1400
atta ques</w> 1400
cland esti 1400
con cré 1399
l'ex écution</w> 1399
ti endra</w> 1398
d' aujourd'hui</w> 1398
sû r 1398
consci ent</w> 1398
H u 1397
trav er 1397
qu' avec</w> 1396
emb re.</w> 1396
reti rer</w> 1396
nation ales,</w> 1395
négoci ations.</w> 1395
attenti vement</w> 1395
V o 1394
complex e</w> 1394
cré e</w> 1393
tar d,</w> 1393
re pris 1392
man qu 1392
prim er</w> 1392
prév ues</w> 1392
répercu ssions</w> 1392
err eurs</w> 1391
centr alis 1390
c ée</w> 1389
l' équilibre</w> 1389
droi t.</w> 1389
détai l</w> 1388
c ouver 1386
ch ar 1386
vi e,</w> 1386
administr atives</w> 1386
princip e,</w> 1386
d' association</w> 1385
dé mi 1385
satis faction</w> 1385
publi cité</w> 1384
accep te</w> 1384
arri ve</w> 1384
processu s.</w> 1384
é mer 1383
è tent</w> 1383
justi ce.</w> 1383
distin ction</w> 1383
F or 1382
port ation</w> 1382
enc es,</w> 1382
cam pagn 1382
électri cité</w> 1382
to xi 1382
v ag 1381
em ment,</w> 1381
présent ation</w> 1381
représent ation</w> 1381
prati que,</w> 1381
ab us</w> 1380
mes dames</w> 1380
satis fait</w> 1380
référendu m 1380
doll ar 1380
1 6 1379
F E 1379
ven ir.</w> 1379
bénéfici ent</w> 1378
in cit 1377
l' opposition</w> 1377
ci bl 1377
esp érer</w> 1377
respec tu 1377
organis ée</w> 1376
libér aux</w> 1376
efficac e,</w> 1376
confir mer</w> 1376
w e 1375
salu er</w> 1375
pl ain 1374
britanni ques</w> 1374
A fin</w> 1373
200 4,</w> 1373
juridi que,</w> 1373
con fu 1372
particuli er.</w> 1372
public ,</w> 1372
connaiss ons</w> 1372
t orité</w> 1371
P E</w> 1371
res pecti 1371
fer met 1371
constitutionn el</w> 1371
fu t</w> 1370
rev an 1370
Chypr e</w> 1370
don c,</w> 1369
én ag 1369
cultu rel</w> 1369
transi t 1369
E t 1368
l'ex emp 1368
e z,</w> 1367
S ol 1367
par allè 1367
sé l 1367
Qu ant</w> 1367
pren ant</w> 1365
intég rée</w> 1365
choisi r</w> 1365
apprentiss age</w> 1365
N atur 1364
li er</w> 1364
lib é 1364
entraî ne</w> 1364
irland ais</w> 1364
s ;</w> 1363
prospéri té</w> 1363
2 3</w> 1362
atten d</w> 1362
socié té.</w> 1362
an e</w> 1361
cris es</w> 1361
voi tures</w> 1360
aliment ation</w> 1360
l'harmon isation</w> 1360
l'ex téri 1359
san it 1359
preu ves</w> 1359
concerné es</w> 1359
stric tes</w> 1359
s aisir</w> 1358
d' accroître</w> 1358
mo s 1358
off er 1358
charg é</w> 1358
duis ant</w> 1358
autom ati 1358
réussi te</w> 1358
exis tence</w> 1358
impli quant</w> 1357
déploy és</w> 1357
ri té</w> 1356
ser .</w> 1356
J' estime</w> 1356
euro - 1356
subsidi arité</w> 1356
j' en</w> 1355
adap tation</w> 1355
l'in clusion</w> 1354
eu g 1353
essenti elles</w> 1353
besoin ,</w> 1353
en ci 1352
ag issant</w> 1352
rév olu 1351
f il</w> 1350
scè ne</w> 1350
on ie</w> 1349
ar ab 1349
re jet</w> 1349
servi ces.</w> 1348
(F R)</w> 1348
7 0</w> 1347
u re</w> 1347
dis ci 1347
uni es,</w> 1347
généti quement</w> 1347
o û 1346
t ait</w> 1346
di tes</w> 1344
cl ass 1344
poli ci 1344
trouv ons</w> 1344
att entes</w> 1343
su d</w> 1342
té r 1342
s oir</w> 1341
n’ y</w> 1341
Dépu tés,</w> 1341
ra dic 1340
ss ant</w> 1340
croiss ante</w> 1340
industri elle</w> 1340
pr in 1339
rec ti 1339
natur elles</w> 1339
obstac le</w> 1339
terr or 1338
fonctionn er</w> 1337
trai té.</w> 1336
docu ment 1336
J’ espère</w> 1336
o gn 1335
é tions</w> 1335
im b 1335
plu ri 1335
g es</w> 1334
l' approvisionnement</w> 1334
astr ich 1334
M in 1332
l'é duc 1332
connaiss ances</w> 1332
conserv er</w> 1332
Ma astrich 1332
- t-il</w> 1330
manifes tement</w> 1330
l' affaire</w> 1329
Pa kist 1329
in noc 1328
organis é</w> 1328
annon cé</w> 1328
voud rions</w> 1328
disci pl 1328
s' effor 1327
démocrati que,</w> 1327
sect eur.</w> 1327
Su ède</w> 1327
in tention</w> 1326
l' activité</w> 1326
re cu 1326
rési de</w> 1326
terror ist 1326
é dé 1325
ent hou 1325
éch é 1325
enthou si 1325
ré e,</w> 1324
utilis ant</w> 1324
dispos ent</w> 1324
amend ements.</w> 1323
intéri eures</w> 1323
cen ci 1323
tax es</w> 1323
ry th 1323
issu e</w> 1323
gn er</w> 1322
tour ner</w> 1322
S y 1321
as pir 1321
cré dit</w> 1321
c' était</w> 1321
gagn er</w> 1321
s o</w> 1319
C am 1319
r ent 1319
rédi gé</w> 1319
A ,</w> 1318
f ar 1318
li cenci 1318
soci al,</w> 1318
faci lement</w> 1317
Est - 1317
l'unanim ité</w> 1317
Mac édo 1317
d' accorder</w> 1316
mati ère.</w> 1316
qu’ en</w> 1316
R E 1314
op pos 1314
fér er</w> 1314
qu ées</w> 1313
ol d 1313
200 3</w> 1312
voisin age</w> 1312
s ach 1311
N ' 1311
am is</w> 1311
D ’ 1310
t ente</w> 1310
com pos 1310
extéri eur 1309
AC P 1309
investi r</w> 1309
appu i</w> 1308
b e</w> 1307
M erci,</w> 1307
dev rai 1307
cho se.</w> 1307
milli on</w> 1307
Bos ni 1307
p es 1306
voul u</w> 1306
rej eté</w> 1306
f aut 1305
" à</w> 1305
mo de</w> 1305
mê mes.</w> 1305
nom in 1305
200 6,</w> 1304
différ ente</w> 1304
surmon ter</w> 1304
uti l 1303
combat tre</w> 1302
embl ée</w> 1301
considér ations</w> 1301
aéri ennes</w> 1301
Portug al</w> 1301
du quel</w> 1300
clu re</w> 1300
em ar 1298
dis s 1298
évo qué</w> 1298
danger eux</w> 1298
s oi</w> 1297
généra les</w> 1297
reçoi vent</w> 1297
télé ph 1296
diffu sion</w> 1296
ul trap 1295
200 5</w> 1295
cro is,</w> 1295
vi sions</w> 1294
pass age</w> 1294
énergé tique.</w> 1294
domain es,</w> 1294
o x 1293
k i 1293
d' aut 1293
éri phéri 1293
publi é</w> 1293
sim ul 1293
an ie</w> 1292
d' appliquer</w> 1292
ultrap ériphéri 1292
t eurs.</w> 1291
té es,</w> 1291
Ch aque</w> 1291
remplac er</w> 1291
imb ab 1291
( La</w> 1290
avant .</w> 1290
bili té.</w> 1290
arriv er</w> 1290
haut eur</w> 1290
a d</w> 1289
( IT)</w> 1289
contr ats</w> 1289
oubli ons</w> 1289
e z- 1288
com porte</w> 1288
bili té,</w> 1288
1 )</w> 1287
v ente</w> 1286
publi que,</w> 1286
né ,</w> 1285
ur ther 1285
inter venir</w> 1285
Communau té.</w> 1285
imbab w 1285
urther mor 1285
institu tions.</w> 1284
clair s</w> 1284
sensi ble</w> 1284
G az 1283
ap prendre</w> 1283
fon dé</w> 1283
mi lieu</w> 1283
im pos 1282
coopér ation.</w> 1282
avanc ée</w> 1282
Dan emar 1282
l'av i 1281
( C 1280
av ant,</w> 1280
ce pendant,</w> 1280
travaill eurs,</w> 1280
sembl e,</w> 1280
acces si 1280
pr enne</w> 1279
soci al.</w> 1279
aujour d</w> 1279
initi ale</w> 1279
téri or 1279
recomm ande</w> 1279
mod è 1279
appel é</w> 1279
moti v 1279
a té</w> 1278
l' énergie,</w> 1278
200 7</w> 1278
commun s</w> 1278
ougosl av 1278
stru ment</w> 1277
ou rir</w> 1276
dé térior 1276
Hon gri 1276
è se</w> 1275
pro pag 1275
présid ence,</w> 1275
app eler</w> 1275
entraî né</w> 1275
l'Ir lande</w> 1275
futur s</w> 1275
( CE 1274
permettr ont</w> 1274
bo v 1274
présent s</w> 1273
adop tés</w> 1273
examin é</w> 1273
t- ils</w> 1272
attein te</w> 1272
quanti té</w> 1272
B 5-0 1270
ra les</w> 1270
ag i</w> 1270
l’ importance</w> 1270
pi è 1270
l'industr ie,</w> 1270
élect eurs</w> 1270
Con ven 1269
quel qu'un</w> 1269
acti f</w> 1269
légiti mité</w> 1269
g enda</w> 1268
cell es-ci</w> 1268
des sus</w> 1268
stabil isation</w> 1268
É co 1267
déci sionn 1267
concurr ence,</w> 1267
ré agir</w> 1266
com i 1266
l’ Europe.</w> 1266
pu ni 1266
souti en.</w> 1266
progres sivement</w> 1266
oeu vre</w> 1266
fai bl 1265
fondament aux.</w> 1265
sug ges 1265
renfor cé 1264
f eu 1263
su bi 1263
l'U kraine</w> 1263
mati n</w> 1263
ill én 1262
l'inter vention</w> 1262
on t,</w> 1261
re trait</w> 1261
im p 1261
ét onn 1261
hu i</w> 1261
orient ale</w> 1261
exclu sivement</w> 1260
sou mise</w> 1259
avanc ées</w> 1259
quatri ème</w> 1259
le çons</w> 1258
génér ation</w> 1258
énergé tiques</w> 1258
s ap 1257
répon du</w> 1257
État ,</w> 1257
éra ble</w> 1257
Cor ée</w> 1257
re voir</w> 1256
déb ou 1256
cho se,</w> 1256
ais ons</w> 1256
fabri c 1256
mi d 1255
qu’ elles</w> 1255
appropri ées</w> 1255
syn dic 1255
Pal estini 1255
fédé r 1255
N ord 1254
di rais</w> 1254
poin ts.</w> 1254
cour ant</w> 1254
li ons</w> 1253
contr airement</w> 1252
nation al,</w> 1252
renfor cer 1252
vi é 1251
im pose</w> 1251
déci sion,</w> 1251
budg et.</w> 1251
Dé mo 1251
suscepti bles</w> 1251
2 2</w> 1250
uni es.</w> 1250
lec ture,</w> 1250
tradi tion</w> 1250
deven ue</w> 1250
chau ff 1250
D E</w> 1249
compl et</w> 1249
cô té,</w> 1249
observ ation</w> 1249
inqui études</w> 1248
Croati e</w> 1248
é poque</w> 1247
B i 1246
pré voir</w> 1246
nation al.</w> 1246
200 5,</w> 1246
lors qu'ils</w> 1246
att ent 1246
impli cation</w> 1246
fix és</w> 1246
prisonni ers</w> 1246
1 8 1245
ré ci 1245
ab u 1245
accor dé</w> 1245
eus es,</w> 1245
important s.</w> 1245
pren ons</w> 1245
menac es</w> 1245
ai se.</w> 1244
po iss 1244
lo g 1244
pacifi que</w> 1244
t ô 1243
nou s- 1243
dég ag 1243
l’UE .</w> 1243
ch ent</w> 1242
ap paraît</w> 1242
urthermor e,</w> 1242
m ation</w> 1241
S i 1241
équi val 1241
engag ée</w> 1241
fourni ture</w> 1241
AC P</w> 1241
s aisi 1240
dé montré</w> 1240
com bu 1240
mé d 1240
écri t</w> 1240
commis sion.</w> 1240
Ou i,</w> 1240
rem édi 1239
Au tri 1239
diffici le.</w> 1238
ri e</w> 1237
ann ul 1237
N G 1236
ag grav 1236
end rai</w> 1236
l' approbation</w> 1235
memb re.</w> 1235
ma î 1235
altern ative</w> 1235
aven ir.</w> 1235
quin ze</w> 1235
r embour 1234
vi te</w> 1234
travaill eurs.</w> 1234
es t 1233
dis par 1233
technologi que</w> 1233
Pol ogne</w> 1233
S on</w> 1232
v olu 1232
communaut aires.</w> 1232
navi g 1232
télévi sion</w> 1232
ex erci 1231
t ellement</w> 1230
inaccep table.</w> 1230
titu l 1230
d’abor d</w> 1230
l'ON U</w> 1229
d' a 1228
dé sé 1228
ag ence</w> 1228
pour cent 1228
intro duction</w> 1228
men é</w> 1227
chapi tre</w> 1227
T i 1225
l'E st 1225
pén ale</w> 1225
per tes</w> 1224
devi enne</w> 1224
désé qui 1224
m p 1223
( N 1223
l' occu 1223
0 , 1222
f er</w> 1222
in dem 1222
contribu ent</w> 1222
s’ il</w> 1222
climati que.</w> 1222
intéress ant</w> 1222
anti ci 1221
rig our 1221
pauvret é.</w> 1221
préven ti 1220
a m</w> 1219
200 3,</w> 1219
véri fier</w> 1219
cin qui 1219
6 -0 1218
v acc 1218
s' attaquer</w> 1218
soci ales,</w> 1218
satis faire</w> 1218
plani fication</w> 1218
v end 1217
ret our 1217
réguli èrement</w> 1217
ca le</w> 1215
D' une</w> 1215
g ra 1214
S omm 1214
co décision</w> 1214
dem an 1214
répon d</w> 1214
so vié 1214
cris e,</w> 1214
b omb 1213
d' ar 1213
souti ennent</w> 1213
anni vers 1213
P u 1212
nor d</w> 1212
modern isation</w> 1212
l'OTA N</w> 1212
pens ent</w> 1211
in cendi 1210
sign ature</w> 1210
domain es.</w> 1210
i j 1209
S I 1209
200 2</w> 1209
présid ente</w> 1209
négoci er</w> 1209
sup pose</w> 1209
justi ce,</w> 1209
Améri c 1209
A ff 1208
cruci ale</w> 1208
trai té,</w> 1207
comm is</w> 1206
comm ence</w> 1206
ser ,</w> 1206
tex te.</w> 1206
améric ain</w> 1206
outi ls</w> 1206
Tch étch 1206
9 0</w> 1205
pa ssi 1205
consac ré</w> 1205
appréci e</w> 1205
f rag 1204
è tres</w> 1204
desti né</w> 1204
milliar d</w> 1204
mes ur 1202
transpar ence,</w> 1202
s por 1201
G ali 1201
l' octroi</w> 1201
ap parten 1201
l’ avenir</w> 1201
donn ent</w> 1201
priv ée</w> 1201
inqui ét 1201
u les</w> 1200
S eu 1200
enten d</w> 1199
(A 4-0 1199
I I</w> 1198
proch ains</w> 1198
199 9,</w> 1198
n av 1197
con solid 1197
pro long 1196
200 0.</w> 1196
priv é</w> 1196
humain es</w> 1196
coor donner</w> 1196
H el 1194
trans actions</w> 1194
distin c 1194
direc t</w> 1193
augment é</w> 1193
arrê ter</w> 1193
fév rier</w> 1193
l ab 1192
encourag e</w> 1192
nour ri 1192
. -</w> 1191
d' aider</w> 1191
d'ex per 1191
bureaucrati e</w> 1191
exces si 1191
succè s.</w> 1191
ex pl 1190
commun .</w> 1190
prot ectionn 1190
œuv re,</w> 1190
engag és</w> 1190
justi fier</w> 1190
lec ture.</w> 1190
espè ces</w> 1190
min orité</w> 1189
d'abor der</w> 1189
Aff aires</w> 1189
tr ac 1188
vi ons</w> 1188
stitu tion</w> 1188
dura ble,</w> 1188
mac ro 1188
cor por 1187
PI B</w> 1187
rest au 1187
l'excell ent</w> 1187
simpli fi 1186
ens )</w> 1186
d û 1185
nécess airement</w> 1185
remerci ements</w> 1185
popul ation.</w> 1185
enquê tes</w> 1185
n ul 1184
N on</w> 1184
Qu i</w> 1184
exist antes</w> 1184
semain es,</w> 1184
nom ination</w> 1183
R O 1182
libér alis 1182
sav ent</w> 1182
chimi ques</w> 1182
d' encourager</w> 1181
politi quement</w> 1181
ret en 1181
loc aux</w> 1181
opti mis 1181
at eurs.</w> 1180
suiv ant</w> 1180
exprim ées</w> 1180
produis ent</w> 1180
revan che,</w> 1180
régl er</w> 1179
constructi ve</w> 1179
climati que,</w> 1178
vice- président</w> 1177
d' autres,</w> 1176
as h 1176
institu tions,</w> 1176
connaiss ent</w> 1176
argu ment</w> 1176
d s.</w> 1175
présent ées</w> 1175
adhé sion,</w> 1175
F is 1174
" économie</w> 1174
t aille</w> 1173
péri odes</w> 1173
cor ri 1173
endr e.</w> 1173
stimul er</w> 1173
e c</w> 1172
qu ar 1172
ré alité.</w> 1172
iss ements</w> 1172
mar que</w> 1172
cir cons 1172
souh ait</w> 1171
institutionn elle</w> 1170
par tout</w> 1169
recher che.</w> 1169
associ ations</w> 1169
devi ennent</w> 1169
T h 1168
budgét aire.</w> 1168
d' amendements</w> 1167
ren on 1167
honn ê 1166
chaî ne</w> 1166
M i 1165
k o 1165
voi es</w> 1165
Slo va 1165
réduc tions</w> 1165
ad er</w> 1163
Can ad 1163
spor ti 1163
im pér 1162
dis tor 1162
jus qu' 1162
e k 1161
et tement</w> 1161
pos te</w> 1161
fer ont</w> 1161
r ô 1160
vi es</w> 1160
200 0 1160
demand e,</w> 1160
sign er</w> 1160
tent é</w> 1160
accid ents</w> 1160
franç aise</w> 1159
souff r 1159
po que,</w> 1158
Barroso ,</w> 1158
g y 1157
at mos 1157
fai bles</w> 1157
Ch ine.</w> 1157
prati que.</w> 1157
préc au 1157
préci s</w> 1157
cultur e,</w> 1157
confir mé</w> 1157
rétabli r</w> 1157
budg et,</w> 1156
l oy 1155
ti ques.</w> 1155
cher che</w> 1155
problèm es,</w> 1155
bénéfi ces</w> 1155
besoin .</w> 1155
rempli r</w> 1155
(N L)</w> 1155
dé montre</w> 1154
ser ai</w> 1154
CO 2</w> 1154
y cl 1153
or di 1153
ter re</w> 1153
du mp 1153
X X 1152
ati ves,</w> 1152
garanti t</w> 1152
soli de</w> 1152
L’ Union</w> 1152
20 0</w> 1150
financi ères.</w> 1150
privi légi 1150
l'in di 1149
formul ées</w> 1149
op tions</w> 1148
d' augmenter</w> 1148
L' un</w> 1148
opér ation</w> 1148
ress é</w> 1148
État .</w> 1148
u le</w> 1147
l'in strument</w> 1147
simpli fier</w> 1147
envoy é</w> 1147
Bure au</w> 1147
enc er</w> 1145
ambi tion</w> 1145
seign ement</w> 1145
Barro so</w> 1145
b arri 1144
demand ent</w> 1144
c k 1143
ab sur 1143
vis as</w> 1143
accue il</w> 1143
pro jet 1142
o ù 1141
emb arg 1141
territ oires</w> 1141
pré voy 1140
ru bri 1140
dé ,</w> 1139
effectu er</w> 1139
adhér er</w> 1139
l'ex clusion</w> 1138
sal aires</w> 1138
Li tu 1138
l'E S 1138
dev ri 1137
app els</w> 1137
TV A</w> 1137
s / 1136
acc ru 1136
ati ves.</w> 1135
pro fond 1135
cher cher</w> 1135
véri té</w> 1135
croiss ance,</w> 1135
Qu and</w> 1135
pili er</w> 1135
l'exemp le</w> 1135
n' avait</w> 1134
200 1</w> 1134
utilis ent</w> 1134
prim ordi 1134
capit aux</w> 1134
restr ein 1134
directi ve 1133
fau te</w> 1133
bl es 1132
approfondi e</w> 1132
affai bli 1132
citoyenn eté</w> 1132
li n</w> 1131
mon t 1131
dés astr 1131
convain cu 1131
altern atives</w> 1131
main- d' 1131
z i 1130
P r 1130
op posés</w> 1130
stratégi ques</w> 1130
mati n,</w> 1129
200 7 1129
jou ent</w> 1129
aff ect 1129
chos es,</w> 1129
2 )</w> 1128
e au,</w> 1127
ess e.</w> 1126
procédu re.</w> 1126
élabor é</w> 1126
diminu tion</w> 1126
P SE 1125
l'inter médiaire</w> 1125
d es,</w> 1124
oi e</w> 1124
pouv ons-nous</w> 1124
croiss ant</w> 1124
mat er 1124
convainc re</w> 1124
s at 1123
T elle</w> 1123
nég atif</w> 1123
contribu ables</w> 1123
lors qu'elle</w> 1123
B ir 1122
an es</w> 1122
in v 1122
ra ssembl 1122
important es.</w> 1122
refu ser</w> 1122
éventu elle</w> 1122
couv re</w> 1122
C er 1121
garanti ssant</w> 1121
tes ts</w> 1121
équip ements</w> 1121
vulné ra 1121
B us 1120
re di</w> 1120
dél oc 1120
dérou l 1120
per sécu 1119
de z</w> 1119
débat tu 1119
perman ent</w> 1119
pul sion</w> 1119
i ci.</w> 1118
four ni</w> 1118
remar quer</w> 1118
abor de</w> 1117
fonc tions</w> 1117
capit ale</w> 1117
gu ère</w> 1116
essay é</w> 1116
arti cl 1115
renforc ée</w> 1115
affir mé</w> 1115
rej ette</w> 1115
E D 1114
ar d 1114
ser ve</w> 1114
environn ement,</w> 1114
établ issant</w> 1114
sugg ère</w> 1114
Slova qui 1114
2 6</w> 1113
l'in vestiss 1113
objecti f.</w> 1113
civi ls</w> 1113
pauvret é,</w> 1113
tonn es</w> 1113
comp te.</w> 1112
Her z 1112
ra y 1111
fa ssent</w> 1111
région aux</w> 1111
is me,</w> 1110
ré pé 1110
d' orig 1110
pro li 1110
il ,</w> 1110
génér alis 1110
maxim um</w> 1109
si ège</w> 1108
prom is</w> 1108
inform é</w> 1108
commerci alisation</w> 1108
restructur ation</w> 1108
f eu</w> 1107
ré d 1107
médi ateur</w> 1107
énergé tique,</w> 1107
améric aine</w> 1107
e )</w> 1106
per sist 1106
ces s 1106
V )</w> 1105
comprom is.</w> 1105
équilib rée</w> 1105
accue ill 1105
multilat ér 1105
automobi le</w> 1105
circons cri 1105
rel ance</w> 1104
ren voy 1104
répon se.</w> 1104
volon taire</w> 1104
refu s</w> 1104
partag eons</w> 1104
(A 5-0 1104
ap pris</w> 1103
sé ment</w> 1103
fourni t</w> 1103
minim ales</w> 1103
Tchétch é 1103
A R 1102
2 5 1102
sti pu 1102
mi - 1102
aliment aire,</w> 1102
crit ère</w> 1102
op hi 1101
Par mi</w> 1101
pen cher</w> 1101
gr os</w> 1100
coopér ation,</w> 1100
Tou te</w> 1100
Es pagn 1100
ent- ils</w> 1100
internation ales.</w> 1099
écou té</w> 1099
thé ori 1099
ad di 1098
mati ques</w> 1098
d'in itiative</w> 1098
éch ec</w> 1098
Europé ens,</w> 1098
er i 1097
li re</w> 1097
isl ami 1097
bil an</w> 1097
dro gues</w> 1097
maî tr 1097
c ab 1096
s' assurer</w> 1096
app ell 1096
ru sse</w> 1096
const até</w> 1096
PA C</w> 1096
b ét 1095
at oi 1095
financi ère.</w> 1095
diffici le,</w> 1095
para ître</w> 1095
illég ale</w> 1095
secon de</w> 1095
( CO 1094
Z imbabw 1094
aujourd’hu i,</w> 1094
conserv ation</w> 1094
Pol ogn 1094
d' urg 1093
por tés</w> 1093
no tion</w> 1093
législ ations</w> 1093
xi ème</w> 1093
b es</w> 1092
mi g 1092
ve ille</w> 1092
quali té.</w> 1092
occup er</w> 1092
é der</w> 1091
m ér 1091
qu' a</w> 1091
observ ations</w> 1091
objecti fs.</w> 1090
péri o 1090
fin .</w> 1089
clar té</w> 1089
rend ent</w> 1089
i t,</w> 1088
centr al</w> 1088
renfor ce</w> 1088
Gr âce</w> 1088
fru its</w> 1088
interpré tation</w> 1088
campagn es</w> 1088
l' est</w> 1087
fin ale</w> 1087
mar qu 1087
négoci ations,</w> 1087
cinqui ème</w> 1087
c ouvrir</w> 1086
m an</w> 1086
t :</w> 1086
donn era</w> 1086
acti fs</w> 1086
décou l 1086
fin land 1085
rapid ement.</w> 1085
clari fi 1085
Ou tre</w> 1085
scand al 1085
h ol 1084
re qui 1084
exist ants</w> 1084
combu sti 1084
O r 1083
3 1</w> 1083
impliqu és</w> 1083
Pays-B as</w> 1083
collec te</w> 1083
si te</w> 1082
d'Amster dam</w> 1082
h ori 1081
ê tre,</w> 1081
li c 1081
200 6.</w> 1081
catégori es</w> 1081
c '</w> 1080
é prouv 1080
l’ objet</w> 1080
vo te,</w> 1080
trai t 1080
anti - 1080
lev er</w> 1080
tent atives</w> 1080
entraî ner</w> 1080
où ,</w> 1080
L '</w> 1079
pré texte</w> 1079
l’ égard</w> 1079
inqui étude</w> 1079
concré ti 1079
B l 1078
I N 1078
( article</w> 1078
H am 1078
op port 1078
d' égalité</w> 1078
ph ère</w> 1078
d'im pact</w> 1078
Rom s</w> 1078
V ert 1077
200 8</w> 1077
vis u 1077
demand eurs</w> 1077
d’ action</w> 1075
Par ti</w> 1075
nation ale.</w> 1075
déj à 1075
investiss ement</w> 1075
harmon iser</w> 1075
tragédi e</w> 1075
d'in iti 1074
progr è 1074
quali té,</w> 1074
d'Amster dam 1074
d es.</w> 1073
si g 1073
d’ avoir</w> 1073
200 2,</w> 1073
ing ,</w> 1073
difficul té</w> 1073
rapproch er</w> 1073
ten dre</w> 1072
public s,</w> 1072
devi ons</w> 1072
se z</w> 1071
con duc 1070
rati fi 1070
T uni 1069
l'é change</w> 1068
souff rent</w> 1068
Démo cr 1068
bl oc 1067
inter nes</w> 1067
200 4.</w> 1067
pré judi 1066
rec ettes</w> 1066
cor ps</w> 1066
annivers aire</w> 1066
dev aient</w> 1065
ques - 1065
cont am 1065
inten tions</w> 1065
Moyen-Ori ent</w> 1065
d' accepter</w> 1064
aut or 1064
L' amendement</w> 1064
déch arg 1064
tchè que</w> 1064
der ,</w> 1063
progres sive</w> 1063
l' espoir</w> 1062
d' entendre</w> 1062
ex pres 1062
all oc 1062
fru ctu 1062
té nu 1061
l’ un</w> 1061
spéci alis 1061
empê che</w> 1061
proli fér 1061
ré par 1060
financi ère,</w> 1060
conse ils</w> 1060
correspon d 1060
annex e</w> 1060
b aiss 1059
Con cer 1059
rel èvent</w> 1059
impli cations</w> 1059
structur elles</w> 1059
Allem agne</w> 1059
forê ts</w> 1059
candid at</w> 1058
j eux</w> 1057
ar ch 1057
Ver ts</w> 1057
Méditerran ée</w> 1057
après- mi 1057
ri ches</w> 1056
d'ex primer</w> 1056
bénéfici e</w> 1056
A fghanist 1055
somm e</w> 1055
d'euro s,</w> 1055
T im 1054
l’ État</w> 1054
plac e.</w> 1054
d'é cus</w> 1054
l' attitude</w> 1053
entr et 1053
l'in nov 1053
compr ennent</w> 1053
entre pren 1053
" Monsieur</w> 1052
aux - 1052
professionn els</w> 1052
propos ons</w> 1052
méd ec 1052
S ar 1051
in con 1051
concurr enti 1051
commer ce,</w> 1051
considér ant</w> 1051
réc entes</w> 1051
priv és</w> 1051
consolid ation</w> 1051
M ais,</w> 1050
In ter 1050
enti ère</w> 1049
économi e,</w> 1049
ten ons</w> 1048
l'A mérique</w> 1048
err on 1048
neu f</w> 1048
vie ill 1048
ré s.</w> 1047
200 7,</w> 1047
C ' 1046
L a 1046
él ection</w> 1046
libér ation</w> 1046
201 0</w> 1046
évid ence,</w> 1046
ignor er</w> 1046
Min is 1046
l' humani 1045
no ter</w> 1045
s "</w> 1044
Strasbour g</w> 1044
réci pro 1044
aut ori 1043
soci o- 1043
seu il</w> 1043
législ ation.</w> 1043
vo terons</w> 1042
dou tes</w> 1042
sû reté</w> 1042
mouv ements</w> 1042
ser ai 1041
d’ euros</w> 1041
rec ourir</w> 1041
financi ères,</w> 1041
dura bilité</w> 1041
Fr an 1041
d'im migration</w> 1041
x én 1040
di z 1040
l’ en 1040
soci aux,</w> 1040
aff ron 1040
Qu elles</w> 1040
figur ent</w> 1040
L' une</w> 1039
all ant</w> 1039
car te</w> 1038
profon de</w> 1038
Pal esti 1038
ab oli 1037
200 7.</w> 1037
l'élargiss ement.</w> 1037
pa th 1036
ch an 1036
im posées</w> 1036
cl assi 1036
200 9</w> 1036
mu sul 1036
appliqu ée</w> 1036
déli v 1036
Concer nant</w> 1036
économi e.</w> 1035
travaill ons</w> 1035
judici aires</w> 1035
écou l 1035
chos es.</w> 1035
é coles</w> 1034
ca t</w> 1034
min ist 1034
pri o 1034
D' autres</w> 1034
simil aires</w> 1034
ré els</w> 1033
d' États</w> 1033
nu mér 1033
puis qu'il</w> 1033
aliment aire.</w> 1033
appliqu ées</w> 1033
stad e,</w> 1033
si ne</w> 1032
ac com 1032
ér ation</w> 1032
équi pe</w> 1032
renforc é</w> 1032
Su è 1032
compati ble</w> 1032
m ou 1031
déci sion 1031
J' invite</w> 1031
ologi e</w> 1031
ph arm 1031
vé ni 1031
pharm ac 1031
F urthermore,</w> 1030
V I 1030
er gi 1030
av er 1030
dis ons</w> 1030
ag enda</w> 1029
plac e,</w> 1029
bure au</w> 1029
ob il 1028
él u</w> 1028
y .</w> 1027
gr o 1027
direc teur</w> 1027
médi c 1027
concep tion</w> 1027
l'Allem agne</w> 1027
ag ré 1026
volon t 1026
indépend ante</w> 1025
l'Au tri 1025
dû ment</w> 1025
o se</w> 1024
l'agricul ture,</w> 1024
at ténu 1023
ouv re</w> 1023
s' engager</w> 1023
environn ement.</w> 1023
proch aine.</w> 1023
desti née</w> 1023
effectu é</w> 1023
n aiss 1022
con ces 1022
mo teur</w> 1022
l’ adhésion</w> 1022
ser ais</w> 1022
limi té</w> 1022
confron tée</w> 1022
condam ner</w> 1022
Vert s/ 1022
in ond 1021
d' évaluation</w> 1021
applic ables</w> 1021
pétro li 1021
r i</w> 1020
ad mettre</w> 1020
soi - 1020
considé rés</w> 1020
déclar er</w> 1020
indi quer</w> 1020
tempor aire</w> 1020
n atu 1019
19 7 1019
souv ent,</w> 1019
hum ain</w> 1019
Copenhag ue</w> 1019
d' armes</w> 1018
Commiss aire.</w> 1018
off rent</w> 1018
fisca les</w> 1018
dev ez</w> 1017
indépend ance</w> 1017
honor ables</w> 1017
K ar 1016
for esti 1016
rec ycl 1016
administr ative</w> 1016
at eur,</w> 1015
ex pression</w> 1015
présent és</w> 1015
réalis te</w> 1015
ambi gu 1015
dég ra 1015
trou pes</w> 1015
présent ent</w> 1014
quel conque</w> 1014
dési r</w> 1014
m ,</w> 1013
jour s.</w> 1013
quel ques- 1013
cé ré 1013
intégr é</w> 1013
expli cit 1013
oph obi 1013
responsabili té.</w> 1013
M or 1012
trai tées</w> 1012
program me.</w> 1012
l'A genda</w> 1012
d ation</w> 1011
es ?</w> 1011
esti mé</w> 1011
ru ss 1011
convi ction</w> 1011
p eur</w> 1010
ti ques,</w> 1010
él us</w> 1010
land e.</w> 1010
quê te</w> 1010
poss ède</w> 1010
derni er.</w> 1009
long temps,</w> 1009
évén ement</w> 1009
témoi gn 1009
U kraine</w> 1008
cour onn 1008
fondament alement</w> 1008
conse ill 1008
dé favoris 1007
ac ul 1007
trans mettre</w> 1007
èg es</w> 1007
Qu elle</w> 1007
mo dé 1006
eff on 1006
endr e,</w> 1006
tabl es.</w> 1006
d or 1005
l' ampleur</w> 1005
memb re,</w> 1005
travai lle</w> 1005
ru rales</w> 1005
long temps.</w> 1005
impati ence</w> 1005
ph il 1004
région s,</w> 1004
public s.</w> 1004
partag er</w> 1004
sou ci</w> 1003
présent .</w> 1003
proposi tions.</w> 1003
établi t</w> 1003
appuy er</w> 1003
pro cès</w> 1002
end ant</w> 1002
limi tée</w> 1002
bou t</w> 1002
v oit</w> 1001
em pris 1001
pa pi 1001
per ç 1001
Europ ol</w> 1001
trans formation</w> 1001
retar ds</w> 1001
prud ence</w> 1001
allem and</w> 1000
l'ag enda</w> 1000
fondament aux,</w> 999
enthousi as 999
élev ées</w> 998
transpar ence.</w> 998
observ ateurs</w> 998
viv ant</w> 998
fermet ure</w> 998
B E 997
l à- 997
é té,</w> 997
f actu 997
at aires</w> 997
for um</w> 997
démocr ates- 997
réc ents</w> 997
équilib ré</w> 997
qualifi cations</w> 997
Portug al,</w> 997
cer tes</w> 996
aut o 996
rais ons,</w> 996
dump ing</w> 996
l' effet</w> 995
200 1,</w> 995
légiti me</w> 995
Sol an 995
l’ occasion</w> 994
sur veiller</w> 994
NG L 994
î les</w> 993
con ç 993
inter institutionnel</w> 993
anci en</w> 993
nécess aires,</w> 993
conten ues</w> 993
étudi er</w> 993
flot te</w> 993
l' élimination</w> 992
omi e</w> 992
exploi tations</w> 992
c ’ 989
en ver 989
d' aller</w> 989
ag res 989
d’ entre</w> 989
partici per 989
transform er</w> 989
C '</w> 988
n is 988
j ur 988
l' ach 988
représent er</w> 988
Par allè 987
homm age</w> 987
dro gue</w> 987
ct oire</w> 987
E C 986
m' ont</w> 986
conjoin tement</w> 986
J u 985
pro vis 985
re traite</w> 985
Présid ent.</w> 985
nor di 985
cô ti 985
laiss é</w> 985
2 8</w> 984
fri que,</w> 984
sol d 984
recu e 984
enti er</w> 983
contradi ction</w> 983
phil os 983
g as 982
gu er</w> 982
prot ec 982
sus p 982
i te</w> 981
E x 981
l' am 981
l’ industrie</w> 981
exprim ée</w> 981
201 0.</w> 981
l ang 980
T ant</w> 980
main tes</w> 980
engag é</w> 980
empris onn 980
è te,</w> 979
ég ov 979
inter rom 979
occa sion,</w> 979
élé ment 979
consid èrent</w> 979
tribun aux</w> 979
compens ation</w> 979
Herz égov 979
er ie</w> 978
l’ environnement</w> 978
derni ère.</w> 978
appli qué</w> 978
soi r,</w> 978
fronti ères.</w> 978
lanc ement</w> 978
péti tions</w> 978
sauve garde</w> 978
200 9.</w> 977
assi sté</w> 977
l'anci enne</w> 977
pronon cer</w> 977
ati que</w> 976
ss é</w> 976
écon om 976
arg ent.</w> 976
l'av ant 976
habi t 976
abouti r</w> 976
C eux</w> 975
N .</w> 975
ma ss 975
comprom is,</w> 975
dél oy 975
convain cus</w> 975
spec t 975
lon gu 974
enn es,</w> 973
réc ent</w> 973
vigu eur.</w> 973
expéri ences</w> 973
c . 972
l'en seignement</w> 972
é c 971
commun ,</w> 971
expli que</w> 971
pl aintes</w> 970
rati onn 970
bas é</w> 970
décri t</w> 970
bienven ue</w> 970
in contes 969
ain s,</w> 969
l’ objectif</w> 969
ell es- 969
demand ant</w> 969
élargi r</w> 969
l li 968
sou mises</w> 968
présid ent,</w> 968
occu pe</w> 968
Ver h 968
A .</w> 967
e ",</w> 967
T el</w> 967
modè les</w> 967
mê mes,</w> 966
nuclé aire.</w> 966
électroni que</w> 966
pourcent age</w> 966
ni er</w> 965
cô tés</w> 965
résist ance</w> 965
A r 964
3 5</w> 964
ser vent</w> 964
ani e,</w> 964
consac rer</w> 964
LA F</w> 964
D oh 963
on e,</w> 963
ré i 963
mondi al,</w> 963
exam ine</w> 963
Pers onn 963
absolu e</w> 962
transport s,</w> 962
abandonn er</w> 962
assassi n 962
util ise</w> 962
embarg o</w> 962
g in 961
gouvern ement,</w> 961
l' acquis</w> 960
Grè ce,</w> 960
f re 959
vis a</w> 959
cou pa 959
enti er.</w> 958
rencontr é</w> 958
étudi ants</w> 958
im migrants</w> 957
dépu tés.</w> 957
proch aine,</w> 957
th èmes</w> 957
là .</w> 957
instau rer</w> 957
solu tion.</w> 956
seu les</w> 956
fl ag 956
ris qu 956
réglement aire</w> 956
indépend ants</w> 956
d'im poser</w> 956
n ettement</w> 955
D eux</w> 955
P endant</w> 955
ou i,</w> 955
empl oi,</w> 955
entre prendre</w> 955
illu str 955
2007 -201 955
él è 954
pri x.</w> 954
ba ss 954
d'ex pression</w> 954
siè cle</w> 954
sat elli 954
e b 953
re pris</w> 953
concentr ation</w> 953
Bosni e- 953
import ation</w> 952
exig ence</w> 952
essay ons</w> 952
secré taire</w> 952
ré sol 951
atu res</w> 951
région s.</w> 951
évalu ations</w> 951
bénéfici aires</w> 951
évent ail</w> 951
appel ons</w> 951
Moyen-Ori ent.</w> 951
Intern et</w> 951
parti e,</w> 950
rem pl 950
exig ent</w> 950
krai ni 950
natu rel</w> 950
si e,</w> 949
res tera</w> 949
contr e,</w> 949
der a</w> 949
j' avais</w> 949
intég rité</w> 949
journ alistes</w> 949
accueilli r</w> 949
soi- disant</w> 949
mom ent.</w> 948
cal cul 948
" énergie</w> 947
Ira k</w> 947
ving t</w> 947
stipu le</w> 947
É gy 946
bi om 946
Brux elles,</w> 946
é man 945
j '</w> 945
l' énergie.</w> 945
quit ter</w> 945
sac ri 945
ces ser</w> 944
trans position</w> 944
col oni 944
Qu atri 944
multi pli 944
envis age</w> 944
enseign ement</w> 944
solidari té,</w> 944
ain s.</w> 943
tou t.</w> 943
lib rement</w> 943
modifi é</w> 943
restri cti 943
ai de.</w> 942
ter res</w> 942
sou ci 942
2 , 941
d' environ</w> 941
plu r 941
juridi quement</w> 941
particip ent</w> 941
regis tre</w> 941
l’Uni on.</w> 941
Natur ellement,</w> 941
pharmac eu 941
don é 940
anim aux.</w> 940
subst ance</w> 940
immédi ate</w> 940
effon dr 940
s tu 939
pr ends</w> 939
soci aux- 939
L' accord</w> 939
positi ves</w> 939
Pro di</w> 939
gas pill 939
r r 938
ca dre,</w> 938
200 8,</w> 938
intéri m 938
défin i</w> 938
migr ation.</w> 938
favor ablement</w> 938
constat ons</w> 938
confir me</w> 938
duis ent</w> 938
Bir mani 938
c élé 937
in sul 937
ag ents</w> 937
cri tiqu 937
ir ani 937
Qu el</w> 937
migr ation,</w> 937
chem ins</w> 937
ré s,</w> 936
ré pression</w> 936
l’ économie</w> 936
l'ex tension</w> 936
volu me</w> 936
G ar 935
enn es.</w> 935
sau f</w> 935
Serbi e</w> 935
es "</w> 934
mi cro 934
200 9,</w> 934
humain e.</w> 934
simil aire</w> 934
solidari té.</w> 934
Kosovo ,</w> 934
mon tants</w> 933
objecti fs,</w> 933
PE S 933
auton om 933
di t.</w> 932
am ment,</w> 932
jus qu’à</w> 932
moti fs</w> 932
di rai</w> 931
l’ adoption</w> 931
haut ement</w> 931
l' ac 930
ap pl 930
él or 930
ven ons</w> 930
donn ant</w> 930
l'A n 930
d en</w> 929
z o 929
si tes</w> 929
im mig 929
mesu res,</w> 929
souhai té</w> 929
indépend amment</w> 929
Sch ul 929
s téri 928
" égalité</w> 928
spéci ale</w> 928
spécifi ques.</w> 928
arriv ée</w> 928
chréti ens)</w> 928
M ain 927
T am 927
civi le.</w> 927
décla re</w> 927
B ol 926
is ent</w> 926
ir régul 926
souten ue</w> 926
soul ève</w> 926
l'éduc ation,</w> 926
financi ers.</w> 925
t on,</w> 924
accompli s</w> 924
Verh eug 924
" État</w> 923
? uvre</w> 923
ti ème</w> 923
d' acc 923
et ter 923
no ti 922
Par ce</w> 922
group e.</w> 922
structurel s,</w> 922
l'élargiss ement,</w> 922
sugges tions</w> 922
l u</w> 921
at tr 921
dr ont</w> 921
n' aurait</w> 921
effecti ve</w> 921
l'Es t</w> 921
Jus qu'à</w> 921
m èn 920
K on 920
mesu res.</w> 920
201 0,</w> 920
Ira n</w> 920
Géorgi e</w> 920
l'extéri eur</w> 920
P i 919
ré tabl 919
pour ri 919
déb ar 919
souhai table</w> 919
l'é poque</w> 919
évo qu 919
Belar us</w> 919
d' accords</w> 918
re join 918
de au</w> 918
fer mer</w> 918
crimin els</w> 918
comment aire</w> 918
y m 917
di vision</w> 917
vi n</w> 917
ap h 917
présent ant</w> 917
d'in clure</w> 917
sect eur,</w> 917
hi er,</w> 917
Cert aines</w> 917
qu' aucun</w> 916
aut eurs</w> 916
préoccu pés</w> 916
allem ande</w> 916
consoli der</w> 916
or ale</w> 915
l' accep 915
fr oi 915
lon gues</w> 915
est- elle</w> 915
handicap ées</w> 915
s ag 914
considér ation.</w> 914
exécu ti 914
brev ets</w> 914
m er.</w> 913
com bler</w> 913
chang é</w> 913
tolér ance</w> 913
Cer tes,</w> 913
is me.</w> 912
l’ année</w> 912
nu it</w> 912
concr ète</w> 912
bas e,</w> 912
br an 912
vig il 912
ryth me</w> 912
c op 911
région ale,</w> 911
mer ci</w> 911
privi l 911
pl ant 910
pen sions</w> 910
suscepti ble</w> 910
p esti 909
sect ori 909
prom esses</w> 909
croiss ance.</w> 909
réi té 909
qu' après</w> 908
fais ant,</w> 908
examin ons</w> 908
identi fication</w> 908
devi endra</w> 908
rac isme</w> 908
remarqu able</w> 908
b a</w> 907
M old 907
al lu 907
inter dit</w> 907
200 5.</w> 907
conn exi 907
gouvernement ales</w> 907
touch és</w> 907
e i 906
C ar</w> 906
( RO 906
ad mis 906
Itali e</w> 906
g e,</w> 905
der .</w> 905
atten d 905
sim ples</w> 905
ris quent</w> 905
résult ats.</w> 905
popul ation,</w> 905
inclu t</w> 905
autoris er</w> 905
B CE</w> 904
pr ag 904
com pris 904
oc arb 904
Brux elles.</w> 904
irland aise</w> 904
n on,</w> 903
( H 903
l'ex ception</w> 903
conclu s</w> 903
autom obil 903
diz aines</w> 903
ti v 902
l' autre.</w> 902
ex hor 902
subsi st 902
flu ence</w> 902
o ï 901
fourniss eurs</w> 901
è lement</w> 900
ch y 900
bi en.</w> 900
réglement er</w> 900
cli mat 900
d' empêcher</w> 899
av an 899
fl ation</w> 899
Ir lande,</w> 899
Fis ch 899
préjudi ce</w> 899
re garder</w> 898
re joindre</w> 898
droi te</w> 898
empl ois.</w> 898
pi t 898
pén al</w> 898
- t-elle</w> 897
ô ts</w> 897
tr e- 897
Li by 897
âg ées</w> 897
extraordin aire</w> 897
(RO )</w> 897
9 )</w> 896
m er,</w> 896
M u 896
financ ement.</w> 896
Su d- 896
civi le,</w> 896
3 00</w> 895
R o 895
législ ation,</w> 895
minu tes</w> 895
r ation 894
d' assurance</w> 894
pour rais</w> 894
différ ent</w> 894
pres cri 894
sor t</w> 894
augment e</w> 894
D u</w> 893
ni té</w> 893
dem eure</w> 893
reven di 893
opportuni tés</w> 893
B ö 892
m ée</w> 892
ar bi 892
min es</w> 892
État s,</w> 892
elle- même.</w> 892
palestini en</w> 892
utilis ateurs</w> 891
génér ations</w> 891
A sh 890
o visu 890
souhai ter</w> 890
ins pir 890
clau ses</w> 890
" égard</w> 889
financi ers,</w> 889
199 9.</w> 889
disponi ble</w> 889
l’UE ,</w> 889
aéropor ts</w> 889
Personn ellement,</w> 889
suffis ante</w> 888
règl ement 888
CE ,</w> 888
tribun al</w> 888
comi tés</w> 888
ocarb ur 888
e au.</w> 887
a des</w> 887
p .</w> 887
p ilo 887
M es</w> 887
pré visi 887
du ise</w> 887
l’ utilisation</w> 887
per tur 887
ass emblée</w> 887
défen s 887
supprim é</w> 887
conten ant</w> 887
propri ét 887
é cl 886
L ond 886
l' aspect</w> 886
du r</w> 886
évo quer</w> 886
audi ovisu 886
sauv er</w> 886
(CE )</w> 886
améric ains</w> 885
adéqu at</w> 885
préf érable</w> 885
s ent 884
Con g 884
étrang ers</w> 884
qualifi ée</w> 884
bru t 884
Plu sieurs</w> 884
l'Au torité</w> 884
s'av ère</w> 884
condam nation</w> 883
20 20</w> 882
internation ales,</w> 882
ist e,</w> 882
dollar s</w> 882
R oth 881
T ri 881
si non</w> 881
enc ein 881
sur pris</w> 881
suc re</w> 881
insi sté</w> 881
d'A mérique</w> 881
consult ations</w> 881
I ,</w> 880
com it 880
form ément</w> 880
l'Ira n</w> 880
touris me,</w> 880
communaut aires,</w> 879
conserv ateurs</w> 879
félicit ations</w> 879
l'euro ,</w> 879
d' asi 878
ra ,</w> 878
l’ heure</w> 878
essenti el,</w> 878
intéri eure</w> 878
autoris és</w> 878
jeun es,</w> 878
C hi 877
pa tri 877
op ou 877
ex tension</w> 877
proposi tions,</w> 877
si ves</w> 876
ent ends</w> 876
autr ement</w> 876
nor mal 876
lo in.</w> 876
mer c 876
analy ser</w> 876
Pers onne</w> 876
k il 875
  -,</w> 875
con tenter</w> 875
di ons</w> 875
am i</w> 875
l’ Europe,</w> 875
objecti f,</w> 875
fer ons</w> 875
limi tation</w> 875
correc te</w> 875
manifes tations</w> 875
élargiss ement,</w> 875
I F 874
d' élaborer</w> 874
l’ égalité</w> 874
agn e.</w> 874
dési r 874
vulné rables</w> 874
empr un 874
l'Itali e</w> 874
A c 873
c ancer</w> 873
é clair 873
empl oi.</w> 873
présid enti 873
fer ait</w> 873
préoccu pe</w> 873
commer ce.</w> 873
concerné s.</w> 873
l'Al liance</w> 873
Kosovo .</w> 873
l un 872
ain ement</w> 872
droi ts,</w> 872
l'en f 872
important s,</w> 872
d' intervention</w> 871
l'ex portation</w> 871
do ter</w> 871
sensi bles</w> 871
perman ente</w> 871
espagno le</w> 871
l'anci en</w> 871
s ch 870
y eux,</w> 870
ti enne</w> 870
or es</w> 870
contr aintes</w> 870
dem eur 870
s’ ag 870
priv atis 870
(S V)</w> 870
opport un</w> 870
jour née</w> 869
ver ser</w> 869
tar d.</w> 869
B o 868
m ène</w> 868
éli gi 868
program me,</w> 868
produi ts.</w> 868
cons ent 868
l'en semble,</w> 868
systémati quement</w> 868
dé riv 867
bi ocarbur 867
ju ge</w> 867
pour parl 867
inform és</w> 867
exis tant</w> 867
euro- méditerrané 867
ox y 867
remédi er</w> 867
Somm et</w> 867
hori zon 867
form ule</w> 866
rappel é</w> 866
l'ON U 866
ati f.</w> 865
hon orable</w> 865
lati ne</w> 865
Grande-Bret agne</w> 865
M ,</w> 864
t ation.</w> 864
par ents</w> 864
im parti 864
dossi ers</w> 864
t lanti 863
compétiti ve</w> 863
stric tement</w> 863
fic ation,</w> 863
territori ale</w> 863
arg ent,</w> 862
produc tion,</w> 862
charg es</w> 862
applic able</w> 862
agricol e.</w> 862
achet er</w> 862
sûr s</w> 862
op posé</w> 861
agricol e,</w> 861
an téri 860
fo ssé</w> 860
l et 859
const ante</w> 859
en ch 858
at eur.</w> 858
inter di 858
le ad 858
séri eux.</w> 858
cau sés</w> 858
mod es 858
fall ait</w> 858
A mérique</w> 857
b er</w> 857
mé ,</w> 857
d'in st 857
l'ex tr 857
processu s,</w> 857
considé rées</w> 856
voul ez</w> 856
accu s 856
réform er</w> 856
bor d</w> 856
irrégul ari 856
e z 855
él an</w> 855
ass ou 855
fo ot 855
rép ète</w> 855
slo v 855
qu' aucune</w> 854
2 9</w> 853
J oh 853
cr aign 853
inter n 853
parven u</w> 853
Communau tés</w> 853
Allem agne,</w> 853
actu el,</w> 852
minis téri 852
indi qu 852
fix e</w> 852
Communau té,</w> 852
S in 851
om bi 851
sou p 851
commun iste</w> 851
rais on.</w> 851
Es pagne</w> 851
inég alités</w> 851
é pi 850
es pé 850
pa t 850
pro lon 850
d'é ducation</w> 850
élargiss ement.</w> 850
Est- ce</w> 850
7 5</w> 849
inter institutionn 849
pri x,</w> 849
véri fi 849
corru p 849
Sou d 849
f rap 848
donn ées.</w> 848
nor me</w> 848
jeu ne</w> 848
prin temps</w> 848
rubri que</w> 848
d' entreprise</w> 847
com position</w> 847
te )</w> 847
intégr ante</w> 847
mor ts</w> 847
grav ement</w> 847
sous- ten 847
élector ale</w> 847
oû t</w> 847
refu sé</w> 846
supéri eur</w> 846
S w 845
P C 845
ré pu 845
génér aux</w> 845
dépend ent</w> 845
d'exper ts</w> 845
á n 844
l' assistance</w> 844
emb ry 844
trai tée</w> 844
socié té,</w> 844
chôm age,</w> 844
éri r</w> 843
aujourd’hu i.</w> 843
prob able</w> 843
moder ne</w> 843
s pi 842
P N 842
vou s- 842
l'In de</w> 842
er cer</w> 841
l' analyse</w> 841
dé ploi 841
répon se,</w> 841
l'ex i 841
l'investiss ement</w> 841
v ues</w> 840
ex u 840
personn el,</w> 840
expli qué</w> 840
tradi tions</w> 840
o s.</w> 839
H i 839
ch arte</w> 839
vo i</w> 839
uti les</w> 839
ist es,</w> 839
souhai t 839
continu erons</w> 839
positi ve.</w> 839
religi on</w> 839
l'Es pagne</w> 839
cu n 838
éch app 838
sem aine,</w> 838
directive -cadre</w> 838
J ac 837
l' entreprise</w> 837
l' alimentation</w> 837
op tion</w> 837
dé posé 837
et c. 837
compl éter</w> 837
charg ée</w> 837
Améric ains</w> 837
j ac 836
d' évaluer</w> 836
dé montrer</w> 836
bilatér aux</w> 836
subsidiari té.</w> 836
c h</w> 835
J' appelle</w> 835
r al 834
S ,</w> 834
h abili 834
l' ob 834
ré un 834
gr atu 834
str ö 834
anc e 834
exploi tation</w> 834
Euro st 834
pl at 833
ex ter 833
ar t.</w> 832
per mette</w> 832
Qu el 832
prolifér ation</w> 832
explicit ement</w> 832
i rait</w> 831
in utile</w> 831
ré cu 831
hé si 831
recher ches</w> 831
W at 830
d' enquête</w> 830
for tes</w> 830
condi tions,</w> 830
refu se</w> 830
tab ac 830
félicit ons</w> 830
matéri el</w> 830
r an 829
ou s,</w> 829
l'ex pression</w> 829
annon ce</w> 829
l'inst ar</w> 829
con centre</w> 828
d' entreprises</w> 828
candid ats.</w> 828
correspon d</w> 828
es ;</w> 827
nation ale,</w> 827
acti ves</w> 827
d'ex ercer</w> 827
prév us</w> 827
Constitu tion.</w> 827
uni forme</w> 826
ph ra 826
l'euro .</w> 826
indic ateurs</w> 826
d' enfants</w> 825
di re.</w> 825
al - 825
parti es.</w> 825
mar gin 825
vol s</w> 825
mentionn és</w> 825
tend ances</w> 825
cad res</w> 825
barri ères</w> 825
b ill 824
m atu 824
F er 824
an gu 824
amend ement,</w> 824
jus qu'au</w> 824
clair ,</w> 824
feu ille</w> 824
XX I 824
ri gu 823
én onc 823
eng endr 823
e- t-il</w> 823
contrô le.</w> 823
fronti ères,</w> 823
comment er</w> 823
mettr a</w> 823
repris es,</w> 823
bu l 822
aiss ent</w> 822
cau se,</w> 822
partenari ats</w> 822
l'avi ation</w> 822
gr avi 821
stitu t</w> 821
arri ver 821
offici elle</w> 821
B rési 820
parlement aire.</w> 820
sep tième</w> 820
fisca lité</w> 820
transfrontali ère</w> 820
accompli r</w> 820
aupar avant</w> 820
-B 4-0 820
Vo tre</w> 820
v ali 819
po issons</w> 819
im péri 819
particuli ères</w> 819
souti endra</w> 819
environnement al</w> 819
cultur elles</w> 819
lieu .</w> 819
illén aire</w> 819
rapport eure,</w> 818
nég atifs</w> 818
remerci e,</w> 818
recher cher</w> 818
1 1 817
3 0 817
ai t.</w> 817
l’ emploi</w> 817
cl ô 817
direc ts</w> 817
jus qu'en</w> 817
199 7,</w> 817
voy age</w> 817
(E S)</w> 817
rég issant</w> 817
espagno l</w> 817
démar che</w> 817
stabili té,</w> 817
Quatri èmement,</w> 817
C au 816
d' énormes</w> 816
ca l</w> 816
fer ai</w> 816
Kyot o</w> 816
C el 815
ai ,</w> 815
l' appel</w> 815
pl ai 815
gé .</w> 815
gé ni 815
atten tion.</w> 815
péri phéri 815
fri que.</w> 815
responsabili tés.</w> 815
appor tées</w> 815
omb re</w> 815
compréhen si 815
compréhen sible</w> 815
con formes</w> 814
ten sions</w> 814
ju ger</w> 814
législ atifs</w> 814
concr ets</w> 814
quanti tés</w> 814
débatt u</w> 814
a dul 813
v ar 813
v ement.</w> 813
li t 813
l’ application</w> 813
l’ idée</w> 813
présid ence.</w> 813
financi er.</w> 813
annu elle</w> 813
offici ellement</w> 813
systé matique</w> 813
é dois</w> 812
D el 812
d' actu 812
progres si 812
Palestini ens</w> 812
C l 811
m unité</w> 811
v ac 811
l' orientation</w> 811
Con formément</w> 811
s' appliquer</w> 811
Fin lande</w> 811
bâti ments</w> 811
B .</w> 810
( art.</w> 810
R ,</w> 810
ré pres 810
l’ intérêt</w> 810
oc ol 810
d'in stru 810
l'A fghanist 810
ag ir.</w> 809
soci ales.</w> 809
actu ellement.</w> 809
j’ espère</w> 809
soulev ées</w> 809
signific atif</w> 809
ym pi 809
b ande</w> 808
s' en 808
démocrati ques.</w> 808
val oir</w> 808
rou tes</w> 808
l’homm e.</w> 808
l am 807
D onc 807
ch ev 807
modifi ant</w> 807
dang ers</w> 807
tan gi 807
témoi gne</w> 807
M an 806
ç on</w> 806
ol é 806
l’ intégration</w> 806
do x 806
invi té</w> 806
minu te</w> 806
structurel s.</w> 806
parvi endrons</w> 806
piè ces</w> 806
Donc ,</w> 806
p in 805
on e.</w> 805
ac tionn 805
sign es</w> 805
produc tion.</w> 805
relev ant</w> 805
fic ation.</w> 805
écologi que</w> 805
v ue.</w> 804
T E 804
gouvern ement.</w> 804
jeu di</w> 804
affec te</w> 804
g re 803
S E</w> 803
or al</w> 803
lég ale</w> 803
ras sur 803
n al</w> 802
t age</w> 802
soci aux.</w> 802
dés ol 802
condam n 802
touch ées</w> 802
employ és</w> 802
Auc un</w> 802
chu te</w> 802
Tam per 802
om ali 801
nuclé aire,</w> 801
étap es</w> 801
impliqu ées</w> 801
S a 800
form ation,</w> 800
particuli ers</w> 800
adop tant</w> 800
cy cl 800
k ur 799
m' en</w> 799
mor t.</w> 799
danger euses</w> 799
texti le</w> 799
N ,</w> 798
re cru 798
discrimin ation.</w> 798
appor tera</w> 798
culturel s</w> 798
OG M</w> 798
P é 797
li qui 797
emb all 797
substanti elle</w> 797
d avant 796
J our 796
in vo 796
d' organiser</w> 796
voi e.</w> 796
tur c</w> 796
euro .</w> 796
vit ale</w> 796
sav ons,</w> 796
pourparl ers</w> 796
ré tiens</w> 795
l'U kr 795
chôm age.</w> 795
Médi ateur</w> 795
vag ue</w> 795
s port 794
et - 794
l’ esprit</w> 794
publi cation</w> 794
plac er</w> 794
Luxembour g</w> 794
du bi 793
gé noci 793
l'OM C.</w> 793
re dev 792
tu n 792
ap er 792
l’ énergie</w> 792
l'h y 792
défen se,</w> 792
mobil isation</w> 792
vi t</w> 791
cr aintes</w> 791
droi ts.</w> 791
poursui t</w> 791
Barcel one</w> 791
ati ques</w> 790
ra cin 790
du r 790
suffis ant</w> 790
Ni ce</w> 790
rur al,</w> 790
t est</w> 789
expli cation</w> 789
inqui ète</w> 789
justifi e</w> 789
préoccup é</w> 789
St ock 789
J e 788
d' au 788
ar rang 788
mo des</w> 788
donn ées,</w> 788
exprim és</w> 788
hypo cri 788
d enti 787
part ant,</w> 787
Su d,</w> 787
indépend ant</w> 787
int ol 787
diverg ences</w> 787
minist ère</w> 787
l'é trang 786
brev et</w> 786
sexu elle</w> 786
B on 785
U kr 785
ouv ri 785
ist e.</w> 785
cell ules</w> 785
sus cité</w> 785
Hel sin 785
ar mé 784
vi abilité</w> 784
fon d,</w> 784
amen er</w> 784
Be aucou 784
é m 783
W al 783
U )</w> 783
cl av 783
préserv ation</w> 783
i i.</w> 782
l' ap 782
ex posé</w> 782
dévelop pés</w> 782
clair .</w> 782
aven ir,</w> 782
pla fond</w> 782
n o</w> 781
d’ autre</w> 781
mani pul 781
eng age</w> 781
condam né</w> 781
britanni que,</w> 781
es te 780
d' ab 780
dé tention</w> 780
dé libé 780
ch rétiens</w> 780
soi gn 780
commiss aire.</w> 780
séri euse</w> 780
invi ter</w> 780
Constitu tion,</w> 780
priori taires</w> 780
cohé sion,</w> 780
pétr ol 780
. )</w> 779
cher a</w> 779
constructi f</w> 779
expres sément</w> 779
Beaucou p</w> 779
financi er,</w> 778
respec té</w> 778
termin er</w> 778
faç on,</w> 778
individu els</w> 778
S ec 777
al ise</w> 777
direc tion,</w> 777
ren contre</w> 777
démocrati sation</w> 777
proch es</w> 777
paragraph es</w> 777
unilat ér 777
d' efforts</w> 776
ol o 776
fon dées</w> 776
heur euse</w> 776
Israë l,</w> 775
sensibil isation</w> 775
cev oir</w> 775
incendi es</w> 775
S .</w> 774
h ô 774
l'é tiquetage</w> 774
profi te</w> 774
ambi tions</w> 774
symb oli 774
fabric ants</w> 774
on t-ils</w> 773
st able</w> 773
développ é</w> 773
évi demment,</w> 773
d'é change</w> 773
monét aire,</w> 773
rembour s 773
l’ accès</w> 772
sé ance,</w> 772
sal aire</w> 772
monét aire.</w> 772
démant èlement</w> 772
émer g 772
d at 771
R èg 771
vi ctoire</w> 771
re trouver</w> 771
men tionne</w> 771
bénéfici é</w> 771
carb one</w> 771
ser vir 770
199 8</w> 770
sem es 770
d'empl ois.</w> 770
l'inst ant,</w> 770
entraîn era</w> 770
exerci ce,</w> 770
s col 769
in titul 769
l' unité</w> 769
al in 769
per for 769
200 3.</w> 769
suiv antes</w> 769
supplément aires.</w> 769
sous- jac 769
stric te</w> 769
infra ctions</w> 769
itali enne</w> 769
réd action</w> 769
E L 768
alis és</w> 768
t- on</w> 768
suiv ants</w> 768
consci ente</w> 768
grand ement</w> 768
accro issement</w> 768
Nor d,</w> 768
2020 .</w> 768
â gé 767
secon d 767
employ eurs</w> 767
suspen sion</w> 767
l’ inst 766
sé .</w> 766
compl exi 766
palestini enne</w> 766
Vi ce- 766
pros p 766
u kraini 765
S ad 765
im pres 765
péri l</w> 765
priori t 765
communic ation,</w> 765
xembour ge 765
d’ im 764
lu xembourge 764
présent era</w> 764
ist es.</w> 764
priv ées</w> 764
observ er</w> 764
problé matique</w> 764
î le</w> 763
con tent 763
ec tions</w> 763
déci sif</w> 763
j' étais</w> 763
État s.</w> 763
élargi e</w> 763
path ie</w> 763
é ment,</w> 762
M exi 762
is é</w> 762
l' espère,</w> 762
pouv ant</w> 762
propor tion</w> 762
détaill ée</w> 762
regar d</w> 762
Parallè lement,</w> 762
té nég 761
program mation</w> 761
important es,</w> 761
stock age</w> 761
imag in 761
ambigu ï 761
n' étaient</w> 760
pen sion</w> 760
autoris é</w> 760
l’homm e,</w> 760
suédo ise</w> 760
éloi g 760
consist ant</w> 760
Ti b 760
perfor man 760
ci des</w> 759
al er 759
res titu 759
cr oyons</w> 759
positi f.</w> 759
l'inform ation,</w> 759
lib éral</w> 758
concili er</w> 758
appar e 758
pili ers</w> 758
Royaume-Uni .</w> 758
f ère</w> 757
contrô le,</w> 757
L eur</w> 756
sé jour</w> 756
soi n</w> 756
arti fici 756
fix ation</w> 756
écou ter</w> 756
coor donnée</w> 756
Pays-B as,</w> 756
systèm e.</w> 756
cohé sion.</w> 756
inter dire</w> 755
particuli ère.</w> 755
fais ait</w> 755
tabl eau</w> 755
ban que</w> 755
fond ement</w> 755
dég â 755
bre f,</w> 755
intérieur es,</w> 755
bel ge</w> 755
célé b 755
d' actions</w> 754
se l</w> 754
travaill ant</w> 754
encourag eant</w> 754
parlement aire,</w> 754
particip ants</w> 754
confu sion</w> 754
k i</w> 753
d' animaux</w> 753
d' assistance</w> 753
d' essayer</w> 753
urg ente</w> 753
os exu 753
vé tér 753
Roumani e,</w> 753
compétitivi té,</w> 753
n ô 752
en k 752
victi me</w> 752
rati fié</w> 752
viv ons</w> 752
découl ant</w> 752
horizon t 752
l ait</w> 751
si e.</w> 751
dem i- 751
recher ch 751
CE .</w> 751
itali en</w> 751
Verts/ AL 751
jeu .</w> 750
éra di 750
télé communications</w> 750
met tons</w> 749
financ ement,</w> 749
th èse</w> 749
l s,</w> 748
m él 748
N ous,</w> 748
G ,</w> 748
si xième</w> 748
in croy 748
d' autres.</w> 748
spécifi ques,</w> 748
pauv res.</w> 748
guer re,</w> 748
mariti mes</w> 748
Suè de,</w> 748
b ra 747
li ti 747
d' ouvrir</w> 747
gr ès</w> 747
l’ ordre</w> 747
équi vo 747
maj eurs</w> 747
jug ement</w> 747
par cours</w> 746
opé ra 746
mod alités</w> 746
renouvel ables.</w> 746
o s,</w> 745
M arti 745
ai de,</w> 745
l' armée</w> 745
ven us</w> 745
tri ce</w> 745
dou ze</w> 745
soulev ée</w> 745
éthi que</w> 745
l’O M 745
navig ation</w> 745
i de</w> 744
v ég 744
l’ une</w> 744
réalis ée</w> 744
jug é</w> 744
loca l</w> 744
accr u</w> 744
révél é</w> 744
pré co 743
l s.</w> 742
er ions</w> 742
l' es 742
mar i 742
personn el.</w> 742
internation aux.</w> 742
eng lob 742
procédu re,</w> 742
efficac es.</w> 742
satis faits</w> 742
guer re.</w> 742
humani taires</w> 742
résul tant</w> 742
mass ac 742
M ich 741
G ra 741
G ro 741
d' efficacité</w> 741
pi erre</w> 741
investiss eurs</w> 741
UE / 741
Aujour d’hu 741
syndic ats</w> 741
frag ment 741
vétér in 741
t ation,</w> 740
li eux</w> 740
im age</w> 740
souti en,</w> 740
L’ ordre</w> 740
domm ag 740
E U 739
ser re</w> 739
Présid ente</w> 739
ul ti 739
esti ment</w> 739
n’ avons</w> 739
humain s,</w> 739
XXI e</w> 739
pro f 738
vou lions</w> 738
constitu era</w> 738
mondi aux</w> 738
salu ons</w> 738
er ez</w> 737
appro ches</w> 737
civi les</w> 737
énor mé 737
rémuné ration</w> 737
sociaux- démocrates</w> 737
Bol k 737
p sy 736
P PE</w> 736
cer .</w> 736
parti sans</w> 736
import ance.</w> 736
l'unanim i 736
enthousias me</w> 736
actu ellement,</w> 735
l'h onn 735
men tion</w> 735
minis tre,</w> 735
transpar ente</w> 735
l'inter net</w> 735
attent ats</w> 735
g e.</w> 734
d' eau</w> 734
occident aux</w> 734
tari at</w> 734
dan ois</w> 734
alco ol</w> 734
Gali le 734
D .</w> 733
ré conciliation</w> 733
fai lli 733
dou te,</w> 733
sû re</w> 733
aider a</w> 733
mondialis ation.</w> 733
philos oph 733
gravi té</w> 733
l' autre,</w> 732
dis proportionn 732
ju in,</w> 732
200 8.</w> 732
compa ra 732
troisi èmement,</w> 732
sav oir,</w> 732
honn eur</w> 732
c o</w> 731
R ien</w> 731
ti r 731
ai res 731
d' attention</w> 731
su édois</w> 731
dé ni 731
tu des</w> 731
ser ions</w> 731
pen se 731
budg ets,</w> 731
fo is.</w> 731
vit esse</w> 731
déli cat 731
Bi élor 731
l'occu rr 731
requi ert</w> 731
z ér 730
Mon ténég 730
uni taire</w> 730
produi ts,</w> 730
associ er</w> 730
structur elle</w> 730
parol e.</w> 730
Bolk este 730
L ou 729
encor e.</w> 729
l'O C 729
flag r 729
B ,</w> 728
t t 728
ex cé 728
cré ant</w> 728
déc embre,</w> 728
établi es</w> 728
Belgi que</w> 728
nor mal</w> 727
indi quent</w> 727
prouv er</w> 727
administr ations</w> 727
syn di 727
l'orateur ")</w> 727
confor mité</w> 727
couver ts</w> 727
d'a justement</w> 727
ti e</w> 726
du re</w> 726
ca dre.</w> 726
l'O u 726
jet er</w> 726
déc ev 726
tax ation</w> 726
sept embre,</w> 726
g ér 725
né o 725
poin ts,</w> 725
amend ement.</w> 725
défin is</w> 725
défen se.</w> 725
assu re</w> 725
profond eur</w> 725
an s 724
ati f,</w> 724
dé ten 724
per pétr 724
am ène</w> 723
com penser</w> 723
cl on 723
sé ,</w> 723
att ente</w> 723
éch ec 723
climati ques</w> 723
vigu eur,</w> 723
ving t- 723
xén ophobi 723
sold ats</w> 723
l' effort</w> 722
av ance</w> 722
entre pris</w> 722
équi tables</w> 722
199 8,</w> 722
attribu tion</w> 722
pré judici 721
l'O S 721
techni que,</w> 721
angu l 721
l ent 720
d' en 720
Europ ol 720
constitu é</w> 720
compét entes</w> 720
l'Ira k</w> 720
fall u</w> 720
subsidiari té,</w> 720
nous- mêmes</w> 720
l' offre</w> 719
ré ces 719
n' aient</w> 719
rem is</w> 719
termin er,</w> 719
alli ance</w> 719
sil ence</w> 719
Biélor ussi 719
i es</w> 718
ati fs.</w> 718
terroris te</w> 718
qua si 718
l'agricul ture.</w> 718
assist er</w> 718
pertin entes</w> 718
Moyen-Ori ent,</w> 718
géographi que</w> 718
polon ais</w> 718
s'appliqu ent</w> 718
tr a</w> 717
accu mul 717
jeun es.</w> 717
b elles</w> 716
ajou te</w> 716
d'é mission</w> 716
humain s.</w> 716
desti nation</w> 716
tar di 716
massi ve</w> 716
atta che</w> 716
Jap on</w> 716
é mi 715
oi ent</w> 715
l’ efficacité</w> 715
respons able.</w> 715
respec tant</w> 715
consen su 715
dict ature</w> 715
élev age</w> 714
prépar é</w> 714
concerné es.</w> 714
précéd ents</w> 714
M os 713
au ration</w> 713
l'in fra 713
200 2.</w> 713
cam ps</w> 713
dét ach 713
réjou ir</w> 713
é puis 712
in justifi 712
dés accord</w> 712
hau sti 712
manifes te</w> 712
sug gestion</w> 712
précéd ente</w> 712
aï w 712
l'ab oli 712
convaincu e</w> 712
d' importance</w> 711
alis é</w> 711
améric aines</w> 711
transport ,</w> 711
PPE- DE.</w> 711
É vi 710
d' amendement</w> 710
pen sée</w> 710
én ari 710
réjou issons</w> 710
fond s.</w> 710
lui- même.</w> 710
l'orateur )</w> 710
résol u</w> 710
L ett 709
d' ordre</w> 709
dé faut</w> 709
mentionn é,</w> 709
espri t,</w> 709
analy ses</w> 709
sc énari 709
compét ente</w> 709
exces sive</w> 709
satisfais ante</w> 709
révolu tion</w> 709
rapport eurs,</w> 708
sor tes</w> 708
expli cations</w> 708
éventu ellement</w> 708
v in 707
d' Europe.</w> 707
ci ens</w> 707
co ï 707
corri ger</w> 707
re po 706
se z- 706
Su d.</w> 706
anim aux,</w> 706
ban ie</w> 706
conform er</w> 706
défini es</w> 706
l’in tention</w> 706
terri ble</w> 706
dispari tés</w> 706
soulig né,</w> 706
b an</w> 705
2 3 705
d' approvisionnement</w> 705
j' invite</w> 705
cour te</w> 705
partici pe</w> 705
DE ,</w> 705
lui- même,</w> 705
décision -cadre</w> 705
B ur 704
( L 704
ti r</w> 704
ver te</w> 704
uti lité</w> 704
déci sive</w> 704
not amment,</w> 704
prouv é</w> 704
puiss ances</w> 704
pléni ère.</w> 704
sépar ation</w> 704
l'inform ation.</w> 704
coï n 704
A 4-0 703
é tiquetage</w> 703
" élargissement</w> 703
cré ée</w> 703
d'ex pli 703
confi denti 703
atti re</w> 703
Itali e,</w> 703
v entes</w> 702
K innoc 702
lu i,</w> 702
impres sionn 702
di gne</w> 701
al ar 701
mo ts,</w> 701
l’ article</w> 701
cl aire.</w> 701
nu méri 701
discipl ine</w> 701
s )</w> 700
y ougoslav 700
ati fs,</w> 700
l' apprentissage</w> 700
pé nu 700
rel ancer</w> 700
examin ée</w> 700
bénéfi ce</w> 700
Gu in 700
ressour ces.</w> 700
Col ombi 700
G rou 699
ri gi 699
end rez</w> 699
continu ons</w> 699
eux- mêmes.</w> 699
complément aire</w> 699
Cu ba</w> 699
Gen ève</w> 699
, 5</w> 698
199 6,</w> 698
occa sions</w> 698
réc emment,</w> 698
blo quer</w> 698
Nord .</w> 698
4 - 697
4 5</w> 697
E S 697
dé ç 697
Mad ri 697
D' un</w> 697
résul te</w> 697
chin ois</w> 697
Canad a</w> 697
A )</w> 696
d’ État</w> 696
demand e.</w> 696
d'ex emp 696
appropri ée.</w> 696
excep tion</w> 696
appr ouver 696
ira ki 696
universi tés</w> 696
b re</w> 695
uti le.</w> 695
pouv aient</w> 695
dérog ation</w> 695
dé passe</w> 694
pass e 694
ani me</w> 694
C 5-0 693
H ow 693
oblig at 693
rapid ement,</w> 693
lan gu 693
pri e</w> 692
ir ré 692
nég atives</w> 692
euro s.</w> 692
multi nationales</w> 692
monét aires</w> 692
inféri eur</w> 692
Pakist an</w> 692
r at 691
W e 691
oblig atoires</w> 691
déc ès</w> 691
approuv ée</w> 691
partag ent</w> 691
Bal tique</w> 691
Pologn e,</w> 691
inond ations</w> 691
2 9 690
es )</w> 690
fi ée</w> 690
gr ati 690
Fr atti 690
touch ent</w> 690
définiti ve</w> 690
articl e  690
d'instru ments</w> 690
m y 689
L an 689
emb ar 689
d’ améliorer</w> 689
télé communic 689
atri ce</w> 689
Auc une</w> 689
arbi tr 689
O M 688
con gé</w> 688
d' après</w> 688
mobil iser</w> 688
recti fic 688
d' affaires</w> 687
ab ou 687
vou lon 687
ren due</w> 687
vis er</w> 687
transport .</w> 687
rédi ger</w> 687
entend ons</w> 687
prononc é</w> 687
dé tenus</w> 686
di ri 686
pass ant</w> 686
défin it</w> 686
mondialis ation,</w> 686
édé ration</w> 686
démocrates- chrétiens)</w> 686
u es.</w> 685
p ôt</w> 685
in corpor 685
personn elle</w> 685
ess ence</w> 685
voul ait</w> 685
parlement aires,</w> 685
bas e.</w> 685
éduc ation,</w> 685
m as 684
D ar 684
j' aurais</w> 684
règ ne</w> 684
tra ç 684
rati fier</w> 684
transi t</w> 684
Macédo ine</w> 684
Sw ob 684
l'aboli tion</w> 684
H ay 683
G i 683
dé march 683
dé montr 683
ad h 683
lis tes</w> 683
tra duire</w> 683
libér er</w> 683
Israë l.</w> 683
fisc aux</w> 683
expl o 683
è vre</w> 682
P AC 682
su re</w> 682
ex hausti 682
ag i 682
direc tes</w> 682
technologi ques</w> 682
Ber lin</w> 682
circonst ances,</w> 682
défici ts</w> 682
affirm ation</w> 682
Ne w</w> 682
min uti 681
différ enci 681
organis me</w> 681
prouv e</w> 681
l'inst auration</w> 681
J '</w> 680
d' offrir</w> 680
ra ch 680
por tées</w> 680
ca les</w> 680
sui vie</w> 680
dés espé 680
délég ations</w> 680
h ali 679
met s</w> 679
fl é 679
contin ent.</w> 679
sci ence</w> 679
interven tion,</w> 679
main-d' œuvre</w> 679
conduc teurs</w> 679
ég al</w> 678
amend ement 678
cons enti 678
viol ence,</w> 678
bru t</w> 678
Ob jet</w> 678
suivant e:</w> 678
Hongri e</w> 678
renon cer</w> 678
s ".</w> 677
h as 677
( démocrates-chrétiens)</w> 677
l' âge</w> 677
res te,</w> 677
qu' est</w> 677
répon dent</w> 677
débat )</w> 677
individu s</w> 677
mai ,</w> 677
s es.</w> 676
M ED 676
f aux</w> 676
d' ajouter</w> 676
pres sion,</w> 676
reconn ais</w> 676
enf re 676
communi quer</w> 676
ers hi 676
néerland ais</w> 676
vieill issement</w> 676
Aujourd’hu i,</w> 676
s pati 675
n er,</w> 675
ó n</w> 675
sou pl 675
199 6</w> 675
elle- même,</w> 675
légiti mes</w> 675
réti c 675
Sad dam</w> 675
S al 674
su pr 674
qui conque</w> 674
l'Es pagn 674
fév ri 674
4 00</w> 673
n on.</w> 673
W i 673
tr iste</w> 673
cl asse</w> 673
dis posé</w> 673
ven ir,</w> 673
aujour d'</w> 673
qu’ au</w> 673
élec tions,</w> 673
l'OM C,</w> 673
compagni e</w> 673
V en 672
is ée</w> 672
l' annexe</w> 672
contradi ct 672
détérior ation</w> 672
déjà ,</w> 672
mi x 671
off res</w> 671
sus cite</w> 671
mu r</w> 671
règl es.</w> 671
industri els</w> 671
siècl e.</w> 671
S a</w> 670
d j 670
l' au 670
li min 670
ven ez</w> 670
qu’ on</w> 670
établ issements</w> 670
dyn am 670
l è 669
comm and 669
détermin ée</w> 669
cohér ent</w> 669
che c</w> 669
agricol es.</w> 669
c’ est-à-dire</w> 669
é tiquet 668
H ar 668
Con tr 668
s' inscrit</w> 668
contr e- 668
publi ques.</w> 668
l'é chec</w> 668
effectu és</w> 668
liv res</w> 668
tradui t</w> 668
RE AC 668
prof ess 668
r h 667
M o 667
P L)</w> 667
av is.</w> 667
concern e,</w> 667
annu els</w> 667
maxim ale</w> 667
entam é</w> 667
Sec ré 667
p il 666
ex ag 666
ba ï 666
l'ex - 666
199 7</w> 666
tot ali 666
S P 665
ou i</w> 665
fi èvre</w> 665
t- elles</w> 665
indi quant</w> 665
séri euses</w> 665
profi ts</w> 665
éventu elles</w> 665
hy dr 665
bio diversité</w> 665
ethni ques</w> 665
siècl e,</w> 665
Et ats</w> 665
N on,</w> 664
F err 664
d’ ici</w> 664
ob tenus</w> 664
co - 664
dom esti 664
men se</w> 664
dés ar 664
victi mes.</w> 664
ethni que</w> 664
AL DE.</w> 664
C' était</w> 664
( 200 663
f act 663
en d</w> 663
ap portent</w> 663
inf lig 663
sugg éré</w> 663
transatlanti que</w> 663
simul tan 663
é par 662
d o</w> 662
dé .</w> 662
aill eurs.</w> 662
établi e</w> 662
responsabili té,</w> 662
exécu tion</w> 662
supr an 662
l' air</w> 661
at es,</w> 661
ten si 661
bl anc 661
inter rog 661
négoci é</w> 661
Trai tés</w> 661
rich esse</w> 661
kil om 661
Stock hol 661
supran ation 661
9 7 660
pré visions</w> 660
ffi ce</w> 660
L’ Europe</w> 660
remplac ement</w> 660
législati ve 660
succè s,</w> 660
parallè lement</w> 660
oxy de</w> 660
c és</w> 659
l' autorisation</w> 659
d' élargissement</w> 659
faci lité</w> 659
fourni es</w> 659
associ és</w> 659
Fr on 659
professionn elles</w> 659
tor ture</w> 659
LA F 659
aver tiss 659
Cel u 659
I )</w> 658
tr aî 658
ré es.</w> 658
ré duisant</w> 658
d' intégrer</w> 658
pro clam 658
re porter</w> 658
cher .</w> 658
favor ise</w> 658
bat aille</w> 658
rapproch ement</w> 658
référendum s</w> 658
i ez</w> 657
- il</w> 657
m écon 657
au diss 657
comp t 657
juridi ques,</w> 657
souten ant</w> 657
candid ats,</w> 657
Al liance</w> 657
rencontr er</w> 657
- je</w> 656
l e- 656
Y ougosl 656
is és</w> 656
im pu 656
doi t,</w> 656
vol et</w> 656
mor t,</w> 656
Yougosl avi 656
u sin 655
v on</w> 655
tou tefois,</w> 655
mo bili 655
sou d 655
pos ant</w> 655
conn ais</w> 655
compli qu 655
assist ons</w> 655
PM E,</w> 655
cherch ent</w> 655
Danemar k</w> 655
s es,</w> 654
S an 654
uni form 654
publi ques,</w> 654
ass or 654
occu pation</w> 654
d'ex péri 654
Uni es</w> 654
priori tés.</w> 654
Chamb re.</w> 654
l' intégrité</w> 653
dé posée</w> 653
n' avez</w> 653
mar s,</w> 653
fix ées</w> 653
d'é tendre</w> 653
reconnaiss ons</w> 653
collabor er</w> 653
appar emment</w> 653
domm age</w> 653
intensi fier</w> 653
mél ang 653
J o 652
  millions</w> 652
dé centralis 652
sep ten 652
CE E</w> 652
transport s.</w> 652
restri ction</w> 652
tragi que</w> 652
gre c</w> 652
l’ Assemblée</w> 651
l’ élargissement</w> 651
déci si 651
sub i</w> 651
quali t 651
bure aux</w> 651
intergouvernement ale.</w> 651
g ol 650
S ’ 650
pro cur 650
form er</w> 650
lég u 650
ru sses</w> 650
modifi és</w> 650
off ri 650
Au ssi</w> 650
fonctionn ent</w> 650
précé demment</w> 650
pan sion</w> 650
imag iner</w> 650
etc. ,</w> 650
énormé ment</w> 650
c ées</w> 649
k h 649
laqu elle,</w> 649
réalis ées</w> 649
l’en contre</w> 649
A b 648
S o 648
Y or 648
G o 648
su d- 648
l’ attention</w> 648
pé d 648
salari és</w> 648
crain te</w> 648
Hu ss 648
déloc alis 648
lead ershi 648
n at 647
t al 647
F ace</w> 647
d' objectifs</w> 647
d' intérêts</w> 647
di ag 647
inci ter</w> 647
pris on</w> 647
parl ent</w> 647
super vision</w> 647
fabri cation</w> 647
poiss on</w> 647
Fran ç 647
rétabl issement</w> 647
G UE/ 646
s' exprimer</w> 646
aff aire.</w> 646
ologi que</w> 646
senti r</w> 646
consul ter</w> 646
hom osexu 646
Cu ba 646
ultrapériphéri ques</w> 646
/ 0 645
appliqu ent</w> 645
aéri enne</w> 645
alloc ation</w> 645
s age</w> 644
s cep 644
d' arrêt</w> 644
cu ri 644
parti ellement</w> 644
un anime</w> 644
doi ve</w> 644
peut- elle</w> 644
raph ie</w> 644
extéri eur</w> 644
arriv é</w> 644
super fici 644
complex es</w> 644
communic ation.</w> 644
inévi tablement</w> 644
L ang 643
es  -</w> 643
port e- 643
rec our 643
M ilo 642
F édération</w> 642
pré voient</w> 642
stric t</w> 642
fourn issent</w> 642
intéres se</w> 642
D G</w> 641
l' arrêt</w> 641
d' utilisation</w> 641
ouver tes</w> 641
mil le</w> 641
prom eu 641
initi alement</w> 641
cau sé</w> 641
tabl es,</w> 641
flexi ble</w> 641
bat eaux</w> 641
l'Allem agne,</w> 641
Maastrich t</w> 641
Cau ca 641
qu ement.</w> 640
d' Europe,</w> 640
no sti 640
st and 640
tionn er</w> 640
not ation</w> 640
abs ten 640
appor tée</w> 640
rép an 640
Po etter 640
intellectu elle</w> 640
e in</w> 639
op pose</w> 639
ré elles</w> 639
ré col 639
d' approuver</w> 639
ch anti 639
ol ympi 639
n' aura</w> 639
L' article</w> 639
march és,</w> 639
ren dus</w> 639
soi ,</w> 639
réalis ations</w> 639
suc ces 639
us ag 639
pertur b 639
c u</w> 638
en voie</w> 638
re :</w> 638
re poser</w> 638
mar qué</w> 638
tri on 638
conti ennent</w> 638
mentionn ée</w> 638
empê ch 638
agricol es,</w> 638
calend ri 638
dégâ ts</w> 638
Évi demment,</w> 638
septen trion 638
élec tions.</w> 637
institutionn elles</w> 637
refl ètent</w> 637
suspen due</w> 637
ressour ces,</w> 637
incid ence</w> 637
frapp é</w> 637
or e</w> 636
pré férence</w> 636
ad mi 636
dis posés</w> 636
contr aire.</w> 636
appro fond 636
différ ents.</w> 636
mor t 636
exploi ter</w> 636
cherch eurs</w> 636
irrégulari tés</w> 636
approfond i</w> 636
im posé</w> 635
for cé 635
cer ,</w> 635
déci d 635
l'av ant</w> 635
viol ence.</w> 635
résolu ment</w> 635
loca le</w> 635
démographi que</w> 635
impér atif</w> 635
a just 634
h éri 634
cu le</w> 634
im posent</w> 634
sé e.</w> 634
mentionn ées</w> 634
préci eux</w> 634
mauv aises</w> 634
disponi bilité</w> 634
adéqu ates</w> 634
véhi cul 634
Swob od 634
C ot 633
r oy 633
D ,</w> 633
er a,</w> 633
contr at</w> 633
mati ère,</w> 633
isl am 633
cin é 633
diag nosti 633
M and 632
l' ég 632
sé min 632
mati n.</w> 632
équi table.</w> 632
cor d</w> 632
continu eront</w> 632
expéri ment 632
Strasbour g,</w> 632
f oy 631
" était</w> 631
ci el</w> 631
re port</w> 631
vou s.</w> 631
l'in fluence</w> 631
démocrati ques,</w> 631
san g</w> 631
discrimin ation,</w> 631
manifes tation</w> 631
provo qué</w> 631
régul ation</w> 631
char bon</w> 631
démi e</w> 631
d' accord,</w> 630
personn elles</w> 630
cro î 630
réussi r</w> 630
afric aine</w> 630
chin ois 630
effondr ement</w> 630
amélior e</w> 629
amélior é</w> 629
aspir ations</w> 629
b on 628
é mis</w> 628
f oi</w> 628
en suite,</w> 628
ti se</w> 628
min i 628
mainten ant.</w> 628
l'inter n 628
méth od 628
è dent</w> 627
V al 627
G ö 627
préfér ences</w> 627
A z 626
4 0 626
c end 626
( B 626
T aïw 626
l' assurance</w> 626
d' envoyer</w> 626
dé libér 626
le y</w> 626
tot alité</w> 626
atti ré</w> 626
collecti ve</w> 626
univer sel</w> 626
x - 625
tr op 625
né .</w> 625
se vi 625
rem ise</w> 625
commis es</w> 625
Es t</w> 625
s tre</w> 624
9 8 624
l oi.</w> 624
n isation</w> 624
h ,</w> 624
voudr ait</w> 624
présid ences</w> 624
fer m 624
définiti vement</w> 624
bre f</w> 624
complexi té</w> 624
c ouverture</w> 623
ac tion.</w> 623
él ève</w> 623
actu el.</w> 623
encourag e 623
précis es</w> 623
mili tar 623
natur ellement,</w> 623
illég aux</w> 623
empr ein 623
automati quement</w> 623
compris ,</w> 623
prolon ger</w> 623
e !</w> 622
m 'est</w> 622
n °</w> 622
v ent,</w> 622
fon de</w> 622
sur vie</w> 622
suffis antes</w> 622
soulev és</w> 622
quotidi enne</w> 622
sé s.</w> 621
économi quement</w> 621
t- ce</w> 621
médi as,</w> 621
euro ,</w> 621
trait ements</w> 621
d'Amsterdam ,</w> 621
m .</w> 620
enti er,</w> 620
l'A r 620
agricul teurs,</w> 620
prépar atifs</w> 620
oni que</w> 620
hon t 620
concili ation,</w> 620
systèm e,</w> 620
b ois</w> 619
g ab 619
v et 619
fin al.</w> 619
fai ts.</w> 619
mé pris</w> 619
d'in vesti 619
différ entes.</w> 619
civi les,</w> 619
syn ergi 619
occup ent</w> 619
ow sk 619
autrichi enne</w> 619
progrè s.</w> 619
Grou pe</w> 619
I .</w> 618
in capables</w> 618
ouver tement</w> 618
l'A tlanti 618
spéci alement</w> 618
mor atoire</w> 618
condam ne</w> 618
rédui te</w> 618
Copenhag ue.</w> 618
propriét aires</w> 618
Tri bu 618
Milo sevi 618
m asse</w> 617
on t.</w> 617
d' envisager</w> 617
l’ ai</w> 617
répon d 617
illég al</w> 617
priori té.</w> 617
lob by 617
chy prio 617
s ection</w> 616
h él 616
ren dra</w> 616
démocrati es</w> 616
prati ques.</w> 616
199 5,</w> 616
initi ative.</w> 616
souv en 616
humain e,</w> 616
formul é</w> 616
e »</w> 615
C entre</w> 615
L' idée</w> 615
souhai ts</w> 615
Europé ens.</w> 615
recycl age</w> 615
sacri fi 615
A mster 614
l ement 614
co t 614
entrepris e,</w> 614
souff re</w> 614
imp ôts</w> 614
PSE .</w> 614
s a 613
è s,</w> 613
oblig és</w> 613
mer cu 613
tent ent</w> 613
extéri eur,</w> 613
aussi .</w> 613
quanti t 613
éché ant,</w> 613
5 0 612
contr e.</w> 612
man u 612
voi là</w> 612
nov embre,</w> 612
compati bles</w> 612
allou és</w> 612
alco ol 612
compétitivi té.</w> 612
s ant</w> 611
op poser</w> 611
d' accord.</w> 611
(E L)</w> 611
nuclé aires.</w> 611
d'A l 611
stabil iser</w> 611
l’Uni on,</w> 611
atténu er</w> 611
ent our 610
av ou 610
no y 610
nouve au,</w> 610
l'é poque,</w> 610
établi s</w> 610
référ ences</w> 610
PM E.</w> 610
secr et</w> 610
g ou 609
f as 609
F M 609
av ons,</w> 609
av éré</w> 609
produi te</w> 609
électroni ques</w> 609
faut ,</w> 609
jusqu' ici</w> 609
soup ç 609
dé penser</w> 608
tu s</w> 608
str ation</w> 608
ouver ts</w> 608
rem on 608
dév ast 608
cré ent</w> 608
off en 608
sensi blement</w> 608
exer ce</w> 608
dist ance</w> 608
vi eux</w> 607
dévelop per 607
effica cité.</w> 607
préc is,</w> 607
dérog ations</w> 607
combusti bles</w> 607
naiss ance</w> 607
A gence</w> 606
W ash 606
in cl 606
d' où</w> 606
onn er</w> 606
ad mission</w> 606
pli cation</w> 606
trans mission</w> 606
prom esse</w> 606
199 5</w> 606
écri te</w> 606
Au tr 606
conf édé 606
infra structu 606
détru ire</w> 606
portug aise</w> 606
l'honn eur</w> 606
av ons-nous</w> 605
re group 605
port es</w> 605
vo tera</w> 605
entr ent</w> 605
uni e</w> 605
Parl ement 605
deven us</w> 605
Espagn e,</w> 605
tun n 605
er baï 604
l’ article  604
n' avaient</w> 604
confi ance.</w> 604
conven tionn 604
transfer ts</w> 604
affai bl 604
2020 ,</w> 604
Gaz a</w> 604
conces sions</w> 604
Wash ing 604
ad ress 603
trans européens</w> 603
march és.</w> 603
br ève</w> 603
bénéfi que</w> 603
absur de</w> 603
R ob 602
l' identité</w> 602
dé sin 602
l’ amendement</w> 602
oc é 602
publi er</w> 602
cin qu 602
gouvernement s,</w> 602
parven ons</w> 602
mess ages</w> 602
Slovaqui e</w> 602
3 0.</w> 601
mo bi 601
l’ ont</w> 601
l’ initiative</w> 601
assur é</w> 601
pauv res,</w> 601
environnement ale.</w> 601
Gu erre</w> 601
décisionn el</w> 601
e y 600
g au 600
dé poser</w> 600
ain es,</w> 600
per form 600
pour tant,</w> 600
esp oirs</w> 600
le çon</w> 600
impli qué</w> 600
abs tenu</w> 600
para dox 600
cultur e.</w> 600
An d 600
toxi com 600
soign eusement</w> 600
d'ex ploi 599
formul ée</w> 599
intég rées</w> 599
An n 599
moti f</w> 599
débar rass 599
ê tre.</w> 598
dis su 598
comb at</w> 598
aér on 598
contraign ant</w> 598
CI G</w> 598
A sie</w> 597
G ouvern 597
cu b 597
dev ons,</w> 597
propo s,</w> 597
J' attends</w> 597
respons able,</w> 597
inclu sion</w> 597
exclu re</w> 597
transport eurs</w> 597
lai ti 597
Gen è 597
accom pag 597
opou lo 597
T .</w> 596
pro jet.</w> 596
ac cident</w> 596
d’ intérêt</w> 596
co ali 596
annon cer</w> 596
diplomati que</w> 596
opti m 596
vig our 596
NGL .</w> 596
s aine</w> 595
C our 595
is e,</w> 595
al ban 595
ch a 595
cer a</w> 595
co financement</w> 595
essenti el.</w> 595
rapi des</w> 595
d’abor d,</w> 595
tô t,</w> 595
is e.</w> 594
d' ach 594
all ait</w> 594
pres t 594
it ec 594
sol li 594
priori taire</w> 594
aband on</w> 594
opérationn el</w> 594
PPE- DE</w> 594
énag ement</w> 594
EL D 594
l a 593
m ais 593
inter médi 593
terr ain.</w> 593
dou t 593
pai r</w> 593
résolu s</w> 593
rédi g 593
conjoin te</w> 593
débu t,</w> 593
sél ection</w> 593
l' issue</w> 592
dis posée</w> 592
ma ch 592
d'ex écution</w> 592
anim ale</w> 592
ign ent</w> 592
potenti els</w> 592
routi er</w> 592
l’im migration</w> 592
humanit aire,</w> 592
œ ur 591
per du 591
inter ro 591
e- t-elle</w> 591
réuni r</w> 591
détaill ées</w> 591
intensi fi 591
muni ci 591
affect ent</w> 591
C elle- 590
c ouvert</w> 590
t es- 590
rapport s,</w> 590
conn ue</w> 590
do ,</w> 590
soli des</w> 590
l'inter pré 590
chac une</w> 590
octob re,</w> 590
Strasbour g.</w> 590
déplor e</w> 590
allég ations</w> 590
philosoph ie</w> 590
m én 589
ain si,</w> 589
l’ environnement,</w> 589
dem i</w> 589
parven ue</w> 589
aéri ens</w> 589
tor t</w> 589
compren ons</w> 589
meur ent</w> 589
plain te</w> 589
is sus</w> 588
d' Israël</w> 588
dé sign 588
ag issent</w> 588
s' adapter</w> 588
fr anc 588
l'im age</w> 588
défen du</w> 588
rédui ts</w> 588
non- respect</w> 588
pléni ère,</w> 588
semain es.</w> 588
contrain ts</w> 588
è te.</w> 587
d' attirer</w> 587
av é 587
fi d 587
anci enne</w> 587
spéci ales</w> 587
accue ille</w> 587
Méditerran ée.</w> 587
e k</w> 586
in capable</w> 586
pro xim 586
il .</w> 586
L' année</w> 586
justi fication</w> 586
financ é</w> 586
Pa s</w> 586
ani e.</w> 586
expli qu 586
crédi ble</w> 586
concr et</w> 586
rév èle</w> 586
Zimbabw e</w> 586
S ak 585
sui vi 585
garanti ssent</w> 585
homm es.</w> 585
règl es,</w> 585
ambiti euse</w> 585
excep tions</w> 585
adres sées</w> 585
renforcer a</w> 585
in s,</w> 584
d' O 584
pouv oir,</w> 584
renfor çant</w> 584
réglement ation.</w> 584
entrepris e.</w> 584
libre- échang 584
o m</w> 583
dé e.</w> 583
cu l</w> 583
ev er,</w> 583
parti e.</w> 583
procé dé</w> 583
accep tons</w> 583
val oris 583
plac é</w> 583
référ ence,</w> 583
ferrovi aires</w> 583
Chypr e,</w> 583
stabili té.</w> 583
F i 582
su jet 582
re dou 582
aupar avant,</w> 582
décenni es</w> 582
ex tern 581
soulign ant</w> 581
appropri és</w> 581
franç ais,</w> 581
Trai té.</w> 581
arriv és</w> 581
rur al.</w> 581
l'avant - 581
vég ét 581
G UE</w> 580
dr ons</w> 580
accor d- 580
initi ative,</w> 580
d'ex cell 580
transfrontali ers</w> 580
Ber lin 580
intergouvernement ale,</w> 580
incid ents</w> 580
A ctu 579
du rement</w> 579
ér u 579
Con grès</w> 579
présent es</w> 579
médi as.</w> 579
rapp ell 579
proté gé 579
précéd ent,</w> 579
consac rée</w> 579
aimer ions</w> 579
l end 578
Y ougoslav 578
an - 578
sui te.</w> 578
renouvel ables,</w> 578
audi tion</w> 578
brev et 578
c ra 577
v er</w> 577
ré chauff 577
re ?</w> 577
amélior ée</w> 577
serv atoire</w> 577
cô tes</w> 577
commenc ent</w> 577
potenti ellement</w> 577
évid ente</w> 577
monop ol 577
(L T)</w> 577
Celle- ci</w> 577
d' aujourd'hui,</w> 576
vi able</w> 576
nu mérique</w> 576
clair ement,</w> 576
d'A n 576
Mar o 576
Le h 576
blan chim 576
dispari tion</w> 576
Conven tion,</w> 576
phra se</w> 576
rigu eur</w> 576
Cot on 576
p tions</w> 575
ti endrons</w> 575
200 1.</w> 575
pres tations</w> 575
modifi ée</w> 575
aliment aires.</w> 575
prépa re</w> 575
distor sions</w> 575
Tchétché ni 575
d'initi atives</w> 575
Tribu nal</w> 575
in déni 574
li aison</w> 574
av ie</w> 574
ren seign 574
région ale.</w> 574
efficac es,</w> 574
concep ts</w> 574
bal l</w> 574
offer tes</w> 574
Tim or</w> 574
entret en 574
lend em 574
ré fère</w> 573
gu ise</w> 573
trans férer</w> 573
déci sions.</w> 573
coû te</w> 573
techni ques,</w> 573
fond s,</w> 573
britanni que.</w> 573
l'aut o 573
ressour ce</w> 573
physi que</w> 573
extérieur es.</w> 573
u sine</w> 572
T ,</w> 572
pr ô 572
d' aucune</w> 572
ri en.</w> 572
soulign er,</w> 572
cal cul</w> 572
acqu érir</w> 572
sym pathie</w> 572
conver g 572
plan ète</w> 572
N' oublions</w> 572
précau tion</w> 572
v endre</w> 571
in dubi 571
ex pul 571
for ment</w> 571
démocrati quement</w> 571
lors qu’il</w> 571
tra duction</w> 571
n’ en</w> 571
mor ale</w> 571
confron té</w> 571
voisin s.</w> 571
nécessi tent</w> 571
flot tes</w> 571
éloi gn 571
pluri annuel</w> 571
yougoslav e</w> 571
s ait,</w> 570
D em 570
d' entamer</w> 570
d’ in 570
vo terai</w> 570
don ateurs</w> 570
ram en 570
abs tenir</w> 570
confli t.</w> 570
bilat érales</w> 570
l'ES B</w> 570
d'orig ine.</w> 570
susp endre</w> 570
merc redi</w> 570
l'exi gence</w> 570
Yougoslav ie</w> 570
ter aient</w> 569
sou viens</w> 569
peut- il</w> 569
délég u 569
peupl e.</w> 569
d'urg ence.</w> 569
f i</w> 568
d' identifier</w> 568
di te</w> 568
ss el 568
cl ame</w> 568
grav e.</w> 568
conten us</w> 568
compos ante</w> 568
après-mi di</w> 568
accus ations</w> 568
A lors,</w> 567
9 5</w> 567
2 7 567
( débat)</w> 567
P res 567
d' aides</w> 567
par aly 567
sub or 567
financ és</w> 567
èn e.</w> 567
d'inter venir</w> 567
hongr oise</w> 567
rar es</w> 567
sanit aires</w> 567
Contr airement</w> 567
d' importantes</w> 566
pré rog 566
ques tion 566
trai tons</w> 566
dép ens</w> 566
regret tons</w> 566
Gu ant 566
combin aison</w> 566
ti fs</w> 565
d' I 565
pro viennent</w> 565
fi ables</w> 565
ain es.</w> 565
pens é</w> 565
mondi ales</w> 565
modifi c 565
extr émis 565
religi euses</w> 565
fédé rale</w> 565
péti tion</w> 565
propos ant</w> 565
majori té,</w> 565
génoci de</w> 565
S ant 564
l'in stitution</w> 564
rapport eure</w> 564
institu ant</w> 564
véri fication</w> 564
th e</w> 564
oni e,</w> 564
loc ales,</w> 564
ignor e</w> 564
producti vité</w> 564
achev er</w> 564
adéquat e.</w> 564
i k 563
e z.</w> 563
en rich 563
pl aî 563
ss e,</w> 563
ment s,</w> 563
t- il,</w> 563
mé m 563
ess ais</w> 563
soi r.</w> 563
suiv re.</w> 563
réglement aires</w> 563
éten due</w> 563
l'Autri che</w> 563
Mu gab 563
hali eu 563
2 4 562
con citoyens.</w> 562
am bass 562
positi f,</w> 562
au- dessus</w> 562
réfugi és.</w> 562
plat e- 562
man œuvre</w> 561
qui sition</w> 561
ver rons</w> 561
rais ons.</w> 561
dépen dra</w> 561
In de</w> 561
appu ie</w> 561
fé min 561
d'ac cid 561
humanit aire.</w> 561
prévoy ant</w> 561
s on,</w> 560
su n 560
sti que</w> 560
rem et 560
garanti ra</w> 560
unanim ité</w> 560
Mer co 560
opérationn elle</w> 560
sensibil iser</w> 560
blanchim ent</w> 560
P O 559
ré actions</w> 559
d' énergie.</w> 559
oy ez</w> 559
199 8.</w> 559
élev ée</w> 559
vrai e</w> 559
dura bles</w> 559
fond ements</w> 559
chôm eurs</w> 559
um ,</w> 559
transit oire</w> 559
bov ine</w> 559
Bosnie- Herzégov 559
Maro c</w> 559
é min 558
dé mon 558
trans mis</w> 558
nég ative</w> 558
orient er</w> 558
inscri re</w> 558
histori ques</w> 558
civilis ation</w> 558
mi- parcours</w> 558
Minis tre,</w> 558
A p 557
pou vions</w> 557
vo l</w> 557
dou lour 557
encourag é</w> 557
avanc ement</w> 557
guer res</w> 557
judici eux</w> 557
aupar avant.</w> 557
criti quer</w> 557
accompagn er</w> 557
inv ent 557
l'humani té</w> 557
is ation,</w> 556
ex cl 556
constitutionn elle</w> 556
dérou le</w> 556
banc aire</w> 556
incon véni 556
Doh a</w> 556
Actu ellement,</w> 556
d' ouverture</w> 555
neu tr 555
confédé ral</w> 555
s me</w> 554
B ow 554
l au 554
ç a</w> 554
ri che</w> 554
cul tiv 554
abor d,</w> 554
différ ente.</w> 554
fru it</w> 554
concrè tement</w> 554
protég és</w> 554
mater n 554
t on 553
G auche</w> 553
ou i 553
al arm 553
vi endra</w> 553
tou jours,</w> 553
l’ agriculture</w> 553
ser ver 553
fai m</w> 553
abor dée</w> 553
anci ennes</w> 553
hé mi 553
14 2</w> 553
réform e.</w> 553
tchè que,</w> 553
Conven tion.</w> 553
psy ch 553
M illénaire</w> 552
ai t-il</w> 552
d’ adhésion</w> 552
man ,</w> 552
proch ain.</w> 552
lo in,</w> 552
spécifi que.</w> 552
extrê me</w> 552
just e,</w> 552
monn ai 552
bru it</w> 552
Pal aci 552
phénom ènes</w> 552
confér ences</w> 552
déploi ement</w> 552
leadershi p</w> 552
é tri 551
" non 551
P rog 551
in s.</w> 551
l’ avis</w> 551
pon dé 551
gar di 551
ess aie</w> 551
mis si 551
oblig e</w> 551
coor donn 551
idéologi e</w> 551
circonscri ption</w> 551
lun di</w> 551
A ussi 550
W all 550
l' essentiel</w> 550
mo t 550
ang le</w> 550
nu tri 550
ba s,</w> 550
liber té.</w> 550
mom ent- 550
enf ant</w> 550
Mal te</w> 550
ax ée</w> 550
concili ation.</w> 550
dési g 550
électri ques</w> 550
Démocr ates- 550
abou ti</w> 550
con vo 549
d' amélioration</w> 549
j' attends</w> 549
assur ant</w> 549
déc embre.</w> 549
Fin lande,</w> 549
milit aire.</w> 549
Chamb re,</w> 549
numér o</w> 549
spect acul 549
Égy pte</w> 549
intérim aire</w> 549
rh ét 549
1 50</w> 548
a j 548
u es,</w> 548
) :</w> 548
si n</w> 548
ag es,</w> 548
for ts</w> 548
dis cours,</w> 548
accep table.</w> 548
exig e 548
déch ets.</w> 548
disponi bles.</w> 548
respectu eux</w> 548
BE I</w> 548
é poque,</w> 547
l' appui</w> 547
di oxyde</w> 547
ca p</w> 547
propo sent</w> 547
oc ar 547
lég èrement</w> 547
exist ante</w> 547
refl éter</w> 547
fra gi 547
applic ation.</w> 547
ho sti 547
octroy er</w> 547
jur is 547
Aussi ,</w> 547
rhét ori 547
S A 546
M au 546
l' électricité</w> 546
av oc 546
att en</w> 546
indi cations</w> 546
signifi erait</w> 546
élev é.</w> 546
mer veill 546
sinc ères</w> 546
ultéri eur 546
is- je</w> 546
O ù</w> 545
L in 545
uni tés</w> 545
nom s</w> 545
rel â 545
adres sée</w> 545
jeun esse</w> 545
préal ables</w> 545
nomm é</w> 545
Jour née</w> 545
è tre</w> 544
ti ré</w> 544
es s</w> 544
dé part,</w> 544
d’ adopter</w> 544
fon der</w> 544
d'in di 544
région al.</w> 544
reç oit</w> 544
illu stre</w> 544
Po ssel 544
pouss er</w> 544
carbur ant</w> 544
l également</w> 543
D im 543
V el 543
si dé 543
d' engagement</w> 543
l’ absence</w> 543
ven ue</w> 543
ment s.</w> 543
voudr ais,</w> 543
l'A sie</w> 543
homm es,</w> 543
Fr ance.</w> 543
impliqu ent</w> 543
accompli .</w> 543
linguis tique</w> 543
elles- mêmes</w> 543
in conditionn 542
d' harmonisation</w> 542
vi de</w> 542
effor cer</w> 542
égar ds,</w> 542
viol ences</w> 542
autoris ée</w> 542
trou bles</w> 542
Litu anie</w> 542
Secré taire</w> 542
d' administration</w> 541
at h 541
ant i</w> 541
trai ent</w> 541
souti enne</w> 541
ay ez</w> 541
cou l 541
effor ts.</w> 541
prati ques,</w> 541
charg és</w> 541
portug ais</w> 541
l'innov ation,</w> 541
d' éliminer</w> 540
str ali 540
mar che</w> 540
proch ainement</w> 540
continu ité</w> 540
volon tiers</w> 540
caractéris tique</w> 540
Hon g</w> 540
parol e,</w> 540
terrorist es.</w> 540
1 0,</w> 539
a w 539
F lor 539
ch ance 539
pré limin 539
d’ ailleurs</w> 539
s' engag 539
l'é car 539
off rant</w> 539
résolu e</w> 539
techni que.</w> 539
pén ales</w> 539
appréci ation</w> 539
radi cale</w> 539
occident ale</w> 539
signal é</w> 539
sauve garder</w> 539
semes tre</w> 539
d' aujourd'hui.</w> 538
dé posées</w> 538
l’ avenir.</w> 538
ces sé</w> 538
avanc és</w> 538
distor sion</w> 538
atoi res.</w> 538
plur alisme</w> 538
a trices</w> 537
N A 537
H aut</w> 537
inter médiaire</w> 537
l'h eure,</w> 537
doi g 537
approuv és</w> 537
victi mes,</w> 537
dossi er.</w> 537
enregistr ement</w> 537
approfondi r</w> 537
Mc C 537
licenci ements</w> 537
équivo que</w> 537
Celu i- 537
l ap 536
ty p 536
grand - 536
compar aison</w> 536
inspec tions</w> 536
lab el</w> 536
S ain 535
tr ilo 535
dévelop pe</w> 535
cit ation</w> 535
fai ll 535
défin ie</w> 535
ga zo 535
accro î 535
constitutionn elles</w> 535
Es pér 535
m aison</w> 534
tr é 534
vo tons</w> 534
entre - 534
lors qu'elles</w> 534
raisonn able.</w> 534
introdui tes</w> 534
Cam bo 534
d'expli quer</w> 534
B re 533
ti ez</w> 533
commun es.</w> 533
gar dant</w> 533
situ e</w> 533
actu elles,</w> 533
heur es,</w> 533
attein tes</w> 533
consac rés</w> 533
indispens ables</w> 533
apparti ennent</w> 533
pari tion</w> 533
poss èdent</w> 533
norm alisation</w> 533
Sin on,</w> 533
P atten</w> 532
is ant</w> 532
con cevoir</w> 532
d’ Europe</w> 532
Eur at 532
rapport s.</w> 532
dou ane</w> 532
région al,</w> 532
spécifi que,</w> 532
(A 6-0 532
dénon cer</w> 532
dégag er</w> 532
G .</w> 531
op oli 531
ré es,</w> 531
d' activité</w> 531
sid a</w> 531
euro s,</w> 531
D' après</w> 531
effectu ées</w> 531
infra ction</w> 531
géographi ques</w> 531
tomb er</w> 531
souffr ances</w> 531
privatis ation</w> 531
Gö te 531
p pe</w> 530
P ouv 530
dé passer</w> 530
d’ énergie</w> 530
un ,</w> 530
L' industrie</w> 530
tur que</w> 530
constitu erait</w> 530
val able</w> 530
génér al 530
fourni s</w> 530
Gouvern ement</w> 530
munici pa 530
v elop 529
pa ram 529
dé tour 529
ap paraître</w> 529
nouve au.</w> 529
cou rir</w> 529
fondament ales.</w> 529
étrang ère.</w> 529
avanc é</w> 529
catastr ophi 529
affec ter</w> 529
Rom e</w> 529
décou le</w> 529
assassin at</w> 529
aph t 529
Ferr er 529
o cu 528
l ance</w> 528
F l 528
ar t 528
l’ amélioration</w> 528
comp tes,</w> 528
administr atifs</w> 528
évolu tions</w> 528
confron tées</w> 528
hor ri 528
mag ni 528
symb ole</w> 528
Bro k</w> 528
persu ader</w> 528
nourri ture</w> 528
Tchétché nie</w> 528
opéra bilité</w> 528
l'infra structure</w> 528
in direc 527
d' opinion</w> 527
ten eur</w> 527
fai ts,</w> 527
déci de</w> 527
internation aux,</w> 527
mutu ellement</w> 527
monop oles</w> 527
contam in 527
rembours ement</w> 527
pr e</w> 526
d' organisations</w> 526
sub stitu 526
cam p</w> 526
approuv ons</w> 526
adap tée</w> 526
intég ra 526
élar ussi 526
/9 7 526
routi ère</w> 526
Mold avie</w> 526
défens eurs</w> 526
plate- forme</w> 526
C res 525
d ess 525
l' importation</w> 525
d' intérê 525
d' entrer</w> 525
emb lement</w> 525
qui étude</w> 525
déf aut 525
senti ments</w> 525
janvi er,</w> 525
diplomati ques</w> 525
résu mé,</w> 525
concréti ser</w> 525
réité rer</w> 525
i t.</w> 524
d'in spec 524
centr ale,</w> 524
détermin é</w> 524
Belgi que,</w> 524
6 5</w> 523
dis simul 523
d'in novation</w> 523
consommat eur.</w> 523
pir ation</w> 523
appréci é</w> 523
secré tariat</w> 523
Celui- ci</w> 523
A 5-0 522
. "</w> 522
si fs</w> 522
pass ent</w> 522
condi tions.</w> 522
aliment aires,</w> 522
sem aine.</w> 522
diminu er</w> 522
préten d</w> 522
figur er</w> 522
addi tionn 522
con viens</w> 521
d' associ 521
d' accélérer</w> 521
d' accueil</w> 521
err eur.</w> 521
rép ète,</w> 521
accessi bles</w> 521
l'ach èvement</w> 521
Birmani e</w> 521
produi t.</w> 520
pres sion.</w> 520
rou te.</w> 520
budgét aires.</w> 520
encourag ement</w> 520
Sy rie</w> 520
(C S)</w> 520
immig rés</w> 520
Espér ons</w> 520
l ement.</w> 519
J' aurais</w> 519
mainten u</w> 519
effica cité,</w> 519
industri el</w> 519
des quels</w> 519
renouv ellement</w> 519
précon ise</w> 519
ficti fs</w> 519
sovié tique</w> 519
Ju sti 519
pesti cides</w> 519
biocarbur ants</w> 519
C ell 518
au cun 518
orient ale.</w> 518
èn e,</w> 518
couv rant</w> 518
d'orig ine,</w> 518
r ance</w> 517
l er,</w> 517
ti mid 517
l' implication</w> 517
re traités</w> 517
ab sor 517
acc éder</w> 517
uti li 517
jus qu</w> 517
ons- le,</w> 517
fisca l</w> 517
danger euse</w> 517
touch é</w> 517
offici elles</w> 517
extérieur es,</w> 517
apparten ant</w> 517
Palesti ne</w> 517
R A 516
pr ess 516
d' adhésion.</w> 516
différ ends</w> 516
Scheng en.</w> 516
La ek 516
foot ball</w> 516
magni fi 516
é mor 515
li e</w> 515
d' am 515
ter res 515
sé cher 515
centr ale.</w> 515
fo ssi 515
Li ban 515
d'empl ois,</w> 515
préfér é</w> 515
A m 514
4 8</w> 514
l oi,</w> 514
pa rit 514
ent u 514
d' op 514
ci - 514
uti le,</w> 514
empl ois,</w> 514
do tée</w> 514
fer mes</w> 514
nor d- 514
étrang ère,</w> 514
va stes</w> 514
révis er</w> 514
famill e,</w> 514
atmos phéri 514
9 6 513
sti pul 513
lu i.</w> 513
mé fi 513
adop té,</w> 513
prot ège</w> 513
Su isse</w> 513
souten ir.</w> 513
d'empl oi,</w> 513
perman ence</w> 513
préten dre</w> 513
douani ère</w> 513
affron ter</w> 513
réchauff ement</w> 513
r o</w> 512
su res</w> 512
pé es</w> 512
import ance,</w> 512
én um 512
L' adoption</w> 512
ba fou 512
pres tation</w> 512
contribu eront</w> 512
attein ts</w> 512
profes sions</w> 512
Trai té,</w> 512
subi r</w> 512
" évaluation</w> 511
ci gar 511
pro vin 511
fi chi 511
alis ation,</w> 511
gé n 511
opér er</w> 511
voi x.</w> 511
s'ag issant</w> 511
l'é tude</w> 511
rapp el</w> 511
prê ter</w> 511
d'é cu 511
défen d</w> 511
concerné s,</w> 511
Scheng en,</w> 511
nul le</w> 511
bill ets</w> 511
Cambo dg 511
E )</w> 510
f ant 510
R .</w> 510
in a</w> 510
in juste</w> 510
d' énergie,</w> 510
pl aide</w> 510
ss e.</w> 510
19 5 510
ologi ques</w> 510
reconn ue</w> 510
sign aux</w> 510
technologi e,</w> 510
atur e,</w> 510
assu rément</w> 510
autor ise</w> 510
a fgh 509
M e 509
y p 509
V it 509
en di 509
l' adaptation</w> 509
su cr 509
du c</w> 509
ét ant,</w> 509
peu t,</w> 509
alis me,</w> 509
uni fication</w> 509
résult at.</w> 509
maj eures</w> 509
agricul teurs.</w> 509
budgét aires,</w> 509
préci pi 509
sous- esti 509
réform e,</w> 509
rassembl er</w> 509
exter nes</w> 509
d'investi r</w> 509
A ll 508
r alli 508
tr ente</w> 508
op èrent</w> 508
d' apprendre</w> 508
pré val 508
l’ approche</w> 508
cl aire,</w> 508
trai tés.</w> 508
produi t,</w> 508
19 6 508
pe ines</w> 508
avant - 508
intég rés</w> 508
complément aires</w> 508
restau rer</w> 508
ministéri elle</w> 508
Wal d 508
n ett 507
H aut 507
au rer</w> 507
pro jet,</w> 507
pro duise</w> 507
co s 507
abor d</w> 507
diffici les.</w> 507
lanc ée</w> 507
précéd ent.</w> 507
souff ert</w> 507
réfugi és,</w> 507
rend ant</w> 507
Pro di,</w> 507
tari fs</w> 507
compati bilité</w> 507
famili ale</w> 507
monop ole</w> 507
souscri s</w> 507
primordi al</w> 507
Afghanist an</w> 507
redev ances</w> 507
l'interpré tation</w> 507
K h 506
on g 506
ai ent,</w> 506
ré clame</w> 506
l’ accent</w> 506
sé es.</w> 506
voi ture</w> 506
do g 506
moi .</w> 506
étrang e</w> 506
préci sion</w> 506
visi ble</w> 506
group es,</w> 506
l'aut on 506
législati f.</w> 506
Tuni sie</w> 506
ran g</w> 506
a h</w> 505
d et 505
im pulsion</w> 505
pouv oir.</w> 505
organis ée.</w> 505
fo is- 505
Au x</w> 505
rapi dité</w> 505
Ira k,</w> 505
propag ation</w> 505
faibl esse</w> 505
A in 504
l and</w> 504
for te,</w> 504
l’ autre</w> 504
mani ère.</w> 504
pass ons</w> 504
Ch ar 504
rapid e.</w> 504
qualifi é</w> 504
exac er 504
diplomati e</w> 504
Pé k 504
Cell es-ci</w> 504
T cher 503
qu at 503
pa vill 503
d' E 503
par viennent</w> 503
ap port 503
voi e,</w> 503
trouv ée</w> 503
glob alement</w> 503
logi ci 503
Chypr e.</w> 503
davant age.</w> 503
no by 502
ell ,</w> 502
hu i 502
positi ve,</w> 502
appropri ées.</w> 502
just e.</w> 502
Tr ans 502
14 2)</w> 502
bio diversi 502
jeun esse,</w> 502
far deau</w> 502
atmos phère</w> 502
P ,</w> 501
P et 501
K )</w> 501
ou est</w> 501
pré matu 501
so l</w> 501
n’ ai</w> 501
volon taires</w> 501
transpar ent</w> 501
loc ales.</w> 501
lour ds</w> 501
/9 8 501
um .</w> 501
revê tent</w> 501
aler te</w> 501
3 5 500
n ette</w> 500
( Démocrates- 500
l' année.</w> 500
l' eau,</w> 500
co difi 500
seu lement,</w> 500
supplément aires,</w> 500
jug és</w> 500
exces sivement</w> 500
carbur ants</w> 500
dépens é</w> 500
Démocr ates</w> 500
éc ras 500
mém oire</w> 500
D avi 499
R ü 499
è res 499
J ar 499
l' opportunité</w> 499
oi res.</w> 499
re cul 499
co existence</w> 499
memb res 499
min eurs</w> 499
obj ections</w> 499
arri ère</w> 499
sus pec 499
Li ban</w> 499
traditionn elles</w> 499
Méditerran ée,</w> 499
traver se</w> 499
connexi on</w> 499
répu tation</w> 499
pénu rie</w> 499
grati tude</w> 499
proxim ité</w> 499
b all 498
an a</w> 498
es ".</w> 498
oi gn 498
sé e,</w> 498
signifi cation</w> 498
sensi bilité</w> 498
parven ir.</w> 498
sach ant</w> 498
s phère</w> 497
ap pauv 497
d’ information</w> 497
sor te,</w> 497
grav e,</w> 497
introdui te</w> 497
allou é</w> 497
discussi on.</w> 497
A y 496
g am 496
H eur 496
im migration</w> 496
ress enti 496
Ch ac 496
examin era</w> 496
réserv é</w> 496
a oût</w> 495
l' autom 495
dé cess 495
at ou 495
pré décess 495
né fa 495
ser ez</w> 495
pu is,</w> 495
rec ouv 495
gl et 495
l'UE M</w> 495
souv enir</w> 495
vrai ,</w> 495
environnement ales.</w> 495
associ é</w> 495
industri elles</w> 495
infra structure</w> 495
br è 495
d'investiss ements</w> 495
l'Ir lande,</w> 495
9 8</w> 494
ex posés</w> 494
im posée</w> 494
cl os.</w> 494
ad ressé</w> 494
enti tés</w> 494
dés avantag 494
justifi é</w> 494
recue illi 494
l' urgence</w> 493
ré agi</w> 493
lu s 493
20 ,</w> 493
trans fé 493
solu tion,</w> 493
soi t.</w> 493
équi pes</w> 493
conséqu ence.</w> 493
inform ations,</w> 493
abili té,</w> 493
milit aire,</w> 493
développé es</w> 493
l'Itali e,</w> 493
SI S</w> 493
8 5</w> 492
H aï 492
ai m 492
vo te)</w> 492
contr ac 492
fa ssions</w> 492
ba sées</w> 492
ph ot 492
visi bilité</w> 492
vers ement</w> 492
conver sion</w> 492
légi férer</w> 492
Déclar ation</w> 492
finland aise</w> 492
contam ination</w> 492
usin es</w> 492
Tcher noby 492
n s</w> 491
tou ff 491
sou terr 491
gé ,</w> 491
mati que.</w> 491
pris ons</w> 491
équi table,</w> 491
m' exprimer</w> 491
hau ts</w> 491
journ aux</w> 491
modern iser</w> 491
biologi que</w> 491
Autri che</w> 491
lic ences</w> 491
A ra 490
s cepti 490
c élè 490
qu er 490
fi able</w> 490
bi r 490
d’ en</w> 490
te :</w> 490
bli n</w> 490
s’ en</w> 490
intégr ation.</w> 490
réglement ation,</w> 490
extéri eure.</w> 490
multi ples</w> 490
immédi at</w> 490
exclu sion</w> 490
navi re</w> 490
fourn issant</w> 490
II ,</w> 490
minori tés,</w> 490
oppos ants</w> 490
déséqui libres</w> 490
d'inst aurer</w> 490
s u</w> 489
s ai 489
s aurait</w> 489
di on 489
ra .</w> 489
hi li 489
activi tés.</w> 489
adap tées</w> 489
voisin s,</w> 489
éten du</w> 489
lac un 489
avri l,</w> 489
consul té</w> 489
diversi fication</w> 489
néerland aise</w> 489
Kyot o.</w> 489
s'effor ce</w> 489
Lond res</w> 489
dess ous</w> 489
d on</w> 488
ä n 488
ni ,</w> 488
né e.</w> 488
l’ information</w> 488
dis ait</w> 488
cor rig 488
signifi er</w> 488
méri dion 488
exist ait</w> 488
arm ées</w> 488
cen sure</w> 488
exer cée</w> 488
juill et,</w> 488
princip e.</w> 488
scand ale</w> 488
tis ation</w> 488
Chamb re</w> 488
tragi ques</w> 488
nul lement</w> 488
éman ant</w> 488
servir a</w> 488
er a.</w> 487
parti es,</w> 487
appro che.</w> 487
d'in stitu 487
demand er,</w> 487
aff aire,</w> 487
véri té,</w> 487
Au torité</w> 487
afric ains</w> 487
acces sible</w> 487
commencer ai</w> 487
ek - 487
délibé rément</w> 487
C as 486
3 )</w> 486
d resser</w> 486
T I 486
op posé 486
tu e</w> 486
dis e</w> 486
form ation.</w> 486
s- nous</w> 486
ir ont</w> 486
orient ale,</w> 486
No ë 486
correc tement.</w> 486
exclu s</w> 486
Pu is 486
d ot 485
y me</w> 485
d' enquê 485
comp tes.</w> 485
atten du</w> 485
produi tes</w> 485
financ ements</w> 485
l'im munité</w> 485
tabl ement,</w> 485
ty pi 485
poursui vent</w> 485
o- Wald 485
définiti f</w> 485
polici ère</w> 485
entrepren eurs</w> 485
Verts/AL E.</w> 485
Ferrer o-Wald 485
S omali 484
ré alités</w> 484
ré affirmer</w> 484
prog ressé</w> 484
spéci aux</w> 484
collègu es.</w> 484
l'O I 484
séri eux,</w> 484
l'In tern 484
enregistr é</w> 484
touris me.</w> 484
Du blin</w> 484
passi onn 484
musul man 484
Mand el 484
no té</w> 483
l’ environnement.</w> 483
cour t 483
œuv rer</w> 483
l'O LAF</w> 483
affi ch 483
expli cite</w> 483
ban anes</w> 483
es- nous</w> 483
condui ra</w> 483
d'empl oi.</w> 483
appar u</w> 483
mesur er</w> 483
lang age</w> 483
désar mement</w> 483
E ras 482
P ren 482
ti en</w> 482
pr esse,</w> 482
or s,</w> 482
alis ation.</w> 482
uni r</w> 482
lég al</w> 482
gar anti</w> 482
enn em 482
program mes.</w> 482
jou issent</w> 482
accep tée</w> 482
essenti elle.</w> 482
initi al</w> 482
clari fication</w> 482
poursui tes</w> 482
attribu er</w> 482
vend redi</w> 482
islami que</w> 482
Ham as</w> 482
coali tion</w> 482
O om 481
M ed 481
P en 481
con fon 481
ot age</w> 481
do té</w> 481
effor ts,</w> 481
fourni e</w> 481
des quelles</w> 481
laiss ant</w> 481
oubli é</w> 481
eux- mêmes,</w> 481
détru it</w> 481
fréqu emment</w> 481
rejoin t</w> 481
b elle</w> 480
t op 480
d' activités</w> 480
com posé</w> 480
ces sez- 480
accor dées</w> 480
j' entends</w> 480
car tes</w> 480
cli n</w> 480
satis faisant</w> 480
ing rédi 480
des truc 480
individu elles</w> 480
dipl ô 480
honn ête</w> 480
poss é 480
sauve gar 480
univers elle</w> 480
incit ations</w> 480
ser tion</w> 479
ju in.</w> 479
voi ci</w> 479
docu ment,</w> 479
ing .</w> 479
D' où</w> 479
référ ence.</w> 479
sav oir 479
Copenhag ue,</w> 479
soul ag 479
aéropor t</w> 479
chyprio te</w> 479
g el</w> 478
l’ ouverture</w> 478
particuli èrement,</w> 478
élev é,</w> 478
réflexi ons</w> 478
bloc age</w> 478
Solan a</w> 478
in o</w> 477
au rez</w> 477
con çu</w> 477
par ent 477
cr ates</w> 477
alis ée</w> 477
cou pes</w> 477
Nor v 477
bre fs</w> 477
Se con 477
(H U)</w> 477
s ois</w> 476
b el</w> 476
pris es.</w> 476
fav eur.</w> 476
idé al</w> 476
inst ances</w> 476
appel ée</w> 476
hongr ois</w> 476
l' économie,</w> 475
s' inqui 475
fai lle</w> 475
géné rer</w> 475
Ch in 475
att age</w> 475
exig eant</w> 475
Qu els</w> 475
exis ter</w> 475
affec tés</w> 475
br û 475
israéli en</w> 475
ACP .</w> 475
équival ent</w> 475
l'Espagn e,</w> 475
cessez- le- 475
3 2</w> 474
m ans</w> 474
m énag 474
or tement</w> 474
accor dent</w> 474
hu i,</w> 474
alis tes,</w> 474
ill au 474
cli ents</w> 474
har cè 474
reconnaiss ent</w> 474
um s</w> 474
peupl e,</w> 474
préven tion,</w> 474
criti qué</w> 474
EC H 474
v œ 473
fi r 473
ement :</w> 473
dis paraî 473
sect eurs,</w> 473
cô te</w> 473
exist antes.</w> 473
dimen sions</w> 473
supéri eure</w> 473
grec que</w> 473
auton omie</w> 473
PSE ,</w> 473
nett oy 473
é mettre</w> 472
E L)</w> 472
is sions</w> 472
d' attendre</w> 472
dé part.</w> 472
fi li 472
différ entes,</w> 472
att u</w> 472
Uni on.</w> 472
l'industr ie.</w> 472
recommand er</w> 472
évolu er</w> 472
empê ché</w> 472
minim ale</w> 472
consent ement</w> 472
1 1,</w> 471
ai mé</w> 471
d' harmoniser</w> 471
co décision.</w> 471
air ,</w> 471
remar qué</w> 471
d'A frique</w> 471
autoris ées</w> 471
confir m 471
éthi ques</w> 471
isol ement</w> 471
log ement</w> 471
après-mi di,</w> 471
traç abilité</w> 471
o st 470
ur ani 470
entr é</w> 470
développ ée</w> 470
possi bles.</w> 470
conn ex 470
d'ex ploitation</w> 470
th è 470
rejet ons</w> 470
offici el</w> 470
profon des</w> 470
histori que.</w> 470
sugg érer</w> 470
norm alement</w> 470
atoi res,</w> 470
A h 469
vi sion.</w> 469
inter dic 469
cré ati 469
lo gis 469
l'In stitut</w> 469
PPE- DE,</w> 469
accueill i</w> 469
renvoy er</w> 469
marqu age</w> 469
corrup tion,</w> 469
i tes</w> 468
ti f</w> 468
publi quement</w> 468
cé der</w> 468
utilis ons</w> 468
ba s.</w> 468
l'O b 468
intégr ation,</w> 468
positi fs.</w> 468
examin ées</w> 468
industri elle,</w> 468
estim ations</w> 468
bat tre</w> 468
bureaucrati que</w> 468
Bulgar ie,</w> 468
tis me</w> 468
unilat érale</w> 468
Ru ij 468
projet s,</w> 468
cinqu ante</w> 468
dé ri 467
cré és</w> 467
ram me</w> 467
dépu té,</w> 467
vé cu</w> 467
regr et</w> 467
dro gu 467
provo quer</w> 467
satisfais ante.</w> 467
discipl in 467
diss ement</w> 467
allu sion</w> 467
con texte.</w> 466
dé e,</w> 466
né e,</w> 466
gu i 466
èr ement.</w> 466
all ez</w> 466
voi sin</w> 466
d'in sist 466
empê chent</w> 466
manifes té</w> 466
qualifi és</w> 466
signific atifs</w> 466
entraîn erait</w> 466
(F I)</w> 466
réces sion</w> 466
démarch es</w> 466
C oll 465
o di 465
S ous</w> 465
J un 465
fin al,</w> 465
peu ,</w> 465
abor d 465
centr alisation</w> 465
rou te,</w> 465
technologi e.</w> 465
préci euse</w> 465
considéra ble.</w> 465
Deuxi ème</w> 465
Ir lande.</w> 465
Grè ce.</w> 465
d'inter dire</w> 465
performan ces</w> 465
enfre in 465
g esti 464
dé clin</w> 464
ag in 464
lib érale</w> 464
mani ères</w> 464
trai tés,</w> 464
nomb rables</w> 464
Ch ers</w> 464
voy ages</w> 464
environnement ale,</w> 464
inscri ts</w> 464
spec tre</w> 464
hom olo 464
devri ez</w> 464
devri ons-nous</w> 464
Liby e</w> 464
angul aire</w> 464
N a 463
v au 463
tr es.</w> 463
dé passé</w> 463
jam ais,</w> 463
extéri eurs</w> 463
Isra éli 463
tol érer</w> 463
éco ss 463
Heur eusement,</w> 463
s omb 462
C eux- 462
S har 462
f e</w> 462
P H 462
vi sion,</w> 462
d’ aide</w> 462
prog ress 462
limi tées</w> 462
natur elle</w> 462
territ oire.</w> 462
éventu els</w> 462
espè ce</w> 462
requ ises</w> 462
biologi ques</w> 462
famill e.</w> 462
faibl esses</w> 462
protectionn isme</w> 462
2000 - 462
d'urg ence,</w> 462
tr es,</w> 461
re fon 461
pour suivi</w> 461
concer t</w> 461
comp tent</w> 461
sup porter</w> 461
mom ents</w> 461
industri e,</w> 461
sug gé 461
lour de</w> 461
entret enir</w> 461
d'asi le.</w> 461
t o</w> 460
P ri 460
qu e:</w> 460
mi eux.</w> 460
amélior era</w> 460
sus citer</w> 460
moder nes</w> 460
pertin ente</w> 460
contre façon</w> 460
commencer ,</w> 460
pes er</w> 460
Bus h</w> 460
scandal eux</w> 460
lit tér 460
k ach 459
l’ ON 459
correc t</w> 459
interrom pu 459
G on 458
pr endre.</w> 458
l' adhésion.</w> 458
l’ éducation</w> 458
alis ées</w> 458
souti endrons</w> 458
appli cations</w> 458
organis ées</w> 458
abili té.</w> 458
profi tent</w> 458
stratégi e.</w> 458
souten us</w> 458
défini tions</w> 458
profon d</w> 458
convi endrait</w> 458
PPE ,</w> 458
requ is</w> 458
privil ège</w> 458
Vit or 458
C oh 457
w and 457
l’ impact</w> 457
commun es,</w> 457
fer me 457
ach ar 457
élev és.</w> 457
nuclé aires,</w> 457
Roumani e.</w> 457
décl en 457
Ver ts,</w> 457
ber cul 457
intéres sés</w> 457
Hi er,</w> 457
rassur er</w> 457
décid eurs</w> 457
Chac un</w> 457
l èvement</w> 456
J éru 456
en droit</w> 456
val eurs,</w> 456
l'O ffice</w> 456
sembl erait</w> 456
ajou té</w> 456
contin u</w> 456
invi tés</w> 456
invi tons</w> 456
judici aire,</w> 456
acqu ise</w> 456
rur ales.</w> 456
intérieur es.</w> 456
écar t</w> 456
texti les</w> 456
médec ins</w> 456
l'accep tation</w> 456
indubi tablement</w> 456
Jéru sal 456
- delà</w> 455
J eux</w> 455
d' ailleurs,</w> 455
air .</w> 455
s' impos 455
L' autre</w> 455
program mes,</w> 455
accep tés</w> 455
199 6.</w> 455
génér ale.</w> 455
pag es</w> 455
rapid e,</w> 455
étr oit</w> 455
bri ll 455
sugg ér 455
Verheug en</w> 455
l'écar t</w> 455
e able</w> 454
3 8 454
N ouv 454
K ur 454
su prê 454
ver ts</w> 454
199 7.</w> 454
ajou t</w> 454
professionn elle,</w> 454
éventu el</w> 454
mariti me.</w> 454
certi fi 454
terri bles</w> 454
mesur e.</w> 454
l'innov ation.</w> 454
dégra dation</w> 454
sous-ten d</w> 454
perform ance</w> 454
Wall strö 454
ca ch 453
d’ origine</w> 453
él o 453
accor dant</w> 453
lég ales</w> 453
inci dent</w> 453
s'ag it,</w> 453
parven ir,</w> 453
construc teurs</w> 453
Balk ans.</w> 453
ent- elles</w> 453
pourrai t-il</w> 453
offer te</w> 453
clon age</w> 453
accord- cadre</w> 453
kach enk 453
B ang 452
vi enne</w> 452
ag h 452
soci al 452
cour se</w> 452
voi x,</w> 452
juridi ques.</w> 452
Car aï 452
écologi ques</w> 452
l'ag ence</w> 452
r oi 451
b et 451
h ect 451
l' embargo</w> 451
d' exiger</w> 451
sé s,</w> 451
ér o 451
s'ag ira</w> 451
pass e.</w> 451
fu sion</w> 451
financ ées</w> 451
jeu ,</w> 451
sol enn 451
harmon i 451
intéress ante</w> 451
majori té.</w> 451
incontes tablement</w> 451
C 4-0 450
2 6 450
a tr 450
S es</w> 450
( vote)</w> 450
l' économie.</w> 450
s' était</w> 450
ress ent 450
tro ï 450
respec tés</w> 450
dépu tée</w> 450
s’ av 450
interven tion.</w> 450
socialis te,</w> 450
insist ons</w> 450
vie ille</w> 450
longu ement</w> 450
Soud an</w> 450
d' ég 449
ég ul 449
ill ez</w> 449
nu ire</w> 449
jou ets</w> 449
voul aient</w> 449
atur e.</w> 449
ajou terai</w> 449
mand at.</w> 449
bo î 449
chapi tres</w> 449
persu ad 449
B r 448
at s- 448
bl â 448
te -t-il</w> 448
résult ats,</w> 448
d'inform er</w> 448
proposé ,</w> 448
juris prudence</w> 448
Coh n 448
a y</w> 447
  %</w> 447
in hér 447
par all 447
for cer</w> 447
gé opoli 447
sy non 447
conf ère</w> 447
exist ants.</w> 447
hon te</w> 447
pir at 447
An née</w> 447
distribu é.</w> 447
journ al</w> 447
Balk ans,</w> 447
S' agissant</w> 447
gri ppe</w> 447
milit aires.</w> 447
s'av érer</w> 447
we ek- 447
sap er</w> 447
cab illau 447
2 8 446
ré habili 446
ci ble</w> 446
po que.</w> 446
per ception</w> 446
obj ection</w> 446
déci sions,</w> 446
atten tion,</w> 446
dialo gue,</w> 446
vé nie</w> 446
adap té</w> 446
Mar oc 446
influ encer</w> 446
entraîn ent</w> 446
légi fér 446
Slo vénie</w> 446
fac ul 446
s'op pose</w> 446
stu pé 446
Monténég ro</w> 446
d'insist er</w> 446
t aient</w> 445
z emb 445
is ons</w> 445
ave z-vous</w> 445
s'ag ir</w> 445
jou era</w> 445
car rière</w> 445
Li ik 445
II I</w> 445
mai .</w> 445
clandesti ne</w> 445
Lou kachenk 445
Cauca se</w> 445
mercu re</w> 445
Liik an 445
b y</w> 444
M ari 444
N S 444
z á 444
es t.</w> 444
l' espér 444
cer cle</w> 444
soci alement</w> 444
représent é</w> 444
environnement ales,</w> 444
peupl es.</w> 444
déplac er</w> 444
entrav e</w> 444
spécul ation</w> 444
For um</w> 444
Schul z</w> 444
Jar zemb 444
Ceux- ci</w> 444
n e 443
k e 443
G e 443
im min 443
ad mis</w> 443
abor der 443
ir réalis 443
représent ante</w> 443
exig eons</w> 443
oblig é</w> 443
discrimin ations</w> 443
dirig é</w> 443
précéd entes</w> 443
appell ent</w> 443
papi er</w> 443
sent ent</w> 443
diri ger</w> 443
Jarzemb owsk 443
b élarussi 442
t ements</w> 442
dé courag 442
ac tion,</w> 442
tu bercul 442
per pé 442
oci ation</w> 442
s' exprim 442
personn e,</w> 442
ba ssi 442
fix ée</w> 442
jam ais.</w> 442
ambiti eux.</w> 442
Re h 442
(CO M 442
Cohn -B 442
s ",</w> 441
d a</w> 441
d olé 441
es clav 441
l' être</w> 441
ch ,</w> 441
L' aide</w> 441
mor al</w> 441
har d 441
des su 441
sex es</w> 441
débattu e</w> 441
biom étri 441
quasi - 441
Sak har 441
B our 440
c œur 440
F e 440
V ar 440
ti ,</w> 440
d' importants</w> 440
comm émor 440
qu' aujourd'hui,</w> 440
pu re</w> 440
form ellement</w> 440
urg ence.</w> 440
législati f,</w> 440
quit té</w> 440
excu se</w> 440
comit ologi 440
s an</w> 439
9 6</w> 439
veill ant</w> 439
dialo gue.</w> 439
larg e,</w> 439
Re d 439
inuti les</w> 439
extrémis tes</w> 439
fichi er</w> 439
t om 438
F O 438
y r 438
P l 438
dé ser 438
onn aires</w> 438
aut eur.</w> 438
l'A c 438
l'im position</w> 438
diffici les,</w> 438
déc ouvert</w> 438
sembl ait</w> 438
condam nés</w> 438
refu sent</w> 438
Tr ès</w> 438
priori té,</w> 438
peupl es,</w> 438
Main ten 438
excé d 438
velop pe</w> 438
ferme té</w> 438
" éducation</w> 437
ar isation</w> 437
par vient</w> 437
sui vent</w> 437
be au</w> 437
puis -je</w> 437
d'ex portation</w> 437
religi eux</w> 437
raisonn ables</w> 437
Du bl 437
Belar us.</w> 437
Danemar k,</w> 437
l'hy po 437
b aign 436
é mo 436
S h 436
P e 436
ar me</w> 436
ch es 436
entr era</w> 436
de - 436
lut tent</w> 436
group es.</w> 436
contrôl ée</w> 436
franç aise,</w> 436
sex e</w> 436
complex e.</w> 436
Hongri e,</w> 436
autonom e</w> 436
présidenti elles</w> 436
ambiguï té</w> 436
Galile o</w> 436
s cru 435
6 00</w> 435
p èse</w> 435
fi ers</w> 435
j' apprécie</w> 435
serv i</w> 435
sembl er</w> 435
natur elles,</w> 435
Ir an.</w> 435
/200 1)</w> 435
cherch é</w> 435
reconnu s</w> 435
apparten ance</w> 435
d'Amsterdam .</w> 435
accom pagne</w> 435
amendement   435
5 5</w> 434
C A 434
t acti 434
pr endront</w> 434
l' asile</w> 434
d' assumer</w> 434
abor dées</w> 434
pouv ant 434
do s</w> 434
proch ain,</w> 434
reti ré</w> 434
[...]
